{
  "version": "1.0",
  "truncation": null,
  "padding": null,
  "added_tokens": [
    {
      "id": 0,
      "content": "<PAD>",
      "single_word": false,
      "lstrip": false,
      "rstrip": false,
      "normalized": false,
      "special": true
    },
    {
      "id": 1,
      "content": "<UNK>",
      "single_word": false,
      "lstrip": false,
      "rstrip": false,
      "normalized": false,
      "special": true
    },
    {
      "id": 2,
      "content": "<CLS>",
      "single_word": false,
      "lstrip": false,
      "rstrip": false,
      "normalized": false,
      "special": true
    },
    {
      "id": 3,
      "content": "<SEP>",
      "single_word": false,
      "lstrip": false,
      "rstrip": false,
      "normalized": false,
      "special": true
    },
    {
      "id": 4,
      "content": "<MASK>",
      "single_word": false,
      "lstrip": false,
      "rstrip": false,
      "normalized": false,
      "special": true
    }
  ],
  "normalizer": null,
  "pre_tokenizer": {
    "type": "Whitespace"
  },
  "post_processor": null,
  "decoder": {
    "type": "WordPiece",
    "prefix": "##",
    "cleanup": true
  },
  "model": {
    "type": "BPE",
    "dropout": null,
    "unk_token": "<UNK>",
    "continuing_subword_prefix": null,
    "end_of_word_suffix": null,
    "fuse_unk": false,
    "byte_fallback": false,
    "ignore_merges": false,
    "vocab": {
      "<PAD>": 0,
      "<UNK>": 1,
      "<CLS>": 2,
      "<SEP>": 3,
      "<MASK>": 4,
      "!": 5,
      "\"": 6,
      "#": 7,
      "$": 8,
      "%": 9,
      "'": 10,
      "(": 11,
      ")": 12,
      "*": 13,
      "+": 14,
      ",": 15,
      "-": 16,
      ".": 17,
      "/": 18,
      "0": 19,
      "1": 20,
      "2": 21,
      "3": 22,
      "4": 23,
      "5": 24,
      "6": 25,
      "7": 26,
      "8": 27,
      "9": 28,
      ":": 29,
      ";": 30,
      "=": 31,
      "?": 32,
      "@": 33,
      "A": 34,
      "B": 35,
      "C": 36,
      "D": 37,
      "E": 38,
      "F": 39,
      "G": 40,
      "H": 41,
      "I": 42,
      "J": 43,
      "K": 44,
      "L": 45,
      "M": 46,
      "N": 47,
      "O": 48,
      "P": 49,
      "Q": 50,
      "R": 51,
      "S": 52,
      "T": 53,
      "U": 54,
      "V": 55,
      "W": 56,
      "X": 57,
      "Y": 58,
      "Z": 59,
      "[": 60,
      "\\": 61,
      "]": 62,
      "^": 63,
      "_": 64,
      "`": 65,
      "a": 66,
      "b": 67,
      "c": 68,
      "d": 69,
      "e": 70,
      "f": 71,
      "g": 72,
      "h": 73,
      "i": 74,
      "j": 75,
      "k": 76,
      "l": 77,
      "m": 78,
      "n": 79,
      "o": 80,
      "p": 81,
      "q": 82,
      "r": 83,
      "s": 84,
      "t": 85,
      "u": 86,
      "v": 87,
      "w": 88,
      "x": 89,
      "y": 90,
      "z": 91,
      "{": 92,
      "|": 93,
      "}": 94,
      "~": 95,
      "": 96,
      "": 97,
      "": 98,
      "": 99,
      "": 100,
      "": 101,
      "": 102,
      "": 103,
      "": 104,
      "": 105,
      "": 106,
      "": 107,
      "": 108,
      "": 109,
      "": 110,
      "": 111,
      "": 112,
      "": 113,
      "¡": 114,
      "¢": 115,
      "£": 116,
      "¤": 117,
      "¥": 118,
      "¦": 119,
      "§": 120,
      "¨": 121,
      "©": 122,
      "ª": 123,
      "¬": 124,
      "­": 125,
      "®": 126,
      "¯": 127,
      "°": 128,
      "±": 129,
      "²": 130,
      "³": 131,
      "´": 132,
      "µ": 133,
      "¶": 134,
      "·": 135,
      "¹": 136,
      "º": 137,
      "¼": 138,
      "½": 139,
      "¾": 140,
      "¿": 141,
      "À": 142,
      "Á": 143,
      "Â": 144,
      "Ã": 145,
      "È": 146,
      "É": 147,
      "Ê": 148,
      "Í": 149,
      "Ï": 150,
      "Ñ": 151,
      "Ò": 152,
      "Ó": 153,
      "Ô": 154,
      "Ö": 155,
      "×": 156,
      "Ú": 157,
      "Ý": 158,
      "ß": 159,
      "à": 160,
      "á": 161,
      "â": 162,
      "ã": 163,
      "ä": 164,
      "å": 165,
      "æ": 166,
      "ç": 167,
      "è": 168,
      "é": 169,
      "ê": 170,
      "ë": 171,
      "ì": 172,
      "í": 173,
      "î": 174,
      "ï": 175,
      "ð": 176,
      "ñ": 177,
      "ò": 178,
      "ó": 179,
      "ô": 180,
      "õ": 181,
      "ö": 182,
      "÷": 183,
      "ø": 184,
      "ù": 185,
      "ú": 186,
      "û": 187,
      "ü": 188,
      "ý": 189,
      "þ": 190,
      "ÿ": 191,
      "ă": 192,
      "ć": 193,
      "č": 194,
      "ď": 195,
      "Đ": 196,
      "đ": 197,
      "ě": 198,
      "ī": 199,
      "İ": 200,
      "ı": 201,
      "ł": 202,
      "ń": 203,
      "ő": 204,
      "œ": 205,
      "ş": 206,
      "š": 207,
      "ť": 208,
      "ũ": 209,
      "ź": 210,
      "ž": 211,
      "ơ": 212,
      "ư": 213,
      "ǻ": 214,
      "˜": 215,
      "̥": 216,
      "̶": 217,
      "΄": 218,
      "Ώ": 219,
      "Α": 220,
      "Η": 221,
      "Ν": 222,
      "Τ": 223,
      "Υ": 224,
      "ή": 225,
      "β": 226,
      "ε": 227,
      "η": 228,
      "κ": 229,
      "μ": 230,
      "ν": 231,
      "ο": 232,
      "π": 233,
      "ρ": 234,
      "τ": 235,
      "υ": 236,
      "А": 237,
      "В": 238,
      "О": 239,
      "Т": 240,
      "а": 241,
      "в": 242,
      "е": 243,
      "з": 244,
      "и": 245,
      "й": 246,
      "м": 247,
      "н": 248,
      "о": 249,
      "п": 250,
      "р": 251,
      "с": 252,
      "т": 253,
      "у": 254,
      "х": 255,
      "є": 256,
      "ل": 257,
      "م": 258,
      "و": 259,
      "ى": 260,
      "ڑ": 261,
      "ạ": 262,
      "ả": 263,
      "ấ": 264,
      "ầ": 265,
      "ậ": 266,
      "ắ": 267,
      "ặ": 268,
      "ẽ": 269,
      "ế": 270,
      "ề": 271,
      "ể": 272,
      "ễ": 273,
      "ệ": 274,
      "ỉ": 275,
      "ị": 276,
      "ọ": 277,
      "ỏ": 278,
      "ố": 279,
      "ồ": 280,
      "ổ": 281,
      "ộ": 282,
      "ớ": 283,
      "ờ": 284,
      "ở": 285,
      "ỡ": 286,
      "ợ": 287,
      "ủ": 288,
      "ứ": 289,
      "ữ": 290,
      "ự": 291,
      "​": 292,
      "‎": 293,
      "‐": 294,
      "‒": 295,
      "–": 296,
      "—": 297,
      "―": 298,
      "‚": 299,
      "•": 300,
      "‫": 301,
      "‬": 302,
      "‭": 303,
      "‰": 304,
      "€": 305,
      "™": 306,
      "─": 307,
      "★": 308,
      "☆": 309,
      "♪": 310,
      "♫": 311,
      "嫕": 312,
      "炄": 313,
      "ﬁ": 314,
      "ﬂ": 315,
      "﻿": 316,
      "￡": 317,
      "�": 318,
      "th": 319,
      "er": 320,
      "an": 321,
      "in": 322,
      "es": 323,
      "ar": 324,
      "en": 325,
      "ou": 326,
      "as": 327,
      "or": 328,
      "to": 329,
      "de": 330,
      "on": 331,
      "qu": 332,
      "..": 333,
      "os": 334,
      "is": 335,
      "the": 336,
      "al": 337,
      "at": 338,
      "do": 339,
      "re": 340,
      "se": 341,
      "que": 342,
      "om": 343,
      "te": 344,
      "le": 345,
      "am": 346,
      "ing": 347,
      "and": 348,
      "um": 349,
      "ão": 350,
      "...": 351,
      "it": 352,
      "da": 353,
      "you": 354,
      "ve": 355,
      "of": 356,
      "ic": 357,
      "me": 358,
      "be": 359,
      "tr": 360,
      "he": 361,
      "com": 362,
      "no": 363,
      "ir": 364,
      "ha": 365,
      "ac": 366,
      "em": 367,
      "par": 368,
      "pr": 369,
      "est": 370,
      "il": 371,
      "ia": 372,
      "im": 373,
      "ent": 374,
      "so": 375,
      "el": 376,
      "us": 377,
      "oc": 378,
      "ho": 379,
      "ver": 380,
      "ed": 381,
      "for": 382,
      "that": 383,
      "un": 384,
      "ig": 385,
      "con": 386,
      "ma": 387,
      "po": 388,
      "ta": 389,
      "di": 390,
      "ter": 391,
      "para": 392,
      "sa": 393,
      "ur": 394,
      "ol": 395,
      "ut": 396,
      "li": 397,
      "por": 398,
      "wh": 399,
      "não": 400,
      "ca": 401,
      "su": 402,
      "ch": 403,
      "go": 404,
      "ere": 405,
      "uma": 406,
      "ocê": 407,
      "ad": 408,
      "pe": 409,
      "lo": 410,
      "ando": 411,
      "ra": 412,
      "ri": 413,
      "st": 414,
      "ce": 415,
      "na": 416,
      "per": 417,
      "você": 418,
      "all": 419,
      "ti": 420,
      "ke": 421,
      "ab": 422,
      "we": 423,
      "ul": 424,
      "vi": 425,
      "ld": 426,
      "ge": 427,
      "eu": 428,
      "ith": 429,
      "va": 430,
      "ci": 431,
      "ne": 432,
      "ente": 433,
      "co": 434,
      "out": 435,
      "was": 436,
      "with": 437,
      "ro": 438,
      "des": 439,
      "ant": 440,
      "der": 441,
      "la": 442,
      "fe": 443,
      "mas": 444,
      "gu": 445,
      "one": 446,
      "ion": 447,
      "ht": 448,
      "ag": 449,
      "ex": 450,
      "fr": 451,
      "ly": 452,
      "ome": 453,
      "now": 454,
      "my": 455,
      "dos": 456,
      "ould": 457,
      "your": 458,
      "fa": 459,
      "ess": 460,
      "this": 461,
      "have": 462,
      "but": 463,
      "pa": 464,
      "if": 465,
      "tem": 466,
      "pro": 467,
      "ser": 468,
      "ill": 469,
      "ele": 470,
      "man": 471,
      "ção": 472,
      "car": 473,
      "mo": 474,
      "pre": 475,
      "id": 476,
      "his": 477,
      "ight": 478,
      "her": 479,
      "ther": 480,
      "bo": 481,
      "min": 482,
      "can": 483,
      "pos": 484,
      "pen": 485,
      "ll": 486,
      "our": 487,
      "ass": 488,
      "pl": 489,
      "are": 490,
      "como": 491,
      "nd": 492,
      "mor": 493,
      "esta": 494,
      "ust": 495,
      "thing": 496,
      "ito": 497,
      "know": 498,
      "nos": 499,
      "br": 500,
      "dis": 501,
      "mu": 502,
      "up": 503,
      "some": 504,
      "gr": 505,
      "ay": 506,
      "mos": 507,
      "mais": 508,
      "use": 509,
      "not": 510,
      "amos": 511,
      "they": 512,
      "ado": 513,
      "ven": 514,
      "cor": 515,
      "zer": 516,
      "cer": 517,
      "si": 518,
      "dade": 519,
      "ela": 520,
      "cas": 521,
      "sua": 522,
      "mar": 523,
      "tra": 524,
      "gar": 525,
      "quer": 526,
      "seu": 527,
      "fic": 528,
      "ten": 529,
      "fo": 530,
      "ber": 531,
      "wor": 532,
      "ple": 533,
      "from": 534,
      "hor": 535,
      "get": 536,
      "who": 537,
      "lu": 538,
      "ate": 539,
      "ted": 540,
      "king": 541,
      "ento": 542,
      "res": 543,
      "very": 544,
      "like": 545,
      "ça": 546,
      "oug": 547,
      "bre": 548,
      "just": 549,
      "está": 550,
      "ack": 551,
      "qui": 552,
      "das": 553,
      "has": 554,
      "vo": 555,
      "way": 556,
      "wn": 557,
      "when": 558,
      "jo": 559,
      "there": 560,
      "ica": 561,
      "by": 562,
      "sh": 563,
      "will": 564,
      "tu": 565,
      "quando": 566,
      "tar": 567,
      "what": 568,
      "pes": 569,
      "col": 570,
      "tor": 571,
      "about": 572,
      "would": 573,
      "iz": 574,
      "cause": 575,
      "ind": 576,
      "vel": 577,
      "cr": 578,
      "him": 579,
      "had": 580,
      "ém": 581,
      "she": 582,
      "here": 583,
      "The": 584,
      "ix": 585,
      "don": 586,
      "ok": 587,
      "ell": 588,
      "che": 589,
      "come": 590,
      "har": 591,
      "any": 592,
      "end": 593,
      "isso": 594,
      "tro": 595,
      "ation": 596,
      "ao": 597,
      "esse": 598,
      "ora": 599,
      "ear": 600,
      "et": 601,
      "tal": 602,
      "tin": 603,
      "day": 604,
      "pode": 605,
      "vez": 606,
      "fer": 607,
      "cia": 608,
      "io": 609,
      "tos": 610,
      "ally": 611,
      "ble": 612,
      "ast": 613,
      "mes": 614,
      "ist": 615,
      "ões": 616,
      "ame": 617,
      "od": 618,
      "iro": 619,
      "ante": 620,
      "how": 621,
      "cl": 622,
      "ound": 623,
      "were": 624,
      "time": 625,
      "ace": 626,
      "foi": 627,
      "sem": 628,
      "ink": 629,
      "son": 630,
      "muito": 631,
      "ós": 632,
      "ira": 633,
      "cre": 634,
      "pres": 635,
      "mente": 636,
      "vol": 637,
      "endo": 638,
      "ain": 639,
      "And": 640,
      "ap": 641,
      "ive": 642,
      "era": 643,
      "ong": 644,
      "porque": 645,
      "dar": 646,
      "00": 647,
      "cois": 648,
      "into": 649,
      "je": 650,
      "tim": 651,
      "could": 652,
      "them": 653,
      "because": 654,
      "sobre": 655,
      "pesso": 656,
      "alg": 657,
      "ts": 658,
      "meu": 659,
      "men": 660,
      "been": 661,
      "du": 662,
      "af": 663,
      "minha": 664,
      "ough": 665,
      "ity": 666,
      "hos": 667,
      "ite": 668,
      "ans": 669,
      "other": 670,
      "anto": 671,
      "their": 672,
      "pel": 673,
      "You": 674,
      "tur": 675,
      "aqui": 676,
      "anos": 677,
      "ous": 678,
      "bl": 679,
      "every": 680,
      "ine": 681,
      "ich": 682,
      "eles": 683,
      "ja": 684,
      "red": 685,
      "got": 686,
      "think": 687,
      "fazer": 688,
      "fil": 689,
      "then": 690,
      "sel": 691,
      "Eu": 692,
      "mon": 693,
      "este": 694,
      "ople": 695,
      "part": 696,
      "ose": 697,
      "ting": 698,
      "Se": 699,
      "estava": 700,
      "see": 701,
      "hom": 702,
      "dia": 703,
      "people": 704,
      "back": 705,
      "str": 706,
      "tão": 707,
      "dr": 708,
      "fal": 709,
      "want": 710,
      "vis": 711,
      "amente": 712,
      "fi": 713,
      "did": 714,
      "rio": 715,
      "say": 716,
      "led": 717,
      "cis": 718,
      "ên": 719,
      "pri": 720,
      "mil": 721,
      "ico": 722,
      "ens": 723,
      "até": 724,
      "les": 725,
      "dy": 726,
      "então": 727,
      "ação": 728,
      "ard": 729,
      "lit": 730,
      "tle": 731,
      "ice": 732,
      "são": 733,
      "real": 734,
      "vida": 735,
      "ment": 736,
      "mat": 737,
      "ped": 738,
      "new": 739,
      "cam": 740,
      "year": 741,
      "ga": 742,
      "contr": 743,
      "port": 744,
      "ach": 745,
      "more": 746,
      "vai": 747,
      "poder": 748,
      "ers": 749,
      "over": 750,
      "cri": 751,
      "ido": 752,
      "oun": 753,
      "\".": 754,
      "pois": 755,
      "antes": 756,
      "cu": 757,
      "idade": 758,
      "bar": 759,
      "wo": 760,
      "ning": 761,
      "ins": 762,
      "ving": 763,
      "todos": 764,
      "den": 765,
      "ck": 766,
      "ju": 767,
      "pu": 768,
      "gre": 769,
      "tell": 770,
      "seus": 771,
      "bem": 772,
      "só": 773,
      "ang": 774,
      "ct": 775,
      "pare": 776,
      "where": 777,
      "ves": 778,
      "which": 779,
      "mun": 780,
      "ick": 781,
      "ance": 782,
      "than": 783,
      "tion": 784,
      "ada": 785,
      "ados": 786,
      "right": 787,
      "only": 788,
      "Qu": 789,
      "ese": 790,
      "fin": 791,
      "segu": 792,
      "fore": 793,
      "igo": 794,
      "ded": 795,
      "going": 796,
      "No": 797,
      "inter": 798,
      "ton": 799,
      "nós": 800,
      "tudo": 801,
      "fir": 802,
      "indo": 803,
      "ba": 804,
      "bu": 805,
      "sent": 806,
      "pra": 807,
      "try": 808,
      "qual": 809,
      "sei": 810,
      "ie": 811,
      "mis": 812,
      "ço": 813,
      "gon": 814,
      "hap": 815,
      "make": 816,
      "mel": 817,
      "low": 818,
      "dizer": 819,
      "take": 820,
      "ep": 821,
      "hum": 822,
      "faz": 823,
      "ign": 824,
      "gra": 825,
      "amento": 826,
      "tent": 827,
      "pas": 828,
      "ug": 829,
      "life": 830,
      "val": 831,
      "pessoas": 832,
      "fam": 833,
      "down": 834,
      "deix": 835,
      "may": 836,
      "plan": 837,
      "sen": 838,
      "ina": 839,
      "ty": 840,
      "ip": 841,
      "cal": 842,
      "mer": 843,
      "bro": 844,
      "ita": 845,
      "ções": 846,
      "Mas": 847,
      "little": 848,
      "But": 849,
      "cul": 850,
      "ies": 851,
      "há": 852,
      "abal": 853,
      "estar": 854,
      "It": 855,
      "gun": 856,
      "even": 857,
      "tempo": 858,
      "pol": 859,
      "tre": 860,
      "sou": 861,
      "agora": 862,
      "trabal": 863,
      "via": 864,
      "ior": 865,
      "off": 866,
      "cur": 867,
      "Wh": 868,
      "art": 869,
      "let": 870,
      "ase": 871,
      "ida": 872,
      "amb": 873,
      "casa": 874,
      "act": 875,
      "onde": 876,
      "If": 877,
      "ys": 878,
      "self": 879,
      "ure": 880,
      "ria": 881,
      "mesmo": 882,
      "gonna": 883,
      "ência": 884,
      "sim": 885,
      "essa": 886,
      "quanto": 887,
      "precis": 888,
      "ob": 889,
      "aque": 890,
      "Não": 891,
      "ought": 892,
      "ry": 893,
      "coisa": 894,
      "lie": 895,
      "disse": 896,
      "cho": 897,
      "ph": 898,
      "ano": 899,
      "tas": 900,
      "body": 901,
      "var": 902,
      "mã": 903,
      "ile": 904,
      "after": 905,
      "hou": 906,
      "ial": 907,
      "mal": 908,
      "sabe": 909,
      "pon": 910,
      "years": 911,
      "pelo": 912,
      "ful": 913,
      "two": 914,
      "ger": 915,
      "pass": 916,
      "vou": 917,
      "mul": 918,
      "before": 919,
      "Você": 920,
      "work": 921,
      "these": 922,
      "gen": 923,
      "Well": 924,
      "something": 925,
      "ater": 926,
      "bet": 927,
      "ide": 928,
      "sal": 929,
      "world": 930,
      "sta": 931,
      "We": 932,
      "depois": 933,
      "estão": 934,
      "sp": 935,
      "aram": 936,
      "fri": 937,
      "uni": 938,
      "first": 939,
      "long": 940,
      "ree": 941,
      "ish": 942,
      "homem": 943,
      "mundo": 944,
      "noite": 945,
      "look": 946,
      "vir": 947,
      "find": 948,
      "ved": 949,
      "gan": 950,
      "algo": 951,
      "pens": 952,
      "again": 953,
      "emos": 954,
      "mom": 955,
      "night": 956,
      "good": 957,
      "din": 958,
      "under": 959,
      "dire": 960,
      "los": 961,
      "gos": 962,
      "melhor": 963,
      "nas": 964,
      "lá": 965,
      "dor": 966,
      "diz": 967,
      "tru": 968,
      "suas": 969,
      "sol": 970,
      "put": 971,
      "tinha": 972,
      "av": 973,
      "hel": 974,
      "En": 975,
      "itar": 976,
      "its": 977,
      "ás": 978,
      "ança": 979,
      "esper": 980,
      "thr": 981,
      "entre": 982,
      "well": 983,
      "guém": 984,
      "ador": 985,
      "sto": 986,
      "prime": 987,
      "cos": 988,
      "sur": 989,
      "mim": 990,
      "never": 991,
      "ande": 992,
      "ated": 993,
      "fun": 994,
      "bra": 995,
      "onte": 996,
      "estou": 997,
      "pela": 998,
      "ence": 999
    },
    "merges": [
      [
        "t",
        "h"
      ],
      [
        "e",
        "r"
      ],
      [
        "a",
        "n"
      ],
      [
        "i",
        "n"
      ],
      [
        "e",
        "s"
      ],
      [
        "a",
        "r"
      ],
      [
        "e",
        "n"
      ],
      [
        "o",
        "u"
      ],
      [
        "a",
        "s"
      ],
      [
        "o",
        "r"
      ],
      [
        "t",
        "o"
      ],
      [
        "d",
        "e"
      ],
      [
        "o",
        "n"
      ],
      [
        "q",
        "u"
      ],
      [
        ".",
        "."
      ],
      [
        "o",
        "s"
      ],
      [
        "i",
        "s"
      ],
      [
        "th",
        "e"
      ],
      [
        "a",
        "l"
      ],
      [
        "a",
        "t"
      ],
      [
        "d",
        "o"
      ],
      [
        "r",
        "e"
      ],
      [
        "s",
        "e"
      ],
      [
        "qu",
        "e"
      ],
      [
        "o",
        "m"
      ],
      [
        "t",
        "e"
      ],
      [
        "l",
        "e"
      ],
      [
        "a",
        "m"
      ],
      [
        "in",
        "g"
      ],
      [
        "an",
        "d"
      ],
      [
        "u",
        "m"
      ],
      [
        "ã",
        "o"
      ],
      [
        "..",
        "."
      ],
      [
        "i",
        "t"
      ],
      [
        "d",
        "a"
      ],
      [
        "y",
        "ou"
      ],
      [
        "v",
        "e"
      ],
      [
        "o",
        "f"
      ],
      [
        "i",
        "c"
      ],
      [
        "m",
        "e"
      ],
      [
        "b",
        "e"
      ],
      [
        "t",
        "r"
      ],
      [
        "h",
        "e"
      ],
      [
        "c",
        "om"
      ],
      [
        "n",
        "o"
      ],
      [
        "i",
        "r"
      ],
      [
        "h",
        "a"
      ],
      [
        "a",
        "c"
      ],
      [
        "e",
        "m"
      ],
      [
        "p",
        "ar"
      ],
      [
        "p",
        "r"
      ],
      [
        "es",
        "t"
      ],
      [
        "i",
        "l"
      ],
      [
        "i",
        "a"
      ],
      [
        "i",
        "m"
      ],
      [
        "en",
        "t"
      ],
      [
        "s",
        "o"
      ],
      [
        "e",
        "l"
      ],
      [
        "u",
        "s"
      ],
      [
        "o",
        "c"
      ],
      [
        "h",
        "o"
      ],
      [
        "v",
        "er"
      ],
      [
        "e",
        "d"
      ],
      [
        "f",
        "or"
      ],
      [
        "th",
        "at"
      ],
      [
        "u",
        "n"
      ],
      [
        "i",
        "g"
      ],
      [
        "c",
        "on"
      ],
      [
        "m",
        "a"
      ],
      [
        "p",
        "o"
      ],
      [
        "t",
        "a"
      ],
      [
        "d",
        "i"
      ],
      [
        "t",
        "er"
      ],
      [
        "par",
        "a"
      ],
      [
        "s",
        "a"
      ],
      [
        "u",
        "r"
      ],
      [
        "o",
        "l"
      ],
      [
        "u",
        "t"
      ],
      [
        "l",
        "i"
      ],
      [
        "p",
        "or"
      ],
      [
        "w",
        "h"
      ],
      [
        "n",
        "ão"
      ],
      [
        "c",
        "a"
      ],
      [
        "s",
        "u"
      ],
      [
        "c",
        "h"
      ],
      [
        "g",
        "o"
      ],
      [
        "er",
        "e"
      ],
      [
        "um",
        "a"
      ],
      [
        "oc",
        "ê"
      ],
      [
        "a",
        "d"
      ],
      [
        "p",
        "e"
      ],
      [
        "l",
        "o"
      ],
      [
        "an",
        "do"
      ],
      [
        "r",
        "a"
      ],
      [
        "r",
        "i"
      ],
      [
        "s",
        "t"
      ],
      [
        "c",
        "e"
      ],
      [
        "n",
        "a"
      ],
      [
        "p",
        "er"
      ],
      [
        "v",
        "ocê"
      ],
      [
        "al",
        "l"
      ],
      [
        "t",
        "i"
      ],
      [
        "k",
        "e"
      ],
      [
        "a",
        "b"
      ],
      [
        "w",
        "e"
      ],
      [
        "u",
        "l"
      ],
      [
        "v",
        "i"
      ],
      [
        "l",
        "d"
      ],
      [
        "g",
        "e"
      ],
      [
        "e",
        "u"
      ],
      [
        "i",
        "th"
      ],
      [
        "v",
        "a"
      ],
      [
        "c",
        "i"
      ],
      [
        "n",
        "e"
      ],
      [
        "en",
        "te"
      ],
      [
        "c",
        "o"
      ],
      [
        "ou",
        "t"
      ],
      [
        "w",
        "as"
      ],
      [
        "w",
        "ith"
      ],
      [
        "r",
        "o"
      ],
      [
        "d",
        "es"
      ],
      [
        "an",
        "t"
      ],
      [
        "d",
        "er"
      ],
      [
        "l",
        "a"
      ],
      [
        "f",
        "e"
      ],
      [
        "m",
        "as"
      ],
      [
        "g",
        "u"
      ],
      [
        "on",
        "e"
      ],
      [
        "i",
        "on"
      ],
      [
        "h",
        "t"
      ],
      [
        "a",
        "g"
      ],
      [
        "e",
        "x"
      ],
      [
        "f",
        "r"
      ],
      [
        "l",
        "y"
      ],
      [
        "om",
        "e"
      ],
      [
        "no",
        "w"
      ],
      [
        "m",
        "y"
      ],
      [
        "d",
        "os"
      ],
      [
        "ou",
        "ld"
      ],
      [
        "you",
        "r"
      ],
      [
        "f",
        "a"
      ],
      [
        "es",
        "s"
      ],
      [
        "th",
        "is"
      ],
      [
        "ha",
        "ve"
      ],
      [
        "b",
        "ut"
      ],
      [
        "p",
        "a"
      ],
      [
        "i",
        "f"
      ],
      [
        "te",
        "m"
      ],
      [
        "pr",
        "o"
      ],
      [
        "s",
        "er"
      ],
      [
        "il",
        "l"
      ],
      [
        "e",
        "le"
      ],
      [
        "m",
        "an"
      ],
      [
        "ç",
        "ão"
      ],
      [
        "c",
        "ar"
      ],
      [
        "m",
        "o"
      ],
      [
        "p",
        "re"
      ],
      [
        "i",
        "d"
      ],
      [
        "h",
        "is"
      ],
      [
        "ig",
        "ht"
      ],
      [
        "h",
        "er"
      ],
      [
        "th",
        "er"
      ],
      [
        "b",
        "o"
      ],
      [
        "m",
        "in"
      ],
      [
        "c",
        "an"
      ],
      [
        "p",
        "os"
      ],
      [
        "p",
        "en"
      ],
      [
        "l",
        "l"
      ],
      [
        "ou",
        "r"
      ],
      [
        "as",
        "s"
      ],
      [
        "p",
        "l"
      ],
      [
        "ar",
        "e"
      ],
      [
        "com",
        "o"
      ],
      [
        "n",
        "d"
      ],
      [
        "m",
        "or"
      ],
      [
        "est",
        "a"
      ],
      [
        "us",
        "t"
      ],
      [
        "th",
        "ing"
      ],
      [
        "i",
        "to"
      ],
      [
        "k",
        "now"
      ],
      [
        "n",
        "os"
      ],
      [
        "b",
        "r"
      ],
      [
        "d",
        "is"
      ],
      [
        "m",
        "u"
      ],
      [
        "u",
        "p"
      ],
      [
        "s",
        "ome"
      ],
      [
        "g",
        "r"
      ],
      [
        "a",
        "y"
      ],
      [
        "m",
        "os"
      ],
      [
        "ma",
        "is"
      ],
      [
        "u",
        "se"
      ],
      [
        "no",
        "t"
      ],
      [
        "am",
        "os"
      ],
      [
        "the",
        "y"
      ],
      [
        "a",
        "do"
      ],
      [
        "v",
        "en"
      ],
      [
        "c",
        "or"
      ],
      [
        "z",
        "er"
      ],
      [
        "c",
        "er"
      ],
      [
        "s",
        "i"
      ],
      [
        "da",
        "de"
      ],
      [
        "el",
        "a"
      ],
      [
        "c",
        "as"
      ],
      [
        "su",
        "a"
      ],
      [
        "m",
        "ar"
      ],
      [
        "tr",
        "a"
      ],
      [
        "g",
        "ar"
      ],
      [
        "qu",
        "er"
      ],
      [
        "se",
        "u"
      ],
      [
        "f",
        "ic"
      ],
      [
        "t",
        "en"
      ],
      [
        "f",
        "o"
      ],
      [
        "b",
        "er"
      ],
      [
        "w",
        "or"
      ],
      [
        "p",
        "le"
      ],
      [
        "fr",
        "om"
      ],
      [
        "h",
        "or"
      ],
      [
        "ge",
        "t"
      ],
      [
        "w",
        "ho"
      ],
      [
        "l",
        "u"
      ],
      [
        "at",
        "e"
      ],
      [
        "te",
        "d"
      ],
      [
        "k",
        "ing"
      ],
      [
        "en",
        "to"
      ],
      [
        "r",
        "es"
      ],
      [
        "ver",
        "y"
      ],
      [
        "li",
        "ke"
      ],
      [
        "ç",
        "a"
      ],
      [
        "ou",
        "g"
      ],
      [
        "b",
        "re"
      ],
      [
        "j",
        "ust"
      ],
      [
        "est",
        "á"
      ],
      [
        "ac",
        "k"
      ],
      [
        "qu",
        "i"
      ],
      [
        "d",
        "as"
      ],
      [
        "h",
        "as"
      ],
      [
        "v",
        "o"
      ],
      [
        "w",
        "ay"
      ],
      [
        "w",
        "n"
      ],
      [
        "wh",
        "en"
      ],
      [
        "j",
        "o"
      ],
      [
        "th",
        "ere"
      ],
      [
        "ic",
        "a"
      ],
      [
        "b",
        "y"
      ],
      [
        "s",
        "h"
      ],
      [
        "w",
        "ill"
      ],
      [
        "t",
        "u"
      ],
      [
        "qu",
        "ando"
      ],
      [
        "t",
        "ar"
      ],
      [
        "wh",
        "at"
      ],
      [
        "p",
        "es"
      ],
      [
        "c",
        "ol"
      ],
      [
        "t",
        "or"
      ],
      [
        "ab",
        "out"
      ],
      [
        "w",
        "ould"
      ],
      [
        "i",
        "z"
      ],
      [
        "ca",
        "use"
      ],
      [
        "in",
        "d"
      ],
      [
        "ve",
        "l"
      ],
      [
        "c",
        "r"
      ],
      [
        "h",
        "im"
      ],
      [
        "ha",
        "d"
      ],
      [
        "é",
        "m"
      ],
      [
        "s",
        "he"
      ],
      [
        "h",
        "ere"
      ],
      [
        "T",
        "he"
      ],
      [
        "i",
        "x"
      ],
      [
        "d",
        "on"
      ],
      [
        "o",
        "k"
      ],
      [
        "el",
        "l"
      ],
      [
        "c",
        "he"
      ],
      [
        "com",
        "e"
      ],
      [
        "h",
        "ar"
      ],
      [
        "an",
        "y"
      ],
      [
        "en",
        "d"
      ],
      [
        "is",
        "so"
      ],
      [
        "tr",
        "o"
      ],
      [
        "at",
        "ion"
      ],
      [
        "a",
        "o"
      ],
      [
        "es",
        "se"
      ],
      [
        "or",
        "a"
      ],
      [
        "e",
        "ar"
      ],
      [
        "e",
        "t"
      ],
      [
        "t",
        "al"
      ],
      [
        "t",
        "in"
      ],
      [
        "da",
        "y"
      ],
      [
        "po",
        "de"
      ],
      [
        "ve",
        "z"
      ],
      [
        "f",
        "er"
      ],
      [
        "c",
        "ia"
      ],
      [
        "i",
        "o"
      ],
      [
        "to",
        "s"
      ],
      [
        "all",
        "y"
      ],
      [
        "b",
        "le"
      ],
      [
        "as",
        "t"
      ],
      [
        "m",
        "es"
      ],
      [
        "is",
        "t"
      ],
      [
        "õ",
        "es"
      ],
      [
        "am",
        "e"
      ],
      [
        "o",
        "d"
      ],
      [
        "ir",
        "o"
      ],
      [
        "an",
        "te"
      ],
      [
        "ho",
        "w"
      ],
      [
        "c",
        "l"
      ],
      [
        "ou",
        "nd"
      ],
      [
        "w",
        "ere"
      ],
      [
        "ti",
        "me"
      ],
      [
        "ac",
        "e"
      ],
      [
        "fo",
        "i"
      ],
      [
        "se",
        "m"
      ],
      [
        "in",
        "k"
      ],
      [
        "s",
        "on"
      ],
      [
        "mu",
        "ito"
      ],
      [
        "ó",
        "s"
      ],
      [
        "ir",
        "a"
      ],
      [
        "c",
        "re"
      ],
      [
        "pr",
        "es"
      ],
      [
        "m",
        "ente"
      ],
      [
        "v",
        "ol"
      ],
      [
        "en",
        "do"
      ],
      [
        "a",
        "in"
      ],
      [
        "A",
        "nd"
      ],
      [
        "a",
        "p"
      ],
      [
        "i",
        "ve"
      ],
      [
        "er",
        "a"
      ],
      [
        "on",
        "g"
      ],
      [
        "por",
        "que"
      ],
      [
        "d",
        "ar"
      ],
      [
        "0",
        "0"
      ],
      [
        "co",
        "is"
      ],
      [
        "in",
        "to"
      ],
      [
        "j",
        "e"
      ],
      [
        "t",
        "im"
      ],
      [
        "c",
        "ould"
      ],
      [
        "the",
        "m"
      ],
      [
        "be",
        "cause"
      ],
      [
        "so",
        "bre"
      ],
      [
        "pes",
        "so"
      ],
      [
        "al",
        "g"
      ],
      [
        "t",
        "s"
      ],
      [
        "me",
        "u"
      ],
      [
        "m",
        "en"
      ],
      [
        "be",
        "en"
      ],
      [
        "d",
        "u"
      ],
      [
        "a",
        "f"
      ],
      [
        "min",
        "ha"
      ],
      [
        "oug",
        "h"
      ],
      [
        "it",
        "y"
      ],
      [
        "h",
        "os"
      ],
      [
        "i",
        "te"
      ],
      [
        "an",
        "s"
      ],
      [
        "o",
        "ther"
      ],
      [
        "an",
        "to"
      ],
      [
        "the",
        "ir"
      ],
      [
        "p",
        "el"
      ],
      [
        "Y",
        "ou"
      ],
      [
        "t",
        "ur"
      ],
      [
        "a",
        "qui"
      ],
      [
        "an",
        "os"
      ],
      [
        "ou",
        "s"
      ],
      [
        "b",
        "l"
      ],
      [
        "e",
        "very"
      ],
      [
        "in",
        "e"
      ],
      [
        "ic",
        "h"
      ],
      [
        "el",
        "es"
      ],
      [
        "j",
        "a"
      ],
      [
        "re",
        "d"
      ],
      [
        "go",
        "t"
      ],
      [
        "th",
        "ink"
      ],
      [
        "fa",
        "zer"
      ],
      [
        "f",
        "il"
      ],
      [
        "th",
        "en"
      ],
      [
        "se",
        "l"
      ],
      [
        "E",
        "u"
      ],
      [
        "m",
        "on"
      ],
      [
        "es",
        "te"
      ],
      [
        "o",
        "ple"
      ],
      [
        "par",
        "t"
      ],
      [
        "os",
        "e"
      ],
      [
        "t",
        "ing"
      ],
      [
        "S",
        "e"
      ],
      [
        "esta",
        "va"
      ],
      [
        "se",
        "e"
      ],
      [
        "h",
        "om"
      ],
      [
        "d",
        "ia"
      ],
      [
        "pe",
        "ople"
      ],
      [
        "b",
        "ack"
      ],
      [
        "s",
        "tr"
      ],
      [
        "t",
        "ão"
      ],
      [
        "d",
        "r"
      ],
      [
        "f",
        "al"
      ],
      [
        "w",
        "ant"
      ],
      [
        "v",
        "is"
      ],
      [
        "am",
        "ente"
      ],
      [
        "f",
        "i"
      ],
      [
        "di",
        "d"
      ],
      [
        "ri",
        "o"
      ],
      [
        "sa",
        "y"
      ],
      [
        "le",
        "d"
      ],
      [
        "c",
        "is"
      ],
      [
        "ê",
        "n"
      ],
      [
        "pr",
        "i"
      ],
      [
        "m",
        "il"
      ],
      [
        "ic",
        "o"
      ],
      [
        "en",
        "s"
      ],
      [
        "at",
        "é"
      ],
      [
        "l",
        "es"
      ],
      [
        "d",
        "y"
      ],
      [
        "ent",
        "ão"
      ],
      [
        "a",
        "ção"
      ],
      [
        "ar",
        "d"
      ],
      [
        "l",
        "it"
      ],
      [
        "t",
        "le"
      ],
      [
        "ic",
        "e"
      ],
      [
        "s",
        "ão"
      ],
      [
        "re",
        "al"
      ],
      [
        "vi",
        "da"
      ],
      [
        "m",
        "ent"
      ],
      [
        "m",
        "at"
      ],
      [
        "p",
        "ed"
      ],
      [
        "ne",
        "w"
      ],
      [
        "c",
        "am"
      ],
      [
        "y",
        "ear"
      ],
      [
        "g",
        "a"
      ],
      [
        "con",
        "tr"
      ],
      [
        "por",
        "t"
      ],
      [
        "ac",
        "h"
      ],
      [
        "mor",
        "e"
      ],
      [
        "va",
        "i"
      ],
      [
        "po",
        "der"
      ],
      [
        "er",
        "s"
      ],
      [
        "o",
        "ver"
      ],
      [
        "c",
        "ri"
      ],
      [
        "i",
        "do"
      ],
      [
        "ou",
        "n"
      ],
      [
        "\"",
        "."
      ],
      [
        "po",
        "is"
      ],
      [
        "ant",
        "es"
      ],
      [
        "c",
        "u"
      ],
      [
        "i",
        "dade"
      ],
      [
        "b",
        "ar"
      ],
      [
        "w",
        "o"
      ],
      [
        "n",
        "ing"
      ],
      [
        "in",
        "s"
      ],
      [
        "v",
        "ing"
      ],
      [
        "to",
        "dos"
      ],
      [
        "d",
        "en"
      ],
      [
        "c",
        "k"
      ],
      [
        "j",
        "u"
      ],
      [
        "p",
        "u"
      ],
      [
        "g",
        "re"
      ],
      [
        "te",
        "ll"
      ],
      [
        "se",
        "us"
      ],
      [
        "be",
        "m"
      ],
      [
        "s",
        "ó"
      ],
      [
        "an",
        "g"
      ],
      [
        "c",
        "t"
      ],
      [
        "par",
        "e"
      ],
      [
        "wh",
        "ere"
      ],
      [
        "v",
        "es"
      ],
      [
        "wh",
        "ich"
      ],
      [
        "m",
        "un"
      ],
      [
        "ic",
        "k"
      ],
      [
        "an",
        "ce"
      ],
      [
        "th",
        "an"
      ],
      [
        "ti",
        "on"
      ],
      [
        "a",
        "da"
      ],
      [
        "ad",
        "os"
      ],
      [
        "r",
        "ight"
      ],
      [
        "on",
        "ly"
      ],
      [
        "Q",
        "u"
      ],
      [
        "es",
        "e"
      ],
      [
        "f",
        "in"
      ],
      [
        "se",
        "gu"
      ],
      [
        "for",
        "e"
      ],
      [
        "ig",
        "o"
      ],
      [
        "de",
        "d"
      ],
      [
        "go",
        "ing"
      ],
      [
        "N",
        "o"
      ],
      [
        "in",
        "ter"
      ],
      [
        "to",
        "n"
      ],
      [
        "n",
        "ós"
      ],
      [
        "tu",
        "do"
      ],
      [
        "f",
        "ir"
      ],
      [
        "in",
        "do"
      ],
      [
        "b",
        "a"
      ],
      [
        "b",
        "u"
      ],
      [
        "s",
        "ent"
      ],
      [
        "pr",
        "a"
      ],
      [
        "tr",
        "y"
      ],
      [
        "qu",
        "al"
      ],
      [
        "se",
        "i"
      ],
      [
        "i",
        "e"
      ],
      [
        "m",
        "is"
      ],
      [
        "ç",
        "o"
      ],
      [
        "g",
        "on"
      ],
      [
        "ha",
        "p"
      ],
      [
        "ma",
        "ke"
      ],
      [
        "me",
        "l"
      ],
      [
        "lo",
        "w"
      ],
      [
        "di",
        "zer"
      ],
      [
        "ta",
        "ke"
      ],
      [
        "e",
        "p"
      ],
      [
        "h",
        "um"
      ],
      [
        "fa",
        "z"
      ],
      [
        "ig",
        "n"
      ],
      [
        "g",
        "ra"
      ],
      [
        "am",
        "ento"
      ],
      [
        "t",
        "ent"
      ],
      [
        "p",
        "as"
      ],
      [
        "u",
        "g"
      ],
      [
        "li",
        "fe"
      ],
      [
        "v",
        "al"
      ],
      [
        "pesso",
        "as"
      ],
      [
        "f",
        "am"
      ],
      [
        "do",
        "wn"
      ],
      [
        "de",
        "ix"
      ],
      [
        "ma",
        "y"
      ],
      [
        "pl",
        "an"
      ],
      [
        "s",
        "en"
      ],
      [
        "in",
        "a"
      ],
      [
        "t",
        "y"
      ],
      [
        "i",
        "p"
      ],
      [
        "c",
        "al"
      ],
      [
        "m",
        "er"
      ],
      [
        "b",
        "ro"
      ],
      [
        "it",
        "a"
      ],
      [
        "ç",
        "ões"
      ],
      [
        "M",
        "as"
      ],
      [
        "lit",
        "tle"
      ],
      [
        "B",
        "ut"
      ],
      [
        "c",
        "ul"
      ],
      [
        "i",
        "es"
      ],
      [
        "h",
        "á"
      ],
      [
        "ab",
        "al"
      ],
      [
        "est",
        "ar"
      ],
      [
        "I",
        "t"
      ],
      [
        "g",
        "un"
      ],
      [
        "e",
        "ven"
      ],
      [
        "tem",
        "po"
      ],
      [
        "po",
        "l"
      ],
      [
        "t",
        "re"
      ],
      [
        "s",
        "ou"
      ],
      [
        "ag",
        "ora"
      ],
      [
        "tr",
        "abal"
      ],
      [
        "v",
        "ia"
      ],
      [
        "i",
        "or"
      ],
      [
        "of",
        "f"
      ],
      [
        "c",
        "ur"
      ],
      [
        "W",
        "h"
      ],
      [
        "ar",
        "t"
      ],
      [
        "le",
        "t"
      ],
      [
        "as",
        "e"
      ],
      [
        "i",
        "da"
      ],
      [
        "am",
        "b"
      ],
      [
        "cas",
        "a"
      ],
      [
        "ac",
        "t"
      ],
      [
        "on",
        "de"
      ],
      [
        "I",
        "f"
      ],
      [
        "y",
        "s"
      ],
      [
        "sel",
        "f"
      ],
      [
        "u",
        "re"
      ],
      [
        "r",
        "ia"
      ],
      [
        "mes",
        "mo"
      ],
      [
        "gon",
        "na"
      ],
      [
        "ên",
        "cia"
      ],
      [
        "s",
        "im"
      ],
      [
        "es",
        "sa"
      ],
      [
        "qu",
        "anto"
      ],
      [
        "pre",
        "cis"
      ],
      [
        "o",
        "b"
      ],
      [
        "a",
        "que"
      ],
      [
        "N",
        "ão"
      ],
      [
        "oug",
        "ht"
      ],
      [
        "r",
        "y"
      ],
      [
        "cois",
        "a"
      ],
      [
        "li",
        "e"
      ],
      [
        "dis",
        "se"
      ],
      [
        "c",
        "ho"
      ],
      [
        "p",
        "h"
      ],
      [
        "an",
        "o"
      ],
      [
        "t",
        "as"
      ],
      [
        "bo",
        "dy"
      ],
      [
        "v",
        "ar"
      ],
      [
        "m",
        "ã"
      ],
      [
        "i",
        "le"
      ],
      [
        "af",
        "ter"
      ],
      [
        "h",
        "ou"
      ],
      [
        "i",
        "al"
      ],
      [
        "m",
        "al"
      ],
      [
        "sa",
        "be"
      ],
      [
        "p",
        "on"
      ],
      [
        "year",
        "s"
      ],
      [
        "pel",
        "o"
      ],
      [
        "f",
        "ul"
      ],
      [
        "t",
        "wo"
      ],
      [
        "g",
        "er"
      ],
      [
        "p",
        "ass"
      ],
      [
        "v",
        "ou"
      ],
      [
        "m",
        "ul"
      ],
      [
        "be",
        "fore"
      ],
      [
        "V",
        "ocê"
      ],
      [
        "wor",
        "k"
      ],
      [
        "th",
        "ese"
      ],
      [
        "g",
        "en"
      ],
      [
        "W",
        "ell"
      ],
      [
        "some",
        "thing"
      ],
      [
        "at",
        "er"
      ],
      [
        "be",
        "t"
      ],
      [
        "i",
        "de"
      ],
      [
        "s",
        "al"
      ],
      [
        "wor",
        "ld"
      ],
      [
        "s",
        "ta"
      ],
      [
        "W",
        "e"
      ],
      [
        "de",
        "pois"
      ],
      [
        "est",
        "ão"
      ],
      [
        "s",
        "p"
      ],
      [
        "ar",
        "am"
      ],
      [
        "f",
        "ri"
      ],
      [
        "un",
        "i"
      ],
      [
        "fir",
        "st"
      ],
      [
        "l",
        "ong"
      ],
      [
        "re",
        "e"
      ],
      [
        "is",
        "h"
      ],
      [
        "hom",
        "em"
      ],
      [
        "mun",
        "do"
      ],
      [
        "no",
        "ite"
      ],
      [
        "lo",
        "ok"
      ],
      [
        "v",
        "ir"
      ],
      [
        "f",
        "ind"
      ],
      [
        "ve",
        "d"
      ],
      [
        "g",
        "an"
      ],
      [
        "al",
        "go"
      ],
      [
        "pen",
        "s"
      ],
      [
        "ag",
        "ain"
      ],
      [
        "em",
        "os"
      ],
      [
        "m",
        "om"
      ],
      [
        "n",
        "ight"
      ],
      [
        "go",
        "od"
      ],
      [
        "d",
        "in"
      ],
      [
        "un",
        "der"
      ],
      [
        "di",
        "re"
      ],
      [
        "l",
        "os"
      ],
      [
        "g",
        "os"
      ],
      [
        "mel",
        "hor"
      ],
      [
        "n",
        "as"
      ],
      [
        "l",
        "á"
      ],
      [
        "d",
        "or"
      ],
      [
        "di",
        "z"
      ],
      [
        "tr",
        "u"
      ],
      [
        "su",
        "as"
      ],
      [
        "so",
        "l"
      ],
      [
        "p",
        "ut"
      ],
      [
        "tin",
        "ha"
      ],
      [
        "a",
        "v"
      ],
      [
        "he",
        "l"
      ],
      [
        "E",
        "n"
      ],
      [
        "it",
        "ar"
      ],
      [
        "it",
        "s"
      ],
      [
        "á",
        "s"
      ],
      [
        "an",
        "ça"
      ],
      [
        "es",
        "per"
      ],
      [
        "th",
        "r"
      ],
      [
        "ent",
        "re"
      ],
      [
        "w",
        "ell"
      ],
      [
        "gu",
        "ém"
      ],
      [
        "ad",
        "or"
      ],
      [
        "s",
        "to"
      ],
      [
        "pri",
        "me"
      ],
      [
        "c",
        "os"
      ],
      [
        "s",
        "ur"
      ],
      [
        "m",
        "im"
      ],
      [
        "ne",
        "ver"
      ],
      [
        "an",
        "de"
      ],
      [
        "at",
        "ed"
      ],
      [
        "f",
        "un"
      ],
      [
        "b",
        "ra"
      ],
      [
        "on",
        "te"
      ],
      [
        "est",
        "ou"
      ],
      [
        "p",
        "ela"
      ],
      [
        "en",
        "ce"
      ]
    ]
  }
}