{
  "version": "1.0",
  "truncation": null,
  "padding": null,
  "added_tokens": [
    {
      "id": 0,
      "content": "<PAD>",
      "single_word": false,
      "lstrip": false,
      "rstrip": false,
      "normalized": false,
      "special": true
    },
    {
      "id": 1,
      "content": "<UNK>",
      "single_word": false,
      "lstrip": false,
      "rstrip": false,
      "normalized": false,
      "special": true
    },
    {
      "id": 2,
      "content": "<CLS>",
      "single_word": false,
      "lstrip": false,
      "rstrip": false,
      "normalized": false,
      "special": true
    },
    {
      "id": 3,
      "content": "<SEP>",
      "single_word": false,
      "lstrip": false,
      "rstrip": false,
      "normalized": false,
      "special": true
    },
    {
      "id": 4,
      "content": "<MASK>",
      "single_word": false,
      "lstrip": false,
      "rstrip": false,
      "normalized": false,
      "special": true
    },
    {
      "id": 5,
      "content": "<BOS>",
      "single_word": false,
      "lstrip": false,
      "rstrip": false,
      "normalized": false,
      "special": true
    },
    {
      "id": 6,
      "content": "<EOS>",
      "single_word": false,
      "lstrip": false,
      "rstrip": false,
      "normalized": false,
      "special": true
    }
  ],
  "normalizer": null,
  "pre_tokenizer": {
    "type": "Whitespace"
  },
  "post_processor": {
    "type": "TemplateProcessing",
    "single": [
      {
        "SpecialToken": {
          "id": "<BOS>",
          "type_id": 0
        }
      },
      {
        "Sequence": {
          "id": "A",
          "type_id": 0
        }
      },
      {
        "SpecialToken": {
          "id": "<EOS>",
          "type_id": 0
        }
      }
    ],
    "pair": [
      {
        "SpecialToken": {
          "id": "<BOS>",
          "type_id": 0
        }
      },
      {
        "Sequence": {
          "id": "A",
          "type_id": 0
        }
      },
      {
        "SpecialToken": {
          "id": "<SEP>",
          "type_id": 0
        }
      },
      {
        "Sequence": {
          "id": "B",
          "type_id": 1
        }
      },
      {
        "SpecialToken": {
          "id": "<EOS>",
          "type_id": 1
        }
      }
    ],
    "special_tokens": {
      "<BOS>": {
        "id": "<BOS>",
        "ids": [
          5
        ],
        "tokens": [
          "<BOS>"
        ]
      },
      "<EOS>": {
        "id": "<EOS>",
        "ids": [
          6
        ],
        "tokens": [
          "<EOS>"
        ]
      },
      "<SEP>": {
        "id": "<SEP>",
        "ids": [
          3
        ],
        "tokens": [
          "<SEP>"
        ]
      }
    }
  },
  "decoder": {
    "type": "BPEDecoder",
    "suffix": "</w>"
  },
  "model": {
    "type": "BPE",
    "dropout": null,
    "unk_token": "<UNK>",
    "continuing_subword_prefix": null,
    "end_of_word_suffix": "</w>",
    "fuse_unk": false,
    "byte_fallback": false,
    "ignore_merges": false,
    "vocab": {
      "<PAD>": 0,
      "<UNK>": 1,
      "<CLS>": 2,
      "<SEP>": 3,
      "<MASK>": 4,
      "<BOS>": 5,
      "<EOS>": 6,
      "!": 7,
      "\"": 8,
      "#": 9,
      "$": 10,
      "%": 11,
      "&": 12,
      "'": 13,
      "(": 14,
      ")": 15,
      "*": 16,
      "+": 17,
      ",": 18,
      "-": 19,
      ".": 20,
      "/": 21,
      "0": 22,
      "1": 23,
      "2": 24,
      "3": 25,
      "4": 26,
      "5": 27,
      "6": 28,
      "7": 29,
      "8": 30,
      "9": 31,
      ":": 32,
      ";": 33,
      "<": 34,
      "=": 35,
      ">": 36,
      "?": 37,
      "@": 38,
      "A": 39,
      "B": 40,
      "C": 41,
      "D": 42,
      "E": 43,
      "F": 44,
      "G": 45,
      "H": 46,
      "I": 47,
      "J": 48,
      "K": 49,
      "L": 50,
      "M": 51,
      "N": 52,
      "O": 53,
      "P": 54,
      "Q": 55,
      "R": 56,
      "S": 57,
      "T": 58,
      "U": 59,
      "V": 60,
      "W": 61,
      "X": 62,
      "Y": 63,
      "Z": 64,
      "[": 65,
      "\\": 66,
      "]": 67,
      "^": 68,
      "_": 69,
      "`": 70,
      "a": 71,
      "b": 72,
      "c": 73,
      "d": 74,
      "e": 75,
      "f": 76,
      "g": 77,
      "h": 78,
      "i": 79,
      "j": 80,
      "k": 81,
      "l": 82,
      "m": 83,
      "n": 84,
      "o": 85,
      "p": 86,
      "q": 87,
      "r": 88,
      "s": 89,
      "t": 90,
      "u": 91,
      "v": 92,
      "w": 93,
      "x": 94,
      "y": 95,
      "z": 96,
      "{": 97,
      "|": 98,
      "}": 99,
      "~": 100,
      "¡": 101,
      "¢": 102,
      "£": 103,
      "¤": 104,
      "¥": 105,
      "¦": 106,
      "§": 107,
      "¨": 108,
      "©": 109,
      "ª": 110,
      "«": 111,
      "¬": 112,
      "®": 113,
      "¯": 114,
      "°": 115,
      "±": 116,
      "²": 117,
      "³": 118,
      "´": 119,
      "µ": 120,
      "¶": 121,
      "·": 122,
      "¸": 123,
      "¹": 124,
      "º": 125,
      "»": 126,
      "¼": 127,
      "½": 128,
      "¾": 129,
      "¿": 130,
      "À": 131,
      "Á": 132,
      "Â": 133,
      "Ã": 134,
      "Ä": 135,
      "Å": 136,
      "Æ": 137,
      "Ç": 138,
      "È": 139,
      "É": 140,
      "Ê": 141,
      "Ë": 142,
      "Ì": 143,
      "Í": 144,
      "Î": 145,
      "Ï": 146,
      "Ð": 147,
      "Ñ": 148,
      "Ò": 149,
      "Ó": 150,
      "Ô": 151,
      "Õ": 152,
      "Ö": 153,
      "×": 154,
      "Ø": 155,
      "Ú": 156,
      "Û": 157,
      "Ü": 158,
      "Ý": 159,
      "Þ": 160,
      "ß": 161,
      "à": 162,
      "á": 163,
      "â": 164,
      "ã": 165,
      "ä": 166,
      "å": 167,
      "æ": 168,
      "ç": 169,
      "è": 170,
      "é": 171,
      "ê": 172,
      "ë": 173,
      "ì": 174,
      "í": 175,
      "î": 176,
      "ï": 177,
      "ð": 178,
      "ñ": 179,
      "ò": 180,
      "ó": 181,
      "ô": 182,
      "õ": 183,
      "ö": 184,
      "÷": 185,
      "ø": 186,
      "ù": 187,
      "ú": 188,
      "û": 189,
      "ü": 190,
      "ý": 191,
      "þ": 192,
      "ÿ": 193,
      "Ā": 194,
      "ā": 195,
      "Ă": 196,
      "ă": 197,
      "Ą": 198,
      "ą": 199,
      "Ć": 200,
      "ć": 201,
      "Ċ": 202,
      "Č": 203,
      "č": 204,
      "Ď": 205,
      "ď": 206,
      "Đ": 207,
      "đ": 208,
      "Ē": 209,
      "ē": 210,
      "ĕ": 211,
      "Ė": 212,
      "ė": 213,
      "Ę": 214,
      "ę": 215,
      "Ě": 216,
      "ě": 217,
      "ĝ": 218,
      "Ğ": 219,
      "ğ": 220,
      "Ġ": 221,
      "ġ": 222,
      "ģ": 223,
      "Ħ": 224,
      "ħ": 225,
      "ĩ": 226,
      "Ī": 227,
      "ī": 228,
      "ĭ": 229,
      "Į": 230,
      "į": 231,
      "İ": 232,
      "ı": 233,
      "ĳ": 234,
      "Ĵ": 235,
      "Ķ": 236,
      "ķ": 237,
      "Ĺ": 238,
      "ĺ": 239,
      "ļ": 240,
      "Ľ": 241,
      "ľ": 242,
      "Ł": 243,
      "ł": 244,
      "ń": 245,
      "Ņ": 246,
      "ņ": 247,
      "Ň": 248,
      "ň": 249,
      "Ō": 250,
      "ō": 251,
      "ŏ": 252,
      "Ő": 253,
      "ő": 254,
      "Œ": 255,
      "œ": 256,
      "ŕ": 257,
      "Ř": 258,
      "ř": 259,
      "Ś": 260,
      "ś": 261,
      "Ş": 262,
      "ş": 263,
      "Š": 264,
      "š": 265,
      "Ţ": 266,
      "ţ": 267,
      "Ū": 268,
      "ū": 269,
      "ŭ": 270,
      "ů": 271,
      "ű": 272,
      "ų": 273,
      "ŵ": 274,
      "ŷ": 275,
      "Ÿ": 276,
      "ź": 277,
      "Ż": 278,
      "ż": 279,
      "Ž": 280,
      "ž": 281,
      "Ǝ": 282,
      "Ɩ": 283,
      "Ɲ": 284,
      "Ơ": 285,
      "ơ": 286,
      "Ƥ": 287,
      "Ư": 288,
      "ư": 289,
      "ƶ": 290,
      "ƿ": 291,
      "ǀ": 292,
      "ǎ": 293,
      "ǐ": 294,
      "ǔ": 295,
      "ǝ": 296,
      "ǫ": 297,
      "ȃ": 298,
      "Ș": 299,
      "ș": 300,
      "Ț": 301,
      "ț": 302,
      "ȸ": 303,
      "ȹ": 304,
      "ɐ": 305,
      "ɑ": 306,
      "ɒ": 307,
      "ɔ": 308,
      "ɕ": 309,
      "ɘ": 310,
      "ə": 311,
      "ɛ": 312,
      "ɡ": 313,
      "ɪ": 314,
      "ɲ": 315,
      "ɵ": 316,
      "ɹ": 317,
      "ɻ": 318,
      "ɾ": 319,
      "ʁ": 320,
      "ʃ": 321,
      "ʉ": 322,
      "ʊ": 323,
      "ʌ": 324,
      "ʎ": 325,
      "ʒ": 326,
      "ʢ": 327,
      "ʰ": 328,
      "ʹ": 329,
      "ʺ": 330,
      "ʻ": 331,
      "ʼ": 332,
      "ʽ": 333,
      "ʿ": 334,
      "˄": 335,
      "˅": 336,
      "ˆ": 337,
      "ˇ": 338,
      "ˈ": 339,
      "ˌ": 340,
      "ː": 341,
      "˘": 342,
      "˙": 343,
      "˚": 344,
      "˜": 345,
      "˝": 346,
      "˥": 347,
      "˧": 348,
      "˩": 349,
      "˻": 350,
      "˼": 351,
      "́": 352,
      "̃": 353,
      "̇": 354,
      "̜": 355,
      "̥": 356,
      "̧": 357,
      "̩": 358,
      "̪": 359,
      "̫": 360,
      "̯": 361,
      "̰": 362,
      "̱": 363,
      "̵": 364,
      "̶": 365,
      "͂": 366,
      "͛": 367,
      "͞": 368,
      "͡": 369,
      "΄": 370,
      "Ά": 371,
      "Έ": 372,
      "Ό": 373,
      "Α": 374,
      "Γ": 375,
      "Δ": 376,
      "Ε": 377,
      "Η": 378,
      "Θ": 379,
      "Ι": 380,
      "Κ": 381,
      "Λ": 382,
      "Μ": 383,
      "Ξ": 384,
      "Ο": 385,
      "Π": 386,
      "Σ": 387,
      "Υ": 388,
      "Φ": 389,
      "Ψ": 390,
      "Ω": 391,
      "ά": 392,
      "έ": 393,
      "ή": 394,
      "ί": 395,
      "α": 396,
      "β": 397,
      "γ": 398,
      "δ": 399,
      "ε": 400,
      "ζ": 401,
      "η": 402,
      "θ": 403,
      "ι": 404,
      "κ": 405,
      "λ": 406,
      "μ": 407,
      "ν": 408,
      "ξ": 409,
      "ο": 410,
      "π": 411,
      "ρ": 412,
      "ς": 413,
      "σ": 414,
      "τ": 415,
      "υ": 416,
      "φ": 417,
      "χ": 418,
      "ψ": 419,
      "ω": 420,
      "ϊ": 421,
      "ϋ": 422,
      "ό": 423,
      "ύ": 424,
      "ώ": 425,
      "ϐ": 426,
      "ϕ": 427,
      "ϵ": 428,
      "Є": 429,
      "Ў": 430,
      "А": 431,
      "Б": 432,
      "В": 433,
      "Г": 434,
      "Д": 435,
      "Ж": 436,
      "З": 437,
      "И": 438,
      "Й": 439,
      "К": 440,
      "Л": 441,
      "М": 442,
      "Н": 443,
      "О": 444,
      "П": 445,
      "Р": 446,
      "С": 447,
      "У": 448,
      "Ф": 449,
      "Ц": 450,
      "Ч": 451,
      "Ш": 452,
      "Щ": 453,
      "Э": 454,
      "Ю": 455,
      "Я": 456,
      "а": 457,
      "б": 458,
      "в": 459,
      "г": 460,
      "д": 461,
      "е": 462,
      "ж": 463,
      "з": 464,
      "и": 465,
      "й": 466,
      "к": 467,
      "л": 468,
      "м": 469,
      "н": 470,
      "о": 471,
      "п": 472,
      "р": 473,
      "с": 474,
      "т": 475,
      "у": 476,
      "ф": 477,
      "х": 478,
      "ц": 479,
      "ч": 480,
      "ш": 481,
      "щ": 482,
      "ъ": 483,
      "ы": 484,
      "ь": 485,
      "э": 486,
      "ю": 487,
      "я": 488,
      "і": 489,
      "ї": 490,
      "љ": 491,
      "њ": 492,
      "ћ": 493,
      "Ѫ": 494,
      "Қ": 495,
      "Ҧ": 496,
      "ҫ": 497,
      "ү": 498,
      "ҳ": 499,
      "ӑ": 500,
      "ӕ": 501,
      "ӛ": 502,
      "ө": 503,
      "ӹ": 504,
      "Ա": 505,
      "Վ": 506,
      "ա": 507,
      "ի": 508,
      "ձ": 509,
      "մ": 510,
      "ն": 511,
      "ո": 512,
      "ս": 513,
      "տ": 514,
      "ր": 515,
      "ָ": 516,
      "א": 517,
      "ב": 518,
      "ג": 519,
      "ד": 520,
      "ה": 521,
      "ו": 522,
      "ז": 523,
      "ח": 524,
      "ט": 525,
      "י": 526,
      "כ": 527,
      "ל": 528,
      "ם": 529,
      "מ": 530,
      "ן": 531,
      "נ": 532,
      "ס": 533,
      "ע": 534,
      "ף": 535,
      "פ": 536,
      "צ": 537,
      "ק": 538,
      "ר": 539,
      "ש": 540,
      "ת": 541,
      "،": 542,
      "؟": 543,
      "ء": 544,
      "آ": 545,
      "أ": 546,
      "إ": 547,
      "ئ": 548,
      "ا": 549,
      "ب": 550,
      "ة": 551,
      "ت": 552,
      "ث": 553,
      "ج": 554,
      "ح": 555,
      "خ": 556,
      "د": 557,
      "ذ": 558,
      "ر": 559,
      "ز": 560,
      "س": 561,
      "ش": 562,
      "ص": 563,
      "ض": 564,
      "ط": 565,
      "ظ": 566,
      "ع": 567,
      "غ": 568,
      "ف": 569,
      "ق": 570,
      "ك": 571,
      "ل": 572,
      "م": 573,
      "ن": 574,
      "ه": 575,
      "و": 576,
      "ى": 577,
      "ي": 578,
      "ً": 579,
      "ٌ": 580,
      "َ": 581,
      "ُ": 582,
      "ِ": 583,
      "ْ": 584,
      "١": 585,
      "٣": 586,
      "ٹ": 587,
      "ٽ": 588,
      "پ": 589,
      "چ": 590,
      "ژ": 591,
      "ڙ": 592,
      "ک": 593,
      "ڪ": 594,
      "گ": 595,
      "ھ": 596,
      "ہ": 597,
      "ۆ": 598,
      "ی": 599,
      "ې": 600,
      "ە": 601,
      "އ": 602,
      "މ": 603,
      "ތ": 604,
      "ގ": 605,
      "ަ": 606,
      "ީ": 607,
      "ެ": 608,
      "ޮ": 609,
      "ް": 610,
      "ं": 611,
      "अ": 612,
      "इ": 613,
      "ई": 614,
      "उ": 615,
      "क": 616,
      "ग": 617,
      "च": 618,
      "ज": 619,
      "ञ": 620,
      "ट": 621,
      "ड": 622,
      "ढ": 623,
      "ण": 624,
      "त": 625,
      "थ": 626,
      "द": 627,
      "न": 628,
      "प": 629,
      "फ": 630,
      "ब": 631,
      "भ": 632,
      "म": 633,
      "य": 634,
      "र": 635,
      "ल": 636,
      "ष": 637,
      "स": 638,
      "ह": 639,
      "ा": 640,
      "ि": 641,
      "ी": 642,
      "ु": 643,
      "ू": 644,
      "े": 645,
      "ो": 646,
      "ौ": 647,
      "्": 648,
      "१": 649,
      "७": 650,
      "ং": 651,
      "ব": 652,
      "ল": 653,
      "স": 654,
      "হ": 655,
      "া": 656,
      "ি": 657,
      "ো": 658,
      "্": 659,
      "ਖ": 660,
      "ਧ": 661,
      "ਬ": 662,
      "ਮ": 663,
      "ੁ": 664,
      "ੰ": 665,
      "ੱ": 666,
      "ક": 667,
      "ળ": 668,
      "ા": 669,
      "ஐ": 670,
      "ஜ": 671,
      "த": 672,
      "ந": 673,
      "ன": 674,
      "ப": 675,
      "ம": 676,
      "ய": 677,
      "ர": 678,
      "ல": 679,
      "ஸ": 680,
      "ா": 681,
      "ி": 682,
      "ு": 683,
      "ெ": 684,
      "்": 685,
      "అ": 686,
      "గ": 687,
      "త": 688,
      "మ": 689,
      "ర": 690,
      "ల": 691,
      "స": 692,
      "హ": 693,
      "ు": 694,
      "ూ": 695,
      "ె": 696,
      "్": 697,
      "ಂ": 698,
      "ಆ": 699,
      "ಕ": 700,
      "ಜ": 701,
      "ಟ": 702,
      "ಠ": 703,
      "ತ": 704,
      "ದ": 705,
      "ನ": 706,
      "ಬ": 707,
      "ಮ": 708,
      "ಯ": 709,
      "ರ": 710,
      "ಲ": 711,
      "ಳ": 712,
      "ವ": 713,
      "ಸ": 714,
      "ಾ": 715,
      "ಿ": 716,
      "ು": 717,
      "ೂ": 718,
      "ೆ": 719,
      "ೋ": 720,
      "್": 721,
      "ം": 722,
      "ഗ": 723,
      "ന": 724,
      "ര": 725,
      "റ": 726,
      "വ": 727,
      "ഹ": 728,
      "ി": 729,
      "െ": 730,
      "ോ": 731,
      "്": 732,
      "ක": 733,
      "ත": 734,
      "භ": 735,
      "ය": 736,
      "ර": 737,
      "ව": 738,
      "ස": 739,
      "්": 740,
      "ා": 741,
      "ි": 742,
      "ก": 743,
      "ข": 744,
      "ค": 745,
      "ฆ": 746,
      "ง": 747,
      "จ": 748,
      "ช": 749,
      "ฎ": 750,
      "ฒ": 751,
      "ด": 752,
      "ต": 753,
      "ท": 754,
      "ธ": 755,
      "น": 756,
      "บ": 757,
      "ป": 758,
      "พ": 759,
      "ภ": 760,
      "ม": 761,
      "ย": 762,
      "ร": 763,
      "ล": 764,
      "ว": 765,
      "ส": 766,
      "ห": 767,
      "อ": 768,
      "ะ": 769,
      "ั": 770,
      "า": 771,
      "ำ": 772,
      "ิ": 773,
      "ี": 774,
      "ื": 775,
      "ุ": 776,
      "ู": 777,
      "฿": 778,
      "เ": 779,
      "แ": 780,
      "โ": 781,
      "ใ": 782,
      "ไ": 783,
      "็": 784,
      "่": 785,
      "้": 786,
      "์": 787,
      "ํ": 788,
      "ກ": 789,
      "ຕ": 790,
      "ນ": 791,
      "ບ": 792,
      "ພ": 793,
      "ມ": 794,
      "ວ": 795,
      "ອ": 796,
      "ັ": 797,
      "າ": 798,
      "ີ": 799,
      "ຽ": 800,
      "ເ": 801,
      "່": 802,
      "༓": 803,
      "ခ": 804,
      "ပ": 805,
      "လ": 806,
      "ာ": 807,
      "ေ": 808,
      "ျ": 809,
      "ှ": 810,
      "ი": 811,
      "მ": 812,
      "ო": 813,
      "რ": 814,
      "უ": 815,
      "ფ": 816,
      "ᅵ": 817,
      "ረ": 818,
      "ር": 819,
      "ት": 820,
      "ኛ": 821,
      "እ": 822,
      "ድ": 823,
      "ግ": 824,
      "ᐅ": 825,
      "ᐳ": 826,
      "ᐸ": 827,
      "ក": 828,
      "ម": 829,
      "ស": 830,
      "ា": 831,
      "េ": 832,
      "ែ": 833,
      "៉": 834,
      "់": 835,
      "ᵃ": 836,
      "ḍ": 837,
      "Ḏ": 838,
      "ḏ": 839,
      "ḑ": 840,
      "ḗ": 841,
      "Ḥ": 842,
      "ḥ": 843,
      "Ḩ": 844,
      "ḩ": 845,
      "Ḳ": 846,
      "ḳ": 847,
      "ṁ": 848,
      "ṅ": 849,
      "Ṇ": 850,
      "ṇ": 851,
      "ṓ": 852,
      "Ṛ": 853,
      "ṛ": 854,
      "ṟ": 855,
      "Ṣ": 856,
      "ṣ": 857,
      "Ṭ": 858,
      "ṭ": 859,
      "ṿ": 860,
      "Ẓ": 861,
      "ẓ": 862,
      "ẖ": 863,
      "ẞ": 864,
      "Ạ": 865,
      "ạ": 866,
      "ả": 867,
      "Ấ": 868,
      "ấ": 869,
      "ầ": 870,
      "ẩ": 871,
      "ậ": 872,
      "ắ": 873,
      "ẳ": 874,
      "ẹ": 875,
      "ẽ": 876,
      "ế": 877,
      "ề": 878,
      "ể": 879,
      "ễ": 880,
      "ệ": 881,
      "ỉ": 882,
      "ị": 883,
      "Ọ": 884,
      "ọ": 885,
      "ỏ": 886,
      "ố": 887,
      "ồ": 888,
      "ộ": 889,
      "ờ": 890,
      "ỡ": 891,
      "ợ": 892,
      "ụ": 893,
      "Ứ": 894,
      "ứ": 895,
      "ừ": 896,
      "ự": 897,
      "ỹ": 898,
      "ἄ": 899,
      "ἐ": 900,
      "Ἕ": 901,
      "ἡ": 902,
      "Ἰ": 903,
      "ὅ": 904,
      "ὐ": 905,
      "Ὠ": 906,
      "ὴ": 907,
      "ὶ": 908,
      "ὸ": 909,
      "ᾰ": 910,
      "ᾳ": 911,
      "᾿": 912,
      "ῆ": 913,
      "ῇ": 914,
      "ῐ": 915,
      "ῖ": 916,
      "ῠ": 917,
      "ῦ": 918,
      "Ῥ": 919,
      "ῶ": 920,
      "​": 921,
      "‎": 922,
      "‐": 923,
      "‑": 924,
      "‒": 925,
      "–": 926,
      "—": 927,
      "―": 928,
      "‖": 929,
      "‗": 930,
      "‘": 931,
      "’": 932,
      "‚": 933,
      "‛": 934,
      "“": 935,
      "”": 936,
      "„": 937,
      "‟": 938,
      "†": 939,
      "‡": 940,
      "•": 941,
      "‣": 942,
      "…": 943,
      "‧": 944,
      "‰": 945,
      "′": 946,
      "″": 947,
      "‹": 948,
      "›": 949,
      "※": 950,
      "‼": 951,
      "‿": 952,
      "⁃": 953,
      "⁄": 954,
      "⁰": 955,
      "⁴": 956,
      "⁵": 957,
      "⁹": 958,
      "₂": 959,
      "₡": 960,
      "₤": 961,
      "₦": 962,
      "₨": 963,
      "₪": 964,
      "₫": 965,
      "€": 966,
      "₱": 967,
      "₹": 968,
      "₽": 969,
      "℃": 970,
      "℉": 971,
      "ℓ": 972,
      "№": 973,
      "℗": 974,
      "ℜ": 975,
      "℠": 976,
      "™": 977,
      "⅓": 978,
      "⅙": 979,
      "⅛": 980,
      "Ⅰ": 981,
      "Ⅱ": 982,
      "←": 983,
      "↑": 984,
      "→": 985,
      "↓": 986,
      "↔": 987,
      "↗": 988,
      "↘": 989,
      "↩": 990,
      "↪": 991,
      "↵": 992,
      "↹": 993,
      "⇄": 994,
      "⇐": 995,
      "⇒": 996,
      "⇛": 997,
      "⇢": 998,
      "⇧": 999,
      "⇨": 1000,
      "⇩": 1001,
      "⇽": 1002,
      "∂": 1003,
      "∈": 1004,
      "∑": 1005,
      "−": 1006,
      "∕": 1007,
      "∙": 1008,
      "√": 1009,
      "∞": 1010,
      "∧": 1011,
      "∨": 1012,
      "∫": 1013,
      "∼": 1014,
      "≈": 1015,
      "≠": 1016,
      "≡": 1017,
      "≤": 1018,
      "≥": 1019,
      "≦": 1020,
      "≧": 1021,
      "≪": 1022,
      "≫": 1023,
      "≲": 1024,
      "⊕": 1025,
      "⊗": 1026,
      "⋅": 1027,
      "⋆": 1028,
      "⋮": 1029,
      "⌀": 1030,
      "⌂": 1031,
      "⌃": 1032,
      "⌅": 1033,
      "⌊": 1034,
      "⌋": 1035,
      "⌕": 1036,
      "⌘": 1037,
      "⎇": 1038,
      "①": 1039,
      "②": 1040,
      "③": 1041,
      "④": 1042,
      "⑦": 1043,
      "⑨": 1044,
      "⑵": 1045,
      "Ⓒ": 1046,
      "Ⓡ": 1047,
      "─": 1048,
      "│": 1049,
      "┐": 1050,
      "└": 1051,
      "├": 1052,
      "┤": 1053,
      "┬": 1054,
      "┼": 1055,
      "║": 1056,
      "╔": 1057,
      "╚": 1058,
      "╝": 1059,
      "╳": 1060,
      "▀": 1061,
      "█": 1062,
      "▌": 1063,
      "▎": 1064,
      "▐": 1065,
      "░": 1066,
      "▒": 1067,
      "■": 1068,
      "□": 1069,
      "▪": 1070,
      "▲": 1071,
      "▶": 1072,
      "▷": 1073,
      "▸": 1074,
      "►": 1075,
      "▻": 1076,
      "▼": 1077,
      "▾": 1078,
      "◀": 1079,
      "◁": 1080,
      "◂": 1081,
      "◄": 1082,
      "◆": 1083,
      "◉": 1084,
      "◊": 1085,
      "○": 1086,
      "◎": 1087,
      "●": 1088,
      "◦": 1089,
      "◻": 1090,
      "◼": 1091,
      "◾": 1092,
      "☀": 1093,
      "★": 1094,
      "☆": 1095,
      "☉": 1096,
      "☎": 1097,
      "☐": 1098,
      "☑": 1099,
      "☞": 1100,
      "☰": 1101,
      "☺": 1102,
      "☼": 1103,
      "☽": 1104,
      "☾": 1105,
      "♉": 1106,
      "♑": 1107,
      "♔": 1108,
      "♗": 1109,
      "♛": 1110,
      "♡": 1111,
      "♢": 1112,
      "♣": 1113,
      "♥": 1114,
      "♦": 1115,
      "♪": 1116,
      "♫": 1117,
      "♭": 1118,
      "♱": 1119,
      "⚙": 1120,
      "⚠": 1121,
      "⚡": 1122,
      "⛅": 1123,
      "✅": 1124,
      "✈": 1125,
      "✉": 1126,
      "✊": 1127,
      "✌": 1128,
      "✍": 1129,
      "✎": 1130,
      "✓": 1131,
      "✔": 1132,
      "✕": 1133,
      "✖": 1134,
      "✘": 1135,
      "✚": 1136,
      "✤": 1137,
      "✥": 1138,
      "✦": 1139,
      "✨": 1140,
      "✭": 1141,
      "✴": 1142,
      "✸": 1143,
      "✻": 1144,
      "✿": 1145,
      "❀": 1146,
      "❃": 1147,
      "❌": 1148,
      "❏": 1149,
      "❑": 1150,
      "❗": 1151,
      "❚": 1152,
      "❞": 1153,
      "❤": 1154,
      "❥": 1155,
      "❭": 1156,
      "❮": 1157,
      "❯": 1158,
      "❱": 1159,
      "❺": 1160,
      "➔": 1161,
      "➙": 1162,
      "➜": 1163,
      "➞": 1164,
      "➢": 1165,
      "➣": 1166,
      "➤": 1167,
      "➦": 1168,
      "➧": 1169,
      "➨": 1170,
      "➫": 1171,
      "⟨": 1172,
      "⟩": 1173,
      "⟵": 1174,
      "⟶": 1175,
      "⦁": 1176,
      "⭐": 1177,
      "々": 1178,
      "《": 1179,
      "》": 1180,
      "「": 1181,
      "」": 1182,
      "『": 1183,
      "』": 1184,
      "〜": 1185,
      "ぁ": 1186,
      "あ": 1187,
      "ぃ": 1188,
      "い": 1189,
      "う": 1190,
      "え": 1191,
      "お": 1192,
      "か": 1193,
      "が": 1194,
      "き": 1195,
      "ぎ": 1196,
      "く": 1197,
      "ぐ": 1198,
      "け": 1199,
      "げ": 1200,
      "こ": 1201,
      "ご": 1202,
      "さ": 1203,
      "し": 1204,
      "じ": 1205,
      "す": 1206,
      "ず": 1207,
      "せ": 1208,
      "そ": 1209,
      "た": 1210,
      "だ": 1211,
      "ち": 1212,
      "っ": 1213,
      "つ": 1214,
      "て": 1215,
      "で": 1216,
      "と": 1217,
      "な": 1218,
      "に": 1219,
      "ぬ": 1220,
      "の": 1221,
      "は": 1222,
      "ば": 1223,
      "び": 1224,
      "ふ": 1225,
      "ぶ": 1226,
      "ま": 1227,
      "み": 1228,
      "む": 1229,
      "め": 1230,
      "も": 1231,
      "ゃ": 1232,
      "や": 1233,
      "ゅ": 1234,
      "よ": 1235,
      "ら": 1236,
      "り": 1237,
      "る": 1238,
      "れ": 1239,
      "ゎ": 1240,
      "を": 1241,
      "ん": 1242,
      "ァ": 1243,
      "ア": 1244,
      "ィ": 1245,
      "イ": 1246,
      "ウ": 1247,
      "ェ": 1248,
      "エ": 1249,
      "オ": 1250,
      "カ": 1251,
      "ガ": 1252,
      "キ": 1253,
      "ギ": 1254,
      "ク": 1255,
      "グ": 1256,
      "ケ": 1257,
      "ゲ": 1258,
      "コ": 1259,
      "ゴ": 1260,
      "サ": 1261,
      "ザ": 1262,
      "シ": 1263,
      "ジ": 1264,
      "ス": 1265,
      "ズ": 1266,
      "セ": 1267,
      "ゼ": 1268,
      "ゾ": 1269,
      "タ": 1270,
      "ダ": 1271,
      "チ": 1272,
      "ッ": 1273,
      "ツ": 1274,
      "テ": 1275,
      "デ": 1276,
      "ト": 1277,
      "ド": 1278,
      "ナ": 1279,
      "ニ": 1280,
      "ネ": 1281,
      "ノ": 1282,
      "ハ": 1283,
      "バ": 1284,
      "パ": 1285,
      "ビ": 1286,
      "フ": 1287,
      "ブ": 1288,
      "プ": 1289,
      "ヘ": 1290,
      "ベ": 1291,
      "ペ": 1292,
      "ホ": 1293,
      "ボ": 1294,
      "ポ": 1295,
      "マ": 1296,
      "ミ": 1297,
      "ム": 1298,
      "メ": 1299,
      "モ": 1300,
      "ャ": 1301,
      "ュ": 1302,
      "ユ": 1303,
      "ョ": 1304,
      "ラ": 1305,
      "リ": 1306,
      "ル": 1307,
      "レ": 1308,
      "ロ": 1309,
      "ワ": 1310,
      "ン": 1311,
      "ヴ": 1312,
      "ヶ": 1313,
      "・": 1314,
      "ー": 1315,
      "ㄷ": 1316,
      "ㅇ": 1317,
      "ㅌ": 1318,
      "ㅎ": 1319,
      "ㆍ": 1320,
      "㎜": 1321,
      "㎡": 1322,
      "㐃": 1323,
      "㜁": 1324,
      "一": 1325,
      "丁": 1326,
      "七": 1327,
      "丈": 1328,
      "三": 1329,
      "上": 1330,
      "下": 1331,
      "不": 1332,
      "业": 1333,
      "东": 1334,
      "丞": 1335,
      "丧": 1336,
      "丨": 1337,
      "个": 1338,
      "中": 1339,
      "串": 1340,
      "临": 1341,
      "主": 1342,
      "乃": 1343,
      "久": 1344,
      "之": 1345,
      "乔": 1346,
      "九": 1347,
      "乡": 1348,
      "书": 1349,
      "买": 1350,
      "事": 1351,
      "二": 1352,
      "云": 1353,
      "互": 1354,
      "五": 1355,
      "井": 1356,
      "亚": 1357,
      "亜": 1358,
      "亞": 1359,
      "交": 1360,
      "亥": 1361,
      "产": 1362,
      "京": 1363,
      "亮": 1364,
      "人": 1365,
      "亿": 1366,
      "仁": 1367,
      "今": 1368,
      "从": 1369,
      "仏": 1370,
      "仔": 1371,
      "他": 1372,
      "代": 1373,
      "令": 1374,
      "以": 1375,
      "仪": 1376,
      "们": 1377,
      "仰": 1378,
      "仲": 1379,
      "件": 1380,
      "价": 1381,
      "份": 1382,
      "伊": 1383,
      "伐": 1384,
      "会": 1385,
      "伝": 1386,
      "伟": 1387,
      "伦": 1388,
      "伯": 1389,
      "似": 1390,
      "位": 1391,
      "佐": 1392,
      "体": 1393,
      "何": 1394,
      "余": 1395,
      "佳": 1396,
      "使": 1397,
      "例": 1398,
      "依": 1399,
      "侯": 1400,
      "便": 1401,
      "係": 1402,
      "俊": 1403,
      "保": 1404,
      "信": 1405,
      "修": 1406,
      "倍": 1407,
      "候": 1408,
      "倩": 1409,
      "做": 1410,
      "停": 1411,
      "偽": 1412,
      "傳": 1413,
      "傷": 1414,
      "價": 1415,
      "儉": 1416,
      "償": 1417,
      "元": 1418,
      "光": 1419,
      "克": 1420,
      "免": 1421,
      "內": 1422,
      "全": 1423,
      "公": 1424,
      "六": 1425,
      "兰": 1426,
      "共": 1427,
      "兴": 1428,
      "兵": 1429,
      "其": 1430,
      "典": 1431,
      "内": 1432,
      "冊": 1433,
      "军": 1434,
      "冬": 1435,
      "冷": 1436,
      "凛": 1437,
      "几": 1438,
      "凱": 1439,
      "凶": 1440,
      "出": 1441,
      "函": 1442,
      "分": 1443,
      "列": 1444,
      "刘": 1445,
      "別": 1446,
      "利": 1447,
      "制": 1448,
      "券": 1449,
      "前": 1450,
      "剣": 1451,
      "剤": 1452,
      "力": 1453,
      "加": 1454,
      "务": 1455,
      "劳": 1456,
      "势": 1457,
      "動": 1458,
      "勰": 1459,
      "包": 1460,
      "化": 1461,
      "北": 1462,
      "区": 1463,
      "医": 1464,
      "區": 1465,
      "十": 1466,
      "千": 1467,
      "午": 1468,
      "半": 1469,
      "卓": 1470,
      "单": 1471,
      "南": 1472,
      "卡": 1473,
      "卫": 1474,
      "印": 1475,
      "即": 1476,
      "却": 1477,
      "卿": 1478,
      "厅": 1479,
      "压": 1480,
      "原": 1481,
      "县": 1482,
      "友": 1483,
      "双": 1484,
      "反": 1485,
      "叔": 1486,
      "变": 1487,
      "口": 1488,
      "古": 1489,
      "句": 1490,
      "召": 1491,
      "可": 1492,
      "台": 1493,
      "史": 1494,
      "右": 1495,
      "号": 1496,
      "司": 1497,
      "合": 1498,
      "吉": 1499,
      "同": 1500,
      "名": 1501,
      "君": 1502,
      "吟": 1503,
      "启": 1504,
      "吴": 1505,
      "吸": 1506,
      "周": 1507,
      "呼": 1508,
      "命": 1509,
      "咀": 1510,
      "和": 1511,
      "咲": 1512,
      "哈": 1513,
      "員": 1514,
      "哥": 1515,
      "哪": 1516,
      "唐": 1517,
      "商": 1518,
      "問": 1519,
      "喜": 1520,
      "器": 1521,
      "四": 1522,
      "回": 1523,
      "因": 1524,
      "团": 1525,
      "団": 1526,
      "园": 1527,
      "围": 1528,
      "国": 1529,
      "图": 1530,
      "國": 1531,
      "園": 1532,
      "土": 1533,
      "圣": 1534,
      "在": 1535,
      "地": 1536,
      "坑": 1537,
      "坦": 1538,
      "型": 1539,
      "城": 1540,
      "域": 1541,
      "基": 1542,
      "堀": 1543,
      "堂": 1544,
      "堅": 1545,
      "堡": 1546,
      "堤": 1547,
      "塑": 1548,
      "境": 1549,
      "墨": 1550,
      "墾": 1551,
      "士": 1552,
      "壽": 1553,
      "夏": 1554,
      "外": 1555,
      "多": 1556,
      "大": 1557,
      "天": 1558,
      "太": 1559,
      "夫": 1560,
      "奥": 1561,
      "女": 1562,
      "奶": 1563,
      "好": 1564,
      "如": 1565,
      "妄": 1566,
      "妊": 1567,
      "姚": 1568,
      "姜": 1569,
      "姥": 1570,
      "姫": 1571,
      "姬": 1572,
      "娛": 1573,
      "婷": 1574,
      "媏": 1575,
      "媒": 1576,
      "嬧": 1577,
      "嬪": 1578,
      "孁": 1579,
      "子": 1580,
      "字": 1581,
      "学": 1582,
      "宁": 1583,
      "宇": 1584,
      "安": 1585,
      "宋": 1586,
      "完": 1587,
      "宏": 1588,
      "宕": 1589,
      "宗": 1590,
      "官": 1591,
      "定": 1592,
      "実": 1593,
      "客": 1594,
      "宣": 1595,
      "家": 1596,
      "容": 1597,
      "宾": 1598,
      "宿": 1599,
      "寄": 1600,
      "密": 1601,
      "寓": 1602,
      "寧": 1603,
      "寶": 1604,
      "寺": 1605,
      "导": 1606,
      "対": 1607,
      "寿": 1608,
      "封": 1609,
      "専": 1610,
      "對": 1611,
      "小": 1612,
      "少": 1613,
      "尔": 1614,
      "尖": 1615,
      "尚": 1616,
      "尺": 1617,
      "尼": 1618,
      "尾": 1619,
      "居": 1620,
      "履": 1621,
      "山": 1622,
      "岛": 1623,
      "岡": 1624,
      "岩": 1625,
      "岳": 1626,
      "島": 1627,
      "崇": 1628,
      "崎": 1629,
      "崔": 1630,
      "崛": 1631,
      "嶺": 1632,
      "巖": 1633,
      "川": 1634,
      "州": 1635,
      "工": 1636,
      "左": 1637,
      "差": 1638,
      "已": 1639,
      "巴": 1640,
      "市": 1641,
      "布": 1642,
      "师": 1643,
      "師": 1644,
      "常": 1645,
      "帽": 1646,
      "幕": 1647,
      "年": 1648,
      "幻": 1649,
      "幽": 1650,
      "广": 1651,
      "庁": 1652,
      "広": 1653,
      "庄": 1654,
      "床": 1655,
      "庐": 1656,
      "店": 1657,
      "庚": 1658,
      "府": 1659,
      "度": 1660,
      "庫": 1661,
      "庭": 1662,
      "康": 1663,
      "廟": 1664,
      "廣": 1665,
      "廬": 1666,
      "建": 1667,
      "弄": 1668,
      "式": 1669,
      "弥": 1670,
      "張": 1671,
      "弾": 1672,
      "彀": 1673,
      "当": 1674,
      "录": 1675,
      "形": 1676,
      "彥": 1677,
      "彩": 1678,
      "彭": 1679,
      "彰": 1680,
      "彼": 1681,
      "待": 1682,
      "很": 1683,
      "律": 1684,
      "後": 1685,
      "御": 1686,
      "循": 1687,
      "微": 1688,
      "德": 1689,
      "徽": 1690,
      "心": 1691,
      "必": 1692,
      "忍": 1693,
      "志": 1694,
      "応": 1695,
      "念": 1696,
      "忽": 1697,
      "怒": 1698,
      "总": 1699,
      "恋": 1700,
      "恩": 1701,
      "悦": 1702,
      "悪": 1703,
      "情": 1704,
      "惇": 1705,
      "惑": 1706,
      "惠": 1707,
      "想": 1708,
      "愛": 1709,
      "慕": 1710,
      "慧": 1711,
      "慶": 1712,
      "成": 1713,
      "我": 1714,
      "戯": 1715,
      "戲": 1716,
      "戴": 1717,
      "戶": 1718,
      "房": 1719,
      "所": 1720,
      "手": 1721,
      "才": 1722,
      "扒": 1723,
      "打": 1724,
      "托": 1725,
      "扮": 1726,
      "承": 1727,
      "折": 1728,
      "抜": 1729,
      "护": 1730,
      "报": 1731,
      "押": 1732,
      "拉": 1733,
      "按": 1734,
      "挫": 1735,
      "挵": 1736,
      "挺": 1737,
      "换": 1738,
      "授": 1739,
      "掌": 1740,
      "接": 1741,
      "推": 1742,
      "描": 1743,
      "提": 1744,
      "換": 1745,
      "握": 1746,
      "援": 1747,
      "搜": 1748,
      "摆": 1749,
      "摩": 1750,
      "摹": 1751,
      "撃": 1752,
      "撒": 1753,
      "播": 1754,
      "撮": 1755,
      "擢": 1756,
      "支": 1757,
      "收": 1758,
      "改": 1759,
      "放": 1760,
      "政": 1761,
      "教": 1762,
      "敦": 1763,
      "文": 1764,
      "斗": 1765,
      "料": 1766,
      "斧": 1767,
      "斯": 1768,
      "新": 1769,
      "施": 1770,
      "旅": 1771,
      "旋": 1772,
      "族": 1773,
      "旗": 1774,
      "无": 1775,
      "日": 1776,
      "旧": 1777,
      "旨": 1778,
      "时": 1779,
      "昆": 1780,
      "昊": 1781,
      "昌": 1782,
      "明": 1783,
      "星": 1784,
      "是": 1785,
      "显": 1786,
      "時": 1787,
      "晟": 1788,
      "景": 1789,
      "智": 1790,
      "曜": 1791,
      "曲": 1792,
      "更": 1793,
      "書": 1794,
      "替": 1795,
      "月": 1796,
      "有": 1797,
      "服": 1798,
      "木": 1799,
      "末": 1800,
      "本": 1801,
      "术": 1802,
      "朱": 1803,
      "机": 1804,
      "权": 1805,
      "杉": 1806,
      "李": 1807,
      "村": 1808,
      "杜": 1809,
      "来": 1810,
      "東": 1811,
      "杵": 1812,
      "松": 1813,
      "极": 1814,
      "林": 1815,
      "果": 1816,
      "查": 1817,
      "栗": 1818,
      "校": 1819,
      "株": 1820,
      "根": 1821,
      "格": 1822,
      "案": 1823,
      "桌": 1824,
      "桑": 1825,
      "桜": 1826,
      "桥": 1827,
      "桦": 1828,
      "楚": 1829,
      "業": 1830,
      "楼": 1831,
      "構": 1832,
      "槍": 1833,
      "樂": 1834,
      "標": 1835,
      "模": 1836,
      "樣": 1837,
      "横": 1838,
      "樹": 1839,
      "樺": 1840,
      "橋": 1841,
      "檒": 1842,
      "檛": 1843,
      "櫻": 1844,
      "欢": 1845,
      "欧": 1846,
      "歌": 1847,
      "歐": 1848,
      "正": 1849,
      "步": 1850,
      "武": 1851,
      "歳": 1852,
      "歷": 1853,
      "死": 1854,
      "殷": 1855,
      "母": 1856,
      "比": 1857,
      "民": 1858,
      "气": 1859,
      "気": 1860,
      "氬": 1861,
      "水": 1862,
      "永": 1863,
      "汉": 1864,
      "江": 1865,
      "汶": 1866,
      "沒": 1867,
      "沖": 1868,
      "沙": 1869,
      "沟": 1870,
      "没": 1871,
      "沭": 1872,
      "河": 1873,
      "法": 1874,
      "泺": 1875,
      "洗": 1876,
      "洛": 1877,
      "洞": 1878,
      "津": 1879,
      "洲": 1880,
      "活": 1881,
      "派": 1882,
      "流": 1883,
      "浄": 1884,
      "浏": 1885,
      "浙": 1886,
      "浜": 1887,
      "浪": 1888,
      "浮": 1889,
      "海": 1890,
      "涌": 1891,
      "涯": 1892,
      "淒": 1893,
      "淭": 1894,
      "混": 1895,
      "清": 1896,
      "渚": 1897,
      "温": 1898,
      "港": 1899,
      "游": 1900,
      "湾": 1901,
      "湿": 1902,
      "源": 1903,
      "溪": 1904,
      "溴": 1905,
      "滑": 1906,
      "滿": 1907,
      "演": 1908,
      "潇": 1909,
      "澳": 1910,
      "瀏": 1911,
      "瀛": 1912,
      "瀬": 1913,
      "灣": 1914,
      "火": 1915,
      "灯": 1916,
      "炭": 1917,
      "炮": 1918,
      "炸": 1919,
      "点": 1920,
      "烏": 1921,
      "烧": 1922,
      "焰": 1923,
      "煤": 1924,
      "照": 1925,
      "煲": 1926,
      "熊": 1927,
      "燃": 1928,
      "燕": 1929,
      "燘": 1930,
      "燰": 1931,
      "爆": 1932,
      "爛": 1933,
      "父": 1934,
      "爿": 1935,
      "版": 1936,
      "牛": 1937,
      "物": 1938,
      "特": 1939,
      "犬": 1940,
      "狐": 1941,
      "独": 1942,
      "狼": 1943,
      "猫": 1944,
      "玄": 1945,
      "率": 1946,
      "玉": 1947,
      "王": 1948,
      "玩": 1949,
      "环": 1950,
      "珠": 1951,
      "現": 1952,
      "理": 1953,
      "琳": 1954,
      "琴": 1955,
      "瑜": 1956,
      "瑠": 1957,
      "璃": 1958,
      "環": 1959,
      "瓜": 1960,
      "甜": 1961,
      "生": 1962,
      "用": 1963,
      "甪": 1964,
      "田": 1965,
      "由": 1966,
      "甲": 1967,
      "申": 1968,
      "电": 1969,
      "男": 1970,
      "町": 1971,
      "画": 1972,
      "略": 1973,
      "疏": 1974,
      "疾": 1975,
      "病": 1976,
      "癌": 1977,
      "白": 1978,
      "百": 1979,
      "的": 1980,
      "皇": 1981,
      "皮": 1982,
      "益": 1983,
      "盥": 1984,
      "目": 1985,
      "直": 1986,
      "相": 1987,
      "省": 1988,
      "看": 1989,
      "県": 1990,
      "眼": 1991,
      "矢": 1992,
      "知": 1993,
      "石": 1994,
      "码": 1995,
      "础": 1996,
      "碑": 1997,
      "礁": 1998,
      "示": 1999,
      "礼": 2000,
      "社": 2001,
      "祇": 2002,
      "祝": 2003,
      "神": 2004,
      "祥": 2005,
      "福": 2006,
      "秋": 2007,
      "秦": 2008,
      "程": 2009,
      "稽": 2010,
      "穂": 2011,
      "穢": 2012,
      "空": 2013,
      "穿": 2014,
      "窗": 2015,
      "立": 2016,
      "站": 2017,
      "竜": 2018,
      "章": 2019,
      "端": 2020,
      "競": 2021,
      "竹": 2022,
      "笑": 2023,
      "笔": 2024,
      "符": 2025,
      "第": 2026,
      "简": 2027,
      "箔": 2028,
      "算": 2029,
      "管": 2030,
      "節": 2031,
      "簿": 2032,
      "籍": 2033,
      "米": 2034,
      "粤": 2035,
      "粱": 2036,
      "糯": 2037,
      "糸": 2038,
      "系": 2039,
      "紀": 2040,
      "紗": 2041,
      "紘": 2042,
      "素": 2043,
      "索": 2044,
      "紫": 2045,
      "細": 2046,
      "絆": 2047,
      "結": 2048,
      "統": 2049,
      "絵": 2050,
      "經": 2051,
      "綠": 2052,
      "維": 2053,
      "網": 2054,
      "綾": 2055,
      "緑": 2056,
      "線": 2057,
      "編": 2058,
      "縣": 2059,
      "繁": 2060,
      "繋": 2061,
      "織": 2062,
      "繙": 2063,
      "纸": 2064,
      "线": 2065,
      "练": 2066,
      "经": 2067,
      "绘": 2068,
      "络": 2069,
      "维": 2070,
      "罄": 2071,
      "网": 2072,
      "罗": 2073,
      "置": 2074,
      "羅": 2075,
      "美": 2076,
      "翰": 2077,
      "翼": 2078,
      "老": 2079,
      "者": 2080,
      "联": 2081,
      "聖": 2082,
      "聞": 2083,
      "聽": 2084,
      "肇": 2085,
      "肉": 2086,
      "胡": 2087,
      "脡": 2088,
      "脫": 2089,
      "腐": 2090,
      "腳": 2091,
      "腸": 2092,
      "臑": 2093,
      "自": 2094,
      "臺": 2095,
      "興": 2096,
      "舍": 2097,
      "舎": 2098,
      "舞": 2099,
      "航": 2100,
      "舰": 2101,
      "良": 2102,
      "色": 2103,
      "艺": 2104,
      "节": 2105,
      "芍": 2106,
      "芭": 2107,
      "花": 2108,
      "芽": 2109,
      "苍": 2110,
      "苗": 2111,
      "英": 2112,
      "苳": 2113,
      "苹": 2114,
      "茂": 2115,
      "茄": 2116,
      "茅": 2117,
      "茫": 2118,
      "茶": 2119,
      "荐": 2120,
      "荒": 2121,
      "荣": 2122,
      "莊": 2123,
      "莱": 2124,
      "莽": 2125,
      "菇": 2126,
      "葬": 2127,
      "蒂": 2128,
      "蒙": 2129,
      "蒸": 2130,
      "蓝": 2131,
      "蔓": 2132,
      "蕭": 2133,
      "薛": 2134,
      "藤": 2135,
      "蘑": 2136,
      "虫": 2137,
      "蛋": 2138,
      "蜜": 2139,
      "蟰": 2140,
      "行": 2141,
      "術": 2142,
      "衖": 2143,
      "衛": 2144,
      "衝": 2145,
      "衣": 2146,
      "表": 2147,
      "被": 2148,
      "袯": 2149,
      "裁": 2150,
      "裂": 2151,
      "装": 2152,
      "裏": 2153,
      "西": 2154,
      "要": 2155,
      "見": 2156,
      "視": 2157,
      "親": 2158,
      "覽": 2159,
      "觀": 2160,
      "观": 2161,
      "视": 2162,
      "览": 2163,
      "觉": 2164,
      "解": 2165,
      "言": 2166,
      "計": 2167,
      "設": 2168,
      "註": 2169,
      "評": 2170,
      "話": 2171,
      "詳": 2172,
      "詹": 2173,
      "語": 2174,
      "説": 2175,
      "読": 2176,
      "謝": 2177,
      "識": 2178,
      "譜": 2179,
      "譯": 2180,
      "计": 2181,
      "讨": 2182,
      "议": 2183,
      "记": 2184,
      "讲": 2185,
      "许": 2186,
      "论": 2187,
      "设": 2188,
      "译": 2189,
      "该": 2190,
      "语": 2191,
      "读": 2192,
      "课": 2193,
      "谁": 2194,
      "调": 2195,
      "谩": 2196,
      "谷": 2197,
      "貴": 2198,
      "費": 2199,
      "賠": 2200,
      "質": 2201,
      "败": 2202,
      "贵": 2203,
      "贸": 2204,
      "赞": 2205,
      "赤": 2206,
      "距": 2207,
      "跡": 2208,
      "路": 2209,
      "車": 2210,
      "軌": 2211,
      "軍": 2212,
      "転": 2213,
      "載": 2214,
      "輔": 2215,
      "輝": 2216,
      "车": 2217,
      "软": 2218,
      "载": 2219,
      "较": 2220,
      "辛": 2221,
      "边": 2222,
      "迆": 2223,
      "运": 2224,
      "返": 2225,
      "还": 2226,
      "连": 2227,
      "迦": 2228,
      "迪": 2229,
      "述": 2230,
      "送": 2231,
      "透": 2232,
      "這": 2233,
      "通": 2234,
      "造": 2235,
      "逢": 2236,
      "進": 2237,
      "逸": 2238,
      "遁": 2239,
      "遊": 2240,
      "運": 2241,
      "道": 2242,
      "避": 2243,
      "那": 2244,
      "郎": 2245,
      "郑": 2246,
      "郜": 2247,
      "部": 2248,
      "都": 2249,
      "鄒": 2250,
      "鄔": 2251,
      "鄰": 2252,
      "酋": 2253,
      "配": 2254,
      "酒": 2255,
      "酸": 2256,
      "醡": 2257,
      "醬": 2258,
      "里": 2259,
      "重": 2260,
      "野": 2261,
      "金": 2262,
      "釩": 2263,
      "鈉": 2264,
      "鈥": 2265,
      "鉀": 2266,
      "鉍": 2267,
      "銀": 2268,
      "銅": 2269,
      "銫": 2270,
      "錆": 2271,
      "錶": 2272,
      "鎌": 2273,
      "鎢": 2274,
      "鏡": 2275,
      "鏢": 2276,
      "鏮": 2277,
      "鐘": 2278,
      "鐨": 2279,
      "鐿": 2280,
      "鑼": 2281,
      "钟": 2282,
      "铁": 2283,
      "铆": 2284,
      "铝": 2285,
      "铭": 2286,
      "锁": 2287,
      "错": 2288,
      "锚": 2289,
      "键": 2290,
      "镇": 2291,
      "長": 2292,
      "长": 2293,
      "門": 2294,
      "間": 2295,
      "閘": 2296,
      "閟": 2297,
      "閠": 2298,
      "闍": 2299,
      "闘": 2300,
      "關": 2301,
      "门": 2302,
      "问": 2303,
      "间": 2304,
      "闵": 2305,
      "闺": 2306,
      "闻": 2307,
      "阁": 2308,
      "阅": 2309,
      "阪": 2310,
      "防": 2311,
      "阳": 2312,
      "际": 2313,
      "陋": 2314,
      "降": 2315,
      "限": 2316,
      "陛": 2317,
      "险": 2318,
      "陵": 2319,
      "陸": 2320,
      "陽": 2321,
      "隊": 2322,
      "隞": 2323,
      "隠": 2324,
      "隨": 2325,
      "难": 2326,
      "雕": 2327,
      "雪": 2328,
      "雷": 2329,
      "霖": 2330,
      "青": 2331,
      "静": 2332,
      "非": 2333,
      "面": 2334,
      "革": 2335,
      "韆": 2336,
      "韉": 2337,
      "韓": 2338,
      "韔": 2339,
      "韩": 2340,
      "音": 2341,
      "頂": 2342,
      "預": 2343,
      "頚": 2344,
      "頻": 2345,
      "題": 2346,
      "项": 2347,
      "须": 2348,
      "频": 2349,
      "風": 2350,
      "飛": 2351,
      "飞": 2352,
      "餐": 2353,
      "館": 2354,
      "饭": 2355,
      "饶": 2356,
      "馆": 2357,
      "香": 2358,
      "馨": 2359,
      "馿": 2360,
      "駅": 2361,
      "駆": 2362,
      "驴": 2363,
      "验": 2364,
      "骼": 2365,
      "髇": 2366,
      "體": 2367,
      "高": 2368,
      "鬼": 2369,
      "魂": 2370,
      "魏": 2371,
      "魔": 2372,
      "魚": 2373,
      "鮮": 2374,
      "鱼": 2375,
      "鲁": 2376,
      "鳔": 2377,
      "鳩": 2378,
      "鶴": 2379,
      "鷅": 2380,
      "鸣": 2381,
      "鹏": 2382,
      "麦": 2383,
      "麵": 2384,
      "麻": 2385,
      "黃": 2386,
      "黄": 2387,
      "點": 2388,
      "鼎": 2389,
      "齊": 2390,
      "齐": 2391,
      "龍": 2392,
      "龙": 2393,
      "龜": 2394,
      "가": 2395,
      "간": 2396,
      "게": 2397,
      "격": 2398,
      "경": 2399,
      "계": 2400,
      "관": 2401,
      "광": 2402,
      "교": 2403,
      "구": 2404,
      "국": 2405,
      "군": 2406,
      "권": 2407,
      "그": 2408,
      "기": 2409,
      "까": 2410,
      "뀄": 2411,
      "뀐": 2412,
      "끸": 2413,
      "낍": 2414,
      "나": 2415,
      "낞": 2416,
      "네": 2417,
      "넬": 2418,
      "년": 2419,
      "눇": 2420,
      "눉": 2421,
      "눱": 2422,
      "뉴": 2423,
      "는": 2424,
      "능": 2425,
      "니": 2426,
      "다": 2427,
      "당": 2428,
      "대": 2429,
      "댴": 2430,
      "데": 2431,
      "돌": 2432,
      "동": 2433,
      "됨": 2434,
      "드": 2435,
      "디": 2436,
      "램": 2437,
      "략": 2438,
      "럽": 2439,
      "련": 2440,
      "로": 2441,
      "료": 2442,
      "른": 2443,
      "리": 2444,
      "린": 2445,
      "림": 2446,
      "만": 2447,
      "메": 2448,
      "면": 2449,
      "명": 2450,
      "모": 2451,
      "무": 2452,
      "문": 2453,
      "미": 2454,
      "민": 2455,
      "박": 2456,
      "반": 2457,
      "방": 2458,
      "백": 2459,
      "버": 2460,
      "별": 2461,
      "보": 2462,
      "봉": 2463,
      "브": 2464,
      "블": 2465,
      "비": 2466,
      "빠": 2467,
      "산": 2468,
      "삼": 2469,
      "상": 2470,
      "서": 2471,
      "선": 2472,
      "설": 2473,
      "성": 2474,
      "세": 2475,
      "속": 2476,
      "수": 2477,
      "스": 2478,
      "승": 2479,
      "시": 2480,
      "신": 2481,
      "심": 2482,
      "싸": 2483,
      "아": 2484,
      "앱": 2485,
      "야": 2486,
      "약": 2487,
      "양": 2488,
      "어": 2489,
      "연": 2490,
      "영": 2491,
      "예": 2492,
      "오": 2493,
      "온": 2494,
      "외": 2495,
      "요": 2496,
      "우": 2497,
      "울": 2498,
      "월": 2499,
      "유": 2500,
      "을": 2501,
      "음": 2502,
      "의": 2503,
      "이": 2504,
      "일": 2505,
      "자": 2506,
      "장": 2507,
      "쟁": 2508,
      "저": 2509,
      "전": 2510,
      "점": 2511,
      "접": 2512,
      "정": 2513,
      "제": 2514,
      "종": 2515,
      "주": 2516,
      "중": 2517,
      "즉": 2518,
      "진": 2519,
      "처": 2520,
      "청": 2521,
      "추": 2522,
      "출": 2523,
      "츠": 2524,
      "침": 2525,
      "카": 2526,
      "캠": 2527,
      "코": 2528,
      "쿠": 2529,
      "크": 2530,
      "탈": 2531,
      "터": 2532,
      "투": 2533,
      "튜": 2534,
      "트": 2535,
      "특": 2536,
      "페": 2537,
      "표": 2538,
      "품": 2539,
      "프": 2540,
      "플": 2541,
      "피": 2542,
      "필": 2543,
      "하": 2544,
      "학": 2545,
      "한": 2546,
      "합": 2547,
      "헤": 2548,
      "현": 2549,
      "화": 2550,
      "활": 2551,
      "후": 2552,
      "히": 2553,
      "": 2554,
      "": 2555,
      "": 2556,
      "（": 2557,
      "）": 2558,
      "𝑏": 2559,
      "𝑥": 2560,
      "𝑦": 2561,
      "🇨": 2562,
      "🇪": 2563,
      "🇮": 2564,
      "🇴": 2565,
      "🇸": 2566,
      "🇹": 2567,
      "🇺": 2568,
      "🌎": 2569,
      "🌏": 2570,
      "🌟": 2571,
      "🌭": 2572,
      "🌴": 2573,
      "🌸": 2574,
      "🌼": 2575,
      "🍉": 2576,
      "🍕": 2577,
      "🎃": 2578,
      "🎄": 2579,
      "🎉": 2580,
      "🎤": 2581,
      "🎧": 2582,
      "🎨": 2583,
      "🏃": 2584,
      "🏖": 2585,
      "🏠": 2586,
      "🏡": 2587,
      "🏽": 2588,
      "🐐": 2589,
      "🐲": 2590,
      "🐶": 2591,
      "👅": 2592,
      "👆": 2593,
      "👇": 2594,
      "👉": 2595,
      "👊": 2596,
      "👍": 2597,
      "👏": 2598,
      "👑": 2599,
      "👕": 2600,
      "💕": 2601,
      "💖": 2602,
      "💗": 2603,
      "💚": 2604,
      "💜": 2605,
      "💡": 2606,
      "💵": 2607,
      "📌": 2608,
      "📑": 2609,
      "📡": 2610,
      "📱": 2611,
      "📷": 2612,
      "📻": 2613,
      "📽": 2614,
      "🔎": 2615,
      "🔐": 2616,
      "🔗": 2617,
      "🔥": 2618,
      "🔮": 2619,
      "🔴": 2620,
      "😂": 2621,
      "😇": 2622,
      "😉": 2623,
      "😊": 2624,
      "😍": 2625,
      "😎": 2626,
      "😜": 2627,
      "😞": 2628,
      "😻": 2629,
      "🙁": 2630,
      "🙂": 2631,
      "🚗": 2632,
      "🚦": 2633,
      "🚧": 2634,
      "🚫": 2635,
      "🛵": 2636,
      "🤑": 2637,
      "🤔": 2638,
      "🤨": 2639,
      "🦊": 2640,
      "🦋": 2641,
      "𧻧": 2642,
      "d</w>": 2643,
      "k</w>": 2644,
      "i</w>": 2645,
      "0</w>": 2646,
      "y</w>": 2647,
      "s</w>": 2648,
      "e</w>": 2649,
      "A</w>": 2650,
      "K</w>": 2651,
      "a</w>": 2652,
      "n</w>": 2653,
      "h</w>": 2654,
      "r</w>": 2655,
      "m</w>": 2656,
      "g</w>": 2657,
      "C</w>": 2658,
      "B</w>": 2659,
      "P</w>": 2660,
      "l</w>": 2661,
      "L</w>": 2662,
      "G</w>": 2663,
      "o</w>": 2664,
      "R</w>": 2665,
      "D</w>": 2666,
      "9</w>": 2667,
      "O</w>": 2668,
      "j</w>": 2669,
      "t</w>": 2670,
      "c</w>": 2671,
      "N</w>": 2672,
      "x</w>": 2673,
      "í</w>": 2674,
      "2</w>": 2675,
      "u</w>": 2676,
      "Y</w>": 2677,
      "Q</w>": 2678,
      "Z</w>": 2679,
      "I</w>": 2680,
      "E</w>": 2681,
      "3</w>": 2682,
      "S</w>": 2683,
      "p</w>": 2684,
      "H</w>": 2685,
      "á</w>": 2686,
      "4</w>": 2687,
      "ú</w>": 2688,
      "W</w>": 2689,
      "1</w>": 2690,
      ":</w>": 2691,
      "M</w>": 2692,
      "知</w>": 2693,
      "T</w>": 2694,
      "ê</w>": 2695,
      "f</w>": 2696,
      "v</w>": 2697,
      "م</w>": 2698,
      "7</w>": 2699,
      "U</w>": 2700,
      "w</w>": 2701,
      "5</w>": 2702,
      "F</w>": 2703,
      "X</w>": 2704,
      "z</w>": 2705,
      "b</w>": 2706,
      "ó</w>": 2707,
      "8</w>": 2708,
      "6</w>": 2709,
      "{</w>": 2710,
      "Ó</w>": 2711,
      "à</w>": 2712,
      "q</w>": 2713,
      "🇺</w>": 2714,
      "=</w>": 2715,
      "é</w>": 2716,
      "體</w>": 2717,
      "!</w>": 2718,
      "V</w>": 2719,
      "」</w>": 2720,
      ".</w>": 2721,
      "ć</w>": 2722,
      "​</w>": 2723,
      "º</w>": 2724,
      "ō</w>": 2725,
      "ˆ</w>": 2726,
      "劳</w>": 2727,
      ";</w>": 2728,
      ")</w>": 2729,
      "J</w>": 2730,
      "й</w>": 2731,
      "*</w>": 2732,
      "-</w>": 2733,
      "’</w>": 2734,
      "Í</w>": 2735,
      "Á</w>": 2736,
      "☆</w>": 2737,
      "]</w>": 2738,
      "\"</w>": 2739,
      "(</w>": 2740,
      "←</w>": 2741,
      "ı</w>": 2742,
      "»</w>": 2743,
      "я</w>": 2744,
      "ã</w>": 2745,
      "琳</w>": 2746,
      ",</w>": 2747,
      "拉</w>": 2748,
      "▎</w>": 2749,
      "></w>": 2750,
      "ì</w>": 2751,
      "̫</w>": 2752,
      "è</w>": 2753,
      "€</w>": 2754,
      "교</w>": 2755,
      "預</w>": 2756,
      "ī</w>": 2757,
      "┐</w>": 2758,
      "★</w>": 2759,
      "明</w>": 2760,
      "д</w>": 2761,
      "步</w>": 2762,
      "#</w>": 2763,
      "█</w>": 2764,
      "纸</w>": 2765,
      "脡</w>": 2766,
      "师</w>": 2767,
      "力</w>": 2768,
      "ū</w>": 2769,
      "仲</w>": 2770,
      "Ò</w>": 2771,
      "˻</w>": 2772,
      "Ć</w>": 2773,
      "υ</w>": 2774,
      "ª</w>": 2775,
      "À</w>": 2776,
      "ς</w>": 2777,
      "ż</w>": 2778,
      "稽</w>": 2779,
      "剤</w>": 2780,
      "尚</w>": 2781,
      "ß</w>": 2782,
      "”</w>": 2783,
      "^</w>": 2784,
      "ν</w>": 2785,
      "√</w>": 2786,
      "…</w>": 2787,
      "ج</w>": 2788,
      "क</w>": 2789,
      "_</w>": 2790,
      "ع</w>": 2791,
      "ş</w>": 2792,
      "口</w>": 2793,
      "'</w>": 2794,
      "德</w>": 2795,
      "➔</w>": 2796,
      "も</w>": 2797,
      "♢</w>": 2798,
      "¿</w>": 2799,
      "ル</w>": 2800,
      "Ū</w>": 2801,
      "§</w>": 2802,
      "?</w>": 2803,
      "“</w>": 2804,
      "Σ</w>": 2805,
      "龍</w>": 2806,
      "ㅌ</w>": 2807,
      "‚</w>": 2808,
      "釩</w>": 2809,
      "℃</w>": 2810,
      "ń</w>": 2811,
      "$</w>": 2812,
      "%</w>": 2813,
      "@</w>": 2814,
      "É</w>": 2815,
      "尔</w>": 2816,
      "/</w>": 2817,
      "載</w>": 2818,
      "务</w>": 2819,
      "Ú</w>": 2820,
      "н</w>": 2821,
      "♔</w>": 2822,
      "\\</w>": 2823,
      "典</w>": 2824,
      "🍉</w>": 2825,
      "』</w>": 2826,
      "装</w>": 2827,
      "[</w>": 2828,
      "ü</w>": 2829,
      "病</w>": 2830,
      "©</w>": 2831,
      "투</w>": 2832,
      "å</w>": 2833,
      "鄒</w>": 2834,
      "聖</w>": 2835,
      "ℓ</w>": 2836,
      "外</w>": 2837,
      "ل</w>": 2838,
      "ų</w>": 2839,
      "ಯ</w>": 2840,
      "Â</w>": 2841,
      "š</w>": 2842,
      "«</w>": 2843,
      "分</w>": 2844,
      "̱</w>": 2845,
      "好</w>": 2846,
      "ô</w>": 2847,
      "ł</w>": 2848,
      "Ă</w>": 2849,
      "ẽ</w>": 2850,
      "ò</w>": 2851,
      "▶</w>": 2852,
      "ս</w>": 2853,
      "+</w>": 2854,
      "ă</w>": 2855,
      "ę</w>": 2856,
      "´</w>": 2857,
      "–</w>": 2858,
      "政</w>": 2859,
      "õ</w>": 2860,
      "③</w>": 2861,
      "ス</w>": 2862,
      "격</w>": 2863,
      "♭</w>": 2864,
      "æ</w>": 2865,
      "擢</w>": 2866,
      "น</w>": 2867,
      "ή</w>": 2868,
      "и</w>": 2869,
      "ʎ</w>": 2870,
      "±</w>": 2871,
      "™</w>": 2872,
      "č</w>": 2873,
      "⇩</w>": 2874,
      "別</w>": 2875,
      "처</w>": 2876,
      "り</w>": 2877,
      "基</w>": 2878,
      "サ</w>": 2879,
      "£</w>": 2880,
      "ά</w>": 2881,
      "า</w>": 2882,
      "ク</w>": 2883,
      "⁰</w>": 2884,
      "ö</w>": 2885,
      "年</w>": 2886,
      "¸</w>": 2887,
      "ç</w>": 2888,
      "茅</w>": 2889,
      "ة</w>": 2890,
      "ā</w>": 2891,
      "어</w>": 2892,
      "â</w>": 2893,
      "Ā</w>": 2894,
      "¡</w>": 2895,
      "ě</w>": 2896,
      "仁</w>": 2897,
      "ن</w>": 2898,
      "ا</w>": 2899,
      "ù</w>": 2900,
      "ʼ</w>": 2901,
      "父</w>": 2902,
      "教</w>": 2903,
      "ン</w>": 2904,
      "а</w>": 2905,
      "ز</w>": 2906,
      "勰</w>": 2907,
      "ë</w>": 2908,
      "앱</w>": 2909,
      "臑</w>": 2910,
      "ñ</w>": 2911,
      "体</w>": 2912,
      "—</w>": 2913,
      "ು</w>": 2914,
      "铆</w>": 2915,
      "ḥ</w>": 2916,
      "ю</w>": 2917,
      "ž</w>": 2918,
      "˅</w>": 2919,
      "ʁ</w>": 2920,
      "雪</w>": 2921,
      "®</w>": 2922,
      "ý</w>": 2923,
      "²</w>": 2924,
      "生</w>": 2925,
      "외</w>": 2926,
      "多</w>": 2927,
      "ä</w>": 2928,
      "ň</w>": 2929,
      "🏡</w>": 2930,
      "ت</w>": 2931,
      "河</w>": 2932,
      "😂</w>": 2933,
      "ʒ</w>": 2934,
      "з</w>": 2935,
      "フ</w>": 2936,
      "&</w>": 2937,
      "仰</w>": 2938,
      "ï</w>": 2939,
      "⇒</w>": 2940,
      "ם</w>": 2941,
      "點</w>": 2942,
      "련</w>": 2943,
      "ಠ</w>": 2944,
      "做</w>": 2945,
      "堂</w>": 2946,
      "Δ</w>": 2947,
      "◂</w>": 2948,
      "Ü</w>": 2949,
      "ĩ</w>": 2950,
      "◉</w>": 2951,
      "冊</w>": 2952,
      "Ã</w>": 2953,
      "Г</w>": 2954,
      "⌊</w>": 2955,
      "Α</w>": 2956,
      "ウ</w>": 2957,
      "ĭ</w>": 2958,
      "🎃</w>": 2959,
      "県</w>": 2960,
      "❤</w>": 2961,
      "Φ</w>": 2962,
      "Ш</w>": 2963,
      "图</w>": 2964,
      "∨</w>": 2965,
      "̯</w>": 2966,
      "彩</w>": 2967,
      "ެ</w>": 2968,
      "स</w>": 2969,
      "リ</w>": 2970,
      "`</w>": 2971,
      "ה</w>": 2972,
      "示</w>": 2973,
      "л</w>": 2974,
      "य</w>": 2975,
      "前</w>": 2976,
      "⇢</w>": 2977,
      "イ</w>": 2978,
      "ง</w>": 2979,
      "日</w>": 2980,
      "翼</w>": 2981,
      "术</w>": 2982,
      "▷</w>": 2983,
      "語</w>": 2984,
      "略</w>": 2985,
      "~</w>": 2986,
      "💕</w>": 2987,
      "ケ</w>": 2988,
      "👇</w>": 2989,
      "佐</w>": 2990,
      "θ</w>": 2991,
      "換</w>": 2992,
      "ӕ</w>": 2993,
      "༓</w>": 2994,
      "ø</w>": 2995,
      "🎤</w>": 2996,
      "北</w>": 2997,
      "行</w>": 2998,
      "э</w>": 2999,
      "ی</w>": 3000,
      "ợ</w>": 3001,
      "😍</w>": 3002,
      "ह</w>": 3003,
      "≠</w>": 3004,
      "Ω</w>": 3005,
      "簿</w>": 3006,
      "遁</w>": 3007,
      "ി</w>": 3008,
      "鼎</w>": 3009,
      "Ä</w>": 3010,
      "♥</w>": 3011,
      "ば</w>": 3012,
      "ч</w>": 3013,
      "阁</w>": 3014,
      "南</w>": 3015,
      "さ</w>": 3016,
      "❑</w>": 3017,
      "히</w>": 3018,
      "}</w>": 3019,
      "ء</w>": 3020,
      "Ē</w>": 3021,
      "ᵃ</w>": 3022,
      "σ</w>": 3023,
      "⟩</w>": 3024,
      "司</w>": 3025,
      "̜</w>": 3026,
      "📷</w>": 3027,
      "ι</w>": 3028,
      "ė</w>": 3029,
      "✔</w>": 3030,
      "─</w>": 3031,
      "凛</w>": 3032,
      "要</w>": 3033,
      "広</w>": 3034,
      "ː</w>": 3035,
      "ぐ</w>": 3036,
      "❚</w>": 3037,
      "圣</w>": 3038,
      "線</w>": 3039,
      "Ë</w>": 3040,
      "¦</w>": 3041,
      "т</w>": 3042,
      "ᐅ</w>": 3043,
      "ğ</w>": 3044,
      "‡</w>": 3045,
      "‰</w>": 3046,
      "皇</w>": 3047,
      "读</w>": 3048,
      "إ</w>": 3049,
      "国</w>": 3050,
      "和</w>": 3051,
      "<</w>": 3052,
      "练</w>": 3053,
      "る</w>": 3054,
      "Ç</w>": 3055,
      "گ</w>": 3056,
      "花</w>": 3057,
      "ー</w>": 3058,
      "τ</w>": 3059,
      "동</w>": 3060,
      "候</w>": 3061,
      "ر</w>": 3062,
      "镇</w>": 3063,
      "ি</w>": 3064,
      "💵</w>": 3065,
      "🔗</w>": 3066,
      "う</w>": 3067,
      "ţ</w>": 3068,
      "ी</w>": 3069,
      "👏</w>": 3070,
      "점</w>": 3071,
      "地</w>": 3072,
      "面</w>": 3073,
      "÷</w>": 3074,
      "합</w>": 3075,
      "أ</w>": 3076,
      "理</w>": 3077,
      "简</w>": 3078,
      "℠</w>": 3079,
      "仔</w>": 3080,
      "冷</w>": 3081,
      "國</w>": 3082,
      "樺</w>": 3083,
      "二</w>": 3084,
      "💚</w>": 3085,
      "⊗</w>": 3086,
      "د</w>": 3087,
      "ズ</w>": 3088,
      "о</w>": 3089,
      "ὐ</w>": 3090,
      "宿</w>": 3091,
      "ș</w>": 3092,
      "櫻</w>": 3093,
      "族</w>": 3094,
      "다</w>": 3095,
      "ś</w>": 3096,
      "腸</w>": 3097,
      "↓</w>": 3098,
      "↔</w>": 3099,
      "ပ</w>": 3100,
      "環</w>": 3101,
      "ц</w>": 3102,
      "港</w>": 3103,
      "γ</w>": 3104,
      "灯</w>": 3105,
      "त</w>": 3106,
      "ा</w>": 3107,
      "錶</w>": 3108,
      "格</w>": 3109,
      "넬</w>": 3110,
      "🌎</w>": 3111,
      "贸</w>": 3112,
      "►</w>": 3113,
      "자</w>": 3114,
      "끸</w>": 3115,
      "°</w>": 3116,
      "☐</w>": 3117,
      "燰</w>": 3118,
      "斯</w>": 3119,
      "ح</w>": 3120,
      "由</w>": 3121,
      "（</w>": 3122,
      "ය</w>": 3123,
      "修</w>": 3124,
      "ט</w>": 3125,
      "·</w>": 3126,
      "阪</w>": 3127,
      "‘</w>": 3128,
      "子</w>": 3129,
      "🌸</w>": 3130,
      "в</w>": 3131,
      "コ</w>": 3132,
      "鬼</w>": 3133,
      "Ч</w>": 3134,
      "🐲</w>": 3135,
      "Ɩ</w>": 3136,
      "¢</w>": 3137,
      "시</w>": 3138,
      "→</w>": 3139,
      "■</w>": 3140,
      "΄</w>": 3141,
      "|</w>": 3142,
      "ي</w>": 3143,
      "б</w>": 3144,
      "寺</w>": 3145,
      "☎</w>": 3146,
      "ӛ</w>": 3147,
      "⑨</w>": 3148,
      "심</w>": 3149,
      "˜</w>": 3150,
      "左</w>": 3151,
      "İ</w>": 3152,
      "絆</w>": 3153,
      "บ</w>": 3154,
      "须</w>": 3155,
      "Û</w>": 3156,
      "汉</w>": 3157,
      "瓜</w>": 3158,
      "후</w>": 3159,
      "브</w>": 3160,
      "œ</w>": 3161,
      "湾</w>": 3162,
      "│</w>": 3163,
      "⋅</w>": 3164,
      "鳔</w>": 3165,
      "🙂</w>": 3166,
      "¶</w>": 3167,
      "度</w>": 3168,
      "書</w>": 3169,
      "˚</w>": 3170,
      "아</w>": 3171,
      "非</w>": 3172,
      "َ</w>": 3173,
      "е</w>": 3174,
      "店</w>": 3175,
      "‖</w>": 3176,
      "ი</w>": 3177,
      "🛵</w>": 3178,
      "†</w>": 3179,
      "如</w>": 3180,
      "▒</w>": 3181,
      "流</w>": 3182,
      "维</w>": 3183,
      "💗</w>": 3184,
      "ल</w>": 3185,
      "∕</w>": 3186,
      "乡</w>": 3187,
      "′</w>": 3188,
      "系</w>": 3189,
      "薛</w>": 3190,
      "⟶</w>": 3191,
      "☾</w>": 3192,
      "頚</w>": 3193,
      "Ⅱ</w>": 3194,
      "ב</w>": 3195,
      "□</w>": 3196,
      "ȸ</w>": 3197,
      "म</w>": 3198,
      "ы</w>": 3199,
      "்</w>": 3200,
      "✚</w>": 3201,
      "張</w>": 3202,
      "ᾰ</w>": 3203,
      "竜</w>": 3204,
      "⅓</w>": 3205,
      "Ę</w>": 3206,
      "Ю</w>": 3207,
      "藤</w>": 3208,
      "요</w>": 3209,
      "▲</w>": 3210,
      "肉</w>": 3211,
      "⌃</w>": 3212,
      "市</w>": 3213,
      "ى</w>": 3214,
      "舎</w>": 3215,
      "園</w>": 3216,
      "『</w>": 3217,
      "Ş</w>": 3218,
      "니</w>": 3219,
      "త</w>": 3220,
      "翰</w>": 3221,
      "福</w>": 3222,
      "谩</w>": 3223,
      "Ł</w>": 3224,
      "₽</w>": 3225,
      "≈</w>": 3226,
      "🤔</w>": 3227,
      "沖</w>": 3228,
      "ứ</w>": 3229,
      "☽</w>": 3230,
      "ř</w>": 3231,
      "ț</w>": 3232,
      "ῦ</w>": 3233,
      "ب</w>": 3234,
      "ℜ</w>": 3235,
      "曲</w>": 3236,
      "▐</w>": 3237,
      "ບ</w>": 3238,
      "̵</w>": 3239,
      "र</w>": 3240,
      "は</w>": 3241,
      "ĺ</w>": 3242,
      "┼</w>": 3243,
      "校</w>": 3244,
      "省</w>": 3245,
      "Λ</w>": 3246,
      "ק</w>": 3247,
      "話</w>": 3248,
      "Å</w>": 3249,
      "信</w>": 3250,
      "秦</w>": 3251,
      "民</w>": 3252,
      "ỏ</w>": 3253,
      "อ</w>": 3254,
      "神</w>": 3255,
      "礁</w>": 3256,
      "ð</w>": 3257,
      "한</w>": 3258,
      "┤</w>": 3259,
      "െ</w>": 3260,
      "❃</w>": 3261,
      "围</w>": 3262,
      "安</w>": 3263,
      "Ñ</w>": 3264,
      "ط</w>": 3265,
      "✴</w>": 3266,
      "î</w>": 3267,
      "エ</w>": 3268,
      "🏽</w>": 3269,
      "µ</w>": 3270,
      "ộ</w>": 3271,
      "„</w>": 3272,
      "槍</w>": 3273,
      "✅</w>": 3274,
      "プ</w>": 3275,
      "ᐳ</w>": 3276,
      "α</w>": 3277,
      "야</w>": 3278,
      "化</w>": 3279,
      "ち</w>": 3280,
      "四</w>": 3281,
      "⇽</w>": 3282,
      "음</w>": 3283,
      "기</w>": 3284,
      "时</w>": 3285,
      "➧</w>": 3286,
      "录</w>": 3287,
      "ẞ</w>": 3288,
      "施</w>": 3289,
      "◻</w>": 3290,
      "号</w>": 3291,
      "区</w>": 3292,
      "드</w>": 3293,
      "距</w>": 3294,
      "₱</w>": 3295,
      "京</w>": 3296,
      "Ė</w>": 3297,
      "ὶ</w>": 3298,
      "魂</w>": 3299,
      "庁</w>": 3300,
      "学</w>": 3301,
      "с</w>": 3302,
      "❗</w>": 3303,
      "き</w>": 3304,
      "麦</w>": 3305,
      "房</w>": 3306,
      "ム</w>": 3307,
      "間</w>": 3308,
      "沟</w>": 3309,
      "✌</w>": 3310,
      "</w>": 3311,
      "Ц</w>": 3312,
      "پ</w>": 3313,
      "の</w>": 3314,
      "≤</w>": 3315,
      "傷</w>": 3316,
      "만</w>": 3317,
      "色</w>": 3318,
      "↑</w>": 3319,
      "진</w>": 3320,
      "●</w>": 3321,
      "荣</w>": 3322,
      "奥</w>": 3323,
      "Ō</w>": 3324,
      "β</w>": 3325,
      "🌟</w>": 3326,
      "७</w>": 3327,
      "₹</w>": 3328,
      "Є</w>": 3329,
      "織</w>": 3330,
      "п</w>": 3331,
      "٣</w>": 3332,
      "ف</w>": 3333,
      "¼</w>": 3334,
      "骼</w>": 3335,
      "ತ</w>": 3336,
      "뀄</w>": 3337,
      "⌅</w>": 3338,
      "👊</w>": 3339,
      "מ</w>": 3340,
      "📱</w>": 3341,
      "Э</w>": 3342,
      "☰</w>": 3343,
      "居</w>": 3344,
      "桌</w>": 3345,
      "฿</w>": 3346,
      "ő</w>": 3347,
      "Ⓡ</w>": 3348,
      "ʃ</w>": 3349,
      "속</w>": 3350,
      "╚</w>": 3351,
      "魚</w>": 3352,
      "ן</w>": 3353,
      "井</w>": 3354,
      "门</w>": 3355,
      "》</w>": 3356,
      "ら</w>": 3357,
      "◆</w>": 3358,
      "线</w>": 3359,
      "‐</w>": 3360,
      "터</w>": 3361,
      "โ</w>": 3362,
      "興</w>": 3363,
      "泺</w>": 3364,
      "错</w>": 3365,
      "ē</w>": 3366,
      "ા</w>": 3367,
      "🇹</w>": 3368,
      "🏃</w>": 3369,
      "ブ</w>": 3370,
      "陋</w>": 3371,
      "文</w>": 3372,
      "―</w>": 3373,
      "鐨</w>": 3374,
      "⛅</w>": 3375,
      "☺</w>": 3376,
      "Ⓒ</w>": 3377,
      "≲</w>": 3378,
      "⟨</w>": 3379,
      "љ</w>": 3380,
      "의</w>": 3381,
      "樹</w>": 3382,
      "ق</w>": 3383,
      "🙁</w>": 3384,
      "○</w>": 3385,
      "园</w>": 3386,
      "置</w>": 3387,
      "ه</w>": 3388,
      "ế</w>": 3389,
      "常</w>": 3390,
      "士</w>": 3391,
      "ת</w>": 3392,
      "‹</w>": 3393,
      "券</w>": 3394,
      "🦋</w>": 3395,
      "Ý</w>": 3396,
      "😉</w>": 3397,
      "⇐</w>": 3398,
      "ص</w>": 3399,
      "ą</w>": 3400,
      "奶</w>": 3401,
      "‑</w>": 3402,
      "⇛</w>": 3403,
      "み</w>": 3404,
      "想</w>": 3405,
      "鎢</w>": 3406,
      "✻</w>": 3407,
      "倍</w>": 3408,
      "탈</w>": 3409,
      "⇄</w>": 3410,
      "譜</w>": 3411,
      "頻</w>": 3412,
      "月</w>": 3413,
      "청</w>": 3414,
      "ω</w>": 3415,
      "🇸</w>": 3416,
      "ม</w>": 3417,
      "📽</w>": 3418,
      "运</w>": 3419,
      "👕</w>": 3420,
      "语</w>": 3421,
      "✦</w>": 3422,
      "đ</w>": 3423,
      "់</w>": 3424,
      "兵</w>": 3425,
      "่</w>": 3426,
      "タ</w>": 3427,
      "駅</w>": 3428,
      "ㅎ</w>": 3429,
      "ٽ</w>": 3430,
      "ล</w>": 3431,
      "ア</w>": 3432,
      "س</w>": 3433,
      "Ў</w>": 3434,
      "•</w>": 3435,
      "天</w>": 3436,
      "索</w>": 3437,
      "➦</w>": 3438,
      "̰</w>": 3439,
      "印</w>": 3440,
      "丨</w>": 3441,
      "▼</w>": 3442,
      "🎧</w>": 3443,
      "χ</w>": 3444,
      "业</w>": 3445,
      "군</w>": 3446,
      "長</w>": 3447,
      "⇨</w>": 3448,
      "₡</w>": 3449,
      "饶</w>": 3450,
      "车</w>": 3451,
      "直</w>": 3452,
      "품</w>": 3453,
      "🍕</w>": 3454,
      "𧻧</w>": 3455,
      "ژ</w>": 3456,
      "静</w>": 3457,
      "ζ</w>": 3458,
      "✭</w>": 3459,
      "换</w>": 3460,
      "트</w>": 3461,
      "衣</w>": 3462,
      "送</w>": 3463,
      "婷</w>": 3464,
      "书</w>": 3465,
      "⚙</w>": 3466,
      "山</w>": 3467,
      "È</w>": 3468,
      "☉</w>": 3469,
      "器</w>": 3470,
      "울</w>": 3471,
      "₨</w>": 3472,
      "⌀</w>": 3473,
      "ạ</w>": 3474,
      "ڙ</w>": 3475,
      "▸</w>": 3476,
      "七</w>": 3477,
      "画</w>": 3478,
      "情</w>": 3479,
      "리</w>": 3480,
      "∧</w>": 3481,
      "以</w>": 3482,
      "🔐</w>": 3483,
      "대</w>": 3484,
      "명</w>": 3485,
      "↵</w>": 3486,
      "浜</w>": 3487,
      "ÿ</w>": 3488,
      "包</w>": 3489,
      "р</w>": 3490,
      "上</w>": 3491,
      "⁃</w>": 3492,
      "む</w>": 3493,
      "주</w>": 3494,
      "♦</w>": 3495,
      "ŷ</w>": 3496,
      "ל</w>": 3497,
      "Π</w>": 3498,
      "╔</w>": 3499,
      "ラ</w>": 3500,
      "쟁</w>": 3501,
      "心</w>": 3502,
      "ာ</w>": 3503,
      "ែ</w>": 3504,
      "ỉ</w>": 3505,
      "押</w>": 3506,
      "莱</w>": 3507,
      "눇</w>": 3508,
      "布</w>": 3509,
      "약</w>": 3510,
      "ס</w>": 3511,
      "ย</w>": 3512,
      "酒</w>": 3513,
      "∙</w>": 3514,
      "ᾳ</w>": 3515,
      "江</w>": 3516,
      "胡</w>": 3517,
      "ǔ</w>": 3518,
      "➢</w>": 3519,
      "ћ</w>": 3520,
      "🚗</w>": 3521,
      "ร</w>": 3522,
      "ὸ</w>": 3523,
      "溪</w>": 3524,
      "🎉</w>": 3525,
      "韆</w>": 3526,
      "・</w>": 3527,
      "寓</w>": 3528,
      "康</w>": 3529,
      "ᐸ</w>": 3530,
      "箔</w>": 3531,
      "我</w>": 3532,
      "📑</w>": 3533,
      "符</w>": 3534,
      "飞</w>": 3535,
      "신</w>": 3536,
      "航</w>": 3537,
      "›</w>": 3538,
      "́</w>": 3539,
      "す</w>": 3540,
      "定</w>": 3541,
      "Щ</w>": 3542,
      "代</w>": 3543,
      "➤</w>": 3544,
      "⌕</w>": 3545,
      "译</w>": 3546,
      "欢</w>": 3547,
      "网</w>": 3548,
      "و</w>": 3549,
      "鉀</w>": 3550,
      "ע</w>": 3551,
      "Ф</w>": 3552,
      "ר</w>": 3553,
      "ɻ</w>": 3554,
      "宋</w>": 3555,
      "裂</w>": 3556,
      "当</w>": 3557,
      "−</w>": 3558,
      "ガ</w>": 3559,
      "事</w>": 3560,
      "⌘</w>": 3561,
      "╝</w>": 3562,
      "Ě</w>": 3563,
      "馆</w>": 3564,
      "松</w>": 3565,
      "人</w>": 3566,
      "ш</w>": 3567,
      "×</w>": 3568,
      "ኛ</w>": 3569,
      "弾</w>": 3570,
      "ἡ</w>": 3571,
      "≥</w>": 3572,
      "☼</w>": 3573,
      "ʺ</w>": 3574,
      "✍</w>": 3575,
      "里</w>": 3576,
      "⁴</w>": 3577,
      "者</w>": 3578,
      "¬</w>": 3579,
      "十</w>": 3580,
      "鏢</w>": 3581,
      "┬</w>": 3582,
      "志</w>": 3583,
      "灣</w>": 3584,
      "ի</w>": 3585,
      "敦</w>": 3586,
      "护</w>": 3587,
      "ㆍ</w>": 3588,
      "怒</w>": 3589,
      "无</w>": 3590,
      "寧</w>": 3591,
      "较</w>": 3592,
      "🌼</w>": 3593,
      "輝</w>": 3594,
      "空</w>": 3595,
      "物</w>": 3596,
      "霖</w>": 3597,
      "グ</w>": 3598,
      "ṁ</w>": 3599,
      "《</w>": 3600,
      "桦</w>": 3601,
      "◀</w>": 3602,
      "🌴</w>": 3603,
      "周</w>": 3604,
      "と</w>": 3605,
      "Μ</w>": 3606,
      "φ</w>": 3607,
      "☀</w>": 3608,
      "π</w>": 3609,
      "가</w>": 3610,
      "├</w>": 3611,
      "吉</w>": 3612,
      "พ</w>": 3613,
      "♑</w>": 3614,
      "銫</w>": 3615,
      "✈</w>": 3616,
      "û</w>": 3617,
      "❞</w>": 3618,
      "原</w>": 3619,
      "串</w>": 3620,
      "➙</w>": 3621,
      "②</w>": 3622,
      "床</w>": 3623,
      "⁹</w>": 3624,
      "恩</w>": 3625,
      "米</w>": 3626,
      "維</w>": 3627,
      "↹</w>": 3628,
      "郜</w>": 3629,
      "笑</w>": 3630,
      "ئ</w>": 3631,
      "鶴</w>": 3632,
      "一</w>": 3633,
      "∈</w>": 3634,
      "ً</w>": 3635,
      "➨</w>": 3636,
      "י</w>": 3637,
      "団</w>": 3638,
      "ṭ</w>": 3639,
      "姜</w>": 3640,
      "問</w>": 3641,
      "⁄</w>": 3642,
      "략</w>": 3643,
      "ῇ</w>": 3644,
      "间</w>": 3645,
      "∞</w>": 3646,
      "ź</w>": 3647,
      "都</w>": 3648,
      "ㄷ</w>": 3649,
      "👍</w>": 3650,
      "男</w>": 3651,
      "件</w>": 3652,
      "大</w>": 3653,
      "ד</w>": 3654,
      "的</w>": 3655,
      "蔓</w>": 3656,
      "え</w>": 3657,
      "启</w>": 3658,
      "桑</w>": 3659,
      "吟</w>": 3660,
      "🔎</w>": 3661,
      "絵</w>": 3662,
      "姬</w>": 3663,
      "‣</w>": 3664,
      "ト</w>": 3665,
      "津</w>": 3666,
      "杵</w>": 3667,
      "ា</w>": 3668,
      "❏</w>": 3669,
      "館</w>": 3670,
      "爿</w>": 3671,
      "ħ</w>": 3672,
      "綠</w>": 3673,
      "◼</w>": 3674,
      "🌭</w>": 3675,
      "˙</w>": 3676,
      "ə</w>": 3677,
      "葬</w>": 3678,
      "ү</w>": 3679,
      "ļ</w>": 3680,
      "𝑦</w>": 3681,
      "˧</w>": 3682,
      "ว</w>": 3683,
      "环</w>": 3684,
      "ポ</w>": 3685,
      "،</w>": 3686,
      "보</w>": 3687,
      "縣</w>": 3688,
      "烏</w>": 3689,
      "‛</w>": 3690,
      "Θ</w>": 3691,
      "亥</w>": 3692,
      "产</w>": 3693,
      "😜</w>": 3694,
      "ش</w>": 3695,
      "閟</w>": 3696,
      "˩</w>": 3697,
      "ṣ</w>": 3698,
      "∑</w>": 3699,
      "≧</w>": 3700,
      "면</w>": 3701,
      "咲</w>": 3702,
      "̩</w>": 3703,
      "髇</w>": 3704,
      "戲</w>": 3705,
      "边</w>": 3706,
      "な</w>": 3707,
      "🔥</w>": 3708,
      "惇</w>": 3709,
      "锚</w>": 3710,
      "ǎ</w>": 3711,
      "💡</w>": 3712,
      "🏖</w>": 3713,
      "ư</w>": 3714,
      "년</w>": 3715,
      "依</w>": 3716,
      "ф</w>": 3717,
      "¯</w>": 3718,
      "Д</w>": 3719,
      "荐</w>": 3720,
      "싸</w>": 3721,
      "Ī</w>": 3722,
      "楚</w>": 3723,
      "❺</w>": 3724,
      "🚦</w>": 3725,
      "旨</w>": 3726,
      "⌋</w>": 3727,
      "⁵</w>": 3728,
      "ů</w>": 3729,
      "≪</w>": 3730,
      "後</w>": 3731,
      "³</w>": 3732,
      "👉</w>": 3733,
      "進</w>": 3734,
      "价</w>": 3735,
      "い</w>": 3736,
      "却</w>": 3737,
      "ป</w>": 3738,
      "乃</w>": 3739,
      "台</w>": 3740,
      "ȹ</w>": 3741,
      "端</w>": 3742,
      "溴</w>": 3743,
      "Æ</w>": 3744,
      "何</w>": 3745,
      "ồ</w>": 3746,
      "💖</w>": 3747,
      "😊</w>": 3748,
      "📻</w>": 3749,
      "됨</w>": 3750,
      "弥</w>": 3751,
      "償</w>": 3752,
      "中</w>": 3753,
      "ट</w>": 3754,
      "Ì</w>": 3755,
      "島</w>": 3756,
      "न</w>": 3757,
      "া</w>": 3758,
      "摩</w>": 3759,
      "自</w>": 3760,
      "景</w>": 3761,
      "下</w>": 3762,
      "⑵</w>": 3763,
      "👅</w>": 3764,
      "革</w>": 3765,
      "ʹ</w>": 3766,
      "鲁</w>": 3767,
      "鈥</w>": 3768,
      "成</w>": 3769,
      "穂</w>": 3770,
      "矢</w>": 3771,
      "隞</w>": 3772,
      "軍</w>": 3773,
      "Ɲ</w>": 3774,
      "✸</w>": 3775,
      "№</w>": 3776,
      "该</w>": 3777,
      "锁</w>": 3778,
      "县</w>": 3779,
      "🌏</w>": 3780,
      "銀</w>": 3781,
      "¾</w>": 3782,
      "败</w>": 3783,
      "ď</w>": 3784,
      "화</w>": 3785,
      "¥</w>": 3786,
      "♉</w>": 3787,
      "💜</w>": 3788,
      "ミ</w>": 3789,
      "亚</w>": 3790,
      "有</w>": 3791,
      "¹</w>": 3792,
      "Š</w>": 3793,
      "≫</w>": 3794,
      "ん</w>": 3795,
      "庫</w>": 3796,
      "觉</w>": 3797,
      "능</w>": 3798,
      "们</w>": 3799,
      "⇧</w>": 3800,
      "른</w>": 3801,
      "解</w>": 3802,
      "🎄</w>": 3803,
      "페</w>": 3804,
      "猫</w>": 3805,
      "涌</w>": 3806,
      "芽</w>": 3807,
      "░</w>": 3808,
      "≡</w>": 3809,
      "记</w>": 3810,
      "癌</w>": 3811,
      "ド</w>": 3812,
      "府</w>": 3813,
      "½</w>": 3814,
      "¨</w>": 3815,
      "눱</w>": 3816,
      "言</w>": 3817,
      "列</w>": 3818,
      "⋆</w>": 3819,
      "🏠</w>": 3820,
      "せ</w>": 3821,
      "尺</w>": 3822,
      "忽</w>": 3823,
      "秋</w>": 3824,
      "♱</w>": 3825,
      "ж</w>": 3826,
      "句</w>": 3827,
      "전</w>": 3828,
      "ਧ</w>": 3829,
      "〜</w>": 3830,
      "在</w>": 3831,
      "韔</w>": 3832,
      "鏮</w>": 3833,
      "♣</w>": 3834,
      "照</w>": 3835,
      "ᅵ</w>": 3836,
      "버</w>": 3837,
      "名</w>": 3838,
      "ả</w>": 3839,
      "高</w>": 3840,
      "Ô</w>": 3841,
      "援</w>": 3842,
      "ű</w>": 3843,
      "는</w>": 3844,
      "总</w>": 3845,
      "▀</w>": 3846,
      "羅</w>": 3847,
      "经</w>": 3848,
      "ک</w>": 3849,
      "ಿ</w>": 3850,
      "檛</w>": 3851,
      "璃</w>": 3852,
      "保</w>": 3853,
      "ր</w>": 3854,
      "🤨</w>": 3855,
      "炮</w>": 3856,
      "關</w>": 3857,
      "同</w>": 3858,
      "鉍</w>": 3859,
      "◁</w>": 3860,
      "ャ</w>": 3861,
      "工</w>": 3862,
      "▌</w>": 3863,
      "¤</w>": 3864,
      "ε</w>": 3865,
      "◄</w>": 3866,
      "説</w>": 3867,
      "⌂</w>": 3868,
      "ɾ</w>": 3869,
      "ு</w>": 3870,
      "║</w>": 3871,
      "Ƥ</w>": 3872,
      "뀐</w>": 3873,
      "題</w>": 3874,
      "🔮</w>": 3875,
      "※</w>": 3876,
      "碑</w>": 3877,
      "⦁</w>": 3878,
      "➣</w>": 3879,
      "慧</w>": 3880,
      "楼</w>": 3881,
      "主</w>": 3882,
      "門</w>": 3883,
      "Ê</w>": 3884,
      "舰</w>": 3885,
      "Ⅰ</w>": 3886,
      "ර</w>": 3887,
      "势</w>": 3888,
      "型</w>": 3889,
      "↪</w>": 3890,
      "😻</w>": 3891,
      "扒</w>": 3892,
      "幕</w>": 3893,
      "龜</w>": 3894,
      "从</w>": 3895,
      "✤</w>": 3896,
      "₪</w>": 3897,
      "臺</w>": 3898,
      "渚</w>": 3899,
      "料</w>": 3900,
      "ɔ</w>": 3901,
      "险</w>": 3902,
      "Ơ</w>": 3903,
      "現</w>": 3904,
      "折</w>": 3905,
      "鐿</w>": 3906,
      "ມ</w>": 3907,
      "洛</w>": 3908,
      "월</w>": 3909,
      "麻</w>": 3910,
      "①</w>": 3911,
      "◦</w>": 3912,
      "嬪</w>": 3913,
      "跡</w>": 3914,
      "率</w>": 3915,
      "‟</w>": 3916,
      "母</w>": 3917,
      "</w>": 3918,
      "♫</w>": 3919,
      "ฆ</w>": 3920,
      "ь</w>": 3921,
      "摹</w>": 3922,
      "낞</w>": 3923,
      "▪</w>": 3924,
      "丞</w>": 3925,
      "ʽ</w>": 3926,
      "謝</w>": 3927,
      "į</w>": 3928,
      "袯</w>": 3929,
      "̶</w>": 3930,
      "🚧</w>": 3931,
      "妊</w>": 3932,
      "㐃</w>": 3933,
      "塑</w>": 3934,
      "術</w>": 3935,
      "ǀ</w>": 3936,
      "麵</w>": 3937,
      "動</w>": 3938,
      "μ</w>": 3939,
      "岛</w>": 3940,
      "</w>": 3941,
      "州</w>": 3942,
      "ӹ</w>": 3943,
      "Ż</w>": 3944,
      "涯</w>": 3945,
      "⎇</w>": 3946,
      "♪</w>": 3947,
      "🐐</w>": 3948,
      "姥</w>": 3949,
      "④</w>": 3950,
      "ず</w>": 3951,
      "◊</w>": 3952,
      "冬</w>": 3953,
      "₂</w>": 3954,
      "Ö</w>": 3955,
      "˘</w>": 3956,
      "本</w>": 3957,
      "廟</w>": 3958,
      "◎</w>": 3959,
      "慶</w>": 3960,
      "ỡ</w>": 3961,
      "ई</w>": 3962,
      "设</w>": 3963,
      "Þ</w>": 3964,
      "龙</w>": 3965,
      "ヶ</w>": 3966,
      "ỹ</w>": 3967,
      "述</w>": 3968,
      "「</w>": 3969,
      "∫</w>": 3970,
      "ǝ</w>": 3971,
      "庭</w>": 3972,
      "➫</w>": 3973,
      "⑦</w>": 3974,
      "し</w>": 3975,
      "🇴</w>": 3976,
      "✓</w>": 3977,
      "申</w>": 3978,
      "☑</w>": 3979,
      "火</w>": 3980,
      "ҳ</w>": 3981,
      "산</w>": 3982,
      "问</w>": 3983,
      "洞</w>": 3984,
      "◾</w>": 3985,
      "ϵ</w>": 3986,
      "Γ</w>": 3987,
      "ジ</w>": 3988,
      "女</w>": 3989,
      "└</w>": 3990,
      "Õ</w>": 3991,
      "Ø</w>": 3992,
      "✥</w>": 3993,
      "歳</w>": 3994,
      "唐</w>": 3995,
      "Я</w>": 3996,
      "❥</w>": 3997,
      "三</w>": 3998,
      "蒸</w>": 3999,
      "坑</w>": 4000,
      "스</w>": 4001,
      "卿</w>": 4002,
      "車</w>": 4003,
      "✖</w>": 4004,
      "炭</w>": 4005,
      "李</w>": 4006,
      "丈</w>": 4007,
      "✎</w>": 4008,
      "오</w>": 4009,
      "⊕</w>": 4010,
      "光</w>": 4011,
      "源</w>": 4012,
      "➜</w>": 4013,
      "ז</w>": 4014,
      "紗</w>": 4015,
      "λ</w>": 4016,
      "瀬</w>": 4017,
      "⭐</w>": 4018,
      "̃</w>": 4019,
      "⅛</w>": 4020,
      "✕</w>": 4021,
      "⟵</w>": 4022,
      "ድ</w>": 4023,
      "ు</w>": 4024,
      "ʊ</w>": 4025,
      "♛</w>": 4026,
      "伟</w>": 4027,
      "☞</w>": 4028,
      "家</w>": 4029,
      "郎</w>": 4030,
      "₦</w>": 4031,
      "영</w>": 4032,
      "キ</w>": 4033,
      "ψ</w>": 4034,
      "‿</w>": 4035,
      "亮</w>": 4036,
      "細</w>": 4037,
      "ް</w>": 4038,
      "鈉</w>": 4039,
      "鏡</w>": 4040,
      "結</w>": 4041,
      "👑</w>": 4042,
      "✨</w>": 4043,
      "湿</w>": 4044,
      "昌</w>": 4045,
      "橋</w>": 4046,
      "道</w>": 4047,
      "菇</w>": 4048,
      "˝</w>": 4049,
      "ố</w>": 4050,
      "崔</w>": 4051,
      "厅</w>": 4052,
      "₫</w>": 4053,
      "국</w>": 4054,
      "區</w>": 4055,
      "메</w>": 4056,
      "立</w>": 4057,
      "א</w>": 4058,
      "╳</w>": 4059,
      "ี</w>": 4060,
      "양</w>": 4061,
      "❭</w>": 4062,
      "ロ</w>": 4063,
      "蛋</w>": 4064,
      "을</w>": 4065,
      "∂</w>": 4066,
      "桥</w>": 4067,
      "少</w>": 4068,
      "史</w>": 4069,
      "讲</w>": 4070,
      "他</w>": 4071,
      "📡</w>": 4072,
      "宇</w>": 4073,
      "Ÿ</w>": 4074,
      "˼</w>": 4075,
      "沙</w>": 4076,
      "接</w>": 4077,
      "氬</w>": 4078,
      "📌</w>": 4079,
      "տ</w>": 4080,
      "昊</w>": 4081,
      "旧</w>": 4082,
      "墨</w>": 4083,
      "聞</w>": 4084,
      "机</w>": 4085,
      "桜</w>": 4086,
      "煲</w>": 4087,
      "滿</w>": 4088,
      "㎡</w>": 4089,
      "爛</w>": 4090,
      "➞</w>": 4091,
      "К</w>": 4092,
      "▾</w>": 4093,
      "∼</w>": 4094,
      "ぃ</w>": 4095,
      "ฎ</w>": 4096,
      "🎨</w>": 4097,
      "压</w>": 4098,
      "일</w>": 4099,
      "殷</w>": 4100,
      "岳</w>": 4101,
      "❌</w>": 4102,
      "歌</w>": 4103,
      "ɪ</w>": 4104,
      "ল</w>": 4105,
      "扮</w>": 4106,
      "谁</w>": 4107,
      "✉</w>": 4108,
      "Ą</w>": 4109,
      "‎</w>": 4110,
      "チ</w>": 4111,
      "‒</w>": 4112,
      "召</w>": 4113,
      "戯</w>": 4114,
      "哈</w>": 4115,
      "兴</w>": 4116,
      "℗</w>": 4117,
      "❯</w>": 4118,
      "స</w>": 4119,
      "よ</w>": 4120,
      "鄔</w>": 4121,
      "け</w>": 4122,
      "🦊</w>": 4123,
      "Ư</w>": 4124,
      "ㅇ</w>": 4125,
      "差</w>": 4126,
      "军</w>": 4127,
      "🚫</w>": 4128,
      "黄</w>": 4129,
      "ご</w>": 4130,
      "眼</w>": 4131,
      "琴</w>": 4132,
      "統</w>": 4133,
      "댴</w>": 4134,
      "්</w>": 4135,
      "克</w>": 4136,
      "❮</w>": 4137,
      "ท</w>": 4138,
      "✿</w>": 4139,
      "ẖ</w>": 4140,
      "⅙</w>": 4141,
      "Ҧ</w>": 4142,
      "つ</w>": 4143,
      "幻</w>": 4144,
      "서</w>": 4145,
      "ϕ</w>": 4146,
      "♡</w>": 4147,
      "例</w>": 4148,
      "‗</w>": 4149,
      "🤑</w>": 4150,
      "长</w>": 4151,
      "П</w>": 4152,
      "ɡ</w>": 4153,
      "δ</w>": 4154,
      "夫</w>": 4155,
      "😎</w>": 4156,
      "笔</w>": 4157,
      "ệ</w>": 4158,
      "香</w>": 4159,
      "㜁</w>": 4160,
      "所</w>": 4161,
      "𝑏</w>": 4162,
      "卓</w>": 4163,
      "程</w>": 4164,
      "‧</w>": 4165,
      "؟</w>": 4166,
      "▻</w>": 4167,
      "五</w>": 4168,
      "城</w>": 4169,
      "🔴</w>": 4170,
      "᾿</w>": 4171,
      "ξ</w>": 4172,
      "₤</w>": 4173,
      "腳</w>": 4174,
      "غ</w>": 4175,
      "🐶</w>": 4176,
      "″</w>": 4177,
      "咀</w>": 4178,
      "斗</w>": 4179,
      "𝑥</w>": 4180,
      "♗</w>": 4181,
      "❀</w>": 4182,
      "낍</w>": 4183,
      "ŕ</w>": 4184,
      "Ğ</w>": 4185,
      "伯</w>": 4186,
      "es</w>": 4187,
      "er": 4188,
      "an": 4189,
      "en": 4190,
      "in": 4191,
      "ar": 4192,
      "de</w>": 4193,
      "es": 4194,
      "on": 4195,
      "os</w>": 4196,
      "th": 4197,
      "ti": 4198,
      "or": 4199,
      "ci": 4200,
      "as</w>": 4201,
      "al": 4202,
      "re": 4203,
      "2es</w>": 4204,
      "to</w>": 4205,
      "te": 4206,
      "on</w>": 4207,
      "ro": 4208,
      "ad": 4209,
      "the</w>": 4210,
      "ic": 4211,
      "or</w>": 4212,
      "it": 4213,
      "is": 4214,
      "tr": 4215,
      "en</w>": 4216,
      "qu": 4217,
      "om": 4218,
      "er</w>": 4219,
      "ta": 4220,
      "el": 4221,
      "ou": 4222,
      "and</w>": 4223,
      "el</w>": 4224,
      "ac": 4225,
      "al</w>": 4226,
      "in</w>": 4227,
      "ing</w>": 4228,
      "id": 4229,
      "te</w>": 4230,
      "as": 4231,
      "il": 4232,
      "of</w>": 4233,
      "ur": 4234,
      "la</w>": 4235,
      "ar</w>": 4236,
      "par": 4237,
      "un": 4238,
      "am": 4239,
      "ec": 4240,
      "ol": 4241,
      "is</w>": 4242,
      "con": 4243,
      "us": 4244,
      "que</w>": 4245,
      "an</w>": 4246,
      "ri": 4247,
      "di": 4248,
      "os": 4249,
      "ón</w>": 4250,
      "at": 4251,
      "ati": 4252,
      "pro": 4253,
      "ed</w>": 4254,
      "ab": 4255,
      "res": 4256,
      "aci": 4257,
      "em": 4258,
      "ent": 4259,
      "com": 4260,
      "pl": 4261,
      "do</w>": 4262,
      "li": 4263,
      "ul": 4264,
      "per": 4265,
      "pt</w>": 4266,
      "para</w>": 4267,
      "ch": 4268,
      "av": 4269,
      "ter": 4270,
      "at</w>": 4271,
      "2pt</w>": 4272,
      "ag": 4273,
      "ir": 4274,
      "est": 4275,
      "los</w>": 4276,
      "si": 4277,
      "for": 4278,
      "ou</w>": 4279,
      "le</w>": 4280,
      "ote": 4281,
      "ed": 4282,
      "et": 4283,
      "Th": 4284,
      "vi": 4285,
      "su": 4286,
      "ex": 4287,
      "se</w>": 4288,
      "lo": 4289,
      "eg": 4290,
      "for</w>": 4291,
      "od": 4292,
      "men": 4293,
      "ap": 4294,
      "ev": 4295,
      "om</w>": 4296,
      "ado</w>": 4297,
      "ith</w>": 4298,
      "ts</w>": 4299,
      "im": 4300,
      "ad</w>": 4301,
      "ation</w>": 4302,
      "with</w>": 4303,
      "our</w>": 4304,
      "ación</w>": 4305,
      "cu": 4306,
      "pu": 4307,
      "you</w>": 4308,
      "br": 4309,
      "del</w>": 4310,
      "ig": 4311,
      "oo": 4312,
      "ia</w>": 4313,
      "st": 4314,
      "ma": 4315,
      "ted</w>": 4316,
      "con</w>": 4317,
      "de": 4318,
      "ly</w>": 4319,
      "Hote": 4320,
      "pe": 4321,
      "ão</w>": 4322,
      "por": 4323,
      "des": 4324,
      "ce</w>": 4325,
      "las</w>": 4326,
      "ta</w>": 4327,
      "un</w>": 4328,
      "gr": 4329,
      "In": 4330,
      "ones</w>": 4331,
      "em</w>": 4332,
      "ons</w>": 4333,
      "no": 4334,
      "ne": 4335,
      "ver": 4336,
      "uc": 4337,
      "erv": 4338,
      "cl": 4339,
      "por</w>": 4340,
      "are</w>": 4341,
      "form": 4342,
      "vis": 4343,
      "ten": 4344,
      "um": 4345,
      "wh": 4346,
      "so": 4347,
      "no</w>": 4348,
      "me": 4349,
      "op": 4350,
      "rom</w>": 4351,
      "The</w>": 4352,
      "oc": 4353,
      "tic": 4354,
      "that</w>": 4355,
      "se": 4356,
      "tion</w>": 4357,
      "pr": 4358,
      "from</w>": 4359,
      "ers</w>": 4360,
      "ay</w>": 4361,
      "dis": 4362,
      "ter</w>": 4363,
      "ot": 4364,
      "iz": 4365,
      "ine</w>": 4366,
      "ien": 4367,
      "una</w>": 4368,
      "da</w>": 4369,
      "your</w>": 4370,
      "ve</w>": 4371,
      "ari": 4372,
      "Ch": 4373,
      "tu": 4374,
      "ing": 4375,
      "et</w>": 4376,
      "ores</w>": 4377,
      "fi": 4378,
      "ción</w>": 4379,
      "ados</w>": 4380,
      "rec": 4381,
      "ás</w>": 4382,
      "ada</w>": 4383,
      "onal</w>": 4384,
      "bl": 4385,
      "aj": 4386,
      "ent</w>": 4387,
      "ow": 4388,
      "be</w>": 4389,
      "ay": 4390,
      "tes</w>": 4391,
      "ente</w>": 4392,
      "by</w>": 4393,
      "sh": 4394,
      "fic": 4395,
      "it</w>": 4396,
      "ir</w>": 4397,
      "ity</w>": 4398,
      "so</w>": 4399,
      "est</w>": 4400,
      "oun": 4401,
      "ía</w>": 4402,
      "gu": 4403,
      "gh": 4404,
      "Com</w>": 4405,
      "pre": 4406,
      "pos": 4407,
      "pres": 4408,
      "fer": 4409,
      "bu": 4410,
      "lo</w>": 4411,
      "rip": 4412,
      "ob": 4413,
      "man": 4414,
      "entr": 4415,
      "Ad": 4416,
      "le": 4417,
      "ud": 4418,
      "cia</w>": 4419,
      "Al": 4420,
      "ere</w>": 4421,
      "esta": 4422,
      "ales</w>": 4423,
      "ch</w>": 4424,
      "we": 4425,
      "su</w>": 4426,
      "tur": 4427,
      "qui": 4428,
      "all</w>": 4429,
      "ls</w>": 4430,
      "og": 4431,
      "uran": 4432,
      "Com": 4433,
      "20": 4434,
      "Hotel</w>": 4435,
      "bre</w>": 4436,
      "au": 4437,
      "ção</w>": 4438,
      "ans": 4439,
      "bi": 4440,
      "sta": 4441,
      "can</w>": 4442,
      "um</w>": 4443,
      "one</w>": 4444,
      "Tr": 4445,
      "ite</w>": 4446,
      "ther</w>": 4447,
      "ina</w>": 4448,
      "Trip": 4449,
      "ate</w>": 4450,
      "king</w>": 4451,
      "tiv": 4452,
      "ando</w>": 4453,
      "Con": 4454,
      "min": 4455,
      "pa": 4456,
      "and": 4457,
      "car": 4458,
      "ore</w>": 4459,
      "ica</w>": 4460,
      "ave</w>": 4461,
      "pers": 4462,
      "ty</w>": 4463,
      "ni": 4464,
      "duc": 4465,
      "of": 4466,
      "idad</w>": 4467,
      "out</w>": 4468,
      "af": 4469,
      "An": 4470,
      "ess</w>": 4471,
      "tim": 4472,
      "tri": 4473,
      "end": 4474,
      "am</w>": 4475,
      "como</w>": 4476,
      "ca</w>": 4477,
      "az": 4478,
      "ke</w>": 4479,
      "this</w>": 4480,
      "able</w>": 4481,
      "ill</w>": 4482,
      "tor": 4483,
      "tos</w>": 4484,
      "cer": 4485,
      "tem": 4486,
      "cre": 4487,
      "be": 4488,
      "inform": 4489,
      "más</w>": 4490,
      "fin": 4491,
      "Re": 4492,
      "les</w>": 4493,
      "reg": 4494,
      "lu": 4495,
      "tions</w>": 4496,
      "wor": 4497,
      "ast</w>": 4498,
      "ido</w>": 4499,
      "inter": 4500,
      "fu": 4501,
      "the": 4502,
      "oci": 4503,
      "cor": 4504,
      "po</w>": 4505,
      "ov": 4506,
      "ge</w>": 4507,
      "Ex": 4508,
      "..": 4509,
      "nu": 4510,
      "our": 4511,
      "El</w>": 4512,
      "ents</w>": 4513,
      "estr": 4514,
      "anc": 4515,
      "Par": 4516,
      "not</w>": 4517,
      "pon": 4518,
      "mu": 4519,
      "mente</w>": 4520,
      "ble</w>": 4521,
      "ment</w>": 4522,
      "pri": 4523,
      "ear": 4524,
      "En": 4525,
      "mar": 4526,
      "Qu": 4527,
      "age</w>": 4528,
      "us</w>": 4529,
      "vid": 4530,
      "ser": 4531,
      "ico</w>": 4532,
      "mer": 4533,
      "hote": 4534,
      "aciones</w>": 4535,
      "ice</w>": 4536,
      "pi": 4537,
      "visor</w>": 4538,
      "th</w>": 4539,
      "cons": 4540,
      "to": 4541,
      "dia</w>": 4542,
      "Advisor</w>": 4543,
      "La</w>": 4544,
      "tan": 4545,
      "Pro": 4546,
      "entes</w>": 4547,
      "TripAdvisor</w>": 4548,
      "will</w>": 4549,
      "Es": 4550,
      "ld</w>": 4551,
      "...</w>": 4552,
      "201": 4553,
      "ow</w>": 4554,
      "reserv": 4555,
      "entos</w>": 4556,
      "ations</w>": 4557,
      "ated</w>": 4558,
      "iv": 4559,
      "ess": 4560,
      "have</w>": 4561,
      "fr": 4562,
      "po": 4563,
      "col": 4564,
      "ligh": 4565,
      "tod": 4566,
      "go</w>": 4567,
      "rel": 4568,
      "Pr": 4569,
      "contr": 4570,
      "line</w>": 4571,
      "Ar": 4572,
      "cio</w>": 4573,
      "io</w>": 4574,
      "sol": 4575,
      "aliz": 4576,
      "com</w>": 4577,
      "iento</w>": 4578,
      "tar</w>": 4579,
      "ha</w>": 4580,
      "und": 4581,
      "gen": 4582,
      "Hotels</w>": 4583,
      "sobre</w>": 4584,
      "era</w>": 4585,
      "ind": 4586,
      "cul": 4587,
      "mo": 4588,
      "mo</w>": 4589,
      "any</w>": 4590,
      "ll": 4591,
      "fe": 4592,
      "hac": 4593,
      "tas</w>": 4594,
      "ai": 4595,
      "za</w>": 4596,
      "ciones</w>": 4597,
      "serv": 4598,
      "ire</w>": 4599,
      "tam": 4600,
      "ase</w>": 4601,
      "ting</w>": 4602,
      "ser</w>": 4603,
      "produc": 4604,
      "én</w>": 4605,
      "uel": 4606,
      "está</w>": 4607,
      "incl": 4608,
      "was</w>": 4609,
      "cion": 4610,
      "ve": 4611,
      "fec": 4612,
      "ran": 4613,
      "cont": 4614,
      "ich</w>": 4615,
      "ings</w>": 4616,
      "Sh": 4617,
      "cam": 4618,
      "ic</w>": 4619,
      "cal": 4620,
      "ies</w>": 4621,
      "ões</w>": 4622,
      "ade</w>": 4623,
      "nec": 4624,
      "tom": 4625,
      "has</w>": 4626,
      "ador</w>": 4627,
      "ook</w>": 4628,
      "tal</w>": 4629,
      "ph": 4630,
      "use</w>": 4631,
      "na</w>": 4632,
      "co": 4633,
      "its</w>": 4634,
      "du": 4635,
      "adas</w>": 4636,
      "ades</w>": 4637,
      "ação</w>": 4638,
      "ome</w>": 4639,
      "ile</w>": 4640,
      "Wh": 4641,
      "ree</w>": 4642,
      "ence</w>": 4643,
      "sp": 4644,
      "cial</w>": 4645,
      "Resta": 4646,
      "atur": 4647,
      "igh": 4648,
      "ew</w>": 4649,
      "ord": 4650,
      "Restauran": 4651,
      "Su": 4652,
      "Res": 4653,
      "lis": 4654,
      "Di": 4655,
      "mej": 4656,
      "otr": 4657,
      "err": 4658,
      "ión</w>": 4659,
      "ate": 4660,
      "és</w>": 4661,
      "Mar": 4662,
      "cas": 4663,
      "Est": 4664,
      "ace</w>": 4665,
      "ks</w>": 4666,
      "dos</w>": 4667,
      "pod": 4668,
      "cios</w>": 4669,
      "loc": 4670,
      "str": 4671,
      "ple</w>": 4672,
      "mis": 4673,
      "ea": 4674,
      "dat": 4675,
      "antes</w>": 4676,
      "ora</w>": 4677,
      "org": 4678,
      "ew": 4679,
      "ep": 4680,
      "ick</w>": 4681,
      "we</w>": 4682,
      "seg": 4683,
      "hi": 4684,
      "rou": 4685,
      "Los</w>": 4686,
      "more</w>": 4687,
      "ida</w>": 4688,
      "cr": 4689,
      "Or": 4690,
      "trans": 4691,
      "acc": 4692,
      "ard": 4693,
      "esta</w>": 4694,
      "uma</w>": 4695,
      "On": 4696,
      "sel": 4697,
      "ick": 4698,
      "which</w>": 4699,
      "bar": 4700,
      "do": 4701,
      "ost</w>": 4702,
      "port</w>": 4703,
      "ys": 4704,
      "enti": 4705,
      "als</w>": 4706,
      "Des": 4707,
      "ento</w>": 4708,
      "iti": 4709,
      "ally</w>": 4710,
      "he": 4711,
      "amente</w>": 4712,
      "book</w>": 4713,
      "ções</w>": 4714,
      "ario</w>": 4715,
      "mun": 4716,
      "ak": 4717,
      "mon": 4718,
      "rá": 4719,
      "teri": 4720,
      "ante</w>": 4721,
      "plic": 4722,
      "all": 4723,
      "part": 4724,
      "ices</w>": 4725,
      "other</w>": 4726,
      "tec": 4727,
      "ose</w>": 4728,
      "personal</w>": 4729,
      "Trav": 4730,
      "ese</w>": 4731,
      "Pl": 4732,
      "ño</w>": 4733,
      "ana</w>": 4734,
      "ary</w>": 4735,
      "son</w>": 4736,
      "ino</w>": 4737,
      "ej": 4738,
      "ens": 4739,
      "hacer</w>": 4740,
      "este</w>": 4741,
      "sec": 4742,
      "ail": 4743,
      "ho</w>": 4744,
      ").</w>": 4745,
      "proc": 4746,
      "sus</w>": 4747,
      "idas</w>": 4748,
      "ets</w>": 4749,
      "ain": 4750,
      "bo": 4751,
      "ven": 4752,
      "ooking</w>": 4753,
      "Ac": 4754,
      "pue": 4755,
      "pan": 4756,
      "hotel</w>": 4757,
      "can": 4758,
      "ould</w>": 4759,
      "conf": 4760,
      "ant</w>": 4761,
      "ong</w>": 4762,
      "ame</w>": 4763,
      "me</w>": 4764,
      "sion</w>": 4765,
      "ill": 4766,
      "pol": 4767,
      "ass": 4768,
      "ici": 4769,
      "hab": 4770,
      "about</w>": 4771,
      "ru": 4772,
      "De": 4773,
      "mod": 4774,
      "posi": 4775,
      "00</w>": 4776,
      "cri": 4777,
      "pedia</w>": 4778,
      "ero</w>": 4779,
      "tien": 4780,
      "ber</w>": 4781,
      "ber": 4782,
      "their</w>": 4783,
      "Op": 4784,
      "ner</w>": 4785,
      "peci": 4786,
      "enta</w>": 4787,
      "ites</w>": 4788,
      "án</w>": 4789,
      "ood</w>": 4790,
      "estas</w>": 4791,
      "direc": 4792,
      "nuestr": 4793,
      "uti": 4794,
      "also</w>": 4795,
      "Inter": 4796,
      "ang": 4797,
      "ple": 4798,
      "cel": 4799,
      "In</w>": 4800,
      "ical</w>": 4801,
      "tor</w>": 4802,
      "ton</w>": 4803,
      "vol": 4804,
      "pec": 4805,
      "information</w>": 4806,
      "ali": 4807,
      "ure</w>": 4808,
      "uro": 4809,
      "time</w>": 4810,
      "cli": 4811,
      "esti": 4812,
      "ach</w>": 4813,
      "ef": 4814,
      "wi": 4815,
      "Ph": 4816,
      "tac": 4817,
      "This</w>": 4818,
      "ativ": 4819,
      "ance</w>": 4820,
      "site</w>": 4821,
      "istr": 4822,
      "sal": 4823,
      "ater": 4824,
      "cap": 4825,
      "st</w>": 4826,
      "Br": 4827,
      "parti": 4828,
      "ous</w>": 4829,
      "tw": 4830,
      "stic": 4831,
      "hel": 4832,
      "Gu": 4833,
      "ares</w>": 4834,
      "voc": 4835,
      "ard</w>": 4836,
      "tu</w>": 4837,
      "desde</w>": 4838,
      "En</w>": 4839,
      "he</w>": 4840,
      "trav": 4841,
      "ver</w>": 4842,
      "ráp": 4843,
      "mi": 4844,
      "arios</w>": 4845,
      "olog": 4846,
      "aw": 4847,
      "lights</w>": 4848,
      "encia</w>": 4849,
      "bil": 4850,
      "ff</w>": 4851,
      "bus": 4852,
      "lin": 4853,
      "tar": 4854,
      "Se": 4855,
      "eloci": 4856,
      "Uni": 4857,
      "ais</w>": 4858,
      "ona</w>": 4859,
      "For": 4860,
      "anti": 4861,
      "cur": 4862,
      "low": 4863,
      "dev": 4864,
      "Ob": 4865,
      "19": 4866,
      "own</w>": 4867,
      "),</w>": 4868,
      "puede</w>": 4869,
      "tre": 4870,
      "almente</w>": 4871,
      "SA</w>": 4872,
      "visit": 4873,
      "Booking</w>": 4874,
      "tem</w>": 4875,
      "entre</w>": 4876,
      "emos</w>": 4877,
      "Col": 4878,
      "ju": 4879,
      "uelos</w>": 4880,
      "servi": 4881,
      "hu": 4882,
      "re</w>": 4883,
      "mento</w>": 4884,
      "eap</w>": 4885,
      "il</w>": 4886,
      "co</w>": 4887,
      "cerca</w>": 4888,
      "idades</w>": 4889,
      "encontr": 4890,
      "Hot": 4891,
      "ack</w>": 4892,
      "gar</w>": 4893,
      "KA": 4894,
      "ust</w>": 4895,
      "coun": 4896,
      "vers": 4897,
      "ma</w>": 4898,
      "fl": 4899,
      "AK</w>": 4900,
      "idos</w>": 4901,
      "up</w>": 4902,
      "respu": 4903,
      "Online</w>": 4904,
      "ors</w>": 4905,
      "exper": 4906,
      "ano</w>": 4907,
      "fun": 4908,
      "ris": 4909,
      "We</w>": 4910,
      "KAY": 4911,
      "KAYAK</w>": 4912,
      "quil": 4913,
      "vac": 4914,
      "cip": 4915,
      "amos</w>": 4916,
      "dr": 4917,
      "near</w>": 4918,
      "You</w>": 4919,
      "der": 4920,
      "edes</w>": 4921,
      "Sta": 4922,
      "bas": 4923,
      "val": 4924,
      "Air": 4925,
      "ell</w>": 4926,
      "arch": 4927,
      "resul": 4928,
      "medi": 4929,
      "ea</w>": 4930,
      "todos</w>": 4931,
      "Cl": 4932,
      "Un": 4933,
      "gh</w>": 4934,
      "información</w>": 4935,
      "ach": 4936,
      "ays</w>": 4937,
      "Car": 4938,
      "anteri": 4939,
      "wers</w>": 4940,
      "best</w>": 4941,
      "Get</w>": 4942,
      "ments</w>": 4943,
      "No</w>": 4944,
      "ías</w>": 4945,
      "ren": 4946,
      "Expedia</w>": 4947,
      "It</w>": 4948,
      "utili": 4949,
      "ateg": 4950,
      "nos</w>": 4951,
      "elocity</w>": 4952,
      "ds</w>": 4953,
      "they</w>": 4954,
      "Travelocity</w>": 4955,
      "ular</w>": 4956,
      "viaj": 4957,
      "staff</w>": 4958,
      "Cu": 4959,
      "tal": 4960,
      "bién</w>": 4961,
      "Be": 4962,
      "fac": 4963,
      "past</w>": 4964,
      "otos</w>": 4965,
      "gram": 4966,
      "eral</w>": 4967,
      "respon": 4968,
      "red</w>": 4969,
      "inclu": 4970,
      "new</w>": 4971,
      "wire</w>": 4972,
      "elec": 4973,
      "icos</w>": 4974,
      "earch</w>": 4975,
      "Is": 4976,
      "ps</w>": 4977,
      "ol</w>": 4978,
      "over</w>": 4979,
      "ain</w>": 4980,
      "enci": 4981,
      "ah": 4982,
      "ound</w>": 4983,
      "bit": 4984,
      "pel": 4985,
      "amil": 4986,
      "now</w>": 4987,
      "ito</w>": 4988,
      "ual</w>": 4989,
      "Euro": 4990,
      "but</w>": 4991,
      "Hotwire</w>": 4992,
      "ests</w>": 4993,
      "pañ": 4994,
      "ement</w>": 4995,
      "án": 4996,
      "ári": 4997,
      "ue</w>": 4998,
      "may</w>": 4999,
      "lar": 5000,
      "fil": 5001,
      "aqu": 5002,
      "você</w>": 5003,
      "go": 5004,
      "ita</w>": 5005,
      "respuestas</w>": 5006,
      "mil": 5007,
      "ational</w>": 5008,
      "ey</w>": 5009,
      "dad</w>": 5010,
      "atos</w>": 5011,
      "ght</w>": 5012,
      "Por": 5013,
      "Cheap</w>": 5014,
      "med": 5015,
      "land</w>": 5016,
      "não</w>": 5017,
      "person": 5018,
      "sub": 5019,
      "Gr": 5020,
      "ños</w>": 5021,
      "10</w>": 5022,
      "Bus": 5023,
      "op</w>": 5024,
      "ud</w>": 5025,
      "jec": 5026,
      "ack": 5027,
      "Man": 5028,
      "get</w>": 5029,
      "anteriores</w>": 5030,
      "desig": 5031,
      "Cas": 5032,
      "answers</w>": 5033,
      "tica</w>": 5034,
      "prin": 5035,
      "quick</w>": 5036,
      "ten</w>": 5037,
      "equi": 5038,
      "id</w>": 5039,
      "Bu": 5040,
      "web</w>": 5041,
      "eres</w>": 5042,
      "plan": 5043,
      "ties</w>": 5044,
      "Mon": 5045,
      "pas": 5046,
      "endo</w>": 5047,
      "ustr": 5048,
      "oso</w>": 5049,
      "inst": 5050,
      "his</w>": 5051,
      "fol": 5052,
      "ancel": 5053,
      "oy": 5054,
      "pes": 5055,
      "sup": 5056,
      "view": 5057,
      "adores</w>": 5058,
      "sig": 5059,
      "ér": 5060,
      "trab": 5061,
      "nuev": 5062,
      "resta": 5063,
      "ág": 5064,
      "Per": 5065,
      "otros</w>": 5066,
      "Pu": 5067,
      "lec": 5068,
      "ight</w>": 5069,
      "tus</w>": 5070,
      "who</w>": 5071,
      "ao</w>": 5072,
      "eta</w>": 5073,
      "impor": 5074,
      "acion": 5075,
      "ating</w>": 5076,
      "fir": 5077,
      "rápidas</w>": 5078,
      "TripOnline</w>": 5079,
      "pe</w>": 5080,
      "gi": 5081,
      "web": 5082,
      "light</w>": 5083,
      "Las</w>": 5084,
      "car</w>": 5085,
      "find</w>": 5086,
      "own": 5087,
      "sis": 5088,
      "If</w>": 5089,
      "alqui": 5090,
      "tro": 5091,
      "Bar": 5092,
      "gun": 5093,
      "prof": 5094,
      "contro": 5095,
      "ofer": 5096,
      "when</w>": 5097,
      "dif": 5098,
      "most</w>": 5099,
      "very</w>": 5100,
      "bel": 5101,
      "sa</w>": 5102,
      "oj": 5103,
      "with": 5104,
      "utiliz": 5105,
      "tive</w>": 5106,
      "Dis": 5107,
      "ba</w>": 5108,
      "abil": 5109,
      "idade</w>": 5110,
      "condi": 5111,
      "low</w>": 5112,
      "vel</w>": 5113,
      "ture</w>": 5114,
      "iones</w>": 5115,
      "todo</w>": 5116,
      "air": 5117,
      "amiento</w>": 5118,
      "uso</w>": 5119,
      "od</w>": 5120,
      "iness</w>": 5121,
      "mais</w>": 5122,
      "ion</w>": 5123,
      "ro</w>": 5124,
      "ning</w>": 5125,
      "ages</w>": 5126,
      "actu": 5127,
      "Para</w>": 5128,
      "gre": 5129,
      "row": 5130,
      "Cam": 5131,
      "lí": 5132,
      "comp": 5133,
      "Orbit": 5134,
      "cualqui": 5135,
      "bur": 5136,
      "Orbitz</w>": 5137,
      "end</w>": 5138,
      "pa</w>": 5139,
      "eng": 5140,
      "sof": 5141,
      "ategor": 5142,
      "way</w>": 5143,
      "reci": 5144,
      "das</w>": 5145,
      "eline</w>": 5146,
      "también</w>": 5147,
      "like</w>": 5148,
      "Cancel": 5149,
      "ces</w>": 5150,
      "oper": 5151,
      "ouse</w>": 5152,
      "20</w>": 5153,
      "work</w>": 5154,
      "Vi": 5155,
      "up": 5156,
      "tra": 5157,
      "erto</w>": 5158,
      "tiem": 5159,
      "We": 5160,
      "sin</w>": 5161,
      "nos": 5162,
      "Im": 5163,
      "idence</w>": 5164,
      "mejores</w>": 5165,
      "Pric": 5166,
      "Li": 5167,
      "eo</w>": 5168,
      "ality</w>": 5169,
      "del": 5170,
      "if</w>": 5171,
      "Ma": 5172,
      "sti": 5173,
      "osas</w>": 5174,
      "pued": 5175,
      "si</w>": 5176,
      "entro</w>": 5177,
      "ech": 5178,
      "fici": 5179,
      "podr": 5180,
      "Priceline</w>": 5181,
      "ish</w>": 5182,
      "gl": 5183,
      "ateri": 5184,
      "ear</w>": 5185,
      "restauran": 5186,
      "ajo</w>": 5187,
      "ople</w>": 5188,
      "ful</w>": 5189,
      "tain": 5190,
      "conten": 5191,
      "Fran": 5192,
      "mit": 5193,
      "tel": 5194,
      "Hol": 5195,
      "ding</w>": 5196,
      "neg": 5197,
      "xim": 5198,
      "ra</w>": 5199,
      "neces": 5200,
      "tiene</w>": 5201,
      "Au": 5202,
      "ce": 5203,
      "ca": 5204,
      "Cancelon</w>": 5205,
      "ça</w>": 5206,
      "ón": 5207,
      "were</w>": 5208,
      "siti": 5209,
      "ra": 5210,
      "Inn</w>": 5211,
      "tura</w>": 5212,
      "fo": 5213,
      "jo</w>": 5214,
      "program": 5215,
      "lan": 5216,
      "cualquier</w>": 5217,
      "erg": 5218,
      "Search</w>": 5219,
      "soci": 5220,
      "San</w>": 5221,
      "ên": 5222,
      "activ": 5223,
      "ens</w>": 5224,
      "inv": 5225,
      "organ": 5226,
      "Best</w>": 5227,
      "tén</w>": 5228,
      "off": 5229,
      "confi": 5230,
      "eso</w>": 5231,
      "contin": 5232,
      "dem": 5233,
      "Can": 5234,
      "data</w>": 5235,
      "Restaurants</w>": 5236,
      "Nu": 5237,
      "bet": 5238,
      "there</w>": 5239,
      "importan": 5240,
      "cus": 5241,
      "vari": 5242,
      "online</w>": 5243,
      "bli": 5244,
      "them</w>": 5245,
      "forma</w>": 5246,
      "tribu": 5247,
      "used</w>": 5248,
      "sur": 5249,
      "gar": 5250,
      "icas</w>": 5251,
      "Hotel": 5252,
      "200": 5253,
      "bec": 5254,
      "New</w>": 5255,
      "enta": 5256,
      "ickly</w>": 5257,
      "ga</w>": 5258,
      "help</w>": 5259,
      "such</w>": 5260,
      "ish": 5261,
      "fe</w>": 5262,
      "Ag": 5263,
      "leg": 5264,
      "dec": 5265,
      "Obtén</w>": 5266,
      "ses</w>": 5267,
      "ind</w>": 5268,
      "been</w>": 5269,
      "ans</w>": 5270,
      "spedes</w>": 5271,
      "ya</w>": 5272,
      "anos</w>": 5273,
      "Si</w>": 5274,
      "his": 5275,
      "são</w>": 5276,
      "ena</w>": 5277,
      "Inform": 5278,
      "famil": 5279,
      "view</w>": 5280,
      "day</w>": 5281,
      "tí": 5282,
      "ever": 5283,
      "ará</w>": 5284,
      "De</w>": 5285,
      "priv": 5286,
      "ther": 5287,
      "ress</w>": 5288,
      "net</w>": 5289,
      "Sal": 5290,
      "la": 5291,
      "ook": 5292,
      "Tod": 5293,
      "guests</w>": 5294,
      "Nor": 5295,
      "Eng": 5296,
      "well</w>": 5297,
      "into</w>": 5298,
      "requ": 5299,
      "probl": 5300,
      "ba": 5301,
      "parte</w>": 5302,
      "ún</w>": 5303,
      "experien": 5304,
      "Cor": 5305,
      "der</w>": 5306,
      "Lu": 5307,
      "trad": 5308,
      "only</w>": 5309,
      "views</w>": 5310,
      "Am": 5311,
      "free</w>": 5312,
      "Ser": 5313,
      "Me": 5314,
      "these</w>": 5315,
      "people</w>": 5316,
      "vir": 5317,
      "hum": 5318,
      "includ": 5319,
      "All</w>": 5320,
      "hué": 5321,
      "provid": 5322,
      "dispon": 5323,
      "fav": 5324,
      "tiempo</w>": 5325,
      "mem": 5326,
      "iday</w>": 5327,
      "ters</w>": 5328,
      "huéspedes</w>": 5329,
      "ool</w>": 5330,
      "hor": 5331,
      "sites</w>": 5332,
      "solu": 5333,
      "sem": 5334,
      "dur": 5335,
      "que": 5336,
      "Pol": 5337,
      "throu": 5338,
      "ever</w>": 5339,
      "her</w>": 5340,
      "bol": 5341,
      "ik": 5342,
      "oy</w>": 5343,
      "ego</w>": 5344,
      "tamente</w>": 5345,
      "especi": 5346,
      "deci": 5347,
      "nolog": 5348,
      "Ap": 5349,
      "avail": 5350,
      "empl": 5351,
      "mos</w>": 5352,
      "mas</w>": 5353,
      "mejor</w>": 5354,
      "ll</w>": 5355,
      "partner</w>": 5356,
      "sistem": 5357,
      "tivo</w>": 5358,
      "natur": 5359,
      "pop": 5360,
      "Serv": 5361,
      "peri": 5362,
      "itos</w>": 5363,
      "vil": 5364,
      "bre": 5365,
      "aplic": 5366,
      "char": 5367,
      "tener</w>": 5368,
      "ago</w>": 5369,
      "ty": 5370,
      "hol": 5371,
      "flights</w>": 5372,
      "pág": 5373,
      "ira</w>": 5374,
      "sión</w>": 5375,
      "sys": 5376,
      "right</w>": 5377,
      "urante</w>": 5378,
      "Ou": 5379,
      "comple": 5380,
      "pero</w>": 5381,
      "ates</w>": 5382,
      "amento</w>": 5383,
      "icación</w>": 5384,
      "bles</w>": 5385,
      "sim": 5386,
      "usu": 5387,
      "Ro": 5388,
      "ms</w>": 5389,
      "Reserv": 5390,
      "Wor": 5391,
      "orgul": 5392,
      "many</w>": 5393,
      "national</w>": 5394,
      "Le": 5395,
      "materi": 5396,
      "anza</w>": 5397,
      "usted</w>": 5398,
      "Pre": 5399,
      "As": 5400,
      "confidence</w>": 5401,
      "fon": 5402,
      "tle</w>": 5403,
      "reservas</w>": 5404,
      "compl": 5405,
      "itu": 5406,
      "minu": 5407,
      "mark": 5408,
      "Quickly</w>": 5409,
      "inas</w>": 5410,
      "apar": 5411,
      "ital</w>": 5412,
      "muy</w>": 5413,
      "ands</w>": 5414,
      "comun": 5415,
      "30</w>": 5416,
      "HotelQuickly</w>": 5417,
      "ata</w>": 5418,
      "proud</w>": 5419,
      "econ": 5420,
      "segur": 5421,
      "crip": 5422,
      "cada</w>": 5423,
      "publ": 5424,
      "sk": 5425,
      "miento</w>": 5426,
      "reservations</w>": 5427,
      "Fl": 5428,
      "atu": 5429,
      "cuentr": 5430,
      "City</w>": 5431,
      "room</w>": 5432,
      "acional</w>": 5433,
      "see</w>": 5434,
      "dio</w>": 5435,
      "Se</w>": 5436,
      "than</w>": 5437,
      "file</w>": 5438,
      "my</w>": 5439,
      "man</w>": 5440,
      "igh</w>": 5441,
      "nor": 5442,
      "Hoteles</w>": 5443,
      "dise": 5444,
      "per</w>": 5445,
      "tan</w>": 5446,
      "encontrar</w>": 5447,
      "asta</w>": 5448,
      "ús": 5449,
      "For</w>": 5450,
      "pen": 5451,
      "inte": 5452,
      "ide": 5453,
      "contac": 5454,
      "dic": 5455,
      "Gre": 5456,
      "tware</w>": 5457,
      "datos</w>": 5458,
      "what</w>": 5459,
      "shi": 5460,
      "ém</w>": 5461,
      "ely</w>": 5462,
      "ações</w>": 5463,
      "trac": 5464,
      "compr": 5465,
      "where</w>": 5466,
      "cuando</w>": 5467,
      "thing</w>": 5468,
      "seu</w>": 5469,
      "Vuelos</w>": 5470,
      "make</w>": 5471,
      "don": 5472,
      "produ": 5473,
      "ise</w>": 5474,
      "much": 5475,
      "lev": 5476,
      "San": 5477,
      "ome": 5478,
      "Things</w>": 5479,
      "first</w>": 5480,
      "nea</w>": 5481,
      "selec": 5482,
      "archiv": 5483,
      "vo</w>": 5484,
      "tic</w>": 5485,
      "ómo</w>": 5486,
      "Tick": 5487,
      "tion": 5488,
      "ti</w>": 5489,
      "Amer": 5490,
      "ero": 5491,
      "abr": 5492,
      "elop": 5493,
      "solo</w>": 5494,
      "tro</w>": 5495,
      "ecu": 5496,
      "Pal": 5497,
      "sitio</w>": 5498,
      "loo": 5499,
      "arro": 5500,
      "els</w>": 5501,
      "tados</w>": 5502,
      "TV</w>": 5503,
      "fore</w>": 5504,
      "ami": 5505,
      "To</w>": 5506,
      "Por</w>": 5507,
      "ministr": 5508,
      "tific": 5509,
      "He": 5510,
      "pur": 5511,
      "may": 5512,
      "Pri": 5513,
      "ja</w>": 5514,
      "United</w>": 5515,
      "ater</w>": 5516,
      "ort</w>": 5517,
      "ogr": 5518,
      "had</w>": 5519,
      "sigu": 5520,
      "Tickets</w>": 5521,
      "ong": 5522,
      "ai</w>": 5523,
      "fri": 5524,
      "mero</w>": 5525,
      "How</w>": 5526,
      "Em": 5527,
      "ames</w>": 5528,
      "50</w>": 5529,
      "ist</w>": 5530,
      "ower</w>": 5531,
      "exten": 5532,
      "ene": 5533,
      "protec": 5534,
      "uni": 5535,
      "through</w>": 5536,
      "tly</w>": 5537,
      "Min": 5538,
      "durante</w>": 5539,
      "bot": 5540,
      "Direc": 5541,
      "rit": 5542,
      "More</w>": 5543,
      "tin": 5544,
      "ístic": 5545,
      "sible</w>": 5546,
      "baratos</w>": 5547,
      "cias</w>": 5548,
      "ownlo": 5549,
      "available</w>": 5550,
      "tain</w>": 5551,
      "ows</w>": 5552,
      "eros</w>": 5553,
      "pueden</w>": 5554,
      "jun": 5555,
      "services</w>": 5556,
      "problem": 5557,
      "empres": 5558,
      "website</w>": 5559,
      "organiz": 5560,
      "vez</w>": 5561,
      "propi": 5562,
      "todas</w>": 5563,
      "ência</w>": 5564,
      "some</w>": 5565,
      "gener": 5566,
      "esto</w>": 5567,
      "cos": 5568,
      "mundo</w>": 5569,
      "ece</w>": 5570,
      "tras</w>": 5571,
      "What</w>": 5572,
      "ista</w>": 5573,
      "edi": 5574,
      "port": 5575,
      "aid</w>": 5576,
      "ative</w>": 5577,
      "equip": 5578,
      "Co": 5579,
      "get": 5580,
      "vuelos</w>": 5581,
      "Ju": 5582,
      "pli": 5583,
      "how</w>": 5584,
      "tros</w>": 5585,
      "mus": 5586,
      "lugar</w>": 5587,
      "eron</w>": 5588,
      "Ab": 5589,
      "ns</w>": 5590,
      "tico</w>": 5591,
      "num": 5592,
      "udad</w>": 5593,
      "úl": 5594,
      "IN": 5595,
      "Val": 5596,
      "dro": 5597,
      "world</w>": 5598,
      "mul": 5599,
      "ban": 5600,
      "identi": 5601,
      "iente</w>": 5602,
      "aje</w>": 5603,
      "cab": 5604,
      "ded</w>": 5605,
      "try</w>": 5606,
      "chan": 5607,
      "table</w>": 5608,
      "ste": 5609,
      "iro</w>": 5610,
      "ama</w>": 5611,
      "gan": 5612,
      "To": 5613,
      "ato</w>": 5614,
      "hasta</w>": 5615,
      "continu": 5616,
      "lish</w>": 5617,
      "sua</w>": 5618,
      "dom": 5619,
      "agu": 5620,
      "vida</w>": 5621,
      "uno</w>": 5622,
      "je": 5623,
      "blo": 5624,
      "hom": 5625,
      "ger": 5626,
      "tory</w>": 5627,
      "mé": 5628,
      "cuentra</w>": 5629,
      "Reg": 5630,
      "gle</w>": 5631,
      "adi": 5632,
      "ween</w>": 5633,
      "illa</w>": 5634,
      "would</w>": 5635,
      "ín": 5636,
      "consid": 5637,
      "ned</w>": 5638,
      "ori": 5639,
      "St": 5640,
      "enc": 5641,
      "edad</w>": 5642,
      "hotels</w>": 5643,
      "Rent": 5644,
      "cho": 5645,
      "after</w>": 5646,
      "place</w>": 5647,
      "tado</w>": 5648,
      "prov": 5649,
      "now": 5650,
      "tech": 5651,
      "arse</w>": 5652,
      "ke": 5653,
      "No": 5654,
      "autom": 5655,
      "need</w>": 5656,
      "service</w>": 5657,
      "chil": 5658,
      "perm": 5659,
      "compu": 5660,
      "mom": 5661,
      "And</w>": 5662,
      "side</w>": 5663,
      "deb": 5664,
      "paí": 5665,
      "mel": 5666,
      "unci": 5667,
      "form</w>": 5668,
      "air</w>": 5669,
      "AN": 5670,
      "Flights</w>": 5671,
      "her": 5672,
      "pal": 5673,
      "ail</w>": 5674,
      "hoteles</w>": 5675,
      "tex": 5676,
      "Este</w>": 5677,
      "cen": 5678,
      "página</w>": 5679,
      "realiz": 5680,
      "just</w>": 5681,
      "deal</w>": 5682,
      "servicios</w>": 5683,
      "dre": 5684,
      "ace": 5685,
      "aces</w>": 5686,
      "habit": 5687,
      "forma": 5688,
      "China</w>": 5689,
      "ura</w>": 5690,
      "pode</w>": 5691,
      "ne</w>": 5692,
      "agem</w>": 5693,
      "ather</w>": 5694,
      "sos</w>": 5695,
      "disponi": 5696,
      "English</w>": 5697,
      "outh</w>": 5698,
      "ful": 5699,
      "speci": 5700,
      "publi": 5701,
      "lowing</w>": 5702,
      "perfec": 5703,
      "Sk": 5704,
      "ities</w>": 5705,
      "mes": 5706,
      "Free</w>": 5707,
      "trip</w>": 5708,
      "difer": 5709,
      "mos": 5710,
      "ican</w>": 5711,
      "termin": 5712,
      "ive</w>": 5713,
      "sab": 5714,
      "differ": 5715,
      "nov": 5716,
      "oms</w>": 5717,
      "amb": 5718,
      "should</w>": 5719,
      "Sol": 5720,
      "orgull": 5721,
      "éc": 5722,
      "using</w>": 5723,
      "Jo": 5724,
      "aro": 5725,
      "ory</w>": 5726,
      "ying</w>": 5727,
      "rece": 5728,
      "podrás</w>": 5729,
      "cambi": 5730,
      "between</w>": 5731,
      "ub": 5732,
      "don</w>": 5733,
      "cid": 5734,
      "confianza</w>": 5735,
      "indi": 5736,
      "take</w>": 5737,
      "erra</w>": 5738,
      "star": 5739,
      "La": 5740,
      "Mic": 5741,
      "ject</w>": 5742,
      "aloj": 5743,
      "ún": 5744,
      "software</w>": 5745,
      "led</w>": 5746,
      "eting</w>": 5747,
      "two</w>": 5748,
      "As</w>": 5749,
      "travel</w>": 5750,
      "orgulloso</w>": 5751,
      "Options</w>": 5752,
      "eles</w>": 5753,
      "itar</w>": 5754,
      "design</w>": 5755,
      "ches</w>": 5756,
      "tipo</w>": 5757,
      "constr": 5758,
      "sea</w>": 5759,
      "Restaurantes</w>": 5760,
      "sin": 5761,
      "oda</w>": 5762,
      "ears</w>": 5763,
      "echo</w>": 5764,
      "RE": 5765,
      "Hos": 5766,
      "ismo</w>": 5767,
      "centr": 5768,
      "spe": 5769,
      "Bel": 5770,
      "través</w>": 5771,
      "mas": 5772,
      "play": 5773,
      "nific": 5774,
      "faz": 5775,
      "cum": 5776,
      "agr": 5777,
      "abor": 5778,
      "estu": 5779,
      "han</w>": 5780,
      "Gen": 5781,
      "lig": 5782,
      "dest": 5783,
      "che</w>": 5784,
      "están</w>": 5785,
      "sistema</w>": 5786,
      "recom": 5787,
      "enas</w>": 5788,
      "qued": 5789,
      "incre": 5790,
      "Mo": 5791,
      "restaurantes</w>": 5792,
      "estos</w>": 5793,
      "profes": 5794,
      "fue</w>": 5795,
      "úbl": 5796,
      "exis": 5797,
      "ço</w>": 5798,
      "socio</w>": 5799,
      "ines</w>": 5800,
      "ded": 5801,
      "ata": 5802,
      "ownload</w>": 5803,
      "ping</w>": 5804,
      "arm": 5805,
      "ale</w>": 5806,
      "Internet</w>": 5807,
      "2017</w>": 5808,
      "años</w>": 5809,
      "old</w>": 5810,
      "uda</w>": 5811,
      "Pe": 5812,
      "Servi": 5813,
      "rea</w>": 5814,
      "úmero</w>": 5815,
      "nav": 5816,
      "precios</w>": 5817,
      "eci": 5818,
      "without</w>": 5819,
      "CO": 5820,
      "situ": 5821,
      "Cal": 5822,
      "eas": 5823,
      "ness</w>": 5824,
      "including</w>": 5825,
      "Ti": 5826,
      "develop": 5827,
      "system</w>": 5828,
      "últim": 5829,
      "15</w>": 5830,
      "princip": 5831,
      "alta</w>": 5832,
      "má": 5833,
      "hos": 5834,
      "aria</w>": 5835,
      "US": 5836,
      "int</w>": 5837,
      "vuel": 5838,
      "come</w>": 5839,
      "want</w>": 5840,
      "az</w>": 5841,
      "fru": 5842,
      "Ver": 5843,
      "verti": 5844,
      "even</w>": 5845,
      "nuestro</w>": 5846,
      "Trans": 5847,
      "bor": 5848,
      "Más</w>": 5849,
      "sum": 5850,
      "stitu": 5851,
      "ock</w>": 5852,
      "cop": 5853,
      "categor": 5854,
      "Holiday</w>": 5855,
      "así</w>": 5856,
      "preci": 5857,
      "struc": 5858,
      "Tel": 5859,
      "ookies</w>": 5860,
      "che": 5861,
      "orig": 5862,
      "pos</w>": 5863,
      "lob": 5864,
      "inf": 5865,
      "ause</w>": 5866,
      "via</w>": 5867,
      "Es</w>": 5868,
      "flight</w>": 5869,
      "lleg": 5870,
      "control</w>": 5871,
      "Cre": 5872,
      "ide</w>": 5873,
      "sus": 5874,
      "said</w>": 5875,
      "Cosas</w>": 5876,
      "fá": 5877,
      "línea</w>": 5878,
      "dep": 5879,
      "Españ": 5880,
      "cep": 5881,
      "made</w>": 5882,
      "electr": 5883,
      "Coun": 5884,
      "then</w>": 5885,
      "Rec": 5886,
      "Bl": 5887,
      "aga</w>": 5888,
      "Airport</w>": 5889,
      "ili": 5890,
      "here</w>": 5891,
      "Us": 5892,
      "ias</w>": 5893,
      "ebr": 5894,
      "descu": 5895,
      "area</w>": 5896,
      "business</w>": 5897,
      "ety</w>": 5898,
      "cil</w>": 5899,
      "vide</w>": 5900,
      "Estados</w>": 5901,
      "pués</w>": 5902,
      "AR": 5903,
      "connec": 5904,
      "good</w>": 5905,
      "ount</w>": 5906,
      "ER": 5907,
      "ros": 5908,
      "esp": 5909,
      "plem": 5910,
      "products</w>": 5911,
      "inten": 5912,
      "repres": 5913,
      "comb": 5914,
      "expl": 5915,
      "high</w>": 5916,
      "públ": 5917,
      "hay</w>": 5918,
      "Tur": 5919,
      "alquil": 5920,
      "Yor": 5921,
      "quis": 5922,
      "set</w>": 5923,
      "instal": 5924,
      "nacional</w>": 5925,
      "years</w>": 5926,
      "algun": 5927,
      "ous": 5928,
      "Rentals</w>": 5929,
      "ked</w>": 5930,
      "lit": 5931,
      "ator</w>": 5932,
      "año</w>": 5933,
      "log": 5934,
      "out": 5935,
      "oogle</w>": 5936,
      "lim": 5937,
      "Bi": 5938,
      "ell": 5939,
      "Web</w>": 5940,
      "Todos</w>": 5941,
      "ics</w>": 5942,
      "oferta</w>": 5943,
      "ior</w>": 5944,
      "cin": 5945,
      "reservar</w>": 5946,
      "applic": 5947,
      "pre</w>": 5948,
      "ie</w>": 5949,
      "yn": 5950,
      "pul": 5951,
      "Mus": 5952,
      "ley</w>": 5953,
      "order</w>": 5954,
      "Home</w>": 5955,
      "Mad": 5956,
      "ign</w>": 5957,
      "city</w>": 5958,
      "effec": 5959,
      "tivos</w>": 5960,
      "elo</w>": 5961,
      "buil": 5962,
      "defin": 5963,
      "eld</w>": 5964,
      "corre": 5965,
      "ability</w>": 5966,
      "hora</w>": 5967,
      "EN": 5968,
      "ví": 5969,
      "quality</w>": 5970,
      "faci": 5971,
      "less</w>": 5972,
      "nom": 5973,
      "vo": 5974,
      "segu": 5975,
      "dig": 5976,
      "life</w>": 5977,
      "Rom": 5978,
      "vin": 5979,
      "ific": 5980,
      "día</w>": 5981,
      "ton": 5982,
      "aron</w>": 5983,
      "commun": 5984,
      "ry</w>": 5985,
      "ór": 5986,
      "sm": 5987,
      "ário</w>": 5988,
      "12</w>": 5989,
      "Google</w>": 5990,
      "personas</w>": 5991,
      "found</w>": 5992,
      "eva</w>": 5993,
      "Lon": 5994,
      "self</w>": 5995,
      "ep</w>": 5996,
      "apa</w>": 5997,
      "Produc": 5998,
      "va</w>": 5999,
      "tra</w>": 6000,
      "cuenta</w>": 6001,
      "aph": 6002,
      "tail": 6003,
      "Med": 6004,
      "pron": 6005,
      "culos</w>": 6006,
      "alth</w>": 6007,
      "ently</w>": 6008,
      "custom": 6009,
      "Beach</w>": 6010,
      "ion": 6011,
      "At": 6012,
      "etas</w>": 6013,
      "Bay</w>": 6014,
      "registr": 6015,
      "ath": 6016,
      "ender</w>": 6017,
      "ester": 6018,
      "ym": 6019,
      "éis</w>": 6020,
      "Ger": 6021,
      "He</w>": 6022,
      "signific": 6023,
      "liv": 6024,
      "part</w>": 6025,
      "productos</w>": 6026,
      "desarro": 6027,
      "Europe": 6028,
      "tación</w>": 6029,
      "\".</w>": 6030,
      "ply</w>": 6031,
      "those</w>": 6032,
      "consider": 6033,
      "arti": 6034,
      "change</w>": 6035,
      "rig": 6036,
      "York</w>": 6037,
      "Bo": 6038,
      "provide</w>": 6039,
      "tional</w>": 6040,
      "following</w>": 6041,
      "bar</w>": 6042,
      "ña</w>": 6043,
      "base</w>": 6044,
      "know</w>": 6045,
      "ash": 6046,
      "Po": 6047,
      "tical</w>": 6048,
      "fazer</w>": 6049,
      "page</w>": 6050,
      "alg": 6051,
      "Austr": 6052,
      "servicio</w>": 6053,
      "porte</w>": 6054,
      "Vis": 6055,
      "osa</w>": 6056,
      "Ci": 6057,
      "culo</w>": 6058,
      "compar": 6059,
      "There</w>": 6060,
      "óg": 6061,
      "ody</w>": 6062,
      "ticas</w>": 6063,
      "Alquil": 6064,
      "back</w>": 6065,
      "Agoda</w>": 6066,
      "know": 6067,
      "tern": 6068,
      "energ": 6069,
      "great</w>": 6070,
      "vent": 6071,
      "estar</w>": 6072,
      "ífic": 6073,
      "ours</w>": 6074,
      "ways</w>": 6075,
      "mor": 6076,
      "Reservation</w>": 6077,
      "ek</w>": 6078,
      "visitantes</w>": 6079,
      "ship</w>": 6080,
      "read": 6081,
      "vacaciones</w>": 6082,
      "Mu": 6083,
      "him</w>": 6084,
      "ins</w>": 6085,
      "ough</w>": 6086,
      "ville</w>": 6087,
      "Sec": 6088,
      "sen": 6089,
      "prote": 6090,
      "ft</w>": 6091,
      "incluy": 6092,
      "esa</w>": 6093,
      "acter": 6094,
      "necess": 6095,
      "cha</w>": 6096,
      "ental</w>": 6097,
      "Loc": 6098,
      "inal</w>": 6099,
      "Esta</w>": 6100,
      "partment</w>": 6101,
      "Unidos</w>": 6102,
      "Categor": 6103,
      "pun": 6104,
      "acionales</w>": 6105,
      "tanto</w>": 6106,
      "ania</w>": 6107,
      "ara</w>": 6108,
      "ela</w>": 6109,
      "different</w>": 6110,
      "eropu": 6111,
      "Dec": 6112,
      "mat": 6113,
      "wit": 6114,
      ".”</w>": 6115,
      "ot</w>": 6116,
      "local</w>": 6117,
      "ang</w>": 6118,
      "public</w>": 6119,
      "acia</w>": 6120,
      "relacion": 6121,
      "favor": 6122,
      "access</w>": 6123,
      "bilidad</w>": 6124,
      "resid": 6125,
      "ayud": 6126,
      "aya</w>": 6127,
      "over": 6128,
      "Fr": 6129,
      "visitors</w>": 6130,
      "capaci": 6131,
      "Pan": 6132,
      "popul": 6133,
      "Univers": 6134,
      "mov": 6135,
      "need": 6136,
      "year</w>": 6137,
      "nuestra</w>": 6138,
      "archivo</w>": 6139,
      "acti": 6140,
      "establ": 6141,
      "eza</w>": 6142,
      "llo</w>": 6143,
      "does</w>": 6144,
      "til</w>": 6145,
      "add": 6146,
      "States</w>": 6147,
      "Ver</w>": 6148,
      "ink</w>": 6149,
      "Ber": 6150,
      "ports</w>": 6151,
      "propor": 6152,
      "AT": 6153,
      "Wik": 6154,
      "clientes</w>": 6155,
      "rooms</w>": 6156,
      "ath</w>": 6157,
      "gran": 6158,
      "Wind": 6159,
      "Du": 6160,
      "entarios</w>": 6161,
      "erci": 6162,
      "tamento</w>": 6163,
      "integr": 6164,
      "sia</w>": 6165,
      "before</w>": 6166,
      "aroom</w>": 6167,
      "embr": 6168,
      "getaroom</w>": 6169,
      "tores</w>": 6170,
      "God</w>": 6171,
      "ticos</w>": 6172,
      "offers</w>": 6173,
      "Suites</w>": 6174,
      "requi": 6175,
      "fic</w>": 6176,
      "casa</w>": 6177,
      "ass</w>": 6178,
      "qual": 6179,
      "Ital": 6180,
      "IC": 6181,
      "When</w>": 6182,
      "under": 6183,
      "und</w>": 6184,
      "bal": 6185,
      "cour": 6186,
      "des</w>": 6187,
      "Park</w>": 6188,
      "Find</w>": 6189,
      "poc": 6190,
      "iniones</w>": 6191,
      "AC": 6192,
      "Esta": 6193,
      "din": 6194,
      "lic": 6195,
      "tems</w>": 6196,
      "fuer": 6197,
      "clus": 6198,
      "encias</w>": 6199,
      "Chris": 6200,
      "polí": 6201,
      "yec": 6202,
      "because</w>": 6203,
      "discoun": 6204,
      "son": 6205,
      "apest</w>": 6206,
      "name</w>": 6207,
      "anal": 6208,
      "IS": 6209,
      "éx": 6210,
      "calidad</w>": 6211,
      "gran</w>": 6212,
      "stay</w>": 6213,
      "negoci": 6214,
      "each</w>": 6215,
      "mer</w>": 6216,
      "Top</w>": 6217,
      "pró": 6218,
      "acu": 6219,
      "disposi": 6220,
      "cookies</w>": 6221,
      "nia</w>": 6222,
      "eve</w>": 6223,
      "Os</w>": 6224,
      "ats</w>": 6225,
      "momento</w>": 6226,
      "raz": 6227,
      "foi</w>": 6228,
      "nuestros</w>": 6229,
      "fre": 6230,
      "sa": 6231,
      "being</w>": 6232,
      "educ": 6233,
      "top</w>": 6234,
      "pass": 6235,
      "genes</w>": 6236,
      "peti": 6237,
      "roup</w>": 6238,
      "Restaurant</w>": 6239,
      "pain</w>": 6240,
      "lar</w>": 6241,
      "ards</w>": 6242,
      "Del": 6243,
      "Business</w>": 6244,
      "mismo</w>": 6245,
      "rio</w>": 6246,
      "tamb": 6247,
      "individ": 6248,
      "donde</w>": 6249,
      "ether</w>": 6250,
      "anim": 6251,
      "based</w>": 6252,
      "ez": 6253,
      "merc": 6254,
      "Seg": 6255,
      "000</w>": 6256,
      "éfon": 6257,
      "uch</w>": 6258,
      "tel</w>": 6259,
      "moder": 6260,
      "pac": 6261,
      "adora</w>": 6262,
      "ier": 6263,
      "nuevo</w>": 6264,
      "collec": 6265,
      "det": 6266,
      "bia</w>": 6267,
      "same</w>": 6268,
      "mi</w>": 6269,
      "abri": 6270,
      "medic": 6271,
      "ean</w>": 6272,
      "contra</w>": 6273,
      "itas</w>": 6274,
      "aquí</w>": 6275,
      "Pa": 6276,
      "Jes": 6277,
      "stud": 6278,
      "estions</w>": 6279,
      "Our</w>": 6280,
      "ofre": 6281,
      "exam": 6282,
      "acer": 6283,
      "Ste": 6284,
      "particip": 6285,
      "within</w>": 6286,
      "play</w>": 6287,
      "ger</w>": 6288,
      "estig": 6289,
      "igur": 6290,
      "prices</w>": 6291,
      "under</w>": 6292,
      "Información</w>": 6293,
      "House</w>": 6294,
      "Ter": 6295,
      "Tam": 6296,
      "25</w>": 6297,
      "New": 6298,
      "aba</w>": 6299,
      "arch</w>": 6300,
      "ning": 6301,
      "viaje</w>": 6302,
      "pis": 6303,
      "ciudad</w>": 6304,
      "are": 6305,
      "El": 6306,
      "bility</w>": 6307,
      "reserva</w>": 6308,
      "must</w>": 6309,
      "Cómo</w>": 6310,
      "suas</w>": 6311,
      "sido</w>": 6312,
      "water</w>": 6313,
      "ini": 6314,
      "trabaj": 6315,
      "ês</w>": 6316,
      "egos</w>": 6317,
      "rent</w>": 6318,
      "ird</w>": 6319,
      "também</w>": 6320,
      "24</w>": 6321,
      "ples</w>": 6322,
      "100</w>": 6323,
      "dren</w>": 6324,
      "social</w>": 6325,
      "ários</w>": 6326,
      "econom": 6327,
      "super": 6328,
      "ury</w>": 6329,
      "ofrece</w>": 6330,
      "email</w>": 6331,
      "International</w>": 6332,
      "fied</w>": 6333,
      "etes</w>": 6334,
      "ature</w>": 6335,
      "could</w>": 6336,
      "World</w>": 6337,
      "manu": 6338,
      "Mos": 6339,
      "11</w>": 6340,
      "lines</w>": 6341,
      "cir": 6342,
      "atis</w>": 6343,
      "content</w>": 6344,
      "inos</w>": 6345,
      "number</w>": 6346,
      "anto</w>": 6347,
      "tries</w>": 6348,
      "funcion": 6349,
      "2019</w>": 6350,
      "general</w>": 6351,
      "ían</w>": 6352,
      "agement</w>": 6353,
      "proper": 6354,
      "gro": 6355,
      "quer</w>": 6356,
      "phone</w>": 6357,
      "search</w>": 6358,
      "én": 6359,
      "mail</w>": 6360,
      "ist": 6361,
      "kes</w>": 6362,
      "áfic": 6363,
      "excel": 6364,
      "Sch": 6365,
      "gratu": 6366,
      "ables</w>": 6367,
      "trabajo</w>": 6368,
      "fur": 6369,
      "real</w>": 6370,
      "bn": 6371,
      ".\"</w>": 6372,
      "conoci": 6373,
      "ak</w>": 6374,
      "partic": 6375,
      "discounts</w>": 6376,
      "ann": 6377,
      "ellos</w>": 6378,
      "prepar": 6379,
      "process": 6380,
      "dri": 6381,
      "sions</w>": 6382,
      "refer": 6383,
      "tá": 6384,
      "Rel": 6385,
      "envi": 6386,
      "commod": 6387,
      "See</w>": 6388,
      "Mal": 6389,
      "echos</w>": 6390,
      "ES": 6391,
      "histor": 6392,
      "material</w>": 6393,
      "some": 6394,
      "tempor": 6395,
      "embar": 6396,
      "manera</w>": 6397,
      "gram</w>": 6398,
      "search": 6399,
      "ficial</w>": 6400,
      "lands</w>": 6401,
      "ides</w>": 6402,
      "bro": 6403,
      "expres": 6404,
      "cent": 6405,
      "tors</w>": 6406,
      "Af": 6407,
      "menos</w>": 6408,
      "eropuerto</w>": 6409,
      "adv": 6410,
      "def": 6411,
      "tures</w>": 6412,
      "alidad</w>": 6413,
      "Mil": 6414,
      "2018</w>": 6415,
      "zo</w>": 6416,
      "experience</w>": 6417,
      "Har": 6418,
      "stand": 6419,
      "partir</w>": 6420,
      "fast</w>": 6421,
      "indic": 6422,
      "có": 6423,
      "será</w>": 6424,
      "emplo</w>": 6425,
      "ós</w>": 6426,
      "around</w>": 6427,
      "Fin": 6428,
      "Contac": 6429,
      "body</w>": 6430,
      "uses</w>": 6431,
      "pap": 6432,
      "rid</w>": 6433,
      "ativa</w>": 6434,
      "Portu": 6435,
      "Travel</w>": 6436,
      "Mas": 6437,
      "ágenes</w>": 6438,
      "éfono</w>": 6439,
      "18": 6440,
      "Si": 6441,
      "revis": 6442,
      "ney</w>": 6443,
      "depend": 6444,
      "files</w>": 6445,
      "house</w>": 6446,
      "hav": 6447,
      "ols</w>": 6448,
      "resultados</w>": 6449,
      "veis</w>": 6450,
      "bnb</w>": 6451,
      "Reviews</w>": 6452,
      "Cap": 6453,
      "sure</w>": 6454,
      "después</w>": 6455,
      "giv": 6456,
      "actualiz": 6457,
      "Encuentra</w>": 6458,
      "field</w>": 6459,
      "tienen</w>": 6460,
      "OR": 6461,
      "días</w>": 6462,
      "With</w>": 6463,
      "Airbnb</w>": 6464,
      "den</w>": 6465,
      "tiva</w>": 6466,
      "gas</w>": 6467,
      "ism</w>": 6468,
      "Qué</w>": 6469,
      "caso</w>": 6470,
      "Resort</w>": 6471,
      "fal": 6472,
      "cuer": 6473,
      "medio</w>": 6474,
      "sch": 6475,
      "Ri": 6476,
      "during</w>": 6477,
      "related</w>": 6478,
      "days</w>": 6479,
      "ext</w>": 6480,
      "anco</w>": 6481,
      "support</w>": 6482,
      "recib": 6483,
      "vil</w>": 6484,
      "location</w>": 6485,
      "den": 6486,
      "efec": 6487,
      "ster": 6488,
      "shall</w>": 6489,
      "ível</w>": 6490,
      "long</w>": 6491,
      "ys</w>": 6492,
      "ísticas</w>": 6493,
      "diseño</w>": 6494,
      "weather</w>": 6495,
      "while</w>": 6496,
      "home</w>": 6497,
      "reli": 6498,
      "bien</w>": 6499,
      "\",</w>": 6500,
      "ax": 6501,
      "natural</w>": 6502,
      "Do</w>": 6503,
      "portun": 6504,
      "electrón": 6505,
      "ves</w>": 6506,
      "Una</w>": 6507,
      "righ": 6508,
      "hund": 6509,
      "Ev": 6510,
      "ove</w>": 6511,
      "Mi": 6512,
      "observ": 6513,
      "regul": 6514,
      "nas</w>": 6515,
      "hear": 6516,
      "emás</w>": 6517,
      "Fe": 6518,
      "Of": 6519,
      "usar</w>": 6520,
      "distribu": 6521,
      "Windows</w>": 6522,
      "ge": 6523,
      "melh": 6524,
      "ria</w>": 6525,
      "eck</w>": 6526,
      "Como</w>": 6527,
      "results</w>": 6528,
      "Ne": 6529,
      "administr": 6530,
      "Barcel": 6531,
      "auth": 6532,
      "enter</w>": 6533,
      "ativo</w>": 6534,
      "tics</w>": 6535,
      "pelo</w>": 6536,
      "ces": 6537,
      "bene": 6538,
      "proporcion": 6539,
      "km</w>": 6540,
      "úsqued": 6541,
      "Char": 6542,
      "écn": 6543,
      "fund": 6544,
      "otras</w>": 6545,
      "ze</w>": 6546,
      "ológ": 6547,
      "View</w>": 6548,
      "Sof": 6549,
      "respec": 6550,
      "ál": 6551,
      "compan": 6552,
      "simil": 6553,
      "enh": 6554,
      "South</w>": 6555,
      "viol": 6556,
      "ços</w>": 6557,
      "viajes</w>": 6558,
      "main</w>": 6559,
      "199": 6560,
      "ulo</w>": 6561,
      "ni</w>": 6562,
      "alia</w>": 6563,
      "every</w>": 6564,
      "debe</w>": 6565,
      "qué</w>": 6566,
      "On</w>": 6567,
      "):</w>": 6568,
      "Nov": 6569,
      "icy</w>": 6570,
      "high": 6571,
      "ins": 6572,
      "naveg": 6573,
      "Information</w>": 6574,
      "dade</w>": 6575,
      "España</w>": 6576,
      "ington</w>": 6577,
      "RO": 6578,
      "Bre": 6579,
      "Fi": 6580,
      "much</w>": 6581,
      "logo</w>": 6582,
      "gover": 6583,
      "mal": 6584,
      "ond</w>": 6585,
      "crib": 6586,
      "edor</w>": 6587,
      "jo": 6588,
      "porque</w>": 6589,
      "país</w>": 6590,
      "pic": 6591,
      "saf": 6592,
      "bra</w>": 6593,
      "omen</w>": 6594,
      "14</w>": 6595,
      "ah</w>": 6596,
      "programa</w>": 6597,
      "centro</w>": 6598,
      "ân": 6599,
      "oto</w>": 6600,
      "td</w>": 6601,
      "artí": 6602,
      "open</w>": 6603,
      "sive</w>": 6604,
      "aix": 6605,
      "Photos</w>": 6606,
      "atch</w>": 6607,
      "ery</w>": 6608,
      "junto</w>": 6609,
      "fer</w>": 6610,
      "ayuda</w>": 6611,
      "date</w>": 6612,
      "pesso": 6613,
      "process</w>": 6614,
      "fotos</w>": 6615,
      "mag": 6616,
      "titu": 6617,
      "Barcelona</w>": 6618,
      "sing</w>": 6619,
      "ker</w>": 6620,
      "etc</w>": 6621,
      "obje": 6622,
      "visi": 6623,
      "correc": 6624,
      "evis": 6625,
      "Tor": 6626,
      "jos</w>": 6627,
      "mot": 6628,
      "price</w>": 6629,
      "both</w>": 6630,
      "tamiento</w>": 6631,
      "urity</w>": 6632,
      "public": 6633,
      "Lin": 6634,
      "Un</w>": 6635,
      "ajes</w>": 6636,
      "”.</w>": 6637,
      "lobal</w>": 6638,
      "bres</w>": 6639,
      "tob": 6640,
      "Cos": 6641,
      "Her": 6642,
      "jus": 6643,
      "investig": 6644,
      "eno</w>": 6645,
      "ished</w>": 6646,
      "poten": 6647,
      "offer</w>": 6648,
      "gratis</w>": 6649,
      "user</w>": 6650,
      "reds</w>": 6651,
      "atures</w>": 6652,
      "ped": 6653,
      "anas</w>": 6654,
      "perform": 6655,
      "agua</w>": 6656,
      "correo</w>": 6657,
      "transl": 6658,
      "ods</w>": 6659,
      "OS</w>": 6660,
      "otro</w>": 6661,
      "owever</w>": 6662,
      "consul": 6663,
      "ka</w>": 6664,
      "temente</w>": 6665,
      "searches</w>": 6666,
      "eleg": 6667,
      "anab": 6668,
      "pens": 6669,
      "Pi": 6670,
      "olu": 6671,
      "aint</w>": 6672,
      "espec": 6673,
      "Cer": 6674,
      "Dios</w>": 6675,
      "10": 6676,
      "assi": 6677,
      "hace</w>": 6678,
      "zar</w>": 6679,
      "Phone</w>": 6680,
      "hundreds</w>": 6681,
      "Mor": 6682,
      "Ge": 6683,
      "American</w>": 6684,
      "country</w>": 6685,
      "ofrec": 6686,
      "redu": 6687,
      "docu": 6688,
      "cas</w>": 6689,
      "cost</w>": 6690,
      "corpor": 6691,
      "ES</w>": 6692,
      "ros</w>": 6693,
      "ized</w>": 6694,
      "men</w>": 6695,
      "addi": 6696,
      "esper": 6697,
      "ling</w>": 6698,
      "family</w>": 6699,
      "IT": 6700,
      "tres</w>": 6701,
      "amientos</w>": 6702,
      "arte</w>": 6703,
      "Santa</w>": 6704,
      "entas</w>": 6705,
      "18</w>": 6706,
      "children</w>": 6707,
      "alu": 6708,
      "número</w>": 6709,
      "conven": 6710,
      "They</w>": 6711,
      "ecer</w>": 6712,
      "possible</w>": 6713,
      "stico</w>": 6714,
      "otogr": 6715,
      "tation</w>": 6716,
      "óm": 6717,
      "obile</w>": 6718,
      "Hel": 6719,
      "company</w>": 6720,
      "Con</w>": 6721,
      "reas": 6722,
      "seus</w>": 6723,
      "ustri": 6724,
      "combin": 6725,
      "estra</w>": 6726,
      "mission</w>": 6727,
      "san": 6728,
      "añ": 6729,
      "Jap": 6730,
      "list</w>": 6731,
      "fabr": 6732,
      "imag": 6733,
      "peque": 6734,
      "Al</w>": 6735,
      "gus": 6736,
      "precio</w>": 6737,
      "important</w>": 6738,
      "US</w>": 6739,
      "ids</w>": 6740,
      "mens": 6741,
      "contact</w>": 6742,
      "But</w>": 6743,
      "wal": 6744,
      "ofertas</w>": 6745,
      "II</w>": 6746,
      "Rus": 6747,
      "brow": 6748,
      "informa": 6749,
      "seguridad</w>": 6750,
      "ques</w>": 6751,
      "arm</w>": 6752,
      "aza</w>": 6753,
      "diferentes</w>": 6754,
      "ye</w>": 6755,
      "aler": 6756,
      "tran": 6757,
      "proyec": 6758,
      "primer": 6759,
      "40</w>": 6760,
      "cription</w>": 6761,
      "descar": 6762,
      "éxico</w>": 6763,
      "méd": 6764,
      "burg</w>": 6765,
      "prob": 6766,
      "ahora</w>": 6767,
      "ember</w>": 6768,
      "mó": 6769,
      "técn": 6770,
      "”,</w>": 6771,
      "nombre</w>": 6772,
      "net": 6773,
      "anta": 6774,
      "13</w>": 6775,
      "ainst</w>": 6776,
      "respons": 6777,
      "Your</w>": 6778,
      "mac": 6779,
      "México</w>": 6780,
      "Mun": 6781,
      "16</w>": 6782,
      "Wi": 6783,
      "Fil": 6784,
      "ác": 6785,
      "dol": 6786,
      "ine": 6787,
      "cheapest</w>": 6788,
      "atic</w>": 6789,
      "dor": 6790,
      "yo</w>": 6791,
      "ingl": 6792,
      "new": 6793,
      "2016</w>": 6794,
      "Press</w>": 6795,
      "look</w>": 6796,
      "acción</w>": 6797,
      "Spain</w>": 6798,
      "mad": 6799,
      "sil": 6800,
      "determin": 6801,
      "proces": 6802,
      "viron": 6803,
      "AL": 6804,
      "face</w>": 6805,
      "arri": 6806,
      "empresa</w>": 6807,
      "set": 6808,
      "ól": 6809,
      "dific": 6810,
      "popular</w>": 6811,
      "ases</w>": 6812,
      "third</w>": 6813,
      "download</w>": 6814,
      "interes": 6815,
      "vacy</w>": 6816,
      "partments</w>": 6817,
      "oma</w>": 6818,
      "nosotros</w>": 6819,
      "mach": 6820,
      "istas</w>": 6821,
      "finan": 6822,
      "Ctrip</w>": 6823,
      "itor": 6824,
      "iendo</w>": 6825,
      "aja</w>": 6826,
      "ian</w>": 6827,
      "ford</w>": 6828,
      "lista</w>": 6829,
      "Bal": 6830,
      "below</w>": 6831,
      "Nueva</w>": 6832,
      "Sim": 6833,
      "product</w>": 6834,
      "estado</w>": 6835,
      "ped</w>": 6836,
      "ord</w>": 6837,
      "Pron": 6838,
      "Service</w>": 6839,
      "Star": 6840,
      "enj": 6841,
      "permite</w>": 6842,
      "construc": 6843,
      "eras</w>": 6844,
      "descuentos</w>": 6845,
      "tual</w>": 6846,
      "mol": 6847,
      "principal</w>": 6848,
      "lear": 6849,
      "Mex": 6850,
      "law": 6851,
      "Mer": 6852,
      "chang": 6853,
      "Ingl": 6854,
      "ue": 6855,
      "Word": 6856,
      "gares</w>": 6857,
      "Joh": 6858,
      "func": 6859,
      "venta</w>": 6860,
      "ox": 6861,
      "friend": 6862,
      "coc": 6863,
      "against</w>": 6864,
      "reviews</w>": 6865,
      "full</w>": 6866,
      "Alquileres</w>": 6867,
      "ional</w>": 6868,
      "beg": 6869,
      "fy</w>": 6870,
      "usa</w>": 6871,
      "tamentos</w>": 6872,
      "Stu": 6873,
      "dados</w>": 6874,
      "Fotos</w>": 6875,
      "Gar": 6876,
      "posible</w>": 6877,
      "game</w>": 6878,
      "libre</w>": 6879,
      "impres": 6880,
      "mal</w>": 6881,
      "muj": 6882,
      "vuelo</w>": 6883,
      "mayor</w>": 6884,
      "tras": 6885,
      "nology</w>": 6886,
      "muito</w>": 6887,
      "ON": 6888,
      "ware</w>": 6889,
      "Av": 6890,
      "arqui": 6891,
      "juego</w>": 6892,
      "dentro</w>": 6893,
      "imin": 6894,
      "dire": 6895,
      "ocu": 6896,
      "fron": 6897,
      "temper": 6898,
      "things</w>": 6899,
      "Face": 6900,
      "Comments</w>": 6901,
      "frica</w>": 6902,
      "marketing</w>": 6903,
      "Gl": 6904,
      "ich": 6905,
      "cómo</w>": 6906,
      "ás": 6907,
      "appro": 6908,
      "ading</w>": 6909,
      "press</w>": 6910,
      "bus</w>": 6911,
      "versión</w>": 6912,
      "video</w>": 6913,
      "sex": 6914,
      "Fu": 6915,
      "ança</w>": 6916,
      "ientras</w>": 6917,
      "multi": 6918,
      "Dom": 6919,
      "oga</w>": 6920,
      "last</w>": 6921,
      "range</w>": 6922,
      "located</w>": 6923,
      "small</w>": 6924,
      "ientes</w>": 6925,
      "dates</w>": 6926,
      "conditions</w>": 6927,
      "Centr": 6928,
      "stor": 6929,
      "plac": 6930,
      "pag": 6931,
      "top": 6932,
      "tance</w>": 6933,
      "Ir": 6934,
      "Soci": 6935,
      "clo": 6936,
      "fort</w>": 6937,
      "European</w>": 6938,
      "au</w>": 6939,
      "solici": 6940,
      "suits</w>": 6941,
      "color</w>": 6942,
      "vec": 6943,
      "ads</w>": 6944,
      "ures</w>": 6945,
      "clos": 6946,
      "gru": 6947,
      "appe": 6948,
      "llam": 6949,
      "ín</w>": 6950,
      "sor": 6951,
      "Veg": 6952,
      "Facebook</w>": 6953,
      "AS": 6954,
      "ank</w>": 6955,
      "Hom": 6956,
      "lado</w>": 6957,
      "she</w>": 6958,
      "atis": 6959,
      "times</w>": 6960,
      "One</w>": 6961,
      "Tu": 6962,
      "gg": 6963,
      "hap": 6964,
      "power</w>": 6965,
      "úsqueda</w>": 6966,
      "bajo</w>": 6967,
      "ket</w>": 6968,
      "ily</w>": 6969,
      "Expl": 6970,
      "total</w>": 6971,
      "ele</w>": 6972,
      "tural</w>": 6973,
      "Vol": 6974,
      "bon": 6975,
      "tes": 6976,
      "pati": 6977,
      "toda</w>": 6978,
      "map</w>": 6979,
      "empre</w>": 6980,
      "bers</w>": 6981,
      "él": 6982,
      "sion": 6983,
      "ham</w>": 6984,
      "lease</w>": 6985,
      "case</w>": 6986,
      "three</w>": 6987,
      "itor</w>": 6988,
      "promo": 6989,
      "pecial</w>": 6990,
      "sw": 6991,
      "onia</w>": 6992,
      "princi": 6993,
      "obtener</w>": 6994,
      "trar</w>": 6995,
      "Vac": 6996,
      "IP</w>": 6997,
      "ecast</w>": 6998,
      "tis": 6999,
      "flo": 7000,
      "works</w>": 7001,
      "ges</w>": 7002,
      "Ta": 7003,
      "key</w>": 7004,
      "Cr": 7005,
      "otra</w>": 7006,
      "ús</w>": 7007,
      "sional</w>": 7008,
      "isten": 7009,
      "suc": 7010,
      "llev": 7011,
      "60</w>": 7012,
      "scre": 7013,
      "Cur": 7014,
      "Flor": 7015,
      "General</w>": 7016,
      "alquiler</w>": 7017,
      "adr": 7018,
      "mejor": 7019,
      "tecnolog": 7020,
      "ella</w>": 7021,
      "Services</w>": 7022,
      "elem": 7023,
      "down</w>": 7024,
      "dom</w>": 7025,
      "lat": 7026,
      "defini": 7027,
      "Europa</w>": 7028,
      "care</w>": 7029,
      "fácil</w>": 7030,
      "exi": 7031,
      "igu": 7032,
      "Madrid</w>": 7033,
      "Add</w>": 7034,
      "dar</w>": 7035,
      "pes</w>": 7036,
      "eño</w>": 7037,
      "Andro": 7038,
      "anda</w>": 7039,
      "sale</w>": 7040,
      "aten": 7041,
      "pregun": 7042,
      "acerca</w>": 7043,
      "adio</w>": 7044,
      "Tri": 7045,
      "modo</w>": 7046,
      "autor": 7047,
      "grande</w>": 7048,
      "itch": 7049,
      "tails</w>": 7050,
      "ças</w>": 7051,
      "ult</w>": 7052,
      "ency</w>": 7053,
      "Casa</w>": 7054,
      "grand": 7055,
      "So": 7056,
      "town</w>": 7057,
      "conec": 7058,
      "London</w>": 7059,
      "Paris</w>": 7060,
      "acceso</w>": 7061,
      "Bas": 7062,
      ".,</w>": 7063,
      "Busca</w>": 7064,
      "17</w>": 7065,
      "live</w>": 7066,
      "link</w>": 7067,
      "osos</w>": 7068,
      "Sup": 7069,
      "Evol": 7070,
      "prove": 7071,
      "Arg": 7072,
      "health</w>": 7073,
      "aire</w>": 7074,
      "favor</w>": 7075,
      "comprar</w>": 7076,
      "zona</w>": 7077,
      "él</w>": 7078,
      "Saint</w>": 7079,
      "act</w>": 7080,
      "ready</w>": 7081,
      "uir</w>": 7082,
      "estão</w>": 7083,
      "elimin": 7084,
      "Span": 7085,
      "Air</w>": 7086,
      "contenido</w>": 7087,
      "importante</w>": 7088,
      "irm": 7089,
      "dedic": 7090,
      "Neg": 7091,
      "hy": 7092,
      "ense</w>": 7093,
      "gue</w>": 7094,
      "address</w>": 7095,
      "Cus": 7096,
      "let": 7097,
      "00": 7098,
      "cos</w>": 7099,
      "did</w>": 7100,
      "ável</w>": 7101,
      "habitaciones</w>": 7102,
      "contribu": 7103,
      "Isra": 7104,
      "development</w>": 7105,
      "purpos": 7106,
      "arden</w>": 7107,
      "AP": 7108,
      "type</w>": 7109,
      "law</w>": 7110,
      "Sw": 7111,
      "media</w>": 7112,
      "sev": 7113,
      "computer</w>": 7114,
      "configur": 7115,
      "Car</w>": 7116,
      "Commun": 7117,
      "Ed": 7118,
      "Forum</w>": 7119,
      "cer</w>": 7120,
      "dej": 7121,
      "France</w>": 7122,
      "account</w>": 7123,
      "final</w>": 7124,
      "derechos</w>": 7125,
      "Apar": 7126,
      "click</w>": 7127,
      "exclus": 7128,
      "eather</w>": 7129,
      "pesquis": 7130,
      "accommod": 7131,
      "usuario</w>": 7132,
      "eira</w>": 7133,
      "embargo</w>": 7134,
      "19</w>": 7135,
      "érmin": 7136,
      "thers</w>": 7137,
      "electrónico</w>": 7138,
      "Men": 7139,
      "idi": 7140,
      "esia</w>": 7141,
      "idge</w>": 7142,
      "box</w>": 7143,
      "games</w>": 7144,
      "ár": 7145,
      "errami": 7146,
      "provides</w>": 7147,
      "atura</w>": 7148,
      "Sam": 7149,
      "every": 7150,
      "Android</w>": 7151,
      "Pos": 7152,
      "application</w>": 7153,
      "lia</w>": 7154,
      "ners</w>": 7155,
      "movi": 7156,
      "rights</w>": 7157,
      "market</w>": 7158,
      "minutos</w>": 7159,
      "reas</w>": 7160,
      "easy</w>": 7161,
      "Hu": 7162,
      "limit": 7163,
      "ken</w>": 7164,
      "Australia</w>": 7165,
      "accor": 7166,
      "ajud": 7167,
      "off</w>": 7168,
      "ances</w>": 7169,
      "estudi": 7170,
      "próxim": 7171,
      "mercado</w>": 7172,
      "imiento</w>": 7173,
      "garanti": 7174,
      "Prin": 7175,
      "Famil": 7176,
      "Cali": 7177,
      "created</w>": 7178,
      "lows</w>": 7179,
      "mic": 7180,
      "har": 7181,
      "quer": 7182,
      "food</w>": 7183,
      "dijo</w>": 7184,
      "oria</w>": 7185,
      "fa": 7186,
      "ello</w>": 7187,
      "aves</w>": 7188,
      "looking</w>": 7189,
      "associ": 7190,
      "let</w>": 7191,
      "área</w>": 7192,
      "mental</w>": 7193,
      "trabal": 7194,
      "AD": 7195,
      "ences</w>": 7196,
      "acidad</w>": 7197,
      "cy</w>": 7198,
      "clic</w>": 7199,
      "grupo</w>": 7200,
      "neas</w>": 7201,
      "Pen": 7202,
      "mucho</w>": 7203,
      "ross</w>": 7204,
      "Cli": 7205,
      "Mel": 7206,
      "ize</w>": 7207,
      "pir": 7208,
      "fas": 7209,
      "Europe</w>": 7210,
      "ID": 7211,
      "users</w>": 7212,
      "lities</w>": 7213,
      "mess": 7214,
      "sul": 7215,
      "curso</w>": 7216,
      "pronunci": 7217,
      "AM": 7218,
      "fam": 7219,
      "Bar</w>": 7220,
      "ation": 7221,
      "aer": 7222,
      "derecho</w>": 7223,
      "veg": 7224,
      "Spanish</w>": 7225,
      "wood</w>": 7226,
      "Micro": 7227,
      "señ": 7228,
      "North</w>": 7229,
      "ám": 7230,
      "identific": 7231,
      "Opciones</w>": 7232,
      "remo": 7233,
      "industr": 7234,
      "personaliz": 7235,
      "By</w>": 7236,
      "King": 7237,
      "qualquer</w>": 7238,
      "consum": 7239,
      "niños</w>": 7240,
      "love</w>": 7241,
      "cionado</w>": 7242,
      "word</w>": 7243,
      "mapa</w>": 7244,
      "nueva</w>": 7245,
      "zh": 7246,
      "Bras": 7247,
      "utilizar</w>": 7248,
      "umin": 7249,
      "Plan": 7250,
      "Lis": 7251,
      "experiencia</w>": 7252,
      "eBay</w>": 7253,
      "concer": 7254,
      "Ang": 7255,
      "acon": 7256,
      "poder</w>": 7257,
      "superi": 7258,
      "close</w>": 7259,
      "envol": 7260,
      "vities</w>": 7261,
      "govern": 7262,
      "estion</w>": 7263,
      "hacia</w>": 7264,
      "large</w>": 7265,
      "problemas</w>": 7266,
      "environ": 7267,
      "También</w>": 7268,
      "llegar</w>": 7269,
      "Te": 7270,
      "equipo</w>": 7271,
      "Bol": 7272,
      "atal": 7273,
      "Mod": 7274,
      "Comentarios</w>": 7275,
      "Hab": 7276,
      "bo</w>": 7277,
      "County</w>": 7278,
      "cir</w>": 7279,
      "ejemplo</w>": 7280,
      "gal</w>": 7281,
      "acuer": 7282,
      "mes</w>": 7283,
      "recog": 7284,
      "Le</w>": 7285,
      "Selec": 7286,
      "estad": 7287,
      "forecast</w>": 7288,
      "recur": 7289,
      "segun": 7290,
      "países</w>": 7291,
      "kets</w>": 7292,
      "main": 7293,
      "contain": 7294,
      "vacacionales</w>": 7295,
      "action</w>": 7296,
      "Island</w>": 7297,
      "tador</w>": 7298,
      "Site</w>": 7299,
      "cripción</w>": 7300,
      "aplicación</w>": 7301,
      "eos</w>": 7302,
      "doc": 7303,
      "door</w>": 7304,
      "caracter": 7305,
      "tempo</w>": 7306,
      "Tem": 7307,
      "Opiniones</w>": 7308,
      "ativos</w>": 7309,
      "empresas</w>": 7310,
      "cles</w>": 7311,
      "idor</w>": 7312,
      "21</w>": 7313,
      "version</w>": 7314,
      "Lim": 7315,
      "Lan": 7316,
      "Fi</w>": 7317,
      "soft</w>": 7318,
      "stre": 7319,
      "fice</w>": 7320,
      "gua</w>": 7321,
      "puedes</w>": 7322,
      "inglés</w>": 7323,
      "ban</w>": 7324,
      "entemente</w>": 7325,
      "Fre": 7326,
      "benefi": 7327,
      "Sur": 7328,
      "quar": 7329,
      "im</w>": 7330,
      "cle</w>": 7331,
      "encuentra</w>": 7332,
      "compro": 7333,
      "put</w>": 7334,
      "ses": 7335,
      "next</w>": 7336,
      "ole</w>": 7337,
      "pat": 7338,
      "post</w>": 7339,
      "lugares</w>": 7340,
      "etos</w>": 7341,
      "Sin</w>": 7342,
      "dial</w>": 7343,
      "grandes</w>": 7344,
      "provided</w>": 7345,
      "dirección</w>": 7346,
      "separ": 7347,
      "cess</w>": 7348,
      "mig": 7349,
      "cis": 7350,
      "known</w>": 7351,
      "ror</w>": 7352,
      "clu": 7353,
      "Jer": 7354,
      "Elec": 7355,
      "issu": 7356,
      "give</w>": 7357,
      "group</w>": 7358,
      "Dev": 7359,
      "point</w>": 7360,
      "esc": 7361,
      "disponibles</w>": 7362,
      "recommen": 7363,
      "acias</w>": 7364,
      "ancia</w>": 7365,
      "ala</w>": 7366,
      "party</w>": 7367,
      "amentos</w>": 7368,
      "destin": 7369,
      "TA</w>": 7370,
      "hos</w>": 7371,
      "Cuando</w>": 7372,
      "always</w>": 7373,
      "better</w>": 7374,
      "Ham": 7375,
      "Blu": 7376,
      "visit</w>": 7377,
      "auti": 7378,
      "vers</w>": 7379,
      "Servicios</w>": 7380,
      "Usted</w>": 7381,
      "ey": 7382,
      "features</w>": 7383,
      "miembr": 7384,
      "erta</w>": 7385,
      "St</w>": 7386,
      "LE": 7387,
      "ering</w>": 7388,
      "fil</w>": 7389,
      "erry</w>": 7390,
      "ars</w>": 7391,
      "terior</w>": 7392,
      "Alem": 7393,
      "WordPress</w>": 7394,
      "iza</w>": 7395,
      "siempre</w>": 7396,
      "akfast</w>": 7397,
      "TE": 7398,
      "paci": 7399,
      "edge</w>": 7400,
      "til": 7401,
      "create</w>": 7402,
      "iver</w>": 7403,
      "ref": 7404,
      "iter": 7405,
      "mon</w>": 7406,
      "stru": 7407,
      "condiciones</w>": 7408,
      "satis": 7409,
      "ltd</w>": 7410,
      "These</w>": 7411,
      "include</w>": 7412,
      "any": 7413,
      "veh": 7414,
      "ler</w>": 7415,
      "estión</w>": 7416,
      "Compar": 7417,
      "cover</w>": 7418,
      "Restaurante</w>": 7419,
      "intern": 7420,
      "adap": 7421,
      "vista</w>": 7422,
      "particular</w>": 7423,
      "Pas": 7424,
      "non</w>": 7425,
      "Bur": 7426,
      "ash</w>": 7427,
      "away</w>": 7428,
      "noti": 7429,
      "show</w>": 7430,
      "mate</w>": 7431,
      "arr": 7432,
      "Tim": 7433,
      "fabric": 7434,
      "populares</w>": 7435,
      "prop": 7436,
      "hist": 7437,
      "equ": 7438,
      "Italy</w>": 7439,
      "Sa": 7440,
      "bri": 7441,
      "hot": 7442,
      "eu</w>": 7443,
      "Pop": 7444,
      "Evoline</w>": 7445,
      "compañ": 7446,
      "mús": 7447,
      "plan</w>": 7448,
      "Hor": 7449,
      "ben": 7450,
      "Do": 7451,
      "Israel</w>": 7452,
      "tom</w>": 7453,
      "mar</w>": 7454,
      "Mej": 7455,
      "viajeros</w>": 7456,
      "At</w>": 7457,
      "Web": 7458,
      "flu": 7459,
      "producto</w>": 7460,
      "guar": 7461,
      "program</w>": 7462,
      "though</w>": 7463,
      "Cop": 7464,
      "ial</w>": 7465,
      "ased</w>": 7466,
      "ális": 7467,
      "Gol": 7468,
      "PC</w>": 7469,
      "archivos</w>": 7470,
      "institu": 7471,
      "Pic": 7472,
      "desarrollo</w>": 7473,
      "companies</w>": 7474,
      "ths</w>": 7475,
      "senti": 7476,
      "gres": 7477,
      "another</w>": 7478,
      "erte</w>": 7479,
      "Argent": 7480,
      "Rem": 7481,
      "quare</w>": 7482,
      "few</w>": 7483,
      "wide</w>": 7484,
      "Ten": 7485,
      "tings</w>": 7486,
      "informações</w>": 7487,
      "UN": 7488,
      "amig": 7489,
      "espaci": 7490,
      "contacto</w>": 7491,
      "SE": 7492,
      "ills</w>": 7493,
      "orr": 7494,
      "Portugal</w>": 7495,
      "eja</w>": 7496,
      "original</w>": 7497,
      "agre": 7498,
      "siones</w>": 7499,
      "individu": 7500,
      "ática</w>": 7501,
      "jects</w>": 7502,
      "install": 7503,
      "Clu": 7504,
      "Pres": 7505,
      "ega</w>": 7506,
      "ador": 7507,
      "level</w>": 7508,
      "Obten": 7509,
      "meas": 7510,
      "lav": 7511,
      "ios</w>": 7512,
      "usuarios</w>": 7513,
      "competi": 7514,
      "22</w>": 7515,
      "rup": 7516,
      "langu": 7517,
      "siguientes</w>": 7518,
      "ok": 7519,
      "cot": 7520,
      "Wiki": 7521,
      "Other</w>": 7522,
      "Program": 7523,
      "relacionados</w>": 7524,
      "countries</w>": 7525,
      "sing": 7526,
      "notific": 7527,
      "working</w>": 7528,
      "Design</w>": 7529,
      "divers": 7530,
      "ogados</w>": 7531,
      "toc": 7532,
      "still</w>": 7533,
      "Spr": 7534,
      "Room</w>": 7535,
      "ource</w>": 7536,
      "nam": 7537,
      "oría</w>": 7538,
      "ists</w>": 7539,
      "Foro</w>": 7540,
      "Center</w>": 7541,
      "Aeropuerto</w>": 7542,
      "Priv": 7543,
      "pública</w>": 7544,
      "ately</w>": 7545,
      "Ciudad</w>": 7546,
      "beli": 7547,
      "Wil": 7548,
      "enl": 7549,
      "aining</w>": 7550,
      "Mis": 7551,
      "iros</w>": 7552,
      "edores</w>": 7553,
      "específic": 7554,
      "legal</w>": 7555,
      "99": 7556,
      "treat": 7557,
      "bem</w>": 7558,
      "tin</w>": 7559,
      "mentar</w>": 7560,
      "Oc": 7561,
      "Jesus</w>": 7562,
      "som": 7563,
      "art</w>": 7564,
      "infec": 7565,
      "truc": 7566,
      "pela</w>": 7567,
      "fí": 7568,
      "author": 7569,
      "labor": 7570,
      "Jos": 7571,
      "USD</w>": 7572,
      "digital</w>": 7573,
      "Villa</w>": 7574,
      "manufac": 7575,
      "pesquisa</w>": 7576,
      "tari": 7577,
      "ern": 7578,
      "abilidad</w>": 7579,
      "Sil": 7580,
      "mientras</w>": 7581,
      "juegos</w>": 7582,
      "cess": 7583,
      "long": 7584,
      "inici": 7585,
      "holiday</w>": 7586,
      "érica</w>": 7587,
      "Weather</w>": 7588,
      "utiliza</w>": 7589,
      "ordin": 7590,
      "vul": 7591,
      "gos</w>": 7592,
      "Ind": 7593,
      "Hum": 7594,
      "Jan": 7595,
      "America</w>": 7596,
      "compon": 7597,
      "viagem</w>": 7598,
      "From</w>": 7599,
      "herrami": 7600,
      "offer": 7601,
      "state</w>": 7602,
      "érminos</w>": 7603,
      "perman": 7604,
      "extre": 7605,
      "puesto</w>": 7606,
      "today</w>": 7607,
      "Download</w>": 7608,
      "Ben": 7609,
      "bro</w>": 7610,
      "emple": 7611,
      "Aqu": 7612,
      "property</w>": 7613,
      "algo</w>": 7614,
      "stand</w>": 7615,
      "conex": 7616,
      "means</w>": 7617,
      "Preg": 7618,
      "stu": 7619,
      "ground</w>": 7620,
      "aim": 7621,
      "kers</w>": 7622,
      "ante": 7623,
      "Grand</w>": 7624,
      "hecho</w>": 7625,
      "Cab": 7626,
      "EU": 7627,
      "Pero</w>": 7628,
      "acep": 7629,
      "cular</w>": 7630,
      "ideal</w>": 7631,
      "Gran": 7632,
      "declar": 7633,
      "búsqueda</w>": 7634,
      "yl": 7635,
      "CA</w>": 7636,
      "West</w>": 7637,
      "AS</w>": 7638,
      "tercer": 7639,
      "Arch": 7640,
      "example</w>": 7641,
      "algunos</w>": 7642,
      "Califor": 7643,
      "Mag": 7644,
      "person</w>": 7645,
      "esqu": 7646,
      "expec": 7647,
      "primera</w>": 7648,
      "ources</w>": 7649,
      "designs</w>": 7650,
      "Dic": 7651,
      "icul": 7652,
      "production</w>": 7653,
      "writ": 7654,
      "recomend": 7655,
      "ajus": 7656,
      "State</w>": 7657,
      "Sing": 7658,
      "security</w>": 7659,
      "ur</w>": 7660,
      "turn</w>": 7661,
      "permiti": 7662,
      "Dr": 7663,
      "atr": 7664,
      "enda</w>": 7665,
      "Ni": 7666,
      "After</w>": 7667,
      "Central</w>": 7668,
      "uro</w>": 7669,
      "impac": 7670,
      "Vacation</w>": 7671,
      "intro": 7672,
      "California</w>": 7673,
      "sty": 7674,
      "ío</w>": 7675,
      "ball</w>": 7676,
      "ower": 7677,
      "gas": 7678,
      "AR</w>": 7679,
      "Blo": 7680,
      "ts": 7681,
      "Colom": 7682,
      "Reino</w>": 7683,
      "semana</w>": 7684,
      "previ": 7685,
      "back": 7686,
      "Cour": 7687,
      "sem</w>": 7688,
      "dies</w>": 7689,
      "había</w>": 7690,
      "urch</w>": 7691,
      "poin": 7692,
      "proceso</w>": 7693,
      "busca</w>": 7694,
      "muchos</w>": 7695,
      "reduc": 7696,
      "options</w>": 7697,
      "Gi": 7698,
      "test</w>": 7699,
      "among</w>": 7700,
      "Braz": 7701,
      "escu": 7702,
      "nivel</w>": 7703,
      "spec": 7704,
      "cionar</w>": 7705,
      "alojamientos</w>": 7706,
      "dam": 7707,
      "Er": 7708,
      "aro</w>": 7709,
      "necessary</w>": 7710,
      "2015</w>": 7711,
      "ertos</w>": 7712,
      "eiro</w>": 7713,
      "Condi": 7714,
      "tema</w>": 7715,
      "grow": 7716,
      "ola</w>": 7717,
      "adu": 7718,
      "fin</w>": 7719,
      "international</w>": 7720,
      "called</w>": 7721,
      "My</w>": 7722,
      "areas</w>": 7723,
      "women</w>": 7724,
      "Puerto</w>": 7725,
      "Además</w>": 7726,
      "aos</w>": 7727,
      "innov": 7728,
      "disfru": 7729,
      "Su</w>": 7730,
      "prove</w>": 7731,
      "lock</w>": 7732,
      "Equi": 7733,
      "human</w>": 7734,
      "oss</w>": 7735,
      "icional</w>": 7736,
      "otel</w>": 7737,
      "cambio</w>": 7738,
      "Costa</w>": 7739,
      "ester</w>": 7740,
      "ativas</w>": 7741,
      "publicación</w>": 7742,
      "Teléfono</w>": 7743,
      "ved</w>": 7744,
      "Bul": 7745,
      "jog": 7746,
      "indo</w>": 7747,
      "caf": 7748,
      "ille</w>": 7749,
      "choose</w>": 7750,
      "PD": 7751,
      "eds</w>": 7752,
      "actual</w>": 7753,
      "private</w>": 7754,
      "pantal": 7755,
      "Jun": 7756,
      "aver": 7757,
      "terms</w>": 7758,
      "cris": 7759,
      "ustrial</w>": 7760,
      "tabl": 7761,
      "sed</w>": 7762,
      "sistemas</w>": 7763,
      "ización</w>": 7764,
      "ON</w>": 7765,
      "Lux": 7766,
      "perfe": 7767,
      "tog": 7768,
      "seguro</w>": 7769,
      "Voc": 7770,
      "receive</w>": 7771,
      "yers</w>": 7772,
      "It": 7773,
      "Sub": 7774,
      "activities</w>": 7775,
      "gs</w>": 7776,
      "pack": 7777,
      "2012</w>": 7778,
      "digo</w>": 7779,
      "Sp": 7780,
      "Vir": 7781,
      "Ru": 7782,
      "making</w>": 7783,
      "performance</w>": 7784,
      "Go": 7785,
      "azo</w>": 7786,
      "Cris": 7787,
      "arán</w>": 7788,
      "stan": 7789,
      "direct</w>": 7790,
      "management</w>": 7791,
      "them": 7792,
      "Contact</w>": 7793,
      "proxim": 7794,
      "National</w>": 7795,
      "ez</w>": 7796,
      "uary</w>": 7797,
      "since</w>": 7798,
      "onic</w>": 7799,
      "member</w>": 7800,
      "acuerdo</w>": 7801,
      "oblig": 7802,
      "ete</w>": 7803,
      "However</w>": 7804,
      "stop</w>": 7805,
      "podem</w>": 7806,
      "global</w>": 7807,
      "persona</w>": 7808,
      "spir": 7809,
      "compati": 7810,
      "instruc": 7811,
      "arias</w>": 7812,
      "heart</w>": 7813,
      "vel": 7814,
      "illo</w>": 7815,
      "mediante</w>": 7816,
      "sun": 7817,
      "anz": 7818,
      "Pue": 7819,
      "Internacional</w>": 7820,
      "horas</w>": 7821,
      "Argentina</w>": 7822,
      "team</w>": 7823,
      "tric</w>": 7824,
      "Num": 7825,
      "Stre": 7826,
      "vered</w>": 7827,
      "minutes</w>": 7828,
      "gente</w>": 7829,
      "outros</w>": 7830,
      "project</w>": 7831,
      "systems</w>": 7832,
      "problema</w>": 7833,
      "Nuestr": 7834,
      "meth": 7835,
      "ampl": 7836,
      "sta</w>": 7837,
      "current</w>": 7838,
      "completo</w>": 7839,
      "share</w>": 7840,
      "tot": 7841,
      "jas</w>": 7842,
      "asoci": 7843,
      "review</w>": 7844,
      "tely</w>": 7845,
      "dose</w>": 7846,
      "españ": 7847,
      "ticle</w>": 7848,
      "mano</w>": 7849,
      "Número</w>": 7850,
      "comes</w>": 7851,
      "University</w>": 7852,
      "maj": 7853,
      "Questions</w>": 7854,
      "até</w>": 7855,
      "keep</w>": 7856,
      "superior</w>": 7857,
      "fel": 7858,
      "lab": 7859,
      "política</w>": 7860,
      "Siti": 7861,
      "ñas</w>": 7862,
      "Buscar</w>": 7863,
      "liber": 7864,
      "enos</w>": 7865,
      "Use</w>": 7866,
      "ark</w>": 7867,
      "opciones</w>": 7868,
      "económ": 7869,
      "alojamiento</w>": 7870,
      "needs</w>": 7871,
      "Pregun": 7872,
      "Fol": 7873,
      "celebr": 7874,
      "cido</w>": 7875,
      "elos</w>": 7876,
      "metros</w>": 7877,
      "198": 7878,
      "fit": 7879,
      "tera</w>": 7880,
      "Brasil</w>": 7881,
      "gol": 7882,
      "negocios</w>": 7883,
      "Data</w>": 7884,
      "toria</w>": 7885,
      "Dav": 7886,
      "AL</w>": 7887,
      "hal": 7888,
      "test": 7889,
      "tas": 7890,
      "Book</w>": 7891,
      "ld": 7892,
      "check</w>": 7893,
      "desarroll": 7894,
      "tiqu": 7895,
      "Qui": 7896,
      "technology</w>": 7897,
      "presid": 7898,
      "bath": 7899,
      "perfect</w>": 7900,
      "start</w>": 7901,
      "ubicación</w>": 7902,
      "Kingdom</w>": 7903,
      "conoc": 7904,
      "obier": 7905,
      "decor": 7906,
      "Fren": 7907,
      "Chi": 7908,
      "might</w>": 7909,
      "Em</w>": 7910,
      "rom": 7911,
      "flexi": 7912,
      "IA</w>": 7913,
      "Sys": 7914,
      "poco</w>": 7915,
      "Spa</w>": 7916,
      "tipos</w>": 7917,
      "course</w>": 7918,
      "ening</w>": 7919,
      "extension</w>": 7920,
      "pool</w>": 7921,
      "siguiente</w>": 7922,
      "Din": 7923,
      "fueron</w>": 7924,
      "experi": 7925,
      "altern": 7926,
      "Itali": 7927,
      "luz</w>": 7928,
      "prue": 7929,
      "marca</w>": 7930,
      "text</w>": 7931,
      "Mexico</w>": 7932,
      "ward</w>": 7933,
      "cumpl": 7934,
      "Organ": 7935,
      "Hy": 7936,
      "mir": 7937,
      "attrac": 7938,
      "sitios</w>": 7939,
      "tre</w>": 7940,
      "olí": 7941,
      "customers</w>": 7942,
      "needed</w>": 7943,
      "white</w>": 7944,
      "head</w>": 7945,
      "infr": 7946,
      "Ty": 7947,
      "conver": 7948,
      "cuid": 7949,
      "TR": 7950,
      "tab": 7951,
      "Bud": 7952,
      "rer</w>": 7953,
      "board</w>": 7954,
      "zz": 7955,
      "Nav": 7956,
      "going</w>": 7957,
      "quando</w>": 7958,
      "eder": 7959,
      "tratamiento</w>": 7960,
      "traduc": 7961,
      "Contro": 7962,
      "Obtené</w>": 7963,
      "detal": 7964,
      "isl": 7965,
      "His": 7966,
      "gráfic": 7967,
      "Lo": 7968,
      "Please</w>": 7969,
      "fes": 7970,
      "edades</w>": 7971,
      "specific</w>": 7972,
      "ights</w>": 7973,
      "poder": 7974,
      "please</w>": 7975,
      "salud</w>": 7976,
      "rendi": 7977,
      "words</w>": 7978,
      "cliente</w>": 7979,
      "orios</w>": 7980,
      "Tech": 7981,
      "orio</w>": 7982,
      "cina</w>": 7983,
      "Den": 7984,
      "possa</w>": 7985,
      "domin": 7986,
      "ef</w>": 7987,
      "fee</w>": 7988,
      "cru": 7989,
      "enter": 7990,
      "Centro</w>": 7991,
      "lot</w>": 7992,
      "melhor</w>": 7993,
      "nical</w>": 7994,
      "ner": 7995,
      "etari": 7996,
      "relación</w>": 7997,
      "invol": 7998,
      "cheap</w>": 7999,
      "prefer": 8000,
      "feed</w>": 8001,
      "cuerpo</w>": 8002,
      "recibir</w>": 8003,
      "ff": 8004,
      "ami</w>": 8005,
      "poli": 8006,
      "places</w>": 8007,
      "Imágenes</w>": 8008,
      "Fri": 8009,
      "Gal": 8010,
      "sens": 8011,
      "several</w>": 8012,
      "Twit": 8013,
      "programas</w>": 8014,
      "Unido</w>": 8015,
      "23</w>": 8016,
      "yer</w>": 8017,
      "similar</w>": 8018,
      "aspec": 8019,
      "but": 8020,
      "together</w>": 8021,
      "hours</w>": 8022,
      "eda</w>": 8023,
      "ported</w>": 8024,
      "entar</w>": 8025,
      "spo": 8026,
      "escr": 8027,
      "ha": 8028,
      "autiful</w>": 8029,
      "correspon": 8030,
      "communic": 8031,
      "lin</w>": 8032,
      "employ": 8033,
      "equipment</w>": 8034,
      "wa": 8035,
      "evalu": 8036,
      "directly</w>": 8037,
      "cual</w>": 8038,
      "space</w>": 8039,
      "internet</w>": 8040,
      "Wikipedia</w>": 8041,
      "become</w>": 8042,
      "Lake</w>": 8043,
      "orden": 8044,
      "deli": 8045,
      "Log": 8046,
      "idores</w>": 8047,
      "Você</w>": 8048,
      "pin": 8049,
      "ules</w>": 8050,
      "Win": 8051,
      "lion</w>": 8052,
      "Apartments</w>": 8053,
      "say</w>": 8054,
      "etro": 8055,
      "Manu": 8056,
      "texto</w>": 8057,
      "localiz": 8058,
      "valu": 8059,
      "illas</w>": 8060,
      "bol</w>": 8061,
      "ciud": 8062,
      "French</w>": 8063,
      "nuevos</w>": 8064,
      "special</w>": 8065,
      "Presid": 8066,
      "card</w>": 8067,
      "familia</w>": 8068,
      "detec": 8069,
      "tickets</w>": 8070,
      "Mul": 8071,
      "TI": 8072,
      "ants</w>": 8073,
      "DE</w>": 8074,
      "Indi": 8075,
      "Esto</w>": 8076,
      "enfer": 8077,
      "ops</w>": 8078,
      "cho</w>": 8079,
      "deber": 8080,
      "turas</w>": 8081,
      "Flight</w>": 8082,
      "others</w>": 8083,
      "tax": 8084,
      "influ": 8085,
      "15": 8086,
      "atro</w>": 8087,
      "Roy": 8088,
      "Club</w>": 8089,
      "left</w>": 8090,
      "Germany</w>": 8091,
      "too</w>": 8092,
      "cy": 8093,
      "screen</w>": 8094,
      "hand</w>": 8095,
      "night</w>": 8096,
      "ene</w>": 8097,
      "producción</w>": 8098,
      "ech</w>": 8099,
      "cosas</w>": 8100,
      "ei": 8101,
      "far</w>": 8102,
      "yet</w>": 8103,
      "simple</w>": 8104,
      "mitted</w>": 8105,
      "conduc": 8106,
      "complete</w>": 8107,
      "incluyendo</w>": 8108,
      "increase</w>": 8109,
      "treatment</w>": 8110,
      "Me</w>": 8111,
      "comer": 8112,
      "Tw": 8113,
      "buy</w>": 8114,
      "primer</w>": 8115,
      "So</w>": 8116,
      "certific": 8117,
      "updates</w>": 8118,
      "fully</w>": 8119,
      "vit": 8120,
      "accommodation</w>": 8121,
      "lam": 8122,
      "Caf": 8123,
      "Play</w>": 8124,
      "East</w>": 8125,
      "wind": 8126,
      "ant": 8127,
      "tric": 8128,
      "jour": 8129,
      "oid</w>": 8130,
      "enjoy</w>": 8131,
      "ags</w>": 8132,
      "íveis</w>": 8133,
      "again</w>": 8134,
      "tionary</w>": 8135,
      "eric": 8136,
      "depen": 8137,
      "India</w>": 8138,
      "máqu": 8139,
      "Cuá": 8140,
      "disponible</w>": 8141,
      "agrad": 8142,
      "28</w>": 8143,
      "Pág": 8144,
      "reded": 8145,
      "anced</w>": 8146,
      "Hay</w>": 8147,
      "cable</w>": 8148,
      "building</w>": 8149,
      "Bou": 8150,
      "mobile</w>": 8151,
      "hid": 8152,
      "ming</w>": 8153,
      "ítica</w>": 8154,
      "ac</w>": 8155,
      "above</w>": 8156,
      "ements</w>": 8157,
      "think</w>": 8158,
      "improve</w>": 8159,
      "ysis</w>": 8160,
      "acces": 8161,
      "result</w>": 8162,
      "research</w>": 8163,
      ",”</w>": 8164,
      "prac": 8165,
      "mani": 8166,
      "alcan": 8167,
      "ledge</w>": 8168,
      "implem": 8169,
      "saber</w>": 8170,
      "hotéis</w>": 8171,
      "Twitter</w>": 8172,
      "ee</w>": 8173,
      "read</w>": 8174,
      "arding</w>": 8175,
      "Servicio</w>": 8176,
      "estern</w>": 8177,
      "Dur": 8178,
      "land": 8179,
      "busc": 8180,
      "apenas</w>": 8181,
      "ava</w>": 8182,
      "valor</w>": 8183,
      "eum</w>": 8184,
      "abogados</w>": 8185,
      "browser</w>": 8186,
      "ced</w>": 8187,
      "alto</w>": 8188,
      "ps": 8189,
      "endas</w>": 8190,
      "Econ": 8191,
      "actividades</w>": 8192,
      "dice</w>": 8193,
      "constitu": 8194,
      "Lo</w>": 8195,
      "aning</w>": 8196,
      "odo</w>": 8197,
      "ager</w>": 8198,
      "Descar": 8199,
      "jur": 8200,
      "Az": 8201,
      "bed</w>": 8202,
      "position</w>": 8203,
      "presenta": 8204,
      "star</w>": 8205,
      "About</w>": 8206,
      "Bro": 8207,
      "tivas</w>": 8208,
      "PS</w>": 8209,
      "tales</w>": 8210,
      "ison</w>": 8211,
      "ette</w>": 8212,
      "2014</w>": 8213,
      "ised</w>": 8214,
      "apoy": 8215,
      "Vic": 8216,
      "Desde</w>": 8217,
      "Protec": 8218,
      "Hun": 8219,
      "aseg": 8220,
      "unque</w>": 8221,
      "record": 8222,
      "ush": 8223,
      "carri": 8224,
      "habil": 8225,
      "itación</w>": 8226,
      "Ay": 8227,
      "OR</w>": 8228,
      "ático</w>": 8229,
      "oportun": 8230,
      "prác": 8231,
      "Diseño</w>": 8232,
      "ek": 8233,
      "ij": 8234,
      "ras</w>": 8235,
      "visión</w>": 8236,
      "prime": 8237,
      "Net": 8238,
      "nada</w>": 8239,
      "ancer</w>": 8240,
      "Mac": 8241,
      "icio</w>": 8242,
      "arly</w>": 8243,
      "device</w>": 8244,
      "Show</w>": 8245,
      "Vill": 8246,
      "aging</w>": 8247,
      "center</w>": 8248,
      "Bri": 8249,
      "baj": 8250,
      "obs</w>": 8251,
      "hou": 8252,
      "unos</w>": 8253,
      "Is</w>": 8254,
      "ule</w>": 8255,
      "Vene": 8256,
      "bras</w>": 8257,
      "Click</w>": 8258,
      "purch": 8259,
      "univers": 8260,
      "Cro": 8261,
      "hon": 8262,
      "AB": 8263,
      "Now</w>": 8264,
      "ningún</w>": 8265,
      "..</w>": 8266,
      "Games</w>": 8267,
      "interior</w>": 8268,
      "second</w>": 8269,
      "comunic": 8270,
      "aco</w>": 8271,
      "Lord</w>": 8272,
      "active</w>": 8273,
      "value</w>": 8274,
      "vivi": 8275,
      "details</w>": 8276,
      "estruc": 8277,
      "pantalla</w>": 8278,
      "modific": 8279,
      "podemos</w>": 8280,
      "Out": 8281,
      "hoy</w>": 8282,
      "éri": 8283,
      "app</w>": 8284,
      "prim": 8285,
      "war": 8286,
      "sc": 8287,
      "study</w>": 8288,
      "anabol</w>": 8289,
      "Encontr": 8290,
      "Where</w>": 8291,
      "Tex": 8292,
      "train</w>": 8293,
      "enz": 8294,
      "Asi": 8295,
      "dam</w>": 8296,
      "mientos</w>": 8297,
      "ology</w>": 8298,
      "VI": 8299,
      "ories</w>": 8300,
      "curr": 8301,
      "given</w>": 8302,
      "Ban": 8303,
      "ram": 8304,
      "Francia</w>": 8305,
      "often</w>": 8306,
      "televis": 8307,
      "mayoría</w>": 8308,
      "alim": 8309,
      "anális": 8310,
      "manten": 8311,
      "nuestras</w>": 8312,
      "changes</w>": 8313,
      "ím": 8314,
      "UR": 8315,
      "bir": 8316,
      "cional</w>": 8317,
      "ere": 8318,
      "adecu": 8319,
      "Last</w>": 8320,
      "energy</w>": 8321,
      "facilities</w>": 8322,
      "Hon": 8323,
      "ound": 8324,
      "interest</w>": 8325,
      "send</w>": 8326,
      "coches</w>": 8327,
      "confiança</w>": 8328,
      "thy</w>": 8329,
      "Hil": 8330,
      "rental</w>": 8331,
      "tomar</w>": 8332,
      "music</w>": 8333,
      "High</w>": 8334,
      "estim": 8335,
      "Dianabol</w>": 8336,
      "John</w>": 8337,
      "99designs</w>": 8338,
      "formul": 8339,
      "Italia</w>": 8340,
      "Bang": 8341,
      "habitación</w>": 8342,
      "máxim": 8343,
      "ex</w>": 8344,
      "posición</w>": 8345,
      "having</w>": 8346,
      "various</w>": 8347,
      "tante</w>": 8348,
      "roups</w>": 8349,
      "alreded": 8350,
      "maz": 8351,
      "Number</w>": 8352,
      "ators</w>": 8353,
      "pio</w>": 8354,
      "Microsoft</w>": 8355,
      "size</w>": 8356,
      "esses</w>": 8357,
      "tad</w>": 8358,
      "rate</w>": 8359,
      "canti": 8360,
      "until</w>": 8361,
      "iva</w>": 8362,
      "páginas</w>": 8363,
      "fres": 8364,
      "bour": 8365,
      "berg</w>": 8366,
      "machine</w>": 8367,
      "fís": 8368,
      "Moun": 8369,
      "ería</w>": 8370,
      "dientes</w>": 8371,
      "ok</w>": 8372,
      "ooper": 8373,
      "2013</w>": 8374,
      "elev": 8375,
      "navegador</w>": 8376,
      "parcer": 8377,
      "acy</w>": 8378,
      "sector</w>": 8379,
      "ejo</w>": 8380,
      "little</w>": 8381,
      "sci": 8382,
      "present</w>": 8383,
      "onde</w>": 8384,
      "blog</w>": 8385,
      "víde": 8386,
      "required</w>": 8387,
      "representa": 8388,
      "allows</w>": 8389,
      "unca</w>": 8390,
      "individual</w>": 8391,
      "aram</w>": 8392,
      "sequ": 8393,
      "adir</w>": 8394,
      "Shan": 8395,
      "según</w>": 8396,
      "propiedad</w>": 8397,
      "cars</w>": 8398,
      "ouble</w>": 8399,
      "uly</w>": 8400,
      "26</w>": 8401,
      "really</w>": 8402,
      "terr": 8403,
      "crear</w>": 8404,
      "Plu": 8405,
      "pay": 8406,
      "Great</w>": 8407,
      "hand": 8408,
      "coche</w>": 8409,
      "policy</w>": 8410,
      "Red</w>": 8411,
      "vic": 8412,
      "receiv": 8413,
      "emente</w>": 8414,
      "directamente</w>": 8415,
      "customer</w>": 8416,
      "Wash": 8417,
      "ving</w>": 8418,
      "almac": 8419,
      "CA": 8420,
      "Ros": 8421,
      "Lat": 8422,
      "ME": 8423,
      "week</w>": 8424,
      "designed</w>": 8425,
      "torne": 8426,
      "Colombia</w>": 8427,
      "add</w>": 8428,
      "irá</w>": 8429,
      "última</w>": 8430,
      "financi": 8431,
      "CH": 8432,
      "oro</w>": 8433,
      "campo</w>": 8434,
      "Read</w>": 8435,
      "Francis": 8436,
      "elas</w>": 8437,
      "realizar</w>": 8438,
      "imágenes</w>": 8439,
      "opiniones</w>": 8440,
      "dres</w>": 8441,
      "tum": 8442,
      "network</w>": 8443,
      "Dr</w>": 8444,
      "happ": 8445,
      "Vo": 8446,
      "dades</w>": 8447,
      "16": 8448,
      "famili": 8449,
      "asi": 8450,
      "due</w>": 8451,
      "taking</w>": 8452,
      "estaba</w>": 8453,
      "future</w>": 8454,
      "óstico</w>": 8455,
      "dit</w>": 8456,
      "buena</w>": 8457,
      "child</w>": 8458,
      "estilo</w>": 8459,
      "Comp": 8460,
      "ister</w>": 8461,
      "unch</w>": 8462,
      "dispositivo</w>": 8463,
      "economic</w>": 8464,
      "Sou": 8465,
      "Hostel</w>": 8466,
      "Lod": 8467,
      "Rob": 8468,
      "elcome</w>": 8469,
      "ky</w>": 8470,
      "mill": 8471,
      "Dig": 8472,
      "Tre": 8473,
      "parceria</w>": 8474,
      "70</w>": 8475,
      "Blog": 8476,
      "zes</w>": 8477,
      "escol": 8478,
      "recu": 8479,
      "mujeres</w>": 8480,
      "ip": 8481,
      "aily</w>": 8482,
      "front</w>": 8483,
      "makes</w>": 8484,
      "ayer</w>": 8485,
      "weight</w>": 8486,
      "Todas</w>": 8487,
      "constru": 8488,
      "according</w>": 8489,
      "ambiente</w>": 8490,
      "addition</w>": 8491,
      "TH": 8492,
      "converti": 8493,
      "beb": 8494,
      "ivo</w>": 8495,
      "CI": 8496,
      "incluso</w>": 8497,
      "ously</w>": 8498,
      "cocina</w>": 8499,
      "futur": 8500,
      "materials</w>": 8501,
      "Eas": 8502,
      "lower</w>": 8503,
      "diseñ": 8504,
      "Bos": 8505,
      "DO": 8506,
      "ís</w>": 8507,
      "muestra</w>": 8508,
      "seguir</w>": 8509,
      "Up": 8510,
      "ny</w>": 8511,
      "distin": 8512,
      "mesmo</w>": 8513,
      "RS</w>": 8514,
      "ams</w>": 8515,
      "nature</w>": 8516,
      "language</w>": 8517,
      "excep": 8518,
      "central</w>": 8519,
      "idd": 8520,
      "Comun": 8521,
      "Are</w>": 8522,
      "Autom": 8523,
      "ota</w>": 8524,
      "Administr": 8525,
      "internacional</w>": 8526,
      "ains</w>": 8527,
      "cad": 8528,
      "lio</w>": 8529,
      "27</w>": 8530,
      "cientos</w>": 8531,
      "comerci": 8532,
      "Chil": 8533,
      "transfer": 8534,
      "community</w>": 8535,
      "Educ": 8536,
      "calend": 8537,
      "histór": 8538,
      "ums</w>": 8539,
      "oung</w>": 8540,
      "oud</w>": 8541,
      "atten": 8542,
      "pois</w>": 8543,
      "desenvol": 8544,
      "necesit": 8545,
      "ony</w>": 8546,
      "category</w>": 8547,
      "Hong</w>": 8548,
      "already</w>": 8549,
      "Str": 8550,
      "automati": 8551,
      "ap</w>": 8552,
      "shows</w>": 8553,
      "religi": 8554,
      "mm</w>": 8555,
      "adamente</w>": 8556,
      "fuera</w>": 8557,
      "Defin": 8558,
      "apartment</w>": 8559,
      "That</w>": 8560,
      "actualizaciones</w>": 8561,
      "Dol": 8562,
      "privacidad</w>": 8563,
      "latest</w>": 8564,
      "rápida</w>": 8565,
      "Kong</w>": 8566,
      "ame": 8567,
      "Resul": 8568,
      "ries": 8569,
      "bat": 8570,
      "achi": 8571,
      "fornec": 8572,
      "olíneas</w>": 8573,
      "dios</w>": 8574,
      "sino</w>": 8575,
      "80</w>": 8576,
      "Não</w>": 8577,
      "resultado</w>": 8578,
      "torio</w>": 8579,
      "conta": 8580,
      "ented</w>": 8581,
      "recursos</w>": 8582,
      "Express</w>": 8583,
      "respuesta</w>": 8584,
      "certain</w>": 8585,
      "casos</w>": 8586,
      "capacidad</w>": 8587,
      "Conten": 8588,
      "Fun": 8589,
      "lent</w>": 8590,
      "amen": 8591,
      "Real</w>": 8592,
      "sym": 8593,
      "ged</w>": 8594,
      "Institu": 8595,
      "Trad": 8596,
      "ip</w>": 8597,
      "MS</w>": 8598,
      "members</w>": 8599,
      "Francisco</w>": 8600,
      "ague</w>": 8601,
      "largo</w>": 8602,
      "history</w>": 8603,
      "hombre</w>": 8604,
      "ull</w>": 8605,
      "Chile</w>": 8606,
      "Description</w>": 8607,
      "entreg": 8608,
      "función</w>": 8609,
      "cidade</w>": 8610,
      "proyecto</w>": 8611,
      "feel</w>": 8612,
      "tioning</w>": 8613,
      "Black</w>": 8614,
      "ization</w>": 8615,
      "problem</w>": 8616,
      "35</w>": 8617,
      "completa</w>": 8618,
      "fo</w>": 8619,
      "Cuán": 8620,
      "Apartment</w>": 8621,
      "kind</w>": 8622,
      "rán</w>": 8623,
      "Wi</w>": 8624,
      "sas</w>": 8625,
      "centenas</w>": 8626,
      "ul</w>": 8627,
      "obierno</w>": 8628,
      "Brow": 8629,
      "azón</w>": 8630,
      "orgulho</w>": 8631,
      "tools</w>": 8632,
      "airport</w>": 8633,
      "yes</w>": 8634,
      "cama</w>": 8635,
      "ested</w>": 8636,
      "bas</w>": 8637,
      "liz": 8638,
      "Consul": 8639,
      "pedi": 8640,
      "yoga</w>": 8641,
      "problems</w>": 8642,
      "itur": 8643,
      "música</w>": 8644,
      "vision</w>": 8645,
      "optim": 8646,
      "cribe</w>": 8647,
      "questions</w>": 8648,
      "photos</w>": 8649,
      "Privacy</w>": 8650,
      "ought</w>": 8651,
      "nuevas</w>": 8652,
      "deg": 8653,
      "formas</w>": 8654,
      "Republic</w>": 8655,
      "Group</w>": 8656,
      "adel": 8657,
      "booking</w>": 8658,
      "verse</w>": 8659,
      "ix": 8660,
      "protection</w>": 8661,
      "pessoas</w>": 8662,
      "$$</w>": 8663,
      "effici": 8664,
      "Wal": 8665,
      "categoría</w>": 8666,
      "once</w>": 8667,
      "subject</w>": 8668,
      "News</w>": 8669,
      "perfeita</w>": 8670,
      "entado</w>": 8671,
      "discus": 8672,
      "Health</w>": 8673,
      "early</w>": 8674,
      "dad": 8675,
      "Canada</w>": 8676,
      "Sin": 8677,
      "eh": 8678,
      "sac": 8679,
      "Casino</w>": 8680,
      "nosso</w>": 8681,
      "pueda</w>": 8682,
      "professional</w>": 8683,
      "Todo</w>": 8684,
      "objetivo</w>": 8685,
      "ejecu": 8686,
      "responsible</w>": 8687,
      "USA</w>": 8688,
      "comunidad</w>": 8689,
      "ging</w>": 8690,
      "Londres</w>": 8691,
      "tele": 8692,
      "facil": 8693,
      "Saf": 8694,
      "risk</w>": 8695,
      "médico</w>": 8696,
      "conseg": 8697,
      "América</w>": 8698,
      "pil": 8699,
      "Islands</w>": 8700,
      "tis</w>": 8701,
      "Fir": 8702,
      "beautiful</w>": 8703,
      "wr": 8704,
      "there": 8705,
      "Western</w>": 8706,
      "exac": 8707,
      "event</w>": 8708,
      "Prices</w>": 8709,
      "ária</w>": 8710,
      "Vid": 8711,
      "lla</w>": 8712,
      "effects</w>": 8713,
      "estableci": 8714,
      "CO</w>": 8715,
      "Compr": 8716,
      "ninguna</w>": 8717,
      "tir": 8718,
      ",\"</w>": 8719,
      "perfil</w>": 8720,
      "avali": 8721,
      "follow</w>": 8722,
      "zhou</w>": 8723,
      "arle</w>": 8724,
      "ister": 8725,
      "acom": 8726,
      "especial</w>": 8727,
      "vos</w>": 8728,
      "foc": 8729,
      "sibility</w>": 8730,
      "ending</w>": 8731,
      "Garden</w>": 8732,
      "Chin": 8733,
      "Co</w>": 8734,
      "Provin": 8735,
      "tow": 8736,
      "prom": 8737,
      "pages</w>": 8738,
      "conce": 8739,
      "stock</w>": 8740,
      "entrada</w>": 8741,
      "ends</w>": 8742,
      "gir": 8743,
      "poss": 8744,
      "presente</w>": 8745,
      "har</w>": 8746,
      "idea</w>": 8747,
      "isso</w>": 8748,
      "Station</w>": 8749,
      "LI": 8750,
      "upon</w>": 8751,
      "compatible</w>": 8752,
      "comentarios</w>": 8753,
      "subs": 8754,
      "abrir</w>": 8755,
      "industry</w>": 8756,
      "Website</w>": 8757,
      "Defini": 8758,
      "blood</w>": 8759,
      "DE": 8760,
      "ib": 8761,
      "opportun": 8762,
      "17": 8763,
      "conform": 8764,
      "unique</w>": 8765,
      "government</w>": 8766,
      "tação</w>": 8767,
      "common</w>": 8768,
      "Sy": 8769,
      "comida</w>": 8770,
      "conexión</w>": 8771,
      "Singap": 8772,
      "ible</w>": 8773,
      "difí": 8774,
      "aerolíneas</w>": 8775,
      "Policy</w>": 8776,
      "Africa</w>": 8777,
      "phys": 8778,
      "allow</w>": 8779,
      "abras</w>": 8780,
      "agree</w>": 8781,
      "posting</w>": 8782,
      "secre": 8783,
      "urar</w>": 8784,
      "tancia</w>": 8785,
      "podría</w>": 8786,
      "punto</w>": 8787,
      "never</w>": 8788,
      "Der": 8789,
      "tique</w>": 8790,
      "personales</w>": 8791,
      "papel</w>": 8792,
      "Pronunci": 8793,
      "ística</w>": 8794,
      "single</w>": 8795,
      "tarif": 8796,
      "tery</w>": 8797,
      "dici": 8798,
      "frequ": 8799,
      "urance</w>": 8800,
      "transporte</w>": 8801,
      "Chic": 8802,
      "money</w>": 8803,
      "dado</w>": 8804,
      "tun": 8805,
      "Sitio</w>": 8806,
      "ências</w>": 8807,
      "MA": 8808,
      "ier</w>": 8809,
      "je</w>": 8810,
      "depar": 8811,
      "fortable</w>": 8812,
      "esse</w>": 8813,
      "Tien": 8814,
      "investigación</w>": 8815,
      "Asia</w>": 8816,
      "MP": 8817,
      "piscina</w>": 8818,
      "veloci": 8819,
      "blo</w>": 8820,
      "wid": 8821,
      "público</w>": 8822,
      "echa</w>": 8823,
      "2010</w>": 8824,
      "ader</w>": 8825,
      "Os": 8826,
      "artículos</w>": 8827,
      "tern</w>": 8828,
      "tud</w>": 8829,
      "ishing</w>": 8830,
      "Estado</w>": 8831,
      "peso</w>": 8832,
      "Lou": 8833,
      "tour": 8834,
      "omas</w>": 8835,
      "alizar</w>": 8836,
      "Tour": 8837,
      "plat": 8838,
      "ume</w>": 8839,
      "teléfono</w>": 8840,
      "atención</w>": 8841,
      ".)</w>": 8842,
      "request</w>": 8843,
      "living</w>": 8844,
      "ength</w>": 8845,
      "dos": 8846,
      "tradi": 8847,
      "numer": 8848,
      "square</w>": 8849,
      "ign": 8850,
      "continuación</w>": 8851,
      "relev": 8852,
      "muchas</w>": 8853,
      "translation</w>": 8854,
      "2011</w>": 8855,
      "rápido</w>": 8856,
      "Washington</w>": 8857,
      "plas": 8858,
      "meses</w>": 8859,
      "tecnología</w>": 8860,
      "met": 8861,
      "select</w>": 8862,
      "ask</w>": 8863,
      "Ol": 8864,
      "éctr": 8865,
      "opción</w>": 8866,
      "creci": 8867,
      "nit": 8868,
      "Software</w>": 8869,
      "image</w>": 8870,
      "cus</w>": 8871,
      "cionario</w>": 8872,
      "negocio</w>": 8873,
      "capital</w>": 8874,
      "hosp": 8875,
      "hol</w>": 8876,
      "something</w>": 8877,
      "hibi": 8878,
      "Señ": 8879,
      "bul": 8880,
      "Sun": 8881,
      "Places</w>": 8882,
      "burgo</w>": 8883,
      "icamente</w>": 8884,
      "White</w>": 8885,
      "tron": 8886,
      "cimento</w>": 8887,
      "shar": 8888,
      "standing</w>": 8889,
      "news</w>": 8890,
      "melhores</w>": 8891,
      "May": 8892,
      "ake</w>": 8893,
      "Brazil</w>": 8894,
      "embre</w>": 8895,
      "opin": 8896,
      "Mejores</w>": 8897,
      "500</w>": 8898,
      "red": 8899,
      "República</w>": 8900,
      "pronunciation</w>": 8901,
      "guarante": 8902,
      "Leg": 8903,
      "perfecta</w>": 8904,
      "Dll</w>": 8905,
      "Sis": 8906,
      "foram</w>": 8907,
      "apres": 8908,
      "viewed</w>": 8909,
      "registro</w>": 8910,
      "excelente</w>": 8911,
      "ki</w>": 8912,
      "Plaza</w>": 8913,
      "itchen</w>": 8914,
      "tian</w>": 8915,
      "cula</w>": 8916,
      "ven</w>": 8917,
      "ani": 8918,
      "links</w>": 8919,
      "miembros</w>": 8920,
      "activity</w>": 8921,
      "tru": 8922,
      "privado</w>": 8923,
      "español</w>": 8924,
      "Mach": 8925,
      "Sci": 8926,
      "norm": 8927,
      "sufici": 8928,
      "ensure</w>": 8929,
      "crito</w>": 8930,
      "efici": 8931,
      "baño</w>": 8932,
      "Cho": 8933,
      "processing</w>": 8934,
      "Cru": 8935,
      "arlo</w>": 8936,
      "Directory</w>": 8937,
      "últimos</w>": 8938,
      "14": 8939,
      "tend": 8940,
      "cannot</w>": 8941,
      "Hou": 8942,
      "Transl": 8943,
      "Airlines</w>": 8944,
      "necesario</w>": 8945,
      "clopedia</w>": 8946,
      "aged</w>": 8947,
      "training</w>": 8948,
      "veces</w>": 8949,
      "DI": 8950,
      "Materi": 8951,
      "len": 8952,
      "propri": 8953,
      "events</w>": 8954,
      "izar</w>": 8955,
      "200</w>": 8956,
      "partes</w>": 8957,
      "skin</w>": 8958,
      "brand</w>": 8959,
      "along</w>": 8960,
      "tage</w>": 8961,
      "mejorar</w>": 8962,
      "Blogs</w>": 8963,
      "Color</w>": 8964,
      "ficar</w>": 8965,
      "29</w>": 8966,
      "improv": 8967,
      "coloc": 8968,
      "NO": 8969,
      "cou": 8970,
      "lanz": 8971,
      "profile</w>": 8972,
      "importantes</w>": 8973,
      "Centre</w>": 8974,
      "Buy</w>": 8975,
      "Shangh": 8976,
      "Mot": 8977,
      "call</w>": 8978,
      "jud": 8979,
      "jug": 8980,
      "tienes</w>": 8981,
      "save</w>": 8982,
      "ideas</w>": 8983,
      "PDF</w>": 8984,
      "imagen</w>": 8985,
      "Page</w>": 8986,
      "protección</w>": 8987,
      "manual</w>": 8988,
      "technical</w>": 8989,
      "almacen": 8990,
      "Gru": 8991,
      "alguna</w>": 8992,
      "empe": 8993,
      "aumentar</w>": 8994,
      "Family</w>": 8995,
      "taken</w>": 8996,
      "Images</w>": 8997,
      "historia</w>": 8998,
      "friendly</w>": 8999,
      "ema</w>": 9000,
      "Añ": 9001,
      "nunca</w>": 9002,
      "revol": 9003,
      "Net</w>": 9004,
      "Trab": 9005,
      "Vin": 9006,
      "clean</w>": 9007,
      "Terms</w>": 9008,
      "incorpor": 9009,
      "Política</w>": 9010,
      "bien": 9011,
      "haya</w>": 9012,
      "encial</w>": 9013,
      "único</w>": 9014,
      "Popular</w>": 9015,
      "cat": 9016,
      "tão</w>": 9017,
      "cob": 9018,
      "ched</w>": 9019,
      "Kar": 9020,
      "offee</w>": 9021,
      "actions</w>": 9022,
      "ST": 9023,
      "Community</w>": 9024,
      "cantidad</w>": 9025,
      "An</w>": 9026,
      "Fal": 9027,
      "eran</w>": 9028,
      "inar</w>": 9029,
      "ching</w>": 9030,
      "significa</w>": 9031,
      "unas</w>": 9032,
      "cham": 9033,
      "oil</w>": 9034,
      "Ret": 9035,
      "gal": 9036,
      "refl": 9037,
      "artículo</w>": 9038,
      "90</w>": 9039,
      "Mc": 9040,
      "diag": 9041,
      "station</w>": 9042,
      "Mais</w>": 9043,
      "cicl": 9044,
      "ston</w>": 9045,
      "medida</w>": 9046,
      "Inglés</w>": 9047,
      "environment</w>": 9048,
      "31</w>": 9049,
      "Miami</w>": 9050,
      "encan": 9051,
      "imos</w>": 9052,
      "Pod": 9053,
      "radi": 9054,
      "cities</w>": 9055,
      "piri": 9056,
      "normal</w>": 9057,
      "anun": 9058,
      "amar": 9059,
      "proced": 9060,
      "CD</w>": 9061,
      "four</w>": 9062,
      "itec": 9063,
      "tada</w>": 9064,
      "idamente</w>": 9065,
      "series</w>": 9066,
      "noche</w>": 9067,
      "Management</w>": 9068,
      "áticos</w>": 9069,
      "report</w>": 9070,
      "avis": 9071,
      "afec": 9072,
      "CE": 9073,
      "bab": 9074,
      "ions</w>": 9075,
      "les": 9076,
      "adul": 9077,
      "privacy</w>": 9078,
      "anks</w>": 9079,
      "pelí": 9080,
      "solution</w>": 9081,
      "aum": 9082,
      "lux": 9083,
      "ayudar</w>": 9084,
      "tistic": 9085,
      "blanco</w>": 9086,
      "affec": 9087,
      "LO": 9088,
      "transform": 9089,
      "limi": 9090,
      "grup": 9091,
      "providing</w>": 9092,
      "images</w>": 9093,
      "fact</w>": 9094,
      "groups</w>": 9095,
      "evo</w>": 9096,
      "deben</w>": 9097,
      "Cul": 9098,
      "términos</w>": 9099,
      "Ans": 9100,
      "motor</w>": 9101,
      "aeropuerto</w>": 9102,
      "gen</w>": 9103,
      "prev": 9104,
      "getting</w>": 9105,
      "Negoci": 9106,
      "aft</w>": 9107,
      "alquileres</w>": 9108,
      "erse</w>": 9109,
      "ab</w>": 9110,
      "ais": 9111,
      "mostr": 9112,
      "padr": 9113,
      "serviços</w>": 9114,
      "Terr": 9115,
      "heal": 9116,
      "ane</w>": 9117,
      "Share</w>": 9118,
      "adoras</w>": 9119,
      "War": 9120,
      "americ": 9121,
      "Hilton</w>": 9122,
      "Ever": 9123,
      "bridge</w>": 9124,
      "ensa</w>": 9125,
      "explor": 9126,
      "Help</w>": 9127,
      "Ahora</w>": 9128,
      "efic": 9129,
      "initi": 9130,
      "travel": 9131,
      "describ": 9132,
      "euro": 9133,
      "Art</w>": 9134,
      "tarj": 9135,
      "Company</w>": 9136,
      "solutions</w>": 9137,
      "airlines</w>": 9138,
      "FA": 9139,
      "aul</w>": 9140,
      "style</w>": 9141,
      "Pon": 9142,
      "Tun": 9143,
      "types</w>": 9144,
      "espacio</w>": 9145,
      "32</w>": 9146,
      "Ofer": 9147,
      "error</w>": 9148,
      "Anal": 9149,
      "sterdam</w>": 9150,
      "win": 9151,
      "temas</w>": 9152,
      "Ped": 9153,
      "Colum": 9154,
      "students</w>": 9155,
      "adverti": 9156,
      "Hotéis</w>": 9157,
      "Alemania</w>": 9158,
      "Mem": 9159,
      "cause</w>": 9160,
      "purposes</w>": 9161,
      "trabalho</w>": 9162,
      "eléctr": 9163,
      "conhe": 9164,
      "deals</w>": 9165,
      "Dem": 9166,
      "rá</w>": 9167,
      "fit</w>": 9168,
      "Person": 9169,
      "quanto</w>": 9170,
      "remov": 9171,
      "canner</w>": 9172,
      "Compare</w>": 9173,
      "Pis": 9174,
      "stas</w>": 9175,
      "vistas</w>": 9176,
      "aries</w>": 9177,
      "cases</w>": 9178,
      "LA</w>": 9179,
      "whole</w>": 9180,
      "webs</w>": 9181,
      "Develop": 9182,
      "alter": 9183,
      "eth</w>": 9184,
      "val</w>": 9185,
      "ooks</w>": 9186,
      "learn</w>": 9187,
      "adem": 9188,
      "agens</w>": 9189,
      "tant</w>": 9190,
      "Nos</w>": 9191,
      "trat": 9192,
      "pers</w>": 9193,
      "ificación</w>": 9194,
      "code</w>": 9195,
      "aé": 9196,
      "Chicago</w>": 9197,
      "Rio</w>": 9198,
      "bed": 9199,
      "utilizando</w>": 9200,
      "apartamento</w>": 9201,
      "everything</w>": 9202,
      "Cy": 9203,
      "loss</w>": 9204,
      "brero</w>": 9205,
      "work": 9206,
      "Kor": 9207,
      "mine</w>": 9208,
      "AG": 9209,
      "hi</w>": 9210,
      "nutri": 9211,
      "código</w>": 9212,
      "Oce": 9213,
      "Sab": 9214,
      "months</w>": 9215,
      "energía</w>": 9216,
      "especialmente</w>": 9217,
      "45</w>": 9218,
      "Rome</w>": 9219,
      "stri": 9220,
      "produce</w>": 9221,
      "Here</w>": 9222,
      "Ke": 9223,
      "bun": 9224,
      "His</w>": 9225,
      "ference</w>": 9226,
      "mary</w>": 9227,
      "safe</w>": 9228,
      "características</w>": 9229,
      "tulo</w>": 9230,
      "onas</w>": 9231,
      "parts</w>": 9232,
      "shown</w>": 9233,
      "Apple</w>": 9234,
      "power": 9235,
      "limited</w>": 9236,
      "Solu": 9237,
      "dida</w>": 9238,
      "Alquiler</w>": 9239,
      "recuper": 9240,
      "concentr": 9241,
      "cent</w>": 9242,
      "rellas</w>": 9243,
      "ID</w>": 9244,
      "period</w>": 9245,
      "cidad</w>": 9246,
      "programs</w>": 9247,
      "fotogr": 9248,
      "cooper": 9249,
      "además</w>": 9250,
      "drive</w>": 9251,
      "why</w>": 9252,
      "produtos</w>": 9253,
      "ajudar</w>": 9254,
      "cionales</w>": 9255,
      "aplicaciones</w>": 9256,
      "Answers</w>": 9257,
      "Guest</w>": 9258,
      "Juan</w>": 9259,
      "Bat": 9260,
      "eria</w>": 9261,
      "escal": 9262,
      "ónde</w>": 9263,
      "sí</w>": 9264,
      "Radio</w>": 9265,
      "Nacional</w>": 9266,
      "ENT": 9267,
      "dirig": 9268,
      "haga</w>": 9269,
      "micro": 9270,
      "adicional</w>": 9271,
      "rest</w>": 9272,
      "coming</w>": 9273,
      "industrial</w>": 9274,
      "David</w>": 9275,
      "Sep": 9276,
      "ason</w>": 9277,
      "conci": 9278,
      "chester</w>": 9279,
      "Bon": 9280,
      "hard": 9281,
      "Sum": 9282,
      "uela</w>": 9283,
      "Español</w>": 9284,
      "futuro</w>": 9285,
      "ocr": 9286,
      "Sen": 9287,
      "selves</w>": 9288,
      "whether</w>": 9289,
      "Equip": 9290,
      "olic</w>": 9291,
      "plica</w>": 9292,
      "Day</w>": 9293,
      "acciones</w>": 9294,
      "usando</w>": 9295,
      "includes</w>": 9296,
      "autob": 9297,
      "mark</w>": 9298,
      "varios</w>": 9299,
      "Italian</w>": 9300,
      "há</w>": 9301,
      "ock": 9302,
      "modelo</w>": 9303,
      "Star</w>": 9304,
      "reun": 9305,
      "avar</w>": 9306,
      "ious</w>": 9307,
      "edade</w>": 9308,
      "German</w>": 9309,
      "modern</w>": 9310,
      "serie</w>": 9311,
      "ho": 9312,
      "aremos</w>": 9313,
      "Church</w>": 9314,
      "my": 9315,
      "misma</w>": 9316,
      "lowed</w>": 9317,
      "ut": 9318,
      "independ": 9319,
      "effective</w>": 9320,
      "entre": 9321,
      "frente</w>": 9322,
      "aqui</w>": 9323,
      "concep": 9324,
      "regarding</w>": 9325,
      "Make</w>": 9326,
      "ocup": 9327,
      "Gran</w>": 9328,
      "MA</w>": 9329,
      "User</w>": 9330,
      "dru": 9331,
      "fem": 9332,
      "aún</w>": 9333,
      "posed</w>": 9334,
      "audi": 9335,
      "SP": 9336,
      "paper</w>": 9337,
      "Dri": 9338,
      "lad": 9339,
      "logr": 9340,
      "Fon": 9341,
      "bs</w>": 9342,
      "rap": 9343,
      "Then</w>": 9344,
      "salv": 9345,
      "analysis</w>": 9346,
      "oman</w>": 9347,
      "preven": 9348,
      "come": 9349,
      "section</w>": 9350,
      "enfermed": 9351,
      "Christ</w>": 9352,
      "school</w>": 9353,
      "Puede</w>": 9354,
      "aw</w>": 9355,
      "gn": 9356,
      "especially</w>": 9357,
      "Shanghai</w>": 9358,
      "strateg": 9359,
      "Stay</w>": 9360,
      "suppli": 9361,
      "message</w>": 9362,
      "run": 9363,
      "included</w>": 9364,
      "info</w>": 9365,
      "ological</w>": 9366,
      "grupos</w>": 9367,
      "run</w>": 9368,
      "tou": 9369,
      "ainda</w>": 9370,
      "boa</w>": 9371,
      "algunas</w>": 9372,
      "enviar</w>": 9373,
      "Plus</w>": 9374,
      "Tro": 9375,
      "absolu": 9376,
      "estación</w>": 9377,
      "2008</w>": 9378,
      "Breakfast</w>": 9379,
      "segundo</w>": 9380,
      "ima</w>": 9381,
      "ghout</w>": 9382,
      "descargar</w>": 9383,
      "knowledge</w>": 9384,
      "understand</w>": 9385,
      "loj": 9386,
      "misión</w>": 9387,
      "através</w>": 9388,
      "Street</w>": 9389,
      "asa</w>": 9390,
      "--</w>": 9391,
      "ly": 9392,
      "perí": 9393,
      "sito</w>": 9394,
      "principales</w>": 9395,
      "mind</w>": 9396,
      "Premi": 9397,
      "Back</w>": 9398,
      "frecu": 9399,
      "IS</w>": 9400,
      "Santi": 9401,
      "eder</w>": 9402,
      "Blue</w>": 9403,
      "alización</w>": 9404,
      "aus": 9405,
      "smar": 9406,
      "thre": 9407,
      "cultural</w>": 9408,
      "tierra</w>": 9409,
      "ising</w>": 9410,
      "Pers": 9411,
      "benef": 9412,
      "enví": 9413,
      "execu": 9414,
      "Of</w>": 9415,
      "Otros</w>": 9416,
      "DV": 9417,
      "hard</w>": 9418,
      "Mostrar</w>": 9419,
      "vía</w>": 9420,
      "Social</w>": 9421,
      "Don": 9422,
      "rements</w>": 9423,
      "friends</w>": 9424,
      "ix</w>": 9425,
      "istencia</w>": 9426,
      "pirit</w>": 9427,
      "ambi": 9428,
      "She</w>": 9429,
      "75</w>": 9430,
      "amigos</w>": 9431,
      "tit": 9432,
      "evolu": 9433,
      "option</w>": 9434,
      "ertas</w>": 9435,
      "trata</w>": 9436,
      "::</w>": 9437,
      "cí": 9438,
      "iting</w>": 9439,
      "apr": 9440,
      "remove</w>": 9441,
      "Pictures</w>": 9442,
      "Video</w>": 9443,
      "ji": 9444,
      "tando</w>": 9445,
      "torn": 9446,
      "enton": 9447,
      "gracias</w>": 9448,
      "scen": 9449,
      "porto</w>": 9450,
      "conserv": 9451,
      "aim</w>": 9452,
      "ham": 9453,
      "particul": 9454,
      "Control</w>": 9455,
      "Lodge</w>": 9456,
      "confirm": 9457,
      "Museum</w>": 9458,
      "Mat": 9459,
      "ciudades</w>": 9460,
      "held</w>": 9461,
      "herramientas</w>": 9462,
      "sou": 9463,
      "source</w>": 9464,
      "teach": 9465,
      "round": 9466,
      "tendr": 9467,
      "hold</w>": 9468,
      "250</w>": 9469,
      "connection</w>": 9470,
      "ámar": 9471,
      "opping</w>": 9472,
      "turer</w>": 9473,
      "added</w>": 9474,
      "ingre": 9475,
      "corazón</w>": 9476,
      "bon</w>": 9477,
      "gestión</w>": 9478,
      "plata": 9479,
      "pieza</w>": 9480,
      "Después</w>": 9481,
      "Blog</w>": 9482,
      "izo</w>": 9483,
      "easily</w>": 9484,
      "ionales</w>": 9485,
      "tiz": 9486,
      "tama": 9487,
      "Secre": 9488,
      "suf": 9489,
      "millones</w>": 9490,
      "lov": 9491,
      "diffic": 9492,
      "store</w>": 9493,
      "videos</w>": 9494,
      "Descripción</w>": 9495,
      "diente</w>": 9496,
      "stone</w>": 9497,
      "oble</w>": 9498,
      "Lear": 9499,
      "comparti": 9500,
      "ocul": 9501,
      "presión</w>": 9502,
      "Sev": 9503,
      "model</w>": 9504,
      "sent</w>": 9505,
      "ably</w>": 9506,
      "Inicio</w>": 9507,
      "Coment": 9508,
      "Pun": 9509,
      "piel</w>": 9510,
      "Página</w>": 9511,
      "infer": 9512,
      "rir</w>": 9513,
      "aphic</w>": 9514,
      "ância</w>": 9515,
      "came</w>": 9516,
      "viles</w>": 9517,
      "King</w>": 9518,
      "sey</w>": 9519,
      "colec": 9520,
      "Salv": 9521,
      "avión</w>": 9522,
      "puestos</w>": 9523,
      "hombres</w>": 9524,
      "Florida</w>": 9525,
      "ically</w>": 9526,
[...]
