{
  "version": "1.0",
  "truncation": null,
  "padding": null,
  "added_tokens": [
    {
      "id": 0,
      "content": "<PAD>",
      "single_word": false,
      "lstrip": false,
      "rstrip": false,
      "normalized": false,
      "special": true
    },
    {
      "id": 1,
      "content": "<UNK>",
      "single_word": false,
      "lstrip": false,
      "rstrip": false,
      "normalized": false,
      "special": true
    },
    {
      "id": 2,
      "content": "<CLS>",
      "single_word": false,
      "lstrip": false,
      "rstrip": false,
      "normalized": false,
      "special": true
    },
    {
      "id": 3,
      "content": "<SEP>",
      "single_word": false,
      "lstrip": false,
      "rstrip": false,
      "normalized": false,
      "special": true
    },
    {
      "id": 4,
      "content": "<MASK>",
      "single_word": false,
      "lstrip": false,
      "rstrip": false,
      "normalized": false,
      "special": true
    },
    {
      "id": 5,
      "content": "<BOS>",
      "single_word": false,
      "lstrip": false,
      "rstrip": false,
      "normalized": false,
      "special": true
    },
    {
      "id": 6,
      "content": "<EOS>",
      "single_word": false,
      "lstrip": false,
      "rstrip": false,
      "normalized": false,
      "special": true
    }
  ],
  "normalizer": null,
  "pre_tokenizer": {
    "type": "Whitespace"
  },
  "post_processor": {
    "type": "TemplateProcessing",
    "single": [
      {
        "SpecialToken": {
          "id": "<BOS>",
          "type_id": 0
        }
      },
      {
        "Sequence": {
          "id": "A",
          "type_id": 0
        }
      },
      {
        "SpecialToken": {
          "id": "<EOS>",
          "type_id": 0
        }
      }
    ],
    "pair": [
      {
        "SpecialToken": {
          "id": "<BOS>",
          "type_id": 0
        }
      },
      {
        "Sequence": {
          "id": "A",
          "type_id": 0
        }
      },
      {
        "SpecialToken": {
          "id": "<SEP>",
          "type_id": 0
        }
      },
      {
        "Sequence": {
          "id": "B",
          "type_id": 1
        }
      },
      {
        "SpecialToken": {
          "id": "<EOS>",
          "type_id": 1
        }
      }
    ],
    "special_tokens": {
      "<BOS>": {
        "id": "<BOS>",
        "ids": [
          5
        ],
        "tokens": [
          "<BOS>"
        ]
      },
      "<EOS>": {
        "id": "<EOS>",
        "ids": [
          6
        ],
        "tokens": [
          "<EOS>"
        ]
      },
      "<SEP>": {
        "id": "<SEP>",
        "ids": [
          3
        ],
        "tokens": [
          "<SEP>"
        ]
      }
    }
  },
  "decoder": {
    "type": "BPEDecoder",
    "suffix": "</w>"
  },
  "model": {
    "type": "BPE",
    "dropout": null,
    "unk_token": "<UNK>",
    "continuing_subword_prefix": null,
    "end_of_word_suffix": "</w>",
    "fuse_unk": false,
    "byte_fallback": false,
    "ignore_merges": false,
    "vocab": {
      "<PAD>": 0,
      "<UNK>": 1,
      "<CLS>": 2,
      "<SEP>": 3,
      "<MASK>": 4,
      "<BOS>": 5,
      "<EOS>": 6,
      "!": 7,
      "\"": 8,
      "#": 9,
      "$": 10,
      "%": 11,
      "'": 12,
      "(": 13,
      ")": 14,
      "*": 15,
      "+": 16,
      ",": 17,
      "-": 18,
      ".": 19,
      "/": 20,
      "0": 21,
      "1": 22,
      "2": 23,
      "3": 24,
      "4": 25,
      "5": 26,
      "6": 27,
      "7": 28,
      "8": 29,
      "9": 30,
      ":": 31,
      ";": 32,
      "=": 33,
      "?": 34,
      "@": 35,
      "A": 36,
      "B": 37,
      "C": 38,
      "D": 39,
      "E": 40,
      "F": 41,
      "G": 42,
      "H": 43,
      "I": 44,
      "J": 45,
      "K": 46,
      "L": 47,
      "M": 48,
      "N": 49,
      "O": 50,
      "P": 51,
      "Q": 52,
      "R": 53,
      "S": 54,
      "T": 55,
      "U": 56,
      "V": 57,
      "W": 58,
      "X": 59,
      "Y": 60,
      "Z": 61,
      "[": 62,
      "\\": 63,
      "]": 64,
      "^": 65,
      "_": 66,
      "`": 67,
      "a": 68,
      "b": 69,
      "c": 70,
      "d": 71,
      "e": 72,
      "f": 73,
      "g": 74,
      "h": 75,
      "i": 76,
      "j": 77,
      "k": 78,
      "l": 79,
      "m": 80,
      "n": 81,
      "o": 82,
      "p": 83,
      "q": 84,
      "r": 85,
      "s": 86,
      "t": 87,
      "u": 88,
      "v": 89,
      "w": 90,
      "x": 91,
      "y": 92,
      "z": 93,
      "{": 94,
      "|": 95,
      "}": 96,
      "~": 97,
      "": 98,
      "": 99,
      "": 100,
      "": 101,
      "": 102,
      "": 103,
      "": 104,
      "": 105,
      "": 106,
      "": 107,
      "": 108,
      "": 109,
      "": 110,
      "": 111,
      "": 112,
      "": 113,
      "": 114,
      "": 115,
      "": 116,
      "": 117,
      "": 118,
      "": 119,
      "": 120,
      "": 121,
      "": 122,
      "¡": 123,
      "¢": 124,
      "£": 125,
      "¤": 126,
      "¥": 127,
      "¦": 128,
      "§": 129,
      "¨": 130,
      "©": 131,
      "ª": 132,
      "¬": 133,
      "­": 134,
      "®": 135,
      "¯": 136,
      "°": 137,
      "±": 138,
      "²": 139,
      "³": 140,
      "´": 141,
      "µ": 142,
      "¶": 143,
      "·": 144,
      "¸": 145,
      "¹": 146,
      "º": 147,
      "¼": 148,
      "½": 149,
      "¾": 150,
      "¿": 151,
      "À": 152,
      "Á": 153,
      "Â": 154,
      "Ã": 155,
      "Å": 156,
      "Ç": 157,
      "È": 158,
      "É": 159,
      "Ê": 160,
      "Í": 161,
      "Ï": 162,
      "Ñ": 163,
      "Ò": 164,
      "Ó": 165,
      "Ô": 166,
      "Ö": 167,
      "×": 168,
      "Ú": 169,
      "Ý": 170,
      "ß": 171,
      "à": 172,
      "á": 173,
      "â": 174,
      "ã": 175,
      "ä": 176,
      "å": 177,
      "æ": 178,
      "ç": 179,
      "è": 180,
      "é": 181,
      "ê": 182,
      "ë": 183,
      "ì": 184,
      "í": 185,
      "î": 186,
      "ï": 187,
      "ð": 188,
      "ñ": 189,
      "ò": 190,
      "ó": 191,
      "ô": 192,
      "õ": 193,
      "ö": 194,
      "÷": 195,
      "ø": 196,
      "ù": 197,
      "ú": 198,
      "û": 199,
      "ü": 200,
      "ý": 201,
      "þ": 202,
      "ÿ": 203,
      "ā": 204,
      "ă": 205,
      "ą": 206,
      "ć": 207,
      "č": 208,
      "ď": 209,
      "Đ": 210,
      "đ": 211,
      "ē": 212,
      "ę": 213,
      "ě": 214,
      "ğ": 215,
      "ī": 216,
      "İ": 217,
      "ı": 218,
      "ł": 219,
      "ń": 220,
      "ō": 221,
      "ŏ": 222,
      "ő": 223,
      "œ": 224,
      "ŕ": 225,
      "ř": 226,
      "ś": 227,
      "ŝ": 228,
      "Ş": 229,
      "ş": 230,
      "š": 231,
      "ť": 232,
      "ũ": 233,
      "ū": 234,
      "ź": 235,
      "ż": 236,
      "ž": 237,
      "ơ": 238,
      "ư": 239,
      "ǔ": 240,
      "ǻ": 241,
      "ș": 242,
      "ț": 243,
      "ʒ": 244,
      "ʧ": 245,
      "ʲ": 246,
      "ˆ": 247,
      "˜": 248,
      "̥": 249,
      "̶": 250,
      "΄": 251,
      "Α": 252,
      "Η": 253,
      "Ν": 254,
      "Τ": 255,
      "Υ": 256,
      "ή": 257,
      "α": 258,
      "β": 259,
      "ε": 260,
      "η": 261,
      "κ": 262,
      "μ": 263,
      "ν": 264,
      "ξ": 265,
      "ο": 266,
      "π": 267,
      "ρ": 268,
      "σ": 269,
      "τ": 270,
      "υ": 271,
      "А": 272,
      "В": 273,
      "Н": 274,
      "О": 275,
      "Т": 276,
      "а": 277,
      "г": 278,
      "е": 279,
      "з": 280,
      "й": 281,
      "м": 282,
      "н": 283,
      "о": 284,
      "п": 285,
      "р": 286,
      "с": 287,
      "т": 288,
      "у": 289,
      "х": 290,
      "є": 291,
      "ј": 292,
      "أ": 293,
      "د": 294,
      "ر": 295,
      "ل": 296,
      "م": 297,
      "و": 298,
      "ى": 299,
      "ي": 300,
      "ڑ": 301,
      "ං": 302,
      "ක": 303,
      "ඟ": 304,
      "ද": 305,
      "න": 306,
      "බ": 307,
      "ම": 308,
      "ය": 309,
      "ල": 310,
      "ව": 311,
      "හ": 312,
      "ා": 313,
      "ැ": 314,
      "ි": 315,
      "ෝ": 316,
      "ᵈ": 317,
      "ạ": 318,
      "ả": 319,
      "ấ": 320,
      "ầ": 321,
      "ậ": 322,
      "ắ": 323,
      "ặ": 324,
      "ẽ": 325,
      "ế": 326,
      "ề": 327,
      "ể": 328,
      "ễ": 329,
      "ệ": 330,
      "ỉ": 331,
      "ị": 332,
      "ọ": 333,
      "ỏ": 334,
      "ố": 335,
      "ồ": 336,
      "ổ": 337,
      "ộ": 338,
      "ớ": 339,
      "ờ": 340,
      "ở": 341,
      "ỡ": 342,
      "ợ": 343,
      "ủ": 344,
      "ứ": 345,
      "ừ": 346,
      "ữ": 347,
      "ự": 348,
      "​": 349,
      "‎": 350,
      "‐": 351,
      "‒": 352,
      "–": 353,
      "—": 354,
      "―": 355,
      "‚": 356,
      "•": 357,
      "‪": 358,
      "‫": 359,
      "‬": 360,
      "‭": 361,
      "‰": 362,
      "ⁿ": 363,
      "₩": 364,
      "€": 365,
      "™": 366,
      "─": 367,
      "■": 368,
      "★": 369,
      "☆": 370,
      "♥": 371,
      "♪": 372,
      "♫": 373,
      "♬": 374,
      "乾": 375,
      "兌": 376,
      "品": 377,
      "坎": 378,
      "坤": 379,
      "嫕": 380,
      "州": 381,
      "巽": 382,
      "抮": 383,
      "桜": 384,
      "炄": 385,
      "璉": 386,
      "秋": 387,
      "穰": 388,
      "精": 389,
      "絈": 390,
      "絜": 391,
      "艮": 392,
      "通": 393,
      "遺": 394,
      "離": 395,
      "震": 396,
      "靖": 397,
      "韘": 398,
      "馥": 399,
      "남": 400,
      "님": 401,
      "밡": 402,
      "유": 403,
      "품": 404,
      "ﬁ": 405,
      "ﬂ": 406,
      "﻿": 407,
      "，": 408,
      "￡": 409,
      "�": 410,
      "0</w>": 411,
      "n</w>": 412,
      "z</w>": 413,
      "r</w>": 414,
      "a</w>": 415,
      "♪</w>": 416,
      "e</w>": 417,
      "s</w>": 418,
      "i</w>": 419,
      "l</w>": 420,
      "v</w>": 421,
      "o</w>": 422,
      "x</w>": 423,
      "d</w>": 424,
      "á</w>": 425,
      "k</w>": 426,
      "u</w>": 427,
      "c</w>": 428,
      "g</w>": 429,
      "h</w>": 430,
      "t</w>": 431,
      "m</w>": 432,
      "q</w>": 433,
      "y</w>": 434,
      "3</w>": 435,
      "1</w>": 436,
      "f</w>": 437,
      "ã</w>": 438,
      "ť</w>": 439,
      "5</w>": 440,
      "â</w>": 441,
      "ï</w>": 442,
      "p</w>": 443,
      ".</w>": 444,
      "w</w>": 445,
      "b</w>": 446,
      "í</w>": 447,
      "6</w>": 448,
      "à</w>": 449,
      "'</w>": 450,
      "è</w>": 451,
      "º</w>": 452,
      "*</w>": 453,
      "7</w>": 454,
      "2</w>": 455,
      "ê</w>": 456,
      "8</w>": 457,
      "ù</w>": 458,
      "j</w>": 459,
      "–</w>": 460,
      "9</w>": 461,
      "é</w>": 462,
      "ó</w>": 463,
      ")</w>": 464,
      "4</w>": 465,
      "(</w>": 466,
      "ò</w>": 467,
      "|</w>": 468,
      "ˆ</w>": 469,
      ",</w>": 470,
      ";</w>": 471,
      "ô</w>": 472,
      "?</w>": 473,
      "/</w>": 474,
      "ú</w>": 475,
      "õ</w>": 476,
      "_</w>": 477,
      "ο</w>": 478,
      "ª</w>": 479,
      "ự</w>": 480,
      "î</w>": 481,
      "ý</w>": 482,
      "</w>": 483,
      "`</w>": 484,
      "у</w>": 485,
      "¶</w>": 486,
      "</w>": 487,
      "L</w>": 488,
      "#</w>": 489,
      "ố</w>": 490,
      "е</w>": 491,
      "æ</w>": 492,
      "È</w>": 493,
      "ì</w>": 494,
      "ﬂ</w>": 495,
      "-</w>": 496,
      "</w>": 497,
      "\"</w>": 498,
      "$</w>": 499,
      "²</w>": 500,
      "ü</w>": 501,
      "</w>": 502,
      "‫</w>": 503,
      "о</w>": 504,
      "ō</w>": 505,
      "兌</w>": 506,
      "±</w>": 507,
      "ě</w>": 508,
      "♬</w>": 509,
      "ū</w>": 510,
      "ị</w>": 511,
      "%</w>": 512,
      "د</w>": 513,
      "р</w>": 514,
      "</w>": 515,
      "ø</w>": 516,
      "ệ</w>": 517,
      "ể</w>": 518,
      "½</w>": 519,
      ":</w>": 520,
      "®</w>": 521,
      "乾</w>": 522,
      "―</w>": 523,
      "♥</w>": 524,
      "¿</w>": 525,
      "‬</w>": 526,
      "K</w>": 527,
      "S</w>": 528,
      "ÿ</w>": 529,
      "å</w>": 530,
      "R</w>": 531,
      "!</w>": 532,
      "@</w>": 533,
      "�</w>": 534,
      "精</w>": 535,
      "♫</w>": 536,
      "þ</w>": 537,
      "©</w>": 538,
      "°</w>": 539,
      "ð</w>": 540,
      "ğ</w>": 541,
      "ρ</w>": 542,
      "</w>": 543,
      "</w>": 544,
      "─</w>": 545,
      "</w>": 546,
      "ă</w>": 547,
      "★</w>": 548,
      "ā</w>": 549,
      "=</w>": 550,
      "\\</w>": 551,
      "F</w>": 552,
      "ş</w>": 553,
      "ë</w>": 554,
      "</w>": 555,
      "υ</w>": 556,
      "п</w>": 557,
      "]</w>": 558,
      "‒</w>": 559,
      "œ</w>": 560,
      "ි</w>": 561,
      "є</w>": 562,
      "Á</w>": 563,
      "•</w>": 564,
      "ö</w>": 565,
      "震</w>": 566,
      "ł</w>": 567,
      "¸</w>": 568,
      "[</w>": 569,
      "B</w>": 570,
      "¯</w>": 571,
      "ä</w>": 572,
      "ǔ</w>": 573,
      "</w>": 574,
      "</w>": 575,
      "€</w>": 576,
      "ổ</w>": 577,
      "ç</w>": 578,
      "ද</w>": 579,
      "巽</w>": 580,
      "¾</w>": 581,
      "§</w>": 582,
      "α</w>": 583,
      "Ô</w>": 584,
      "ή</w>": 585,
      "ć</w>": 586,
      "E</w>": 587,
      "‐</w>": 588,
      "¨</w>": 589,
      "</w>": 590,
      "Ö</w>": 591,
      "</w>": 592,
      "¹</w>": 593,
      "£</w>": 594,
      "﻿</w>": 595,
      "^</w>": 596,
      "š</w>": 597,
      "님</w>": 598,
      "΄</w>": 599,
      "州</w>": 600,
      "~</w>": 601,
      "­</w>": 602,
      "û</w>": 603,
      "I</w>": 604,
      "G</w>": 605,
      "，</w>": 606,
      "¥</w>": 607,
      "￡</w>": 608,
      "¬</w>": 609,
      "µ</w>": 610,
      "—</w>": 611,
      "桜</w>": 612,
      "남</w>": 613,
      "·</w>": 614,
      "¢</w>": 615,
      "ś</w>": 616,
      "ŕ</w>": 617,
      "×</w>": 618,
      "‎</w>": 619,
      "Ò</w>": 620,
      "</w>": 621,
      "ẽ</w>": 622,
      "</w>": 623,
      "</w>": 624,
      "</w>": 625,
      "ڑ</w>": 626,
      "₩</w>": 627,
      "А</w>": 628,
      "U</w>": 629,
      "ñ</w>": 630,
      "Z</w>": 631,
      "​</w>": 632,
      "Y</w>": 633,
      "ē</w>": 634,
      "ứ</w>": 635,
      "č</w>": 636,
      "品</w>": 637,
      "و</w>": 638,
      "ư</w>": 639,
      "ī</w>": 640,
      "π</w>": 641,
      "ș</w>": 642,
      "ả</w>": 643,
      "¦</w>": 644,
      "艮</w>": 645,
      "</w>": 646,
      "{</w>": 647,
      "̶</w>": 648,
      "Q</w>": 649,
      "A</w>": 650,
      "÷</w>": 651,
      "O</w>": 652,
      "V</w>": 653,
      "H</w>": 654,
      "坤</w>": 655,
      "</w>": 656,
      "</w>": 657,
      "+</w>": 658,
      "‚</w>": 659,
      "ř</w>": 660,
      "ං</w>": 661,
      "ß</w>": 662,
      "‭</w>": 663,
      "離</w>": 664,
      "W</w>": 665,
      "̥</w>": 666,
      "}</w>": 667,
      "ي</w>": 668,
      "‰</w>": 669,
      "đ</w>": 670,
      "ợ</w>": 671,
      "Ê</w>": 672,
      "ę</w>": 673,
      "Â</w>": 674,
      "</w>": 675,
      "絈</w>": 676,
      "Ã</w>": 677,
      "J</w>": 678,
      "В</w>": 679,
      "</w>": 680,
      "ế</w>": 681,
      "D</w>": 682,
      "À</w>": 683,
      "ỉ</w>": 684,
      "م</w>": 685,
      "³</w>": 686,
      "¡</w>": 687,
      "C</w>": 688,
      "¤</w>": 689,
      "N</w>": 690,
      "Ï</w>": 691,
      "靖</w>": 692,
      "ở</w>": 693,
      "ũ</w>": 694,
      "а</w>": 695,
      "絜</w>": 696,
      "坎</w>": 697,
      "ل</w>": 698,
      "품</w>": 699,
      "M</w>": 700,
      "ừ</w>": 701,
      "™</w>": 702,
      "Υ</w>": 703,
      "´</w>": 704,
      "ź</w>": 705,
      "</w>": 706,
      "ỡ</w>": 707,
      "ủ</w>": 708,
      "X</w>": 709,
      "˜</w>": 710,
      "ề</w>": 711,
      "ʒ</w>": 712,
      "¼</w>": 713,
      "■</w>": 714,
      "Ó</w>": 715,
      "É</w>": 716,
      "أ</w>": 717,
      "ᵈ</w>": 718,
      "κ</w>": 719,
      "P</w>": 720,
      "ž</w>": 721,
      "ى</w>": 722,
      "‪</w>": 723,
      "T</w>": 724,
      "</w>": 725,
      "穰</w>": 726,
      "th": 727,
      "an": 728,
      "in": 729,
      "er": 730,
      "en": 731,
      "ar": 732,
      "es": 733,
      "qu": 734,
      "co": 735,
      "as</w>": 736,
      "to</w>": 737,
      "er</w>": 738,
      "the</w>": 739,
      "de</w>": 740,
      "os</w>": 741,
      "do</w>": 742,
      "or": 743,
      "al": 744,
      "el": 745,
      "que</w>": 746,
      "ou": 747,
      "re": 748,
      "ou</w>": 749,
      "ti": 750,
      "es</w>": 751,
      "ão</w>": 752,
      "ing</w>": 753,
      "is</w>": 754,
      "on": 755,
      "is": 756,
      "and</w>": 757,
      "ar</w>": 758,
      "tr": 759,
      "at</w>": 760,
      "ca": 761,
      "em</w>": 762,
      "it": 763,
      "or</w>": 764,
      "ed</w>": 765,
      "se</w>": 766,
      "ma": 767,
      "pr": 768,
      "on</w>": 769,
      "of</w>": 770,
      "..</w>": 771,
      "par": 772,
      "di": 773,
      "te</w>": 774,
      "me</w>": 775,
      "...</w>": 776,
      "se": 777,
      "you</w>": 778,
      "ta": 779,
      "da</w>": 780,
      "in</w>": 781,
      "no": 782,
      "ha": 783,
      "li": 784,
      "ac": 785,
      "de": 786,
      "ri": 787,
      "oc": 788,
      "ve</w>": 789,
      "that</w>": 790,
      "con": 791,
      "po": 792,
      "il": 793,
      "un": 794,
      "me": 795,
      "as": 796,
      "ma</w>": 797,
      "wh": 798,
      "um</w>": 799,
      "ur": 800,
      "ci": 801,
      "en</w>": 802,
      "am": 803,
      "so": 804,
      "us": 805,
      "para</w>": 806,
      "ir": 807,
      "at": 808,
      "be": 809,
      "so</w>": 810,
      "est": 811,
      "it</w>": 812,
      "ic": 813,
      "le": 814,
      "he</w>": 815,
      "com": 816,
      "ab": 817,
      "ch": 818,
      "te": 819,
      "to": 820,
      "da": 821,
      "men": 822,
      "não</w>": 823,
      "su": 824,
      "ro": 825,
      "vi": 826,
      "uma</w>": 827,
      "ul": 828,
      "al</w>": 829,
      "ando</w>": 830,
      "le</w>": 831,
      "lo": 832,
      "si": 833,
      "ho": 834,
      "ere</w>": 835,
      "pe": 836,
      "ver": 837,
      "ocê</w>": 838,
      "am</w>": 839,
      "ia</w>": 840,
      "per": 841,
      "ent": 842,
      "ag": 843,
      "st": 844,
      "eu</w>": 845,
      "com</w>": 846,
      "our</w>": 847,
      "ut</w>": 848,
      "você</w>": 849,
      "ly</w>": 850,
      "gu": 851,
      "for": 852,
      "ad": 853,
      "ne": 854,
      "for</w>": 855,
      "sa": 856,
      "no</w>": 857,
      "ig": 858,
      "pro": 859,
      "ol": 860,
      "was</w>": 861,
      "ke</w>": 862,
      "ra": 863,
      "mas</w>": 864,
      "an</w>": 865,
      "na</w>": 866,
      "we</w>": 867,
      "ith</w>": 868,
      "mo": 869,
      "out</w>": 870,
      "ce</w>": 871,
      "ha</w>": 872,
      "go": 873,
      "be</w>": 874,
      "the": 875,
      "with</w>": 876,
      "ve": 877,
      "ter": 878,
      "mos</w>": 879,
      "re</w>": 880,
      "ele</w>": 881,
      "ver</w>": 882,
      "min": 883,
      "ex": 884,
      "des": 885,
      "ter</w>": 886,
      "por": 887,
      "one</w>": 888,
      "dos</w>": 889,
      "fa": 890,
      "my</w>": 891,
      "this</w>": 892,
      "he": 893,
      "ção</w>": 894,
      "but</w>": 895,
      "us</w>": 896,
      "have</w>": 897,
      "do": 898,
      "ta</w>": 899,
      "ht</w>": 900,
      "por</w>": 901,
      "bo": 902,
      "all</w>": 903,
      "ld</w>": 904,
      "pa": 905,
      "ir</w>": 906,
      "now</w>": 907,
      "va</w>": 908,
      "sa</w>": 909,
      "fe": 910,
      "your</w>": 911,
      "ela</w>": 912,
      "fi": 913,
      "pl": 914,
      "ho</w>": 915,
      "man": 916,
      "mor": 917,
      "tion</w>": 918,
      "ge": 919,
      "mb": 920,
      "como</w>": 921,
      "pre": 922,
      "pen": 923,
      "fo": 924,
      "im": 925,
      "car": 926,
      "go</w>": 927,
      "mu": 928,
      "dis": 929,
      "der": 930,
      "ther</w>": 931,
      "nd</w>": 932,
      "mais</w>": 933,
      "res": 934,
      "his</w>": 935,
      "ust</w>": 936,
      "ts</w>": 937,
      "im</w>": 938,
      "they</w>": 939,
      "ente</w>": 940,
      "ado</w>": 941,
      "can</w>": 942,
      "her</w>": 943,
      "are</w>": 944,
      "esta": 945,
      "wa": 946,
      "ito</w>": 947,
      "lu": 948,
      "if</w>": 949,
      "gr": 950,
      "dade</w>": 951,
      "cor": 952,
      "thing</w>": 953,
      "use</w>": 954,
      "wor": 955,
      "know</w>": 956,
      "ell</w>": 957,
      "fro": 958,
      "ass": 959,
      "ten": 960,
      "not</w>": 961,
      "st</w>": 962,
      "op": 963,
      "mente</w>": 964,
      "from</w>": 965,
      "like</w>": 966,
      "tu": 967,
      "ill</w>": 968,
      "zer</w>": 969,
      "king</w>": 970,
      "mp": 971,
      "sh": 972,
      "sua</w>": 973,
      "das</w>": 974,
      "ds</w>": 975,
      "ant": 976,
      "ent</w>": 977,
      "ould</w>": 978,
      "seu</w>": 979,
      "ing": 980,
      "der</w>": 981,
      "just</w>": 982,
      "aqu": 983,
      "ce": 984,
      "tra": 985,
      "ess": 986,
      "oug": 987,
      "ser": 988,
      "mar": 989,
      "up</w>": 990,
      "ch</w>": 991,
      "cause</w>": 992,
      "ça</w>": 993,
      "who</w>": 994,
      "está</w>": 995,
      "pes": 996,
      "amos</w>": 997,
      "fic": 998,
      "what</w>": 999,
      "ll</w>": 1000,
      "br": 1001,
      "about</w>": 1002,
      "la": 1003,
      "isso</w>": 1004,
      "ant</w>": 1005,
      "when</w>": 1006,
      "ém</w>": 1007,
      "na": 1008,
      "gi": 1009,
      "ora</w>": 1010,
      "quando</w>": 1011,
      "ally</w>": 1012,
      "has</w>": 1013,
      "wn</w>": 1014,
      "ca</w>": 1015,
      "there</w>": 1016,
      "pos": 1017,
      "co</w>": 1018,
      "by</w>": 1019,
      "va": 1020,
      "tur": 1021,
      "fin": 1022,
      "will</w>": 1023,
      "jo": 1024,
      "sen": 1025,
      "ser</w>": 1026,
      "man</w>": 1027,
      "she</w>": 1028,
      "fu": 1029,
      "pres": 1030,
      "eles</w>": 1031,
      "get</w>": 1032,
      "tin": 1033,
      "mo</w>": 1034,
      "du": 1035,
      "contr": 1036,
      "ões</w>": 1037,
      "th</w>": 1038,
      "ev": 1039,
      "foi</w>": 1040,
      "had</w>": 1041,
      "ec": 1042,
      "fer": 1043,
      "ao</w>": 1044,
      "here</w>": 1045,
      "cia</w>": 1046,
      "ge</w>": 1047,
      "we": 1048,
      "mon": 1049,
      "str": 1050,
      "cri": 1051,
      "would</w>": 1052,
      "ist": 1053,
      "id": 1054,
      "some": 1055,
      "col": 1056,
      "cer": 1057,
      "were</w>": 1058,
      "ix": 1059,
      "ru": 1060,
      "him</w>": 1061,
      "pesso": 1062,
      "ack</w>": 1063,
      "ye": 1064,
      "ight</w>": 1065,
      "time</w>": 1066,
      "ite</w>": 1067,
      "ting</w>": 1068,
      "mes": 1069,
      "because</w>": 1070,
      "And</w>": 1071,
      "don</w>": 1072,
      "ted</w>": 1073,
      "nos": 1074,
      "way</w>": 1075,
      "porque</w>": 1076,
      "cre": 1077,
      "pri": 1078,
      "ers</w>": 1079,
      "sob": 1080,
      "ess</w>": 1081,
      "endo</w>": 1082,
      "ys</w>": 1083,
      "ali": 1084,
      "iro</w>": 1085,
      "ga": 1086,
      "em": 1087,
      "sab": 1088,
      "sta": 1089,
      "ante</w>": 1090,
      "ad</w>": 1091,
      "fr": 1092,
      "fe</w>": 1093,
      "thin": 1094,
      "of": 1095,
      "ap": 1096,
      "very</w>": 1097,
      "tem</w>": 1098,
      "how</w>": 1099,
      "esse</w>": 1100,
      "The</w>": 1101,
      "nos</w>": 1102,
      "fil": 1103,
      "tos</w>": 1104,
      "minha</w>": 1105,
      "meu</w>": 1106,
      "coul": 1107,
      "era</w>": 1108,
      "tor": 1109,
      "ity</w>": 1110,
      "vol": 1111,
      "into</w>": 1112,
      "rig": 1113,
      "tar</w>": 1114,
      "cois": 1115,
      "cis": 1116,
      "entr": 1117,
      "muito</w>": 1118,
      "ons</w>": 1119,
      "ound</w>": 1120,
      "id</w>": 1121,
      "tal": 1122,
      "então</w>": 1123,
      "est</w>": 1124,
      "ople</w>": 1125,
      "ra</w>": 1126,
      "outr": 1127,
      "quer": 1128,
      "been</w>": 1129,
      "day</w>": 1130,
      "sobre</w>": 1131,
      "sel": 1132,
      "their</w>": 1133,
      "people</w>": 1134,
      "od</w>": 1135,
      "and": 1136,
      "gar</w>": 1137,
      "fal": 1138,
      "estava</w>": 1139,
      "che": 1140,
      "cl": 1141,
      "ok</w>": 1142,
      "af": 1143,
      "cul": 1144,
      "ace</w>": 1145,
      "then</w>": 1146,
      "ên": 1147,
      "gar": 1148,
      "ós</w>": 1149,
      "pi": 1150,
      "vez</w>": 1151,
      "eli": 1152,
      "são</w>": 1153,
      "vo</w>": 1154,
      "tão</w>": 1155,
      "fazer</w>": 1156,
      "anto</w>": 1157,
      "them</w>": 1158,
      "cu": 1159,
      "pu": 1160,
      "ira</w>": 1161,
      "Eu</w>": 1162,
      "ough</w>": 1163,
      "ju": 1164,
      "anos</w>": 1165,
      "ação</w>": 1166,
      "ment</w>": 1167,
      "ke": 1168,
      "vel</w>": 1169,
      "bi": 1170,
      "ei</w>": 1171,
      "esti": 1172,
      "ong</w>": 1173,
      "mil": 1174,
      "dia</w>": 1175,
      "ying</w>": 1176,
      "could</w>": 1177,
      "ês</w>": 1178,
      "ast</w>": 1179,
      "mis": 1180,
      "You</w>": 1181,
      "aqui</w>": 1182,
      "ty</w>": 1183,
      "ks</w>": 1184,
      "dn</w>": 1185,
      "cha": 1186,
      "some</w>": 1187,
      "pode</w>": 1188,
      "think</w>": 1189,
      "pel": 1190,
      "fam": 1191,
      "bu": 1192,
      "ni": 1193,
      "sti": 1194,
      "fir": 1195,
      "rio</w>": 1196,
      "other</w>": 1197,
      "more</w>": 1198,
      "sur": 1199,
      "ard</w>": 1200,
      "av": 1201,
      "uni": 1202,
      "tri": 1203,
      "\".</w>": 1204,
      "dy</w>": 1205,
      "our": 1206,
      "back</w>": 1207,
      "ars</w>": 1208,
      "ria</w>": 1209,
      "mento</w>": 1210,
      "ich</w>": 1211,
      "ba": 1212,
      "cr": 1213,
      "gun": 1214,
      "temp": 1215,
      "quer</w>": 1216,
      "ked</w>": 1217,
      "pois</w>": 1218,
      "antes</w>": 1219,
      "dar</w>": 1220,
      "todos</w>": 1221,
      "got</w>": 1222,
      "ings</w>": 1223,
      "mi": 1224,
      "vida</w>": 1225,
      "pessoas</w>": 1226,
      "ven": 1227,
      "ain": 1228,
      "mel": 1229,
      "vai</w>": 1230,
      "guém</w>": 1231,
      "ine</w>": 1232,
      "esta</w>": 1233,
      "inter": 1234,
      "até</w>": 1235,
      "want</w>": 1236,
      "el</w>": 1237,
      "ding</w>": 1238,
      "pp": 1239,
      "ada</w>": 1240,
      "where</w>": 1241,
      "Qu": 1242,
      "gra": 1243,
      "son</w>": 1244,
      "ja</w>": 1245,
      "gre": 1246,
      "which</w>": 1247,
      "segu": 1248,
      "ções</w>": 1249,
      "ese</w>": 1250,
      "mun": 1251,
      "hu": 1252,
      "vis": 1253,
      "tudo</w>": 1254,
      "come</w>": 1255,
      "new</w>": 1256,
      "comp": 1257,
      "só</w>": 1258,
      "see</w>": 1259,
      "aram</w>": 1260,
      "precis": 1261,
      "aria</w>": 1262,
      "led</w>": 1263,
      "ance</w>": 1264,
      "vo": 1265,
      "tle</w>": 1266,
      "ores</w>": 1267,
      "lit": 1268,
      "right</w>": 1269,
      "au": 1270,
      "gen": 1271,
      "sp": 1272,
      "only</w>": 1273,
      "wi": 1274,
      "io</w>": 1275,
      "abal": 1276,
      "Se</w>": 1277,
      "oun": 1278,
      "vel": 1279,
      "sei</w>": 1280,
      "make</w>": 1281,
      "bl": 1282,
      "po</w>": 1283,
      "any</w>": 1284,
      "gon": 1285,
      "tw": 1286,
      "seus</w>": 1287,
      "pe</w>": 1288,
      "trabal": 1289,
      "ica</w>": 1290,
      "ados</w>": 1291,
      "lo</w>": 1292,
      "tel": 1293,
      "cal": 1294,
      "la</w>": 1295,
      "Mas</w>": 1296,
      "ro</w>": 1297,
      "bem</w>": 1298,
      "almente</w>": 1299,
      "But</w>": 1300,
      "ble</w>": 1301,
      "ob": 1302,
      "going</w>": 1303,
      "ous</w>": 1304,
      "ving</w>": 1305,
      "tre": 1306,
      "port": 1307,
      "este</w>": 1308,
      "ço</w>": 1309,
      "tran": 1310,
      "can": 1311,
      "ência</w>": 1312,
      "et</w>": 1313,
      "00</w>": 1314,
      "over</w>": 1315,
      "nós</w>": 1316,
      "life</w>": 1317,
      "ber": 1318,
      "come": 1319,
      "indo</w>": 1320,
      "deix": 1321,
      "rel": 1322,
      "It</w>": 1323,
      "ence</w>": 1324,
      "bri": 1325,
      "sin": 1326,
      "mer": 1327,
      "mul": 1328,
      "ose</w>": 1329,
      "ct</w>": 1330,
      "take</w>": 1331,
      "wo": 1332,
      "agora</w>": 1333,
      "sem</w>": 1334,
      "any": 1335,
      "gonna</w>": 1336,
      "tempo</w>": 1337,
      "poder": 1338,
      "ais</w>": 1339,
      "há</w>": 1340,
      "than</w>": 1341,
      "Wh": 1342,
      "ves</w>": 1343,
      "dizer</w>": 1344,
      "cur": 1345,
      "cal</w>": 1346,
      "quanto</w>": 1347,
      "je": 1348,
      "fore</w>": 1349,
      "ever": 1350,
      "mesmo</w>": 1351,
      "que": 1352,
      "If</w>": 1353,
      "sim</w>": 1354,
      "tes</w>": 1355,
      "En": 1356,
      "fri": 1357,
      "onde</w>": 1358,
      "disse</w>": 1359,
      "ang": 1360,
      "ati": 1361,
      "hor</w>": 1362,
      "ling</w>": 1363,
      "down</w>": 1364,
      "pass": 1365,
      "plan": 1366,
      "casa</w>": 1367,
      "We</w>": 1368,
      "these</w>": 1369,
      "hel": 1370,
      "Não</w>": 1371,
      "years</w>": 1372,
      "essa</w>": 1373,
      "even</w>": 1374,
      "estão</w>": 1375,
      "fun": 1376,
      "dire": 1377,
      "every": 1378,
      "self</w>": 1379,
      "end</w>": 1380,
      "cos</w>": 1381,
      "mã": 1382,
      "really</w>": 1383,
      "ph": 1384,
      "two</w>": 1385,
      "ought</w>": 1386,
      "depois</w>": 1387,
      "pelo</w>": 1388,
      "tru": 1389,
      "ste": 1390,
      "encontr": 1391,
      "first</w>": 1392,
      "little</w>": 1393,
      "tec": 1394,
      "something</w>": 1395,
      "algo</w>": 1396,
      "mes</w>": 1397,
      "ation</w>": 1398,
      "ento</w>": 1399,
      "mundo</w>": 1400,
      "ded</w>": 1401,
      "cas": 1402,
      "say</w>": 1403,
      "pon": 1404,
      "hor": 1405,
      "ita</w>": 1406,
      "before</w>": 1407,
      "coisa</w>": 1408,
      "har</w>": 1409,
      "ck</w>": 1410,
      "din": 1411,
      "hos</w>": 1412,
      "tal</w>": 1413,
      "ani": 1414,
      "ved</w>": 1415,
      "So</w>": 1416,
      "star": 1417,
      "her": 1418,
      "tinha</w>": 1419,
      "ning</w>": 1420,
      "tas</w>": 1421,
      "cho": 1422,
      "spe": 1423,
      "ate</w>": 1424,
      "enti": 1425,
      "stu": 1426,
      "sho": 1427,
      "red</w>": 1428,
      "off</w>": 1429,
      "after</w>": 1430,
      "world</w>": 1431,
      "ança</w>": 1432,
      "body</w>": 1433,
      "om</w>": 1434,
      "age</w>": 1435,
      "entes</w>": 1436,
      "able</w>": 1437,
      "cap": 1438,
      "cial</w>": 1439,
      "hou": 1440,
      "vou</w>": 1441,
      "ind</w>": 1442,
      "ol</w>": 1443,
      "Você</w>": 1444,
      "har": 1445,
      "alg": 1446,
      "inv": 1447,
      "mag": 1448,
      "bar": 1449,
      "tor</w>": 1450,
      "pas": 1451,
      "estou</w>": 1452,
      "fac": 1453,
      "dif": 1454,
      "sos</w>": 1455,
      "voc": 1456,
      "thr": 1457,
      "sal": 1458,
      "pra</w>": 1459,
      "alguém</w>": 1460,
      "car</w>": 1461,
      "ga</w>": 1462,
      "faz": 1463,
      "tell</w>": 1464,
      "prime": 1465,
      "men</w>": 1466,
      "mim</w>": 1467,
      "most</w>": 1468,
      "ls</w>": 1469,
      "ry</w>": 1470,
      "bet": 1471,
      "pró": 1472,
      "ban": 1473,
      "coisas</w>": 1474,
      "ice</w>": 1475,
      "hom": 1476,
      "ever</w>": 1477,
      "dur": 1478,
      "said</w>": 1479,
      "mat": 1480,
      "esper": 1481,
      "conhe": 1482,
      "pela</w>": 1483,
      "never</w>": 1484,
      "coun": 1485,
      "ina</w>": 1486,
      "emos</w>": 1487,
      "pul": 1488,
      "nor": 1489,
      "did</w>": 1490,
      "sig": 1491,
      "Well</w>": 1492,
      "qui": 1493,
      "prob": 1494,
      "des</w>": 1495,
      "zes</w>": 1496,
      "onal</w>": 1497,
      "tar": 1498,
      "todo</w>": 1499,
      "dele</w>": 1500,
      "noite</w>": 1501,
      "pens": 1502,
      "tive</w>": 1503,
      "didn</w>": 1504,
      "ws</w>": 1505,
      "za</w>": 1506,
      "vocês</w>": 1507,
      "unca</w>": 1508,
      "hist": 1509,
      "loo": 1510,
      "those</w>": 1511,
      "find</w>": 1512,
      "ças</w>": 1513,
      "tent": 1514,
      "acon": 1515,
      "ainda</w>": 1516,
      "good</w>": 1517,
      "ep</w>": 1518,
      "ano</w>": 1519,
      "need</w>": 1520,
      "well</w>": 1521,
      "being</w>": 1522,
      "atr": 1523,
      "ível</w>": 1524,
      "lá</w>": 1525,
      "apar": 1526,
      "ure</w>": 1527,
      "its</w>": 1528,
      "ey</w>": 1529,
      "suas</w>": 1530,
      "proc": 1531,
      "ile</w>": 1532,
      "ps</w>": 1533,
      ".\".</w>": 1534,
      "pre</w>": 1535,
      "gran": 1536,
      "lon": 1537,
      "val": 1538,
      "ree</w>": 1539,
      "every</w>": 1540,
      "sabe</w>": 1541,
      "tir</w>": 1542,
      "through</w>": 1543,
      "quem</w>": 1544,
      "já</w>": 1545,
      "homem</w>": 1546,
      "pai</w>": 1547,
      "tamb": 1548,
      "ico</w>": 1549,
      "side</w>": 1550,
      "ele": 1551,
      "vamos</w>": 1552,
      "ful</w>": 1553,
      "oci": 1554,
      "ft</w>": 1555,
      "things</w>": 1556,
      "work</w>": 1557,
      "nunca</w>": 1558,
      "No": 1559,
      "ated</w>": 1560,
      "up": 1561,
      "pla": 1562,
      "ans</w>": 1563,
      "let</w>": 1564,
      "memb": 1565,
      "poli": 1566,
      "também</w>": 1567,
      "Th": 1568,
      "igo</w>": 1569,
      "nada</w>": 1570,
      "amento</w>": 1571,
      "consegu": 1572,
      "ms</w>": 1573,
      "ned</w>": 1574,
      "pou": 1575,
      "ily</w>": 1576,
      "peri": 1577,
      "ach</w>": 1578,
      "old</w>": 1579,
      "bro": 1580,
      "lig": 1581,
      "aju": 1582,
      "tenho</w>": 1583,
      "dre": 1584,
      "bre": 1585,
      "inc": 1586,
      "Então</w>": 1587,
      "penas</w>": 1588,
      "much</w>": 1589,
      "sem": 1590,
      "kno": 1591,
      "melhor</w>": 1592,
      "ece</w>": 1593,
      "night</w>": 1594,
      "inha</w>": 1595,
      "cada</w>": 1596,
      "aci": 1597,
      "assim</w>": 1598,
      "Quando</w>": 1599,
      "try</w>": 1600,
      "ficar</w>": 1601,
      "pol": 1602,
      "ear": 1603,
      "qual": 1604,
      "wat": 1605,
      "import": 1606,
      "ug": 1607,
      "sto": 1608,
      "made</w>": 1609,
      "last</w>": 1610,
      "pal": 1611,
      "around</w>": 1612,
      "red": 1613,
      "sor": 1614,
      "ário</w>": 1615,
      "íci": 1616,
      "heiro</w>": 1617,
      "aca": 1618,
      "ris": 1619,
      "sempre</w>": 1620,
      "via</w>": 1621,
      "lev": 1622,
      "ory</w>": 1623,
      "ân": 1624,
      "jun": 1625,
      "fl": 1626,
      "tiv": 1627,
      "grande</w>": 1628,
      "ven</w>": 1629,
      "He</w>": 1630,
      "apenas</w>": 1631,
      "san": 1632,
      "cen": 1633,
      "lia</w>": 1634,
      "adas</w>": 1635,
      "itos</w>": 1636,
      "beli": 1637,
      "estar</w>": 1638,
      "char": 1639,
      "ger": 1640,
      "put</w>": 1641,
      "bus": 1642,
      "lugar</w>": 1643,
      "mai": 1644,
      "should</w>": 1645,
      "nosso</w>": 1646,
      "still</w>": 1647,
      "qualquer</w>": 1648,
      "contin": 1649,
      "sub": 1650,
      "Ele</w>": 1651,
      "ide": 1652,
      "nas</w>": 1653,
      "ás</w>": 1654,
      "came</w>": 1655,
      "les</w>": 1656,
      "sse</w>": 1657,
      "eve</w>": 1658,
      "gir": 1659,
      "bas": 1660,
      "den": 1661,
      "sas</w>": 1662,
      "give</w>": 1663,
      "acho</w>": 1664,
      "ways</w>": 1665,
      "place</w>": 1666,
      "nu": 1667,
      "trans": 1668,
      "amente</w>": 1669,
      "dois</w>": 1670,
      "gan": 1671,
      "mãe</w>": 1672,
      "with": 1673,
      "começ": 1674,
      "bra": 1675,
      "igh": 1676,
      "kil": 1677,
      "mar</w>": 1678,
      "dem</w>": 1679,
      "infor": 1680,
      "nossa</w>": 1681,
      "wal": 1682,
      "tting</w>": 1683,
      "cer</w>": 1684,
      "used</w>": 1685,
      "rece": 1686,
      "cle": 1687,
      "emb": 1688,
      "own</w>": 1689,
      "iam</w>": 1690,
      "anti": 1691,
      "hon": 1692,
      "ase</w>": 1693,
      "under": 1694,
      "escol": 1695,
      "tamente</w>": 1696,
      "ef": 1697,
      "ents</w>": 1698,
      "bli": 1699,
      "ger</w>": 1700,
      "desco": 1701,
      "ido</w>": 1702,
      "look</w>": 1703,
      "why</w>": 1704,
      "tado</w>": 1705,
      "stru": 1706,
      "thought</w>": 1707,
      "cour": 1708,
      "anted</w>": 1709,
      "someone</w>": 1710,
      "aliz": 1711,
      "itar</w>": 1712,
      "amer": 1713,
      "might</w>": 1714,
      "mal": 1715,
      "found</w>": 1716,
      "land</w>": 1717,
      "outro</w>": 1718,
      "elas</w>": 1719,
      "ori": 1720,
      "deci": 1721,
      "continu": 1722,
      "dr": 1723,
      "ish</w>": 1724,
      "je</w>": 1725,
      "wr": 1726,
      "love</w>": 1727,
      "tions</w>": 1728,
      "ún": 1729,
      "poderia</w>": 1730,
      "famí": 1731,
      "lti": 1732,
      "ará</w>": 1733,
      "sion</w>": 1734,
      "ath</w>": 1735,
      "wer</w>": 1736,
      "ador</w>": 1737,
      "agem</w>": 1738,
      "ória</w>": 1739,
      "told</w>": 1740,
      "gur": 1741,
      "ros": 1742,
      "til</w>": 1743,
      "home</w>": 1744,
      "verdade</w>": 1745,
      "shi": 1746,
      "últi": 1747,
      "house</w>": 1748,
      "toda</w>": 1749,
      "eram</w>": 1750,
      "ton</w>": 1751,
      "pris": 1752,
      "sol": 1753,
      "quero</w>": 1754,
      "When</w>": 1755,
      "sy": 1756,
      "clar": 1757,
      "ady</w>": 1758,
      "chil": 1759,
      "minu": 1760,
      "ável</w>": 1761,
      "diz": 1762,
      "gover": 1763,
      "bel": 1764,
      "may": 1765,
      "dio</w>": 1766,
      "war": 1767,
      "exp": 1768,
      "anc": 1769,
      "entre</w>": 1770,
      "family</w>": 1771,
      "ain</w>": 1772,
      "mal</w>": 1773,
      "talvez</w>": 1774,
      "ole</w>": 1775,
      "may</w>": 1776,
      "ary</w>": 1777,
      "long</w>": 1778,
      "sis": 1779,
      "hi": 1780,
      "cara</w>": 1781,
      "kes</w>": 1782,
      "sta</w>": 1783,
      "vem</w>": 1784,
      "res</w>": 1785,
      "tro": 1786,
      "son": 1787,
      "away</w>": 1788,
      "assin": 1789,
      "clo": 1790,
      "vam</w>": 1791,
      "wanted</w>": 1792,
      "hap": 1793,
      "sus": 1794,
      "dinheiro</w>": 1795,
      "ava</w>": 1796,
      "was": 1797,
      "ah</w>": 1798,
      "parti": 1799,
      "ins</w>": 1800,
      "trabalho</w>": 1801,
      "bur": 1802,
      "bat": 1803,
      "espe": 1804,
      "while</w>": 1805,
      "too</w>": 1806,
      "cidade</w>": 1807,
      "dela</w>": 1808,
      "In</w>": 1809,
      "xi": 1810,
      "ka": 1811,
      "enten": 1812,
      "proble": 1813,
      "same</w>": 1814,
      "ture</w>": 1815,
      "vir": 1816,
      "wing</w>": 1817,
      "ner</w>": 1818,
      "As</w>": 1819,
      "sou": 1820,
      "lar": 1821,
      "consi": 1822,
      "ári": 1823,
      "wee": 1824,
      "tir": 1825,
      "imag": 1826,
      "help</w>": 1827,
      "ating</w>": 1828,
      "todas</w>": 1829,
      "always</w>": 1830,
      "fez</w>": 1831,
      "low</w>": 1832,
      "ler</w>": 1833,
      "il</w>": 1834,
      "segur": 1835,
      "mur": 1836,
      "money</w>": 1837,
      "guns</w>": 1838,
      "bor": 1839,
      "rou": 1840,
      "família</w>": 1841,
      "arr": 1842,
      "vid": 1843,
      "quis": 1844,
      "leg": 1845,
      "pouco</w>": 1846,
      "comple": 1847,
      "acontec": 1848,
      "also</w>": 1849,
      "lhe</w>": 1850,
      "ago</w>": 1851,
      "temos</w>": 1852,
      "poss": 1853,
      "mean</w>": 1854,
      "kind</w>": 1855,
      "enquanto</w>": 1856,
      "ick</w>": 1857,
      "cli": 1858,
      "ely</w>": 1859,
      "seja</w>": 1860,
      "tipo</w>": 1861,
      "lot</w>": 1862,
      "19": 1863,
      "reg": 1864,
      "ham</w>": 1865,
      "caus": 1866,
      "xt</w>": 1867,
      "sup": 1868,
      "year</w>": 1869,
      "pedi": 1870,
      "sure</w>": 1871,
      "fica</w>": 1872,
      "times</w>": 1873,
      "ak</w>": 1874,
      "cus": 1875,
      "medi": 1876,
      "Now</w>": 1877,
      "real</w>": 1878,
      "fora</w>": 1879,
      "many</w>": 1880,
      "great</w>": 1881,
      "dro": 1882,
      "father</w>": 1883,
      "happen": 1884,
      "cado</w>": 1885,
      "terr": 1886,
      "foram</w>": 1887,
      "hey</w>": 1888,
      "posi": 1889,
      "cou</w>": 1890,
      "queria</w>": 1891,
      "parte</w>": 1892,
      "torn": 1893,
      "posso</w>": 1894,
      "anything</w>": 1895,
      "sit": 1896,
      "went</w>": 1897,
      "pessoa</w>": 1898,
      "feel</w>": 1899,
      "esp": 1900,
      "garo": 1901,
      "hoje</w>": 1902,
      "Bem</w>": 1903,
      "No</w>": 1904,
      "everything</w>": 1905,
      "ista</w>": 1906,
      "demos</w>": 1907,
      "novo</w>": 1908,
      "meus</w>": 1909,
      "iu</w>": 1910,
      "int</w>": 1911,
      "show</w>": 1912,
      "realmente</w>": 1913,
      "stand</w>": 1914,
      "human": 1915,
      "Co": 1916,
      "experi": 1917,
      "ital</w>": 1918,
      "mé": 1919,
      "three</w>": 1920,
      "my": 1921,
      "eng": 1922,
      "ses</w>": 1923,
      "lin": 1924,
      "cion": 1925,
      "wan": 1926,
      "deu</w>": 1927,
      "lemb": 1928,
      "ki": 1929,
      "esses</w>": 1930,
      "gue</w>": 1931,
      "less</w>": 1932,
      "mulher</w>": 1933,
      "vezes</w>": 1934,
      "dor</w>": 1935,
      "fici": 1936,
      "pt</w>": 1937,
      "trying</w>": 1938,
      "quen": 1939,
      "uh</w>": 1940,
      "cin": 1941,
      "ne</w>": 1942,
      "ction</w>": 1943,
      "ic</w>": 1944,
      "again</w>": 1945,
      "entro</w>": 1946,
      "contra</w>": 1947,
      "chance</w>": 1948,
      "atur": 1949,
      "produ": 1950,
      "mit": 1951,
      "menos</w>": 1952,
      "polí": 1953,
      "ck": 1954,
      "next</w>": 1955,
      "keep</w>": 1956,
      "sou</w>": 1957,
      "maybe</w>": 1958,
      "forma</w>": 1959,
      "--</w>": 1960,
      "nem</w>": 1961,
      "ist</w>": 1962,
      "tain</w>": 1963,
      "seria</w>": 1964,
      "tou</w>": 1965,
      "sr</w>": 1966,
      "head</w>": 1967,
      "estr": 1968,
      "assassin": 1969,
      "saber</w>": 1970,
      "doc": 1971,
      "def": 1972,
      "another</w>": 1973,
      "nin": 1974,
      "iros</w>": 1975,
      "tic": 1976,
      "als</w>": 1977,
      "believe</w>": 1978,
      "los</w>": 1979,
      "big</w>": 1980,
      "outra</w>": 1981,
      "vic": 1982,
      "happ": 1983,
      "doing</w>": 1984,
      "guy</w>": 1985,
      "mr</w>": 1986,
      "íamos</w>": 1987,
      "possi": 1988,
      "termin": 1989,
      "cra": 1990,
      "row</w>": 1991,
      "dri": 1992,
      "ion</w>": 1993,
      "until</w>": 1994,
      "oso</w>": 1995,
      "estamos</w>": 1996,
      "acred": 1997,
      "left</w>": 1998,
      "ton": 1999,
      "lado</w>": 2000,
      "falar</w>": 2001,
      "seman": 2002,
      "dar": 2003,
      "dias</w>": 2004,
      "liv": 2005,
      "They</w>": 2006,
      "oul": 2007,
      "deve</w>": 2008,
      "informa": 2009,
      "nam": 2010,
      "pergun": 2011,
      "será</w>": 2012,
      "hear": 2013,
      "prote": 2014,
      "gether</w>": 2015,
      "lan": 2016,
      "ten</w>": 2017,
      "hã</w>": 2018,
      "outros</w>": 2019,
      "bal": 2020,
      "secre": 2021,
      "sk": 2022,
      "This</w>": 2023,
      "alguns</w>": 2024,
      "without</w>": 2025,
      "together</w>": 2026,
      "best</w>": 2027,
      "must</w>": 2028,
      "ange</w>": 2029,
      "mão</w>": 2030,
      "algum</w>": 2031,
      "equi": 2032,
      "scho": 2033,
      "woman</w>": 2034,
      "ações</w>": 2035,
      "friend</w>": 2036,
      "indi": 2037,
      "às</w>": 2038,
      "presid": 2039,
      "han": 2040,
      "ín": 2041,
      "itas</w>": 2042,
      "jo</w>": 2043,
      "fre": 2044,
      "caso</w>": 2045,
      "amig": 2046,
      "ecer</w>": 2047,
      "ther": 2048,
      "test": 2049,
      "since</w>": 2050,
      "acab": 2051,
      "buil": 2052,
      "aquele</w>": 2053,
      "ff</w>": 2054,
      "ken</w>": 2055,
      "000</w>": 2056,
      "ween</w>": 2057,
      "feito</w>": 2058,
      "tic</w>": 2059,
      "hal": 2060,
      "jus": 2061,
      "wil": 2062,
      "conta": 2063,
      "better</w>": 2064,
      "gia</w>": 2065,
      "hora</w>": 2066,
      "mentos</w>": 2067,
      "room</w>": 2068,
      "blo": 2069,
      "ens</w>": 2070,
      "person</w>": 2071,
      "dades</w>": 2072,
      "lat": 2073,
      "oper": 2074,
      "volta</w>": 2075,
      "ful": 2076,
      "member</w>": 2077,
      "sha": 2078,
      "vi</w>": 2079,
      "aos</w>": 2080,
      "tly</w>": 2081,
      "ock</w>": 2082,
      "ino</w>": 2083,
      "esn</w>": 2084,
      "descobri": 2085,
      "soci": 2086,
      "ours</w>": 2087,
      "actu": 2088,
      "má": 2089,
      "pequen": 2090,
      "fron": 2091,
      "ters</w>": 2092,
      "enh": 2093,
      "enough</w>": 2094,
      "momento</w>": 2095,
      "doesn</w>": 2096,
      "offic": 2097,
      "três</w>": 2098,
      "case</w>": 2099,
      "days</w>": 2100,
      "far": 2101,
      "história</w>": 2102,
      "bom</w>": 2103,
      "few</w>": 2104,
      "difer": 2105,
      "again": 2106,
      "against</w>": 2107,
      "pren": 2108,
      "oca</w>": 2109,
      "took</w>": 2110,
      "sing</w>": 2111,
      "porta</w>": 2112,
      "investi": 2113,
      "pag": 2114,
      "mother</w>": 2115,
      "nova</w>": 2116,
      "hed</w>": 2117,
      "won</w>": 2118,
      "alguma</w>": 2119,
      "press": 2120,
      "faz</w>": 2121,
      "gener": 2122,
      "differ": 2123,
      "ual</w>": 2124,
      "ja": 2125,
      "face</w>": 2126,
      "fav": 2127,
      "call</w>": 2128,
      "fazendo</w>": 2129,
      "Est": 2130,
      "hig": 2131,
      "fol": 2132,
      "eg": 2133,
      "anças</w>": 2134,
      "podem</w>": 2135,
      "ready</w>": 2136,
      "morte</w>": 2137,
      "ness</w>": 2138,
      "senti": 2139,
      "dever": 2140,
      "tivo</w>": 2141,
      "today</w>": 2142,
      "ida</w>": 2143,
      "camin": 2144,
      "org": 2145,
      "whole</w>": 2146,
      "cido</w>": 2147,
      "fosse</w>": 2148,
      "sex": 2149,
      "called</w>": 2150,
      "és</w>": 2151,
      "terra</w>": 2152,
      "quar": 2153,
      "ninguém</w>": 2154,
      "Es": 2155,
      "dge</w>": 2156,
      "certo</w>": 2157,
      "youn": 2158,
      "ason</w>": 2159,
      "feli": 2160,
      "primeira</w>": 2161,
      "sido</w>": 2162,
      "mas": 2163,
      "between</w>": 2164,
      "school</w>": 2165,
      "cel": 2166,
      "nothing</w>": 2167,
      "nec": 2168,
      "prof": 2169,
      "ise</w>": 2170,
      "acor": 2171,
      "iz": 2172,
      "De": 2173,
      "filho</w>": 2174,
      "inho</w>": 2175,
      "guer": 2176,
      "atrás</w>": 2177,
      "primeiro</w>": 2178,
      "chama": 2179,
      "ends</w>": 2180,
      "ouldn</w>": 2181,
      "sado</w>": 2182,
      "cru": 2183,
      "turn</w>": 2184,
      "signi": 2185,
      "vos</w>": 2186,
      "vão</w>": 2187,
      "gumas</w>": 2188,
      "city</w>": 2189,
      "tan": 2190,
      "ví": 2191,
      "Os</w>": 2192,
      "part</w>": 2193,
      "mostr": 2194,
      "spen": 2195,
      "vir</w>": 2196,
      "getting</w>": 2197,
      "êm</w>": 2198,
      "homen": 2199,
      "deus</w>": 2200,
      "dor": 2201,
      "vers": 2202,
      "each</w>": 2203,
      "aquela</w>": 2204,
      "duas</w>": 2205,
      "kay</w>": 2206,
      "deles</w>": 2207,
      "ório</w>": 2208,
      "veis</w>": 2209,
      "pa</w>": 2210,
      "evid": 2211,
      "qual</w>": 2212,
      "10</w>": 2213,
      "atra": 2214,
      "looking</w>": 2215,
      "den</w>": 2216,
      "port</w>": 2217,
      "death</w>": 2218,
      "rei</w>": 2219,
      "meio</w>": 2220,
      "var</w>": 2221,
      "cabe": 2222,
      "ny</w>": 2223,
      "respon": 2224,
      "conf": 2225,
      "bil": 2226,
      "bon": 2227,
      "There</w>": 2228,
      "ass</w>": 2229,
      "tando</w>": 2230,
      "tica</w>": 2231,
      "procur": 2232,
      "ties</w>": 2233,
      "nenh": 2234,
      "vil": 2235,
      "pped</w>": 2236,
      "pic": 2237,
      "ato</w>": 2238,
      "set</w>": 2239,
      "Par": 2240,
      "ies</w>": 2241,
      "hes</w>": 2242,
      "Ag": 2243,
      "coming</w>": 2244,
      "knew</w>": 2245,
      "realiz": 2246,
      "out": 2247,
      "ey": 2248,
      "dado</w>": 2249,
      "parece</w>": 2250,
      "once</w>": 2251,
      "ple": 2252,
      "asse</w>": 2253,
      "teria</w>": 2254,
      "That</w>": 2255,
      "ave</w>": 2256,
      "girl</w>": 2257,
      "Al": 2258,
      "hun": 2259,
      "nossos</w>": 2260,
      "ths</w>": 2261,
      "ship</w>": 2262,
      "jec": 2263,
      "Um</w>": 2264,
      "essas</w>": 2265,
      "cora": 2266,
      "talk</w>": 2267,
      "under</w>": 2268,
      "actually</w>": 2269,
      "ários</w>": 2270,
      "20</w>": 2271,
      "havia</w>": 2272,
      "disso</w>": 2273,
      "nome</w>": 2274,
      "desse</w>": 2275,
      "podemos</w>": 2276,
      "bun": 2277,
      "hosp": 2278,
      "respe": 2279,
      "horas</w>": 2280,
      "coloc": 2281,
      "daqu": 2282,
      "hando</w>": 2283,
      "live</w>": 2284,
      "algumas</w>": 2285,
      "homens</w>": 2286,
      "mus": 2287,
      "Be": 2288,
      "ited</w>": 2289,
      "fica": 2290,
      "clu": 2291,
      "constru": 2292,
      "inci": 2293,
      "tura</w>": 2294,
      "tenha</w>": 2295,
      "saw</w>": 2296,
      "ze</w>": 2297,
      "publi": 2298,
      "ros</w>": 2299,
      "tentando</w>": 2300,
      "tanto</w>": 2301,
      "os": 2302,
      "Agora</w>": 2303,
      "perce": 2304,
      "ley</w>": 2305,
      "teri": 2306,
      "ns</w>": 2307,
      "dra": 2308,
      "ber</w>": 2309,
      "poder</w>": 2310,
      "hard</w>": 2311,
      "ping</w>": 2312,
      "chi": 2313,
      "sé": 2314,
      "name</w>": 2315,
      "precisa</w>": 2316,
      "done</w>": 2317,
      "fel": 2318,
      "wed</w>": 2319,
      "suc": 2320,
      "viol": 2321,
      "camp": 2322,
      "tem": 2323,
      "Em</w>": 2324,
      "neg": 2325,
      "med</w>": 2326,
      "having</w>": 2327,
      "plane": 2328,
      "ata": 2329,
      "frente</w>": 2330,
      "win": 2331,
      "stre": 2332,
      "act</w>": 2333,
      "young</w>": 2334,
      "cio</w>": 2335,
      "teza</w>": 2336,
      "iting</w>": 2337,
      "else</w>": 2338,
      "diz</w>": 2339,
      "ire</w>": 2340,
      "final</w>": 2341,
      "têm</w>": 2342,
      "cent": 2343,
      "deixar</w>": 2344,
      "ors</w>": 2345,
      "sci": 2346,
      "ments</w>": 2347,
      "arem</w>": 2348,
      "ugh": 2349,
      "govern": 2350,
      "encontrar</w>": 2351,
      "sac": 2352,
      "paí": 2353,
      "consider": 2354,
      "wife</w>": 2355,
      "corpo</w>": 2356,
      "guar": 2357,
      "carro</w>": 2358,
      "nee": 2359,
      "ace": 2360,
      "di</w>": 2361,
      "dentro</w>": 2362,
      "ces</w>": 2363,
      "ener": 2364,
      "ker</w>": 2365,
      "num</w>": 2366,
      "ata</w>": 2367,
      "mic": 2368,
      "police</w>": 2369,
      "desde</w>": 2370,
      "per</w>": 2371,
      "bab": 2372,
      "light</w>": 2373,
      "point</w>": 2374,
      "arti": 2375,
      "ried</w>": 2376,
      "though</w>": 2377,
      "cy</w>": 2378,
      "ous": 2379,
      "god</w>": 2380,
      "hol": 2381,
      "gas</w>": 2382,
      "confi": 2383,
      "maior</w>": 2384,
      "gl": 2385,
      "Ela</w>": 2386,
      "anta": 2387,
      "óri": 2388,
      "super": 2389,
      "gy</w>": 2390,
      "ward</w>": 2391,
      "paz</w>": 2392,
      "She</w>": 2393,
      "ana</w>": 2394,
      "teve</w>": 2395,
      "fact</w>": 2396,
      "segun": 2397,
      "situ": 2398,
      "mber</w>": 2399,
      "Como</w>": 2400,
      "única</w>": 2401,
      "eira</w>": 2402,
      "understand</w>": 2403,
      "Lo": 2404,
      "emp": 2405,
      "bi</w>": 2406,
      "cé": 2407,
      "bol": 2408,
      "iness</w>": 2409,
      "sed</w>": 2410,
      "friends</w>": 2411,
      "dizendo</w>": 2412,
      "job</w>": 2413,
      "cla": 2414,
      "both</w>": 2415,
      "country</w>": 2416,
      "prepar": 2417,
      "gs</w>": 2418,
      "To": 2419,
      "mind</w>": 2420,
      "vas</w>": 2421,
      "happened</w>": 2422,
      "estran": 2423,
      "remember</w>": 2424,
      "sm": 2425,
      "power</w>": 2426,
      "rado</w>": 2427,
      "eas": 2428,
      "ini": 2429,
      "My</w>": 2430,
      "gua</w>": 2431,
      "Por</w>": 2432,
      "ore</w>": 2433,
      "del": 2434,
      "difíci": 2435,
      "estavam</w>": 2436,
      "liber": 2437,
      "ren": 2438,
      "high</w>": 2439,
      "movi": 2440,
      "cho</w>": 2441,
      "sair</w>": 2442,
      "polícia</w>": 2443,
      "pra": 2444,
      "cabeça</w>": 2445,
      "crime</w>": 2446,
      "rest</w>": 2447,
      "ixo</w>": 2448,
      "ross</w>": 2449,
      "lou": 2450,
      "start</w>": 2451,
      "such</w>": 2452,
      "sendo</w>": 2453,
      "line</w>": 2454,
      "colo": 2455,
      "hospital</w>": 2456,
      "esso</w>": 2457,
      "vemos</w>": 2458,
      "estu": 2459,
      "durante</w>": 2460,
      "wouldn</w>": 2461,
      "comigo</w>": 2462,
      "ili": 2463,
      "comes</w>": 2464,
      "pensar</w>": 2465,
      "saying</w>": 2466,
      "beg": 2467,
      "fim</w>": 2468,
      "tamento</w>": 2469,
      "guerra</w>": 2470,
      "started</w>": 2471,
      "making</w>": 2472,
      "gal": 2473,
      "inf": 2474,
      "dr</w>": 2475,
      "ot</w>": 2476,
      "destru": 2477,
      "mer</w>": 2478,
      "tel</w>": 2479,
      "different</w>": 2480,
      "morr": 2481,
      "band</w>": 2482,
      "suspe": 2483,
      "compr": 2484,
      "myself</w>": 2485,
      "voltar</w>": 2486,
      "ack": 2487,
      "idade</w>": 2488,
      "tei</w>": 2489,
      "bit</w>": 2490,
      "secon": 2491,
      "wasn</w>": 2492,
      "fran": 2493,
      "possível</w>": 2494,
      "ben": 2495,
      "joh": 2496,
      "recor": 2497,
      "stop</w>": 2498,
      "50</w>": 2499,
      "\",</w>": 2500,
      "appe": 2501,
      "sent": 2502,
      "hões</w>": 2503,
      "team</w>": 2504,
      "don": 2505,
      "amigos</w>": 2506,
      "tivesse</w>": 2507,
      "means</w>": 2508,
      "atos</w>": 2509,
      "leave</w>": 2510,
      "certeza</w>": 2511,
      "wer": 2512,
      "30</w>": 2513,
      "pare": 2514,
      "grand": 2515,
      "abri": 2516,
      "war</w>": 2517,
      "dito</w>": 2518,
      "ined</w>": 2519,
      "everyone</w>": 2520,
      "care</w>": 2521,
      "feel": 2522,
      "dou</w>": 2523,
      "sim": 2524,
      "water</w>": 2525,
      "condi": 2526,
      "explo": 2527,
      "crianças</w>": 2528,
      "ult</w>": 2529,
      "tional</w>": 2530,
      "identi": 2531,
      "vie": 2532,
      "apo": 2533,
      "osa</w>": 2534,
      "perfe": 2535,
      "killed</w>": 2536,
      "país</w>": 2537,
      "preciso</w>": 2538,
      "town</w>": 2539,
      "lion</w>": 2540,
      "pur": 2541,
      "univer": 2542,
      "len": 2543,
      "couldn</w>": 2544,
      "bul": 2545,
      "americ": 2546,
      "guys</w>": 2547,
      "ús": 2548,
      "dead</w>": 2549,
      "ref": 2550,
      "importante</w>": 2551,
      "ask</w>": 2552,
      "working</w>": 2553,
      "justi": 2554,
      "local</w>": 2555,
      "acha</w>": 2556,
      "istas</w>": 2557,
      "Por": 2558,
      "mesma</w>": 2559,
      "ama": 2560,
      "ced</w>": 2561,
      "numa</w>": 2562,
      "sabia</w>": 2563,
      "inclu": 2564,
      "rus": 2565,
      "xim": 2566,
      "ably</w>": 2567,
      "passar</w>": 2568,
      "causa</w>": 2569,
      "cted</w>": 2570,
      "manhã</w>": 2571,
      "bad</w>": 2572,
      "decis": 2573,
      "cir": 2574,
      "morning</w>": 2575,
      "maj": 2576,
      "especi": 2577,
      "isto</w>": 2578,
      "própri": 2579,
      "rar</w>": 2580,
      "lear": 2581,
      "possible</w>": 2582,
      "are": 2583,
      "deveria</w>": 2584,
      "envol": 2585,
      "ços</w>": 2586,
      "What</w>": 2587,
      "chu": 2588,
      "defen": 2589,
      "your": 2590,
      "important</w>": 2591,
      "unidade</w>": 2592,
      "preoc": 2593,
      "fato</w>": 2594,
      "heart</w>": 2595,
      "ajudar</w>": 2596,
      "cam": 2597,
      "semana</w>": 2598,
      "gost": 2599,
      "dren</w>": 2600,
      "gou</w>": 2601,
      "wha": 2602,
      "hus": 2603,
      "dem": 2604,
      "exis": 2605,
      "stitu": 2606,
      "earth</w>": 2607,
      "difícil</w>": 2608,
      "wit": 2609,
      "presa</w>": 2610,
      "perto</w>": 2611,
      "boa</w>": 2612,
      "ér": 2613,
      "matter</w>": 2614,
      "front</w>": 2615,
      "children</w>": 2616,
      "yed</w>": 2617,
      "thers</w>": 2618,
      "bar</w>": 2619,
      "trou": 2620,
      "vin": 2621,
      "far</w>": 2622,
      "reason</w>": 2623,
      "heres</w>": 2624,
      "story</w>": 2625,
      "atta": 2626,
      "seen</w>": 2627,
      "vido</w>": 2628,
      "yor": 2629,
      "tever</w>": 2630,
      "ed": 2631,
      "ones</w>": 2632,
      "eu": 2633,
      "mid": 2634,
      "outras</w>": 2635,
      "tico</w>": 2636,
      "does</w>": 2637,
      "change</w>": 2638,
      "água</w>": 2639,
      "mãos</w>": 2640,
      "flo": 2641,
      "posa</w>": 2642,
      "aten": 2643,
      "usar</w>": 2644,
      "kids</w>": 2645,
      "thinking</w>": 2646,
      "dá</w>": 2647,
      "half</w>": 2648,
      "inten": 2649,
      "pais</w>": 2650,
      "women</w>": 2651,
      "Eles</w>": 2652,
      "ávamos</w>": 2653,
      "corr": 2654,
      "hours</w>": 2655,
      "cover": 2656,
      "ari": 2657,
      "raz": 2658,
      "bring</w>": 2659,
      "rá": 2660,
      "fiz": 2661,
      "ching</w>": 2662,
      "ição</w>": 2663,
      "crimin": 2664,
      "hand</w>": 2665,
      "over": 2666,
      "dig": 2667,
      "sing": 2668,
      "Sab": 2669,
      "hou</w>": 2670,
      "Look</w>": 2671,
      "ór": 2672,
      "eja</w>": 2673,
      "human</w>": 2674,
      "business</w>": 2675,
      "stas</w>": 2676,
      "die</w>": 2677,
      "amigo</w>": 2678,
      "quase</w>": 2679,
      "part": 2680,
      "mulheres</w>": 2681,
      "order</w>": 2682,
      "anyone</w>": 2683,
      "become</w>": 2684,
      "Uma</w>": 2685,
      "dando</w>": 2686,
      "cias</w>": 2687,
      "tis": 2688,
      "atu": 2689,
      "state</w>": 2690,
      "gado</w>": 2691,
      "dados</w>": 2692,
      "médi": 2693,
      "intel": 2694,
      "sil": 2695,
      "ran": 2696,
      "ster</w>": 2697,
      "dent</w>": 2698,
      "esposa</w>": 2699,
      "move</w>": 2700,
      "meses</w>": 2701,
      "corre": 2702,
      "colle": 2703,
      "four</w>": 2704,
      "Na</w>": 2705,
      "equipe</w>": 2706,
      "ney</w>": 2707,
      "Ho": 2708,
      "ância</w>": 2709,
      "entrar</w>": 2710,
      "aconte": 2711,
      "ner": 2712,
      "neste</w>": 2713,
      "dad</w>": 2714,
      "após</w>": 2715,
      "says</w>": 2716,
      "york</w>": 2717,
      "dies</w>": 2718,
      "ind": 2719,
      "idea</w>": 2720,
      "imagin": 2721,
      "won": 2722,
      "probably</w>": 2723,
      "aí</w>": 2724,
      "present": 2725,
      "bed</w>": 2726,
      "yourself</w>": 2727,
      "envi": 2728,
      "bir": 2729,
      "20": 2730,
      "five</w>": 2731,
      "lie</w>": 2732,
      "jur": 2733,
      "cas</w>": 2734,
      "istr": 2735,
      "moment</w>": 2736,
      "nas": 2737,
      "jeito</w>": 2738,
      "amor</w>": 2739,
      "gave</w>": 2740,
      "jan": 2741,
      "months</w>": 2742,
      "course</w>": 2743,
      "ughter</w>": 2744,
      "entos</w>": 2745,
      "ates</w>": 2746,
      "heard</w>": 2747,
      "filha</w>": 2748,
      "oria</w>": 2749,
      "fer</w>": 2750,
      "tty</w>": 2751,
      "tun": 2752,
      "escola</w>": 2753,
      "agu": 2754,
      "bo</w>": 2755,
      "bran": 2756,
      "hind</w>": 2757,
      "sum": 2758,
      "acordo</w>": 2759,
      "run</w>": 2760,
      "inte": 2761,
      "conver": 2762,
      "esa</w>": 2763,
      "nossas</w>": 2764,
      "ias</w>": 2765,
      "black</w>": 2766,
      "whatever</w>": 2767,
      "estado</w>": 2768,
      "armos</w>": 2769,
      "uns</w>": 2770,
      "caminho</w>": 2771,
      "ders</w>": 2772,
      "atrav": 2773,
      "ket</w>": 2774,
      "conven": 2775,
      "company</w>": 2776,
      "apro": 2777,
      "already</w>": 2778,
      "senhor</w>": 2779,
      "known</w>": 2780,
      "ero</w>": 2781,
      "próxi": 2782,
      "gos</w>": 2783,
      "seem": 2784,
      "descobrir</w>": 2785,
      "vendo</w>": 2786,
      "behind</w>": 2787,
      "velmente</w>": 2788,
      "blood</w>": 2789,
      "tiva</w>": 2790,
      "possa</w>": 2791,
      "All</w>": 2792,
      "dou": 2793,
      "kill</w>": 2794,
      "ba</w>": 2795,
      "problema</w>": 2796,
      "viu</w>": 2797,
      "murder</w>": 2798,
      "gets</w>": 2799,
      "juntos</w>": 2800,
      "coração</w>": 2801,
      "Po": 2802,
      "minhas</w>": 2803,
      "lives</w>": 2804,
      "aconteceu</w>": 2805,
      "ator</w>": 2806,
      "cking</w>": 2807,
      "ficou</w>": 2808,
      "pegar</w>": 2809,
      "beau": 2810,
      "orig": 2811,
      "talking</w>": 2812,
      "chegar</w>": 2813,
      "adores</w>": 2814,
      "hing</w>": 2815,
      "week</w>": 2816,
      "ged</w>": 2817,
      "ares</w>": 2818,
      "taking</w>": 2819,
      "loc": 2820,
      "viver</w>": 2821,
      "significa</w>": 2822,
      "solu": 2823,
      "husband</w>": 2824,
      "iras</w>": 2825,
      "sle": 2826,
      "atro</w>": 2827,
      "escre": 2828,
      "bemos</w>": 2829,
      "marido</w>": 2830,
      "Because</w>": 2831,
      "asked</w>": 2832,
      "tido</w>": 2833,
      "fui</w>": 2834,
      "estiv": 2835,
      ":.</w>": 2836,
      "tam</w>": 2837,
      "clear</w>": 2838,
      "gru": 2839,
      "escr": 2840,
      "Para</w>": 2841,
      "compe": 2842,
      "play</w>": 2843,
      "lor": 2844,
      "him": 2845,
      "living</w>": 2846,
      "muitos</w>": 2847,
      "entre": 2848,
      "última</w>": 2849,
      "ença</w>": 2850,
      "bili": 2851,
      "past</w>": 2852,
      "pú": 2853,
      "boy</w>": 2854,
      "see": 2855,
      "fiel": 2856,
      "inside</w>": 2857,
      "comm": 2858,
      "Porque</w>": 2859,
      "stay</w>": 2860,
      "nú": 2861,
      "child</w>": 2862,
      "feliz</w>": 2863,
      "whe": 2864,
      "elo</w>": 2865,
      "sob</w>": 2866,
      "sufici": 2867,
      "So": 2868,
      "spo": 2869,
      "jul": 2870,
      "Ye": 2871,
      "second</w>": 2872,
      "pil": 2873,
      "hope</w>": 2874,
      "gente</w>": 2875,
      "selves</w>": 2876,
      "dol": 2877,
      "top</w>": 2878,
      "An": 2879,
      "phone</w>": 2880,
      "siste": 2881,
      "sangue</w>": 2882,
      "full</w>": 2883,
      "ched</w>": 2884,
      "imp": 2885,
      "claro</w>": 2886,
      "open</w>": 2887,
      "iria</w>": 2888,
      "quei</w>": 2889,
      "levar</w>": 2890,
      "Oh</w>": 2891,
      "passado</w>": 2892,
      "cent</w>": 2893,
      "ations</w>": 2894,
      "lost</w>": 2895,
      "cro": 2896,
      "metr": 2897,
      "fig": 2898,
      "spir": 2899,
      "tely</w>": 2900,
      "mús": 2901,
      "çar</w>": 2902,
      "vê</w>": 2903,
      "públi": 2904,
      "serv": 2905,
      "las</w>": 2906,
      "ale": 2907,
      "aman": 2908,
      "estes</w>": 2909,
      "hamos</w>": 2910,
      "tentar</w>": 2911,
      "fur": 2912,
      "organi": 2913,
      "office</w>": 2914,
      "chec": 2915,
      "plac": 2916,
      "evidence</w>": 2917,
      "filhos</w>": 2918,
      "ram</w>": 2919,
      "culo</w>": 2920,
      "promis": 2921,
      "daughter</w>": 2922,
      "ty": 2923,
      "brother</w>": 2924,
      "inst": 2925,
      "muitas</w>": 2926,
      "pelos</w>": 2927,
      "Sim</w>": 2928,
      "white</w>": 2929,
      "pin": 2930,
      "apren": 2931,
      "Yeah</w>": 2932,
      "wants</w>": 2933,
      "died</w>": 2934,
      "makes</w>": 2935,
      "favor</w>": 2936,
      "legal</w>": 2937,
      "hei</w>": 2938,
      "segurança</w>": 2939,
      "jor": 2940,
      "eur": 2941,
      "dio": 2942,
      "15</w>": 2943,
      "força</w>": 2944,
      "mom</w>": 2945,
      "rac": 2946,
      "sco": 2947,
      "dan": 2948,
      "stead</w>": 2949,
      "Estou</w>": 2950,
      "ither</w>": 2951,
      "exce": 2952,
      "pensei</w>": 2953,
      "vil</w>": 2954,
      "sso</w>": 2955,
      "lead": 2956,
      "ames</w>": 2957,
      "happy</w>": 2958,
      "hear</w>": 2959,
      "eceu</w>": 2960,
      "pis": 2961,
      "tt</w>": 2962,
      "deira</w>": 2963,
      "dores</w>": 2964,
      "palav": 2965,
      "wrong</w>": 2966,
      "hand": 2967,
      "ested</w>": 2968,
      "acus": 2969,
      "cation</w>": 2970,
      "ly": 2971,
      "tante</w>": 2972,
      "gação</w>": 2973,
      "ef</w>": 2974,
      "turned</w>": 2975,
      "taken</w>": 2976,
      "For</w>": 2977,
      "yet</w>": 2978,
      "himself</w>": 2979,
      "negó": 2980,
      "medo</w>": 2981,
      "funcion": 2982,
      "tação</w>": 2983,
      "abor": 2984,
      "antar</w>": 2985,
      "bru": 2986,
      "olhos</w>": 2987,
      "ming</w>": 2988,
      "sar": 2989,
      "12</w>": 2990,
      "deli": 2991,
      "ências</w>": 2992,
      "matar</w>": 2993,
      "irmão</w>": 2994,
      "during</w>": 2995,
      "parar</w>": 2996,
      "vidas</w>": 2997,
      "esqu": 2998,
      "éri": 2999,
      "alidade</w>": 3000,
      "camente</w>": 3001,
      "dru": 3002,
      "ster": 3003,
      "ams</w>": 3004,
      "posed</w>": 3005,
      "governo</w>": 3006,
      "than": 3007,
      "nenhum</w>": 3008,
      "pat": 3009,
      "dão</w>": 3010,
      "expe": 3011,
      "simpl": 3012,
      "isn</w>": 3013,
      "isten</w>": 3014,
      "Sabe</w>": 3015,
      "thre": 3016,
      "presidente</w>": 3017,
      "Acho</w>": 3018,
      "Ou": 3019,
      "ária</w>": 3020,
      "stra": 3021,
      "tada</w>": 3022,
      "númer": 3023,
      "fra": 3024,
      "irá</w>": 3025,
      "ple</w>": 3026,
      "maneira</w>": 3027,
      "grou": 3028,
      "suficiente</w>": 3029,
      "number</w>": 3030,
      "stem</w>": 3031,
      "gg": 3032,
      "fire</w>": 3033,
      "garota</w>": 3034,
      "além</w>": 3035,
      "ideia</w>": 3036,
      "hores</w>": 3037,
      "espa": 3038,
      "adv": 3039,
      "tados</w>": 3040,
      "popul": 3041,
      "Con": 3042,
      "stand": 3043,
      "tirar</w>": 3044,
      "exc": 3045,
      "exa": 3046,
      "gostaria</w>": 3047,
      "gada</w>": 3048,
      "emun": 3049,
      "decidi": 3050,
      "rem</w>": 3051,
      "gri": 3052,
      "cres": 3053,
      "soz": 3054,
      "embora</w>": 3055,
      "único</w>": 3056,
      "tendo</w>": 3057,
      "gro": 3058,
      "problemas</w>": 3059,
      "nia</w>": 3060,
      "gol": 3061,
      "sent</w>": 3062,
      "truth</w>": 3063,
      "erto</w>": 3064,
      "john</w>": 3065,
      "government</w>": 3066,
      "preci": 3067,
      "mil</w>": 3068,
      "arei</w>": 3069,
      "compan": 3070,
      "edade</w>": 3071,
      "ofer": 3072,
      "ining</w>": 3073,
      "enter": 3074,
      "ício</w>": 3075,
      "colocar</w>": 3076,
      "cil</w>": 3077,
      "ras": 3078,
      "pretty</w>": 3079,
      "ís": 3080,
      "run": 3081,
      "milhões</w>": 3082,
      "ak": 3083,
      "importa</w>": 3084,
      "filme</w>": 3085,
      "resul": 3086,
      "quarto</w>": 3087,
      "system</w>": 3088,
      "cular</w>": 3089,
      "resol": 3090,
      "form</w>": 3091,
      "book</w>": 3092,
      "head": 3093,
      "ponto</w>": 3094,
      "lis": 3095,
      "game</w>": 3096,
      "trabalhar</w>": 3097,
      "futur": 3098,
      "ficial</w>": 3099,
      "testemun": 3100,
      "começar</w>": 3101,
      "dam": 3102,
      "using</w>": 3103,
      "conseguir</w>": 3104,
      "ximo</w>": 3105,
      "ature</w>": 3106,
      "trac": 3107,
      "island</w>": 3108,
      "telling</w>": 3109,
      "acredit": 3110,
      "coup": 3111,
      "pay</w>": 3112,
      "parents</w>": 3113,
      "close</w>": 3114,
      "tonight</w>": 3115,
      "yer</w>": 3116,
      "dam</w>": 3117,
      "sistema</w>": 3118,
      "party</w>": 3119,
      "stuff</w>": 3120,
      "pan": 3121,
      "organiz": 3122,
      "negr": 3123,
      "table</w>": 3124,
      "alis": 3125,
      "later</w>": 3126,
      "profess": 3127,
      "pedir</w>": 3128,
      "soon</w>": 3129,
      "true</w>": 3130,
      "jovem</w>": 3131,
      "casamento</w>": 3132,
      "ously</w>": 3133,
      "víti": 3134,
      "ras</w>": 3135,
      "trada</w>": 3136,
      "hotel</w>": 3137,
      "hands</w>": 3138,
      "bit": 3139,
      "late</w>": 3140,
      "felt</w>": 3141,
      "ive</w>": 3142,
      "thy</w>": 3143,
      "entire</w>": 3144,
      "fing": 3145,
      "roc": 3146,
      "100</w>": 3147,
      "future</w>": 3148,
      "ground</w>": 3149,
      "..": 3150,
      "upa": 3151,
      "somebody</w>": 3152,
      "swe": 3153,
      "wel": 3154,
      "million</w>": 3155,
      "escrit": 3156,
      "quatro</w>": 3157,
      "along</w>": 3158,
      "goes</w>": 3159,
      "eyes</w>": 3160,
      "div": 3161,
      "got": 3162,
      "pping</w>": 3163,
      "beb": 3164,
      "natur": 3165,
      "couple</w>": 3166,
      "depen": 3167,
      "boo": 3168,
      "Se": 3169,
      "deste</w>": 3170,
      "door</w>": 3171,
      "bomb": 3172,
      "namor": 3173,
      "sive</w>": 3174,
      "word</w>": 3175,
      "manter</w>": 3176,
      "taur": 3177,
      "ôni": 3178,
      "small</w>": 3179,
      "victi": 3180,
      "field</w>": 3181,
      "pun": 3182,
      "Com</w>": 3183,
      "determin": 3184,
      "least</w>": 3185,
      "ame": 3186,
      "ished</w>": 3187,
      "public</w>": 3188,
      "hur": 3189,
      "Depois</w>": 3190,
      "mir": 3191,
      "rea</w>": 3192,
      "deal</w>": 3193,
      "grupo</w>": 3194,
      "minutos</w>": 3195,
      "fá": 3196,
      "jogo</w>": 3197,
      "empre": 3198,
      "history</w>": 3199,
      "base</w>": 3200,
      "dle</w>": 3201,
      "ie</w>": 3202,
      "contar</w>": 3203,
      "começou</w>": 3204,
      "knows</w>": 3205,
      "tade</w>": 3206,
      "court</w>": 3207,
      "baby</w>": 3208,
      "dom</w>": 3209,
      "hy": 3210,
      "Há</w>": 3211,
      "si</w>": 3212,
      "six</w>": 3213,
      "information</w>": 3214,
      "gas": 3215,
      "cinco</w>": 3216,
      "tried</w>": 3217,
      "pensando</w>": 3218,
      "Nós</w>": 3219,
      "sia</w>": 3220,
      "secur": 3221,
      "given</w>": 3222,
      "test</w>": 3223,
      "gone</w>": 3224,
      "conta</w>": 3225,
      "okay</w>": 3226,
      "hold</w>": 3227,
      "person": 3228,
      "tarde</w>": 3229,
      "across</w>": 3230,
      "memor": 3231,
      "dest": 3232,
      "dido</w>": 3233,
      "falando</w>": 3234,
      "dres": 3235,
      "ign</w>": 3236,
      "brought</w>": 3237,
      "control</w>": 3238,
      "law</w>": 3239,
      "alone</w>": 3240,
      "necess": 3241,
      "fter</w>": 3242,
      "desta</w>": 3243,
      "ball</w>": 3244,
      "et": 3245,
      "amb": 3246,
      "compu": 3247,
      "minutes</w>": 3248,
      "pir": 3249,
      "fiz</w>": 3250,
      "criança</w>": 3251,
      "simp": 3252,
      "ej": 3253,
      "liz": 3254,
      "control": 3255,
      "fas": 3256,
      "podia</w>": 3257,
      "shot</w>": 3258,
      "ject</w>": 3259,
      "ches</w>": 3260,
      "destro": 3261,
      "cele": 3262,
      "ican</w>": 3263,
      "íveis</w>": 3264,
      "arão</w>": 3265,
      "oh</w>": 3266,
      "instead</w>": 3267,
      "pria</w>": 3268,
      "rápi": 3269,
      "happen</w>": 3270,
      "logo</w>": 3271,
      "missão</w>": 3272,
      "vavelmente</w>": 3273,
      "outside</w>": 3274,
      "Esta": 3275,
      "osos</w>": 3276,
      "adr": 3277,
      "meet</w>": 3278,
      "space</w>": 3279,
      "chang": 3280,
      "expli": 3281,
      "diver": 3282,
      "tom": 3283,
      "fight</w>": 3284,
      "razão</w>": 3285,
      "end": 3286,
      "posição</w>": 3287,
      "general</w>": 3288,
      "free</w>": 3289,
      "caval": 3290,
      "nesta</w>": 3291,
      "food</w>": 3292,
      "questi": 3293,
      "dev": 3294,
      "drin": 3295,
      "met</w>": 3296,
      "aqueles</w>": 3297,
      "covered</w>": 3298,
      "Só</w>": 3299,
      "própria</w>": 3300,
      "Sei</w>": 3301,
      "ul</w>": 3302,
      "wers</w>": 3303,
      "sentir</w>": 3304,
      "gres": 3305,
      "ious</w>": 3306,
      "After</w>": 3307,
      "árias</w>": 3308,
      "kid</w>": 3309,
      "street</w>": 3310,
      "expl": 3311,
      "restaur": 3312,
      "sobre": 3313,
      "gando</w>": 3314,
      "tiful</w>": 3315,
      "zy</w>": 3316,
      "cima</w>": 3317,
      "tom</w>": 3318,
      "normal</w>": 3319,
      "Ma": 3320,
      "cat": 3321,
      "confir": 3322,
      "sala</w>": 3323,
      "pron": 3324,
      "american</w>": 3325,
      "próprio</w>": 3326,
      "ince</w>": 3327,
      "ecu": 3328,
      "pho": 3329,
      "nal</w>": 3330,
      "ouro</w>": 3331,
      "hit</w>": 3332,
      "anci": 3333,
      "Tal": 3334,
      "Okay</w>": 3335,
      "quiser</w>": 3336,
      "ped": 3337,
      "através</w>": 3338,
      "sse": 3339,
      "remo": 3340,
      "hts</w>": 3341,
      "grama</w>": 3342,
      "tí": 3343,
      "cole": 3344,
      "morrow</w>": 3345,
      "scre": 3346,
      "arma</w>": 3347,
      "ép": 3348,
      "elec": 3349,
      "prome": 3350,
      "princi": 3351,
      "prisão</w>": 3352,
      "luz</w>": 3353,
      "milit": 3354,
      "ura</w>": 3355,
      "De</w>": 3356,
      "futuro</w>": 3357,
      "pati": 3358,
      "feder": 3359,
      "resto</w>": 3360,
      "exac": 3361,
      "dessa</w>": 3362,
      "sul": 3363,
      "ges</w>": 3364,
      "chamado</w>": 3365,
      "lha</w>": 3366,
      "special</w>": 3367,
      "sinto</w>": 3368,
      "ans": 3369,
      "có": 3370,
      "tra</w>": 3371,
      "ár": 3372,
      "force</w>": 3373,
      "decided</w>": 3374,
      "posto</w>": 3375,
      "spi": 3376,
      "president</w>": 3377,
      "conheci": 3378,
      "almost</w>": 3379,
      "sort</w>": 3380,
      "cle</w>": 3381,
      "ick": 3382,
      "ird</w>": 3383,
      "sun": 3384,
      "veio</w>": 3385,
      "gem</w>": 3386,
      "fucking</w>": 3387,
      "shit</w>": 3388,
      "pose</w>": 3389,
      "ixa</w>": 3390,
      "execu": 3391,
      "key</w>": 3392,
      "extre": 3393,
      "beautiful</w>": 3394,
      "ped</w>": 3395,
      "separ": 3396,
      "finally</w>": 3397,
      "avi": 3398,
      "nolo": 3399,
      "ram": 3400,
      "adi": 3401,
      "Talvez</w>": 3402,
      "ador": 3403,
      "ima": 3404,
      "oned</w>": 3405,
      "rul": 3406,
      "origin": 3407,
      "aw": 3408,
      "vista</w>": 3409,
      "estiver</w>": 3410,
      "semanas</w>": 3411,
      "blem</w>": 3412,
      "walk</w>": 3413,
      "ington</w>": 3414,
      "idio": 3415,
      "ford</w>": 3416,
      "ss</w>": 3417,
      "cação</w>": 3418,
      "dez</w>": 3419,
      "ajuda</w>": 3420,
      "ensin": 3421,
      "exactly</w>": 3422,
      "deixou</w>": 3423,
      "ester": 3424,
      "paci": 3425,
      "weeks</w>": 3426,
      "problem</w>": 3427,
      "direc": 3428,
      "capaz</w>": 3429,
      "comb": 3430,
      "group</w>": 3431,
      "star</w>": 3432,
      "wanna</w>": 3433,
      "ff": 3434,
      "big": 3435,
      "takes</w>": 3436,
      "certain</w>": 3437,
      "longe</w>": 3438,
      "girls</w>": 3439,
      "inas</w>": 3440,
      "deo</w>": 3441,
      "repor": 3442,
      "provavelmente</w>": 3443,
      "tornar</w>": 3444,
      "ow": 3445,
      "chur": 3446,
      "conce": 3447,
      "leav": 3448,
      "Ten": 3449,
      "advo": 3450,
      "ouvir</w>": 3451,
      "cover</w>": 3452,
      "conhec": 3453,
      "achar</w>": 3454,
      "capit": 3455,
      "Des": 3456,
      "música</w>": 3457,
      "moun": 3458,
      "dered</w>": 3459,
      "win</w>": 3460,
      "rob": 3461,
      "bra</w>": 3462,
      "invol": 3463,
      "gos": 3464,
      "empresa</w>": 3465,
      "direito</w>": 3466,
      "seems</w>": 3467,
      "Then</w>": 3468,
      "diferente</w>": 3469,
      "nov": 3470,
      "building</w>": 3471,
      "send</w>": 3472,
      "pas</w>": 3473,
      "cts</w>": 3474,
      "fied</w>": 3475,
      "icas</w>": 3476,
      "carre": 3477,
      "Your</w>": 3478,
      "famili": 3479,
      "wood</w>": 3480,
      "escon": 3481,
      "baixo</w>": 3482,
      "dei</w>": 3483,
      "cut</w>": 3484,
      "reuni": 3485,
      "oce": 3486,
      "trás</w>": 3487,
      "acc": 3488,
      "pressão</w>": 3489,
      "Isso</w>": 3490,
      "essi": 3491,
      "costu": 3492,
      "az": 3493,
      "mission</w>": 3494,
      "One</w>": 3495,
      "edu": 3496,
      "hen": 3497,
      "exam": 3498,
      "tho": 3499,
      "tical</w>": 3500,
      "arly</w>": 3501,
      "câ": 3502,
      "domin": 3503,
      "áveis</w>": 3504,
      "air</w>": 3505,
      "número</w>": 3506,
      "verda": 3507,
      "avam</w>": 3508,
      "tes": 3509,
      "seis</w>": 3510,
      "tomorrow</w>": 3511,
      "eria</w>": 3512,
      "chor": 3513,
      "obje": 3514,
      "jap": 3515,
      "scen": 3516,
      "tomar</w>": 3517,
      "ex</w>": 3518,
      "oi</w>": 3519,
      "guei</w>": 3520,
      "fico</w>": 3521,
      "hado</w>": 3522,
      "centr": 3523,
      "povo</w>": 3524,
      "dal": 3525,
      "tv</w>": 3526,
      "regi": 3527,
      "either</w>": 3528,
      "quil": 3529,
      "ounds</w>": 3530,
      "grandes</w>": 3531,
      "Meu</w>": 3532,
      "aring</w>": 3533,
      "mate</w>": 3534,
      "chefe</w>": 3535,
      "break</w>": 3536,
      "ught</w>": 3537,
      "ular</w>": 3538,
      "mp</w>": 3539,
      "aco</w>": 3540,
      "ona</w>": 3541,
      "pó": 3542,
      "clus": 3543,
      "dist": 3544,
      "dendo</w>": 3545,
      "tava</w>": 3546,
      "figure</w>": 3547,
      "len</w>": 3548,
      "haven</w>": 3549,
      "mudar</w>": 3550,
      "sorry</w>": 3551,
      "nice</w>": 3552,
      "chris": 3553,
      "bril": 3554,
      "amanhã</w>": 3555,
      "running</w>": 3556,
      "miss</w>": 3557,
      "docu": 3558,
      "post": 3559,
      "terá</w>": 3560,
      "telef": 3561,
      "within</w>": 3562,
      "dang": 3563,
      "bot": 3564,
      "suf": 3565,
      "tradi": 3566,
      "40</w>": 3567,
      "let": 3568,
      "rit": 3569,
      "jer": 3570,
      "forte</w>": 3571,
      "servi": 3572,
      "rema": 3573,
      "chin": 3574,
      "assassinato</w>": 3575,
      "tech": 3576,
      "lí": 3577,
      "sometimes</w>": 3578,
      "haps</w>": 3579,
      "standing</w>": 3580,
      "mc": 3581,
      "pelas</w>": 3582,
      "pes</w>": 3583,
      "velho</w>": 3584,
      "morto</w>": 3585,
      "Su": 3586,
      "aremos</w>": 3587,
      "fanta": 3588,
      "watch</w>": 3589,
      "believ": 3590,
      "irm": 3591,
      "segundo</w>": 3592,
      "lei</w>": 3593,
      "od": 3594,
      "nenhuma</w>": 3595,
      "gent": 3596,
      "tron": 3597,
      "proje": 3598,
      "exatamente</w>": 3599,
      "energia</w>": 3600,
      "mado</w>": 3601,
      "ério</w>": 3602,
      "pus": 3603,
      "pequeno</w>": 3604,
      "bs</w>": 3605,
      "nesse</w>": 3606,
      "amea": 3607,
      "waiting</w>": 3608,
      "detec": 3609,
      "sense</w>": 3610,
      "area</w>": 3611,
      "sada</w>": 3612,
      "spend</w>": 3613,
      "bre</w>": 3614,
      "posta</w>": 3615,
      "kee": 3616,
      "tamos</w>": 3617,
      "olhar</w>": 3618,
      "bro</w>": 3619,
      "bastante</w>": 3620,
      "On": 3621,
      "morrer</w>": 3622,
      "sear": 3623,
      "plo</w>": 3624,
      "eiro</w>": 3625,
      "tinham</w>": 3626,
      "hão</w>": 3627,
      "atten": 3628,
      "mess": 3629,
      "veu</w>": 3630,
      "incre": 3631,
      "ils</w>": 3632,
      "mens": 3633,
      "secret</w>": 3634,
      "escu": 3635,
      "precisamos</w>": 3636,
      "promo": 3637,
      "pudesse</w>": 3638,
      "limp": 3639,
      "whether</w>": 3640,
      "cording</w>": 3641,
      "fé</w>": 3642,
      "mostrar</w>": 3643,
      "pessoal</w>": 3644,
      "entender</w>": 3645,
      "usando</w>": 3646,
      "save</w>": 3647,
      "pers": 3648,
      "emer": 3649,
      "concer": 3650,
      ",\"</w>": 3651,
      "single</w>": 3652,
      "sabemos</w>": 3653,
      "wards</w>": 3654,
      "chr": 3655,
      "querem</w>": 3656,
      "xo</w>": 3657,
      "progr": 3658,
      "gun</w>": 3659,
      "tin</w>": 3660,
      "área</w>": 3661,
      "married</w>": 3662,
      "hour</w>": 3663,
      "deiro</w>": 3664,
      "esteja</w>": 3665,
      "exist": 3666,
      "pos</w>": 3667,
      "estivesse</w>": 3668,
      "Quero</w>": 3669,
      "transfor": 3670,
      "mud": 3671,
      "criar</w>": 3672,
      "survi": 3673,
      "fundo</w>": 3674,
      "época</w>": 3675,
      "To</w>": 3676,
      "shor": 3677,
      "obvi": 3678,
      "return</w>": 3679,
      "estas</w>": 3680,
      "pequena</w>": 3681,
      "continuar</w>": 3682,
      "gio</w>": 3683,
      "pesar</w>": 3684,
      "deser": 3685,
      "poin": 3686,
      "esperando</w>": 3687,
      "tors</w>": 3688,
      "últimos</w>": 3689,
      "situação</w>": 3690,
      "sister</w>": 3691,
      "road</w>": 3692,
      "emo": 3693,
      "arri": 3694,
      "sever": 3695,
      "ciais</w>": 3696,
      "ats</w>": 3697,
      "ging</w>": 3698,
      "guess</w>": 3699,
      "agens</w>": 3700,
      "prove</w>": 3701,
      "looked</w>": 3702,
      "materi": 3703,
      "finalmente</w>": 3704,
      "atório</w>": 3705,
      "último</w>": 3706,
      "At</w>": 3707,
      "mee": 3708,
      "allo": 3709,
      "scar": 3710,
      "óti": 3711,
      "planeta</w>": 3712,
      "espaço</w>": 3713,
      "everybody</w>": 3714,
      "val</w>": 3715,
      "park</w>": 3716,
      "consel": 3717,
      "roub": 3718,
      "gor": 3719,
      "digo</w>": 3720,
      "spent</w>": 3721,
      "needs</w>": 3722,
      "ually</w>": 3723,
      "tex": 3724,
      "speci": 3725,
      "follo": 3726,
      "enor": 3727,
      "próximo</w>": 3728,
      "declar": 3729,
      "controle</w>": 3730,
      "plan</w>": 3731,
      "acce": 3732,
      "exér": 3733,
      "foc": 3734,
      "flor": 3735,
      "security</w>": 3736,
      "lady</w>": 3737,
      "bla": 3738,
      "giving</w>": 3739,
      "cito</w>": 3740,
      "fic</w>": 3741,
      "çado</w>": 3742,
      "ontem</w>": 3743,
      "históri": 3744,
      "aking</w>": 3745,
      "pal</w>": 3746,
      "tador</w>": 3747,
      "propri": 3748,
      "law": 3749,
      "novamente</w>": 3750,
      "recu": 3751,
      "heav": 3752,
      "repen": 3753,
      "needed</w>": 3754,
      "acontecer</w>": 3755,
      "cuid": 3756,
      "america</w>": 3757,
      "wish</w>": 3758,
      "agra": 3759,
      "acional</w>": 3760,
      "diferentes</w>": 3761,
      "commun": 3762,
      "campo</w>": 3763,
      "read</w>": 3764,
      "great": 3765,
      "ests</w>": 3766,
      "wonder": 3767,
      "mb</w>": 3768,
      "position</w>": 3769,
      "próxima</w>": 3770,
      "instru": 3771,
      "news</w>": 3772,
      "please</w>": 3773,
      "pá": 3774,
      "rs</w>": 3775,
      "heal": 3776,
      "daqui</w>": 3777,
      "hael</w>": 3778,
      "dó": 3779,
      "reac": 3780,
      "condu": 3781,
      "cated</w>": 3782,
      "vindo</w>": 3783,
      "planet</w>": 3784,
      "manag": 3785,
      "sex</w>": 3786,
      "press</w>": 3787,
      "ques": 3788,
      "somos</w>": 3789,
      "veram</w>": 3790,
      "pagar</w>": 3791,
      "ula</w>": 3792,
      "especial</w>": 3793,
      "sol</w>": 3794,
      "figh": 3795,
      "escritório</w>": 3796,
      "ssemos</w>": 3797,
      "pesquis": 3798,
      "par</w>": 3799,
      "errado</w>": 3800,
      "tre</w>": 3801,
      "competi": 3802,
      "others</w>": 3803,
      "irs</w>": 3804,
      "buy</w>": 3805,
      "sugg": 3806,
      "sai": 3807,
      "view</w>": 3808,
      "ior</w>": 3809,
      "zing</w>": 3810,
      "princ": 3811,
      "reu</w>": 3812,
      "Re": 3813,
      "defin": 3814,
      "absolu": 3815,
      "safe</w>": 3816,
      "quite</w>": 3817,
      "ike</w>": 3818,
      "Foi</w>": 3819,
      "ash</w>": 3820,
      "glo": 3821,
      "feeling</w>": 3822,
      "muita</w>": 3823,
      "dente</w>": 3824,
      "ently</w>": 3825,
      "ared</w>": 3826,
      "horr": 3827,
      "rápido</w>": 3828,
      "11</w>": 3829,
      "looks</w>": 3830,
      "ído</w>": 3831,
      "date</w>": 3832,
      "hid": 3833,
      "fortun": 3834,
      "vens</w>": 3835,
      "comida</w>": 3836,
      "tribun": 3837,
      "blu": 3838,
      "incr": 3839,
      "shall</w>": 3840,
      "registr": 3841,
      "irmã</w>": 3842,
      "gest</w>": 3843,
      "mit</w>": 3844,
      "visão</w>": 3845,
      "programa</w>": 3846,
      "esca": 3847,
      "ques</w>": 3848,
      "paix": 3849,
      "alto</w>": 3850,
      "miles</w>": 3851,
      "assu": 3852,
      "sud": 3853,
      "west</w>": 3854,
      "preso</w>": 3855,
      "desapar": 3856,
      "ically</w>": 3857,
      "abo": 3858,
      "seeing</w>": 3859,
      "professor</w>": 3860,
      "culos</w>": 3861,
      "high": 3862,
      "favor": 3863,
      "sw": 3864,
      "udo</w>": 3865,
      "preen": 3866,
      "sul</w>": 3867,
      "festa</w>": 3868,
      "states</w>": 3869,
      "count</w>": 3870,
      "aband": 3871,
      "ances</w>": 3872,
      "consci": 3873,
      "rather</w>": 3874,
      "relig": 3875,
      "ang</w>": 3876,
      "sacri": 3877,
      "sts</w>": 3878,
      "phy": 3879,
      "thro": 3880,
      "ti</w>": 3881,
      "inhos</w>": 3882,
      "aj": 3883,
      "morreu</w>": 3884,
      "tou": 3885,
      "tivos</w>": 3886,
      "arran": 3887,
      "cy": 3888,
      "social</w>": 3889,
      "estranho</w>": 3890,
      "hell</w>": 3891,
      "national</w>": 3892,
      "music</w>": 3893,
      "sequ": 3894,
      "metros</w>": 3895,
      "intelig": 3896,
      "tribu": 3897,
      "pro</w>": 3898,
      "presen": 3899,
      "worked</w>": 3900,
      "Tenho</w>": 3901,
      "descul": 3902,
      "trial</w>": 3903,
      "fle": 3904,
      "demais</w>": 3905,
      "succ": 3906,
      "vit": 3907,
      "exército</w>": 3908,
      "toc": 3909,
      "piece</w>": 3910,
      "autor": 3911,
      "cks</w>": 3912,
      "real": 3913,
      "cali": 3914,
      "auth": 3915,
      "plano</w>": 3916,
      "europ": 3917,
      "open": 3918,
      "ios</w>": 3919,
      "became</w>": 3920,
      "igu": 3921,
      "olo": 3922,
      "seguir</w>": 3923,
      "visto</w>": 3924,
      "vesti": 3925,
      "ann": 3926,
      "wait</w>": 3927,
      "maioria</w>": 3928,
      "sit</w>": 3929,
      "weap": 3930,
      "prim": 3931,
      "comprar</w>": 3932,
      "certa</w>": 3933,
      "present</w>": 3934,
      "lord</w>": 3935,
      "lies</w>": 3936,
      "sexual</w>": 3937,
      "estávamos</w>": 3938,
      "liter": 3939,
      "sitting</w>": 3940,
      "longo</w>": 3941,
      "acreditar</w>": 3942,
      "In": 3943,
      "oport": 3944,
      "modo</w>": 3945,
      "preten": 3946,
      "relati": 3947,
      "fis": 3948,
      "arma": 3949,
      "ilha</w>": 3950,
      "geor": 3951,
      "nessa</w>": 3952,
      "mol": 3953,
      "With</w>": 3954,
      "bert</w>": 3955,
      "lun": 3956,
      "longer</w>": 3957,
      "livro</w>": 3958,
      "cate</w>": 3959,
      "matou</w>": 3960,
      "influ": 3961,
      "público</w>": 3962,
      "care": 3963,
      "yes</w>": 3964,
      "natural</w>": 3965,
      "ide</w>": 3966,
      "army</w>": 3967,
      "cios</w>": 3968,
      "base": 3969,
      "united</w>": 3970,
      "sion": 3971,
      "drive</w>": 3972,
      "middle</w>": 3973,
      "perder</w>": 3974,
      "board</w>": 3975,
      "strong</w>": 3976,
      "redor</w>": 3977,
      "mine</w>": 3978,
      "ganhar</w>": 3979,
      "tiz": 3980,
      "sea</w>": 3981,
      "mou</w>": 3982,
      "raid</w>": 3983,
      "born</w>": 3984,
      "she": 3985,
      "experience</w>": 3986,
      "rock</w>": 3987,
      "fully</w>": 3988,
      "naquela</w>": 3989,
      "ilo</w>": 3990,
      "trust</w>": 3991,
      "assassino</w>": 3992,
      "rie</w>": 3993,
      "pain": 3994,
      "spec": 3995,
      "pô": 3996,
      "realize</w>": 3997,
      "perman": 3998,
      "attack</w>": 3999,
      "assist": 4000,
      "melhores</w>": 4001,
      "acabou</w>": 4002,
      "squ": 4003,
      "commit": 4004,
      "alive</w>": 4005,
      "inim": 4006,
      "doctor</w>": 4007,
      "aus": 4008,
      "As": 4009,
      "respeito</w>": 4010,
      "sra</w>": 4011,
      "art</w>": 4012,
      "afi": 4013,
      "supposed</w>": 4014,
      "ety</w>": 4015,
      "audi": 4016,
      "question</w>": 4017,
      "lar</w>": 4018,
      "diga</w>": 4019,
      "cannot</w>": 4020,
      "convers": 4021,
      "flu": 4022,
      "power": 4023,
      "words</w>": 4024,
      "agre": 4025,
      "radi": 4026,
      "mani": 4027,
      "ill": 4028,
      "pel</w>": 4029,
      "Enquanto</w>": 4030,
      "air": 4031,
      "tais</w>": 4032,
      "brain</w>": 4033,
      "net</w>": 4034,
      "mental</w>": 4035,
      "bilidade</w>": 4036,
      "dow</w>": 4037,
      "crazy</w>": 4038,
      "continue</w>": 4039,
      "priva": 4040,
      "brig": 4041,
      "ali</w>": 4042,
      "Aqu": 4043,
      "ka</w>": 4044,
      "writ": 4045,
      "cky</w>": 4046,
      "ai</w>": 4047,
      "bebê</w>": 4048,
      "passou</w>": 4049,
      "armas</w>": 4050,
      "lares</w>": 4051,
      "them": 4052,
      "preocupa": 4053,
      "race</w>": 4054,
      "norte</w>": 4055,
      "lam": 4056,
      "chal": 4057,
      "sli": 4058,
      "elimin": 4059,
      "junto</w>": 4060,
      "els</w>": 4061,
      "permi": 4062,
      "gate</w>": 4063,
      "sla": 4064,
      "hares</w>": 4065,
      "tribunal</w>": 4066,
      "dir</w>": 4067,
      "levou</w>": 4068,
      "cked</w>": 4069,
      "protec": 4070,
      "concor": 4071,
      "south</w>": 4072,
      "meeting</w>": 4073,
      "Olha</w>": 4074,
      "pensa</w>": 4075,
      "Even</w>": 4076,
      "sun</w>": 4077,
      "trein": 4078,
      "vid</w>": 4079,
      "ataque</w>": 4080,
      "caras</w>": 4081,
      "perfect</w>": 4082,
      "yeah</w>": 4083,
      "atura</w>": 4084,
      "ambi": 4085,
      "wed": 4086,
      "seem</w>": 4087,
      "patr": 4088,
      "terri": 4089,
      "moder": 4090,
      "tia</w>": 4091,
      "protect</w>": 4092,
      "erem</w>": 4093,
      "thou": 4094,
      "procurando</w>": 4095,
      "iva</w>": 4096,
      "igre": 4097,
      "playing</w>": 4098,
      "tan</w>": 4099,
      "upon</w>": 4100,
      "ility</w>": 4101,
      "themselves</w>": 4102,
      "eat</w>": 4103,
      "vag": 4104,
      "one": 4105,
      "montan": 4106,
      "informações</w>": 4107,
      "vio</w>": 4108,
      "dizem</w>": 4109,
      "lose</w>": 4110,
      "Pe": 4111,
      "energy</w>": 4112,
      "ories</w>": 4113,
      "acabar</w>": 4114,
      "ticos</w>": 4115,
      "monstr": 4116,
      "fast</w>": 4117,
      "ot": 4118,
      "dark</w>": 4119,
      "apresent": 4120,
      "guil": 4121,
      "associ": 4122,
      "rup": 4123,
      "early</w>": 4124,
      "fogo</w>": 4125,
      "plain</w>": 4126,
      "ena</w>": 4127,
      "centro</w>": 4128,
      "kept</w>": 4129,
      "free": 4130,
      "rua</w>": 4131,
      "prison</w>": 4132,
      "terror": 4133,
      "mou": 4134,
      "entar</w>": 4135,
      "pain</w>": 4136,
      "hava</w>": 4137,
      "worth</w>": 4138,
      "linha</w>": 4139,
      "pick</w>": 4140,
      "tment</w>": 4141,
      "roman": 4142,
      "motivo</w>": 4143,
      "Tudo</w>": 4144,
      "fácil</w>": 4145,
      "cados</w>": 4146,
      "fazem</w>": 4147,
      "fy</w>": 4148,
      "civi": 4149,
      "situation</w>": 4150,
      "Just</w>": 4151,
      "troux": 4152,
      "óg": 4153,
      "ue</w>": 4154,
      "san</w>": 4155,
      "Do</w>": 4156,
      "dé": 4157,
      "devem</w>": 4158,
      "eua</w>": 4159,
      "asking</w>": 4160,
      "querer</w>": 4161,
      "conv": 4162,
      "fen": 4163,
      "eri": 4164,
      "asure</w>": 4165,
      "personal</w>": 4166,
      "desig": 4167,
      "esting</w>": 4168,
      "julg": 4169,
      "mí": 4170,
      "partici": 4171,
      "parecer</w>": 4172,
      "boys</w>": 4173,
      "unless</w>": 4174,
      "mesa</w>": 4175,
      "fon": 4176,
      "orden": 4177,
      "issu": 4178,
      "recuper": 4179,
      "cerca</w>": 4180,
      "lead</w>": 4181,
      "Que</w>": 4182,
      "brin": 4183,
      "original</w>": 4184,
      "talmente</w>": 4185,
      "descri": 4186,
      "particular</w>": 4187,
      "fall</w>": 4188,
      "fbi</w>": 4189,
      "corpor": 4190,
      "speak</w>": 4191,
      "sam": 4192,
      "várias</w>": 4193,
      "opport": 4194,
      ".\"</w>": 4195,
      "antas</w>": 4196,
      "provi": 4197,
      "experiência</w>": 4198,
      "estaria</w>": 4199,
      "iled</w>": 4200,
      "Mes": 4201,
      "trabalhando</w>": 4202,
      "michael</w>": 4203,
      "aixo</w>": 4204,
      "sabem</w>": 4205,
      "ri</w>": 4206,
      "dan</w>": 4207,
      "film</w>": 4208,
      "class</w>": 4209,
      "back": 4210,
      "pli": 4211,
      "dí": 4212,
      "achei</w>": 4213,
      "crimes</w>": 4214,
      "tas": 4215,
      "gul": 4216,
      "viaj": 4217,
      "dna</w>": 4218,
      "relação</w>": 4219,
      "iz</w>": 4220,
      "bly</w>": 4221,
      "naquele</w>": 4222,
      "vivo</w>": 4223,
      "depar": 4224,
      "tornou</w>": 4225,
      "ignor": 4226,
      "feet</w>": 4227,
      "dly</w>": 4228,
      "happens</w>": 4229,
      "belo</w>": 4230,
      "sell</w>": 4231,
      "afraid</w>": 4232,
      "Mr</w>": 4233,
      "dólares</w>": 4234,
      "esus</w>": 4235,
      "assis": 4236,
      "military</w>": 4237,
      "bal</w>": 4238,
      "listen</w>": 4239,
      "idente</w>": 4240,
      "church</w>": 4241,
      "cére": 4242,
      "rad": 4243,
      "ãos</w>": 4244,
      "mir</w>": 4245,
      "diffic": 4246,
      "revel": 4247,
      "discus": 4248,
      "espero</w>": 4249,
      "médico</w>": 4250,
      "eco": 4251,
      "salvar</w>": 4252,
      "Mesmo</w>": 4253,
      "ceu</w>": 4254,
      "18</w>": 4255,
      "saí": 4256,
      "brit": 4257,
      "questão</w>": 4258,
      "contra": 4259,
      "sy</w>": 4260,
      "report</w>": 4261,
      "super</w>": 4262,
      "learn</w>": 4263,
      "?\".</w>": 4264,
      "coz": 4265,
      "unity</w>": 4266,
      "dow": 4267,
      "han</w>": 4268,
      "ine": 4269,
      "imagine</w>": 4270,
      "jam</w>": 4271,
      "nigh": 4272,
      "peda": 4273,
      "ading</w>": 4274,
      "deram</w>": 4275,
      "ko": 4276,
      "van</w>": 4277,
      "rada</w>": 4278,
      "essem</w>": 4279,
      "comer</w>": 4280,
      "segre": 4281,
      "check</w>": 4282,
      "esperar</w>": 4283,
      "gosto</w>": 4284,
      "impor": 4285,
      "riage</w>": 4286,
      "vários</w>": 4287,
      "honor</w>": 4288,
      "movie</w>": 4289,
      "On</w>": 4290,
      "ease</w>": 4291,
      "Ac": 4292,
      "uso</w>": 4293,
      "garoto</w>": 4294,
      "25</w>": 4295,
      "chegou</w>": 4296,
      "igreja</w>": 4297,
      "inos</w>": 4298,
      "estados</w>": 4299,
      "watching</w>": 4300,
      "curr": 4301,
      "fort</w>": 4302,
      "monte</w>": 4303,
      "deep</w>": 4304,
      "fine</w>": 4305,
      "stor": 4306,
      "major</w>": 4307,
      "oportunidade</w>": 4308,
      "gical</w>": 4309,
      "temente</w>": 4310,
      "pé": 4311,
      "tindo</w>": 4312,
      "north</w>": 4313,
      "faça</w>": 4314,
      "support</w>": 4315,
      "hit": 4316,
      "icí": 4317,
      "60</w>": 4318,
      "té": 4319,
      "record</w>": 4320,
      "compli": 4321,
      "whose</w>": 4322,
      "tiver</w>": 4323,
      "fizeram</w>": 4324,
      "vis</w>": 4325,
      "negócio</w>": 4326,
      "bac": 4327,
      "yl": 4328,
      "cha</w>": 4329,
      "vítima</w>": 4330,
      "unci": 4331,
      "perhaps</w>": 4332,
      "completely</w>": 4333,
      "seram</w>": 4334,
      "sidade</w>": 4335,
      "atenção</w>": 4336,
      "mex": 4337,
      "Ex": 4338,
      "milhares</w>": 4339,
      "jour": 4340,
      "ôn": 4341,
      "killer</w>": 4342,
      "corri": 4343,
      "sleep</w>": 4344,
      "palavras</w>": 4345,
      "poten": 4346,
      "bank</w>": 4347,
      "sands</w>": 4348,
      "rec": 4349,
      "inoc": 4350,
      "existe</w>": 4351,
      "quebr": 4352,
      "Yes</w>": 4353,
      "tures</w>": 4354,
      "cher</w>": 4355,
      "acre": 4356,
      "rap": 4357,
      "psy": 4358,
      "victim</w>": 4359,
      "conhecer</w>": 4360,
      "policial</w>": 4361,
      "Pre": 4362,
      "hot</w>": 4363,
      "near</w>": 4364,
      "hole</w>": 4365,
      "ál": 4366,
      "trazer</w>": 4367,
      "van": 4368,
      "sir</w>": 4369,
      "build</w>": 4370,
      "sito</w>": 4371,
      "create</w>": 4372,
      "iram</w>": 4373,
      "batal": 4374,
      "mark</w>": 4375,
      "24</w>": 4376,
      "ants</w>": 4377,
      "total</w>": 4378,
      "animal</w>": 4379,
      "wash": 4380,
      "kin": 4381,
      "escap": 4382,
      "ax": 4383,
      "ler": 4384,
      ".,</w>": 4385,
      "nacional</w>": 4386,
      "acredito</w>": 4387,
      "ken": 4388,
      "scene</w>": 4389,
      "dir": 4390,
      "jantar</w>": 4391,
      "tric": 4392,
      "pré": 4393,
      "cast": 4394,
      "jack</w>": 4395,
      "teac": 4396,
      "curso</w>": 4397,
      "fren": 4398,
      "cama</w>": 4399,
      "built</w>": 4400,
      "ceiro</w>": 4401,
      "conhecido</w>": 4402,
      "wall</w>": 4403,
      "amentos</w>": 4404,
      "sof": 4405,
      "officer</w>": 4406,
      "principal</w>": 4407,
      "recei": 4408,
      "proteger</w>": 4409,
      "tice</w>": 4410,
      "essed</w>": 4411,
      "repente</w>": 4412,
      "mentar</w>": 4413,
      "loved</w>": 4414,
      "vá</w>": 4415,
      "paper</w>": 4416,
      "Este</w>": 4417,
      "drogas</w>": 4418,
      "Per": 4419,
      "effe": 4420,
      "esmente</w>": 4421,
      "tiu</w>": 4422,
      "uldade</w>": 4423,
      "sky</w>": 4424,
      "ecem</w>": 4425,
      "month</w>": 4426,
      "enta</w>": 4427,
      "acontecendo</w>": 4428,
      "fiquei</w>": 4429,
      "antos</w>": 4430,
      "but": 4431,
      "jesus</w>": 4432,
      "banco</w>": 4433,
      "hood</w>": 4434,
      "ries</w>": 4435,
      "compar": 4436,
      "Esta</w>": 4437,
      "realized</w>": 4438,
      "obser": 4439,
      "involved</w>": 4440,
      "prac": 4441,
      "aber": 4442,
      "avis": 4443,
      "trag": 4444,
      "tation</w>": 4445,
      "central</w>": 4446,
      "eye</w>": 4447,
      "scienti": 4448,
      "trouble</w>": 4449,
      "has": 4450,
      "ficado</w>": 4451,
      "quê</w>": 4452,
      "assus": 4453,
      "sucesso</w>": 4454,
      "lista</w>": 4455,
      "ph</w>": 4456,
      "ental</w>": 4457,
      "resear": 4458,
      "houve</w>": 4459,
      "bus</w>": 4460,
      "kers</w>": 4461,
      "stone</w>": 4462,
      "stage</w>": 4463,
      "exem": 4464,
      "ical</w>": 4465,
      "secu": 4466,
      "tó": 4467,
      "infer": 4468,
      "ancient</w>": 4469,
      "tempor": 4470,
      "deia</w>": 4471,
      "lin</w>": 4472,
      "dinner</w>": 4473,
      "write</w>": 4474,
      "fair</w>": 4475,
      "merda</w>": 4476,
      "rosto</w>": 4477,
      "ial</w>": 4478,
      "Vou</w>": 4479,
      "usa</w>": 4480,
      "leaving</w>": 4481,
      "ring</w>": 4482,
      "ond</w>": 4483,
      "preocup": 4484,
      "roo": 4485,
      "gold</w>": 4486,
      "dream</w>": 4487,
      "drag": 4488,
      "afe": 4489,
      "vul": 4490,
      "desafi": 4491,
      "community</w>": 4492,
      "yo": 4493,
      "opportunity</w>": 4494,
      "dú": 4495,
      "explor": 4496,
      "hada</w>": 4497,
      "sorte</w>": 4498,
      "togra": 4499,
      "prov": 4500,
      "jogar</w>": 4501,
      "gens</w>": 4502,
      "serão</w>": 4503,
      "justiça</w>": 4504,
      "Minha</w>": 4505,
      "members</w>": 4506,
      "named</w>": 4507,
      "dit": 4508,
      "nel</w>": 4509,
      "step</w>": 4510,
      "pediu</w>": 4511,
      "promise</w>": 4512,
      "washington</w>": 4513,
      "conselho</w>": 4514,
      "land": 4515,
      "gentle": 4516,
      "mrs</w>": 4517,
      "ners</w>": 4518,
      "simplesmente</w>": 4519,
      "taram</w>": 4520,
      "dedi": 4521,
      "club</w>": 4522,
      "serviço</w>": 4523,
      "ury</w>": 4524,
      "viagem</w>": 4525,
      "george</w>": 4526,
      "ong": 4527,
      "male</w>": 4528,
      "Uh</w>": 4529,
      "encon": 4530,
      "seguro</w>": 4531,
      "new": 4532,
      "ordem</w>": 4533,
      "beu</w>": 4534,
      "papel</w>": 4535,
      "neigh": 4536,
      "marriage</w>": 4537,
      "ough": 4538,
      "vação</w>": 4539,
      "hair</w>": 4540,
      "confor": 4541,
      "lhes</w>": 4542,
      "limit": 4543,
      "partment</w>": 4544,
      "marav": 4545,
      "céu</w>": 4546,
      "ky</w>": 4547,
      "list</w>": 4548,
      "ites</w>": 4549,
      "convi": 4550,
      "reser": 4551,
      "knowing</w>": 4552,
      "interess": 4553,
      "sign</w>": 4554,
      "service</w>": 4555,
      "fun</w>": 4556,
      "eter": 4557,
      "david</w>": 4558,
      "jog": 4559,
      "ama</w>": 4560,
      "pid</w>": 4561,
      "perig": 4562,
      "partir</w>": 4563,
      "perfor": 4564,
      "dad": 4565,
      "somewhere</w>": 4566,
      "yers</w>": 4567,
      "alter": 4568,
      "vari": 4569,
      "pers</w>": 4570,
      "incrível</w>": 4571,
      "due</w>": 4572,
      "pior</w>": 4573,
      "andar</w>": 4574,
      "data</w>": 4575,
      "smo": 4576,
      "dress</w>": 4577,
      "ran</w>": 4578,
      "joy</w>": 4579,
      "know": 4580,
      "idos</w>": 4581,
      "fear</w>": 4582,
      "soli": 4583,
      "sau": 4584,
      "gig": 4585,
      "dul": 4586,
      "spr": 4587,
      "cérebro</w>": 4588,
      "16</w>": 4589,
      "tá</w>": 4590,
      "consegue</w>": 4591,
      "humano</w>": 4592,
      "dirig": 4593,
      "Estamos</w>": 4594,
      "arru": 4595,
      "tores</w>": 4596,
      "emy</w>": 4597,
      "estú": 4598,
      "espí": 4599,
      "14</w>": 4600,
      "ismo</w>": 4601,
      "willing</w>": 4602,
      "respons": 4603,
      "teu</w>": 4604,
      "ston</w>": 4605,
      "volu": 4606,
      "esc": 4607,
      "deta": 4608,
      "estará</w>": 4609,
      "provar</w>": 4610,
      "veja</w>": 4611,
      "humanos</w>": 4612,
      "nie</w>": 4613,
      "eses</w>": 4614,
      "totalmente</w>": 4615,
      "station</w>": 4616,
      "consigo</w>": 4617,
      "criminal</w>": 4618,
      "hurt</w>": 4619,
      "May": 4620,
      "lembrar</w>": 4621,
      "éia</w>": 4622,
      "nobody</w>": 4623,
      "dê</w>": 4624,
      "lived</w>": 4625,
      "presente</w>": 4626,
      "attemp": 4627,
      "questions</w>": 4628,
      "nisso</w>": 4629,
      "sentido</w>": 4630,
      "learned</w>": 4631,
      "nar": 4632,
      "Assim</w>": 4633,
      "tics</w>": 4634,
      "nature</w>": 4635,
      "bt</w>": 4636,
      "aren</w>": 4637,
      "franc": 4638,
      "esfor": 4639,
      "lee</w>": 4640,
      "peace</w>": 4641,
      "forget</w>": 4642,
      "discovered</w>": 4643,
      "respect</w>": 4644,
      "julgamento</w>": 4645,
      "fru": 4646,
      "jovens</w>": 4647,
      "conseguiu</w>": 4648,
      "ian</w>": 4649,
      "inno": 4650,
      "fla": 4651,
      "cam</w>": 4652,
      "espé": 4653,
      "cí": 4654,
      "ate": 4655,
      "zed</w>": 4656,
      "cida</w>": 4657,
      "vejo</w>": 4658,
      "poor</w>": 4659,
      "ticas</w>": 4660,
      "desper": 4661,
      "vaz": 4662,
      "proper": 4663,
      "espéci": 4664,
      "tain": 4665,
      "lions</w>": 4666,
      "charge</w>": 4667,
      "Já</w>": 4668,
      "Sen": 4669,
      "answer</w>": 4670,
      "satis": 4671,
      "grad": 4672,
      "evol": 4673,
      "minute</w>": 4674,
      "var": 4675,
      "thinks</w>": 4676,
      "thank</w>": 4677,
      "uses</w>": 4678,
      "department</w>": 4679,
      "picture</w>": 4680,
      "disseram</w>": 4681,
      "200</w>": 4682,
      "cool</w>": 4683,
      "powerful</w>": 4684,
      "itor</w>": 4685,
      "informação</w>": 4686,
      "orgul": 4687,
      "temper": 4688,
      "box</w>": 4689,
      "lembro</w>": 4690,
      "quanti": 4691,
      "desses</w>": 4692,
      "justice</w>": 4693,
      "árv": 4694,
      "gares</w>": 4695,
      "18": 4696,
      "livre</w>": 4697,
      "idiota</w>": 4698,
      "ions</w>": 4699,
      "osas</w>": 4700,
      "gation</w>": 4701,
      "bis": 4702,
      "dentes</w>": 4703,
      "unidos</w>": 4704,
      "huge</w>": 4705,
      "thousands</w>": 4706,
      "econo": 4707,
      "till</w>": 4708,
      "adora</w>": 4709,
      "rest": 4710,
      "ession</w>": 4711,
      "mach": 4712,
      "lembr": 4713,
      "contato</w>": 4714,
      "yle</w>": 4715,
      "gic</w>": 4716,
      "material</w>": 4717,
      "500</w>": 4718,
      "queen</w>": 4719,
      "captain</w>": 4720,
      "esque": 4721,
      "ics</w>": 4722,
      "difficult</w>": 4723,
      "including</w>": 4724,
      "james</w>": 4725,
      "caixa</w>": 4726,
      "Vamos</w>": 4727,
      "gn": 4728,
      "ating": 4729,
      "chegar": 4730,
      "pass</w>": 4731,
      "assun": 4732,
      "ligh": 4733,
      "acontece</w>": 4734,
      "cliente</w>": 4735,
      "segunda</w>": 4736,
      "abrir</w>": 4737,
      "soldi": 4738,
      "somb": 4739,
      "song</w>": 4740,
      "ately</w>": 4741,
      "appro": 4742,
      "stupid</w>": 4743,
      "site</w>": 4744,
      "dog</w>": 4745,
      "after": 4746,
      "killing</w>": 4747,
      "vermel": 4748,
      "charac": 4749,
      "érica</w>": 4750,
      "quais</w>": 4751,
      "mos": 4752,
      "pena</w>": 4753,
      "ruim</w>": 4754,
      "aceit": 4755,
      "direção</w>": 4756,
      "Some": 4757,
      "lag": 4758,
      "aling</w>": 4759,
      "pper</w>": 4760,
      "planej": 4761,
      "cold</w>": 4762,
      "sound</w>": 4763,
      "sen</w>": 4764,
      "ade</w>": 4765,
      "processo</w>": 4766,
      "anybody</w>": 4767,
      "parecia</w>": 4768,
      "cui": 4769,
      "Our</w>": 4770,
      "universo</w>": 4771,
      "universe</w>": 4772,
      "saiu</w>": 4773,
      "Maybe</w>": 4774,
      "cais</w>": 4775,
      "seven</w>": 4776,
      "surpris": 4777,
      "telefone</w>": 4778,
      "level</w>": 4779,
      "yal</w>": 4780,
      "pazes</w>": 4781,
      "created</w>": 4782,
      "pac": 4783,
      "cando</w>": 4784,
      "works</w>": 4785,
      "umas</w>": 4786,
      "traz": 4787,
      "ble": 4788,
      "ante": 4789,
      "based</w>": 4790,
      "reza</w>": 4791,
      "chamada</w>": 4792,
      "verá</w>": 4793,
      "mem": 4794,
      "minis": 4795,
      "conden": 4796,
      "fish</w>": 4797,
      "mês</w>": 4798,
      "negócios</w>": 4799,
      "figu": 4800,
      "connec": 4801,
      "superi": 4802,
      "andy</w>": 4803,
      "palavra</w>": 4804,
      "intro": 4805,
      "maravil": 4806,
      "anha</w>": 4807,
      "estade</w>": 4808,
      "zo</w>": 4809,
      "acci": 4810,
      "abandon": 4811,
      "several</w>": 4812,
      "desej": 4813,
      "myster": 4814,
      "cedo</w>": 4815,
      "oud</w>": 4816,
      "membros</w>": 4817,
      "divi": 4818,
      "defesa</w>": 4819,
      "set": 4820,
      "federal</w>": 4821,
      "faria</w>": 4822,
      "blue</w>": 4823,
      "agente</w>": 4824,
      "sozinho</w>": 4825,
      "chão</w>": 4826,
      "lugares</w>": 4827,
      "throw</w>": 4828,
      "início</w>": 4829,
      "sible</w>": 4830,
      "atar</w>": 4831,
      "soul</w>": 4832,
      "denly</w>": 4833,
      "ariam</w>": 4834,
      "cá</w>": 4835,
      "tris": 4836,
      "metade</w>": 4837,
      "cena</w>": 4838,
      "pit": 4839,
      "série</w>": 4840,
      "wever</w>": 4841,
      "colon": 4842,
      "gotta</w>": 4843,
      "advogado</w>": 4844,
      "institu": 4845,
      "encontro</w>": 4846,
      "quis</w>": 4847,
      "ligar</w>": 4848,
      "decisão</w>": 4849,
      "Temos</w>": 4850,
      "rol": 4851,
      "knowle": 4852,
      "olhando</w>": 4853,
      "-.</w>": 4854,
      "emprego</w>": 4855,
      "viz": 4856,
      "fighting</w>": 4857,
      "fore": 4858,
      "Certo</w>": 4859,
      "sch": 4860,
      "loja</w>": 4861,
      "ement</w>": 4862,
      "caught</w>": 4863,
      "emplo": 4864,
      "cum": 4865,
      "shows</w>": 4866,
      "zo": 4867,
      "rich</w>": 4868,
      "completamente</w>": 4869,
      "comum</w>": 4870,
      "putting</w>": 4871,
      "rich": 4872,
      "descober": 4873,
      "redu": 4874,
      "large</w>": 4875,
      "prova</w>": 4876,
      "apartamento</w>": 4877,
      "nele</w>": 4878,
      "devemos</w>": 4879,
      "dada</w>": 4880,
      "perguntar</w>": 4881,
      "hil": 4882,
      "private</w>": 4883,
      "til": 4884,
      "especially</w>": 4885,
      "tá": 4886,
      "capitão</w>": 4887,
      "mary</w>": 4888,
      "'.</w>": 4889,
      "alma</w>": 4890,
      "alem": 4891,
      "rito</w>": 4892,
      "ek</w>": 4893,
      "kis": 4894,
      "vely</w>": 4895,
      "search</w>": 4896,
      "easy</w>": 4897,
      "combin": 4898,
      "comunidade</w>": 4899,
      "mortos</w>": 4900,
      "mada</w>": 4901,
      "decide</w>": 4902,
      "serem</w>": 4903,
      "Todos</w>": 4904,
      "pósito</w>": 4905,
      "precisam</w>": 4906,
      "devo</w>": 4907,
      "china</w>": 4908,
      "voz</w>": 4909,
      "missing</w>": 4910,
      "máqu": 4911,
      "amoun": 4912,
      "requ": 4913,
      "animais</w>": 4914,
      "liberdade</w>": 4915,
      "von": 4916,
      "seguin": 4917,
      "evil</w>": 4918,
      "garan": 4919,
      "li</w>": 4920,
      "cadas</w>": 4921,
      "not": 4922,
      "offer</w>": 4923,
      "çando</w>": 4924,
      "hate</w>": 4925,
      "nível</w>": 4926,
      "pé</w>": 4927,
      "recom": 4928,
      "busca</w>": 4929,
      "weren</w>": 4930,
      ",...</w>": 4931,
      "ano": 4932,
      "bol</w>": 4933,
      "gosta": 4934,
      "natal</w>": 4935,
      "trop": 4936,
      "cuidar</w>": 4937,
      "paris</w>": 4938,
      "paid</w>": 4939,
      "vidade</w>": 4940,
      "17</w>": 4941,
      "cof": 4942,
      "tered</w>": 4943,
      "américa</w>": 4944,
      "forward</w>": 4945,
      "dormir</w>": 4946,
      "exten": 4947,
      "repu": 4948,
      "detal": 4949,
      "conne": 4950,
      "argu": 4951,
      "fotos</w>": 4952,
      "share</w>": 4953,
      "mic</w>": 4954,
      "moving</w>": 4955,
      "Mu": 4956,
      "held</w>": 4957,
      "garotas</w>": 4958,
      "center</w>": 4959,
      "delas</w>": 4960,
      "sexo</w>": 4961,
      "anim": 4962,
      "oficial</w>": 4963,
      "ority</w>": 4964,
      "refer": 4965,
      "bag": 4966,
      "Not</w>": 4967,
      "café</w>": 4968,
      "gel": 4969,
      "enda</w>": 4970,
      "mor</w>": 4971,
      "ples</w>": 4972,
      "turns</w>": 4973,
      "finan": 4974,
      "ounded</w>": 4975,
      "ya</w>": 4976,
      "acidente</w>": 4977,
      "round</w>": 4978,
      "ability</w>": 4979,
      "inning</w>": 4980,
      "avan": 4981,
      "wedding</w>": 4982,
      "How</w>": 4983,
      "explain</w>": 4984,
      "13</w>": 4985,
      "pado</w>": 4986,
      "itself</w>": 4987,
      "fique</w>": 4988,
      "vac": 4989,
      "natu": 4990,
      "profun": 4991,
      "ero": 4992,
      "college</w>": 4993,
      "pull</w>": 4994,
      "opini": 4995,
      "ets</w>": 4996,
      "apartment</w>": 4997,
      "yours</w>": 4998,
      "exemplo</w>": 4999
    },
    "merges": [
      [
        "t",
        "h"
      ],
      [
        "a",
        "n"
      ],
      [
        "i",
        "n"
      ],
      [
        "e",
        "r"
      ],
      [
        "e",
        "n"
      ],
      [
        "a",
        "r"
      ],
      [
        "e",
        "s"
      ],
      [
        "q",
        "u"
      ],
      [
        "c",
        "o"
      ],
      [
        "a",
        "s</w>"
      ],
      [
        "t",
        "o</w>"
      ],
      [
        "e",
        "r</w>"
      ],
      [
        "th",
        "e</w>"
      ],
      [
        "d",
        "e</w>"
      ],
      [
        "o",
        "s</w>"
      ],
      [
        "d",
        "o</w>"
      ],
      [
        "o",
        "r"
      ],
      [
        "a",
        "l"
      ],
      [
        "e",
        "l"
      ],
      [
        "qu",
        "e</w>"
      ],
      [
        "o",
        "u"
      ],
      [
        "r",
        "e"
      ],
      [
        "o",
        "u</w>"
      ],
      [
        "t",
        "i"
      ],
      [
        "e",
        "s</w>"
      ],
      [
        "ã",
        "o</w>"
      ],
      [
        "in",
        "g</w>"
      ],
      [
        "i",
        "s</w>"
      ],
      [
        "o",
        "n"
      ],
      [
        "i",
        "s"
      ],
      [
        "an",
        "d</w>"
      ],
      [
        "a",
        "r</w>"
      ],
      [
        "t",
        "r"
      ],
      [
        "a",
        "t</w>"
      ],
      [
        "c",
        "a"
      ],
      [
        "e",
        "m</w>"
      ],
      [
        "i",
        "t"
      ],
      [
        "o",
        "r</w>"
      ],
      [
        "e",
        "d</w>"
      ],
      [
        "s",
        "e</w>"
      ],
      [
        "m",
        "a"
      ],
      [
        "p",
        "r"
      ],
      [
        "o",
        "n</w>"
      ],
      [
        "o",
        "f</w>"
      ],
      [
        ".",
        ".</w>"
      ],
      [
        "p",
        "ar"
      ],
      [
        "d",
        "i"
      ],
      [
        "t",
        "e</w>"
      ],
      [
        "m",
        "e</w>"
      ],
      [
        ".",
        "..</w>"
      ],
      [
        "s",
        "e"
      ],
      [
        "y",
        "ou</w>"
      ],
      [
        "t",
        "a"
      ],
      [
        "d",
        "a</w>"
      ],
      [
        "i",
        "n</w>"
      ],
      [
        "n",
        "o"
      ],
      [
        "h",
        "a"
      ],
      [
        "l",
        "i"
      ],
      [
        "a",
        "c"
      ],
      [
        "d",
        "e"
      ],
      [
        "r",
        "i"
      ],
      [
        "o",
        "c"
      ],
      [
        "v",
        "e</w>"
      ],
      [
        "th",
        "at</w>"
      ],
      [
        "co",
        "n"
      ],
      [
        "p",
        "o"
      ],
      [
        "i",
        "l"
      ],
      [
        "u",
        "n"
      ],
      [
        "m",
        "e"
      ],
      [
        "a",
        "s"
      ],
      [
        "m",
        "a</w>"
      ],
      [
        "w",
        "h"
      ],
      [
        "u",
        "m</w>"
      ],
      [
        "u",
        "r"
      ],
      [
        "c",
        "i"
      ],
      [
        "e",
        "n</w>"
      ],
      [
        "a",
        "m"
      ],
      [
        "s",
        "o"
      ],
      [
        "u",
        "s"
      ],
      [
        "par",
        "a</w>"
      ],
      [
        "i",
        "r"
      ],
      [
        "a",
        "t"
      ],
      [
        "b",
        "e"
      ],
      [
        "s",
        "o</w>"
      ],
      [
        "es",
        "t"
      ],
      [
        "i",
        "t</w>"
      ],
      [
        "i",
        "c"
      ],
      [
        "l",
        "e"
      ],
      [
        "h",
        "e</w>"
      ],
      [
        "co",
        "m"
      ],
      [
        "a",
        "b"
      ],
      [
        "c",
        "h"
      ],
      [
        "t",
        "e"
      ],
      [
        "t",
        "o"
      ],
      [
        "d",
        "a"
      ],
      [
        "m",
        "en"
      ],
      [
        "n",
        "ão</w>"
      ],
      [
        "s",
        "u"
      ],
      [
        "r",
        "o"
      ],
      [
        "v",
        "i"
      ],
      [
        "u",
        "ma</w>"
      ],
      [
        "u",
        "l"
      ],
      [
        "a",
        "l</w>"
      ],
      [
        "an",
        "do</w>"
      ],
      [
        "l",
        "e</w>"
      ],
      [
        "l",
        "o"
      ],
      [
        "s",
        "i"
      ],
      [
        "h",
        "o"
      ],
      [
        "er",
        "e</w>"
      ],
      [
        "p",
        "e"
      ],
      [
        "v",
        "er"
      ],
      [
        "oc",
        "ê</w>"
      ],
      [
        "a",
        "m</w>"
      ],
      [
        "i",
        "a</w>"
      ],
      [
        "p",
        "er"
      ],
      [
        "en",
        "t"
      ],
      [
        "a",
        "g"
      ],
      [
        "s",
        "t"
      ],
      [
        "e",
        "u</w>"
      ],
      [
        "co",
        "m</w>"
      ],
      [
        "ou",
        "r</w>"
      ],
      [
        "u",
        "t</w>"
      ],
      [
        "v",
        "ocê</w>"
      ],
      [
        "l",
        "y</w>"
      ],
      [
        "g",
        "u"
      ],
      [
        "f",
        "or"
      ],
      [
        "a",
        "d"
      ],
      [
        "n",
        "e"
      ],
      [
        "f",
        "or</w>"
      ],
      [
        "s",
        "a"
      ],
      [
        "n",
        "o</w>"
      ],
      [
        "i",
        "g"
      ],
      [
        "pr",
        "o"
      ],
      [
        "o",
        "l"
      ],
      [
        "w",
        "as</w>"
      ],
      [
        "k",
        "e</w>"
      ],
      [
        "r",
        "a"
      ],
      [
        "m",
        "as</w>"
      ],
      [
        "a",
        "n</w>"
      ],
      [
        "n",
        "a</w>"
      ],
      [
        "w",
        "e</w>"
      ],
      [
        "it",
        "h</w>"
      ],
      [
        "m",
        "o"
      ],
      [
        "ou",
        "t</w>"
      ],
      [
        "c",
        "e</w>"
      ],
      [
        "h",
        "a</w>"
      ],
      [
        "g",
        "o"
      ],
      [
        "b",
        "e</w>"
      ],
      [
        "th",
        "e"
      ],
      [
        "w",
        "ith</w>"
      ],
      [
        "v",
        "e"
      ],
      [
        "t",
        "er"
      ],
      [
        "m",
        "os</w>"
      ],
      [
        "r",
        "e</w>"
      ],
      [
        "el",
        "e</w>"
      ],
      [
        "v",
        "er</w>"
      ],
      [
        "m",
        "in"
      ],
      [
        "e",
        "x"
      ],
      [
        "d",
        "es"
      ],
      [
        "t",
        "er</w>"
      ],
      [
        "p",
        "or"
      ],
      [
        "on",
        "e</w>"
      ],
      [
        "d",
        "os</w>"
      ],
      [
        "f",
        "a"
      ],
      [
        "m",
        "y</w>"
      ],
      [
        "th",
        "is</w>"
      ],
      [
        "h",
        "e"
      ],
      [
        "ç",
        "ão</w>"
      ],
      [
        "b",
        "ut</w>"
      ],
      [
        "u",
        "s</w>"
      ],
      [
        "ha",
        "ve</w>"
      ],
      [
        "d",
        "o"
      ],
      [
        "t",
        "a</w>"
      ],
      [
        "h",
        "t</w>"
      ],
      [
        "p",
        "or</w>"
      ],
      [
        "b",
        "o"
      ],
      [
        "al",
        "l</w>"
      ],
      [
        "l",
        "d</w>"
      ],
      [
        "p",
        "a"
      ],
      [
        "i",
        "r</w>"
      ],
      [
        "no",
        "w</w>"
      ],
      [
        "v",
        "a</w>"
      ],
      [
        "s",
        "a</w>"
      ],
      [
        "f",
        "e"
      ],
      [
        "y",
        "our</w>"
      ],
      [
        "el",
        "a</w>"
      ],
      [
        "f",
        "i"
      ],
      [
        "p",
        "l"
      ],
      [
        "h",
        "o</w>"
      ],
      [
        "m",
        "an"
      ],
      [
        "m",
        "or"
      ],
      [
        "ti",
        "on</w>"
      ],
      [
        "g",
        "e"
      ],
      [
        "m",
        "b"
      ],
      [
        "com",
        "o</w>"
      ],
      [
        "p",
        "re"
      ],
      [
        "p",
        "en"
      ],
      [
        "f",
        "o"
      ],
      [
        "i",
        "m"
      ],
      [
        "c",
        "ar"
      ],
      [
        "g",
        "o</w>"
      ],
      [
        "m",
        "u"
      ],
      [
        "d",
        "is"
      ],
      [
        "d",
        "er"
      ],
      [
        "th",
        "er</w>"
      ],
      [
        "n",
        "d</w>"
      ],
      [
        "ma",
        "is</w>"
      ],
      [
        "r",
        "es"
      ],
      [
        "h",
        "is</w>"
      ],
      [
        "us",
        "t</w>"
      ],
      [
        "t",
        "s</w>"
      ],
      [
        "i",
        "m</w>"
      ],
      [
        "the",
        "y</w>"
      ],
      [
        "en",
        "te</w>"
      ],
      [
        "a",
        "do</w>"
      ],
      [
        "ca",
        "n</w>"
      ],
      [
        "h",
        "er</w>"
      ],
      [
        "ar",
        "e</w>"
      ],
      [
        "es",
        "ta"
      ],
      [
        "w",
        "a"
      ],
      [
        "i",
        "to</w>"
      ],
      [
        "l",
        "u"
      ],
      [
        "i",
        "f</w>"
      ],
      [
        "g",
        "r"
      ],
      [
        "da",
        "de</w>"
      ],
      [
        "co",
        "r"
      ],
      [
        "th",
        "ing</w>"
      ],
      [
        "u",
        "se</w>"
      ],
      [
        "w",
        "or"
      ],
      [
        "k",
        "now</w>"
      ],
      [
        "el",
        "l</w>"
      ],
      [
        "f",
        "ro"
      ],
      [
        "as",
        "s"
      ],
      [
        "t",
        "en"
      ],
      [
        "no",
        "t</w>"
      ],
      [
        "s",
        "t</w>"
      ],
      [
        "o",
        "p"
      ],
      [
        "men",
        "te</w>"
      ],
      [
        "fro",
        "m</w>"
      ],
      [
        "li",
        "ke</w>"
      ],
      [
        "t",
        "u"
      ],
      [
        "il",
        "l</w>"
      ],
      [
        "z",
        "er</w>"
      ],
      [
        "k",
        "ing</w>"
      ],
      [
        "m",
        "p"
      ],
      [
        "s",
        "h"
      ],
      [
        "su",
        "a</w>"
      ],
      [
        "d",
        "as</w>"
      ],
      [
        "d",
        "s</w>"
      ],
      [
        "an",
        "t"
      ],
      [
        "en",
        "t</w>"
      ],
      [
        "ou",
        "ld</w>"
      ],
      [
        "se",
        "u</w>"
      ],
      [
        "in",
        "g"
      ],
      [
        "d",
        "er</w>"
      ],
      [
        "j",
        "ust</w>"
      ],
      [
        "a",
        "qu"
      ],
      [
        "c",
        "e"
      ],
      [
        "tr",
        "a"
      ],
      [
        "es",
        "s"
      ],
      [
        "ou",
        "g"
      ],
      [
        "s",
        "er"
      ],
      [
        "m",
        "ar"
      ],
      [
        "u",
        "p</w>"
      ],
      [
        "c",
        "h</w>"
      ],
      [
        "ca",
        "use</w>"
      ],
      [
        "ç",
        "a</w>"
      ],
      [
        "wh",
        "o</w>"
      ],
      [
        "est",
        "á</w>"
      ],
      [
        "p",
        "es"
      ],
      [
        "am",
        "os</w>"
      ],
      [
        "f",
        "ic"
      ],
      [
        "wh",
        "at</w>"
      ],
      [
        "l",
        "l</w>"
      ],
      [
        "b",
        "r"
      ],
      [
        "ab",
        "out</w>"
      ],
      [
        "l",
        "a"
      ],
      [
        "is",
        "so</w>"
      ],
      [
        "an",
        "t</w>"
      ],
      [
        "wh",
        "en</w>"
      ],
      [
        "é",
        "m</w>"
      ],
      [
        "n",
        "a"
      ],
      [
        "g",
        "i"
      ],
      [
        "or",
        "a</w>"
      ],
      [
        "qu",
        "ando</w>"
      ],
      [
        "al",
        "ly</w>"
      ],
      [
        "h",
        "as</w>"
      ],
      [
        "w",
        "n</w>"
      ],
      [
        "c",
        "a</w>"
      ],
      [
        "th",
        "ere</w>"
      ],
      [
        "po",
        "s"
      ],
      [
        "c",
        "o</w>"
      ],
      [
        "b",
        "y</w>"
      ],
      [
        "v",
        "a"
      ],
      [
        "t",
        "ur"
      ],
      [
        "f",
        "in"
      ],
      [
        "w",
        "ill</w>"
      ],
      [
        "j",
        "o"
      ],
      [
        "s",
        "en"
      ],
      [
        "s",
        "er</w>"
      ],
      [
        "ma",
        "n</w>"
      ],
      [
        "s",
        "he</w>"
      ],
      [
        "f",
        "u"
      ],
      [
        "pr",
        "es"
      ],
      [
        "el",
        "es</w>"
      ],
      [
        "ge",
        "t</w>"
      ],
      [
        "t",
        "in"
      ],
      [
        "m",
        "o</w>"
      ],
      [
        "d",
        "u"
      ],
      [
        "con",
        "tr"
      ],
      [
        "õ",
        "es</w>"
      ],
      [
        "t",
        "h</w>"
      ],
      [
        "e",
        "v"
      ],
      [
        "fo",
        "i</w>"
      ],
      [
        "ha",
        "d</w>"
      ],
      [
        "e",
        "c"
      ],
      [
        "f",
        "er"
      ],
      [
        "a",
        "o</w>"
      ],
      [
        "h",
        "ere</w>"
      ],
      [
        "ci",
        "a</w>"
      ],
      [
        "g",
        "e</w>"
      ],
      [
        "w",
        "e"
      ],
      [
        "m",
        "on"
      ],
      [
        "s",
        "tr"
      ],
      [
        "c",
        "ri"
      ],
      [
        "w",
        "ould</w>"
      ],
      [
        "is",
        "t"
      ],
      [
        "i",
        "d"
      ],
      [
        "so",
        "me"
      ],
      [
        "co",
        "l"
      ],
      [
        "c",
        "er"
      ],
      [
        "w",
        "ere</w>"
      ],
      [
        "i",
        "x"
      ],
      [
        "r",
        "u"
      ],
      [
        "h",
        "im</w>"
      ],
      [
        "pes",
        "so"
      ],
      [
        "ac",
        "k</w>"
      ],
      [
        "y",
        "e"
      ],
      [
        "ig",
        "ht</w>"
      ],
      [
        "ti",
        "me</w>"
      ],
      [
        "it",
        "e</w>"
      ],
      [
        "t",
        "ing</w>"
      ],
      [
        "m",
        "es"
      ],
      [
        "be",
        "cause</w>"
      ],
      [
        "A",
        "nd</w>"
      ],
      [
        "d",
        "on</w>"
      ],
      [
        "t",
        "ed</w>"
      ],
      [
        "no",
        "s"
      ],
      [
        "wa",
        "y</w>"
      ],
      [
        "por",
        "que</w>"
      ],
      [
        "c",
        "re"
      ],
      [
        "pr",
        "i"
      ],
      [
        "er",
        "s</w>"
      ],
      [
        "so",
        "b"
      ],
      [
        "es",
        "s</w>"
      ],
      [
        "en",
        "do</w>"
      ],
      [
        "y",
        "s</w>"
      ],
      [
        "al",
        "i"
      ],
      [
        "ir",
        "o</w>"
      ],
      [
        "g",
        "a"
      ],
      [
        "e",
        "m"
      ],
      [
        "s",
        "ab"
      ],
      [
        "s",
        "ta"
      ],
      [
        "an",
        "te</w>"
      ],
      [
        "a",
        "d</w>"
      ],
      [
        "f",
        "r"
      ],
      [
        "f",
        "e</w>"
      ],
      [
        "th",
        "in"
      ],
      [
        "o",
        "f"
      ],
      [
        "a",
        "p"
      ],
      [
        "ver",
        "y</w>"
      ],
      [
        "t",
        "em</w>"
      ],
      [
        "ho",
        "w</w>"
      ],
      [
        "es",
        "se</w>"
      ],
      [
        "T",
        "he</w>"
      ],
      [
        "n",
        "os</w>"
      ],
      [
        "f",
        "il"
      ],
      [
        "t",
        "os</w>"
      ],
      [
        "min",
        "ha</w>"
      ],
      [
        "me",
        "u</w>"
      ],
      [
        "co",
        "ul"
      ],
      [
        "er",
        "a</w>"
      ],
      [
        "t",
        "or"
      ],
      [
        "it",
        "y</w>"
      ],
      [
        "v",
        "ol"
      ],
      [
        "in",
        "to</w>"
      ],
      [
        "ri",
        "g"
      ],
      [
        "t",
        "ar</w>"
      ],
      [
        "co",
        "is"
      ],
      [
        "c",
        "is"
      ],
      [
        "en",
        "tr"
      ],
      [
        "mu",
        "ito</w>"
      ],
      [
        "on",
        "s</w>"
      ],
      [
        "ou",
        "nd</w>"
      ],
      [
        "i",
        "d</w>"
      ],
      [
        "t",
        "al"
      ],
      [
        "ent",
        "ão</w>"
      ],
      [
        "es",
        "t</w>"
      ],
      [
        "op",
        "le</w>"
      ],
      [
        "r",
        "a</w>"
      ],
      [
        "ou",
        "tr"
      ],
      [
        "qu",
        "er"
      ],
      [
        "be",
        "en</w>"
      ],
      [
        "da",
        "y</w>"
      ],
      [
        "sob",
        "re</w>"
      ],
      [
        "s",
        "el"
      ],
      [
        "the",
        "ir</w>"
      ],
      [
        "pe",
        "ople</w>"
      ],
      [
        "o",
        "d</w>"
      ],
      [
        "an",
        "d"
      ],
      [
        "g",
        "ar</w>"
      ],
      [
        "f",
        "al"
      ],
      [
        "esta",
        "va</w>"
      ],
      [
        "ch",
        "e"
      ],
      [
        "c",
        "l"
      ],
      [
        "o",
        "k</w>"
      ],
      [
        "a",
        "f"
      ],
      [
        "c",
        "ul"
      ],
      [
        "ac",
        "e</w>"
      ],
      [
        "th",
        "en</w>"
      ],
      [
        "ê",
        "n"
      ],
      [
        "g",
        "ar"
      ],
      [
        "ó",
        "s</w>"
      ],
      [
        "p",
        "i"
      ],
      [
        "ve",
        "z</w>"
      ],
      [
        "el",
        "i"
      ],
      [
        "s",
        "ão</w>"
      ],
      [
        "v",
        "o</w>"
      ],
      [
        "t",
        "ão</w>"
      ],
      [
        "fa",
        "zer</w>"
      ],
      [
        "an",
        "to</w>"
      ],
      [
        "th",
        "em</w>"
      ],
      [
        "c",
        "u"
      ],
      [
        "p",
        "u"
      ],
      [
        "ir",
        "a</w>"
      ],
      [
        "E",
        "u</w>"
      ],
      [
        "oug",
        "h</w>"
      ],
      [
        "j",
        "u"
      ],
      [
        "an",
        "os</w>"
      ],
      [
        "a",
        "ção</w>"
      ],
      [
        "men",
        "t</w>"
      ],
      [
        "k",
        "e"
      ],
      [
        "ve",
        "l</w>"
      ],
      [
        "b",
        "i"
      ],
      [
        "e",
        "i</w>"
      ],
      [
        "es",
        "ti"
      ],
      [
        "on",
        "g</w>"
      ],
      [
        "m",
        "il"
      ],
      [
        "di",
        "a</w>"
      ],
      [
        "y",
        "ing</w>"
      ],
      [
        "coul",
        "d</w>"
      ],
      [
        "ê",
        "s</w>"
      ],
      [
        "as",
        "t</w>"
      ],
      [
        "m",
        "is"
      ],
      [
        "Y",
        "ou</w>"
      ],
      [
        "aqu",
        "i</w>"
      ],
      [
        "t",
        "y</w>"
      ],
      [
        "k",
        "s</w>"
      ],
      [
        "d",
        "n</w>"
      ],
      [
        "c",
        "ha"
      ],
      [
        "so",
        "me</w>"
      ],
      [
        "po",
        "de</w>"
      ],
      [
        "thin",
        "k</w>"
      ],
      [
        "p",
        "el"
      ],
      [
        "f",
        "am"
      ],
      [
        "b",
        "u"
      ],
      [
        "n",
        "i"
      ],
      [
        "s",
        "ti"
      ],
      [
        "f",
        "ir"
      ],
      [
        "ri",
        "o</w>"
      ],
      [
        "o",
        "ther</w>"
      ],
      [
        "mor",
        "e</w>"
      ],
      [
        "s",
        "ur"
      ],
      [
        "ar",
        "d</w>"
      ],
      [
        "a",
        "v"
      ],
      [
        "un",
        "i"
      ],
      [
        "tr",
        "i"
      ],
      [
        "\"",
        ".</w>"
      ],
      [
        "d",
        "y</w>"
      ],
      [
        "ou",
        "r"
      ],
      [
        "b",
        "ack</w>"
      ],
      [
        "ar",
        "s</w>"
      ],
      [
        "ri",
        "a</w>"
      ],
      [
        "men",
        "to</w>"
      ],
      [
        "ic",
        "h</w>"
      ],
      [
        "b",
        "a"
      ],
      [
        "c",
        "r"
      ],
      [
        "g",
        "un"
      ],
      [
        "te",
        "mp"
      ],
      [
        "qu",
        "er</w>"
      ],
      [
        "k",
        "ed</w>"
      ],
      [
        "po",
        "is</w>"
      ],
      [
        "ant",
        "es</w>"
      ],
      [
        "d",
        "ar</w>"
      ],
      [
        "to",
        "dos</w>"
      ],
      [
        "go",
        "t</w>"
      ],
      [
        "ing",
        "s</w>"
      ],
      [
        "m",
        "i"
      ],
      [
        "vi",
        "da</w>"
      ],
      [
        "pesso",
        "as</w>"
      ],
      [
        "v",
        "en"
      ],
      [
        "a",
        "in"
      ],
      [
        "m",
        "el"
      ],
      [
        "va",
        "i</w>"
      ],
      [
        "gu",
        "ém</w>"
      ],
      [
        "in",
        "e</w>"
      ],
      [
        "est",
        "a</w>"
      ],
      [
        "in",
        "ter"
      ],
      [
        "at",
        "é</w>"
      ],
      [
        "w",
        "ant</w>"
      ],
      [
        "e",
        "l</w>"
      ],
      [
        "d",
        "ing</w>"
      ],
      [
        "p",
        "p"
      ],
      [
        "a",
        "da</w>"
      ],
      [
        "wh",
        "ere</w>"
      ],
      [
        "Q",
        "u"
      ],
      [
        "g",
        "ra"
      ],
      [
        "s",
        "on</w>"
      ],
      [
        "j",
        "a</w>"
      ],
      [
        "g",
        "re"
      ],
      [
        "wh",
        "ich</w>"
      ],
      [
        "se",
        "gu"
      ],
      [
        "ç",
        "ões</w>"
      ],
      [
        "es",
        "e</w>"
      ],
      [
        "m",
        "un"
      ],
      [
        "h",
        "u"
      ],
      [
        "v",
        "is"
      ],
      [
        "tu",
        "do</w>"
      ],
      [
        "co",
        "me</w>"
      ],
      [
        "ne",
        "w</w>"
      ],
      [
        "com",
        "p"
      ],
      [
        "s",
        "ó</w>"
      ],
      [
        "se",
        "e</w>"
      ],
      [
        "ar",
        "am</w>"
      ],
      [
        "pre",
        "cis"
      ],
      [
        "ar",
        "ia</w>"
      ],
      [
        "l",
        "ed</w>"
      ],
      [
        "an",
        "ce</w>"
      ],
      [
        "v",
        "o"
      ],
      [
        "t",
        "le</w>"
      ],
      [
        "or",
        "es</w>"
      ],
      [
        "l",
        "it"
      ],
      [
        "rig",
        "ht</w>"
      ],
      [
        "a",
        "u"
      ],
      [
        "g",
        "en"
      ],
      [
        "s",
        "p"
      ],
      [
        "on",
        "ly</w>"
      ],
      [
        "w",
        "i"
      ],
      [
        "i",
        "o</w>"
      ],
      [
        "ab",
        "al"
      ],
      [
        "S",
        "e</w>"
      ],
      [
        "ou",
        "n"
      ],
      [
        "v",
        "el"
      ],
      [
        "se",
        "i</w>"
      ],
      [
        "ma",
        "ke</w>"
      ],
      [
        "b",
        "l"
      ],
      [
        "p",
        "o</w>"
      ],
      [
        "an",
        "y</w>"
      ],
      [
        "g",
        "on"
      ],
      [
        "t",
        "w"
      ],
      [
        "se",
        "us</w>"
      ],
      [
        "p",
        "e</w>"
      ],
      [
        "tr",
        "abal"
      ],
      [
        "ic",
        "a</w>"
      ],
      [
        "ad",
        "os</w>"
      ],
      [
        "l",
        "o</w>"
      ],
      [
        "t",
        "el"
      ],
      [
        "c",
        "al"
      ],
      [
        "l",
        "a</w>"
      ],
      [
        "M",
        "as</w>"
      ],
      [
        "r",
        "o</w>"
      ],
      [
        "b",
        "em</w>"
      ],
      [
        "al",
        "mente</w>"
      ],
      [
        "B",
        "ut</w>"
      ],
      [
        "b",
        "le</w>"
      ],
      [
        "o",
        "b"
      ],
      [
        "go",
        "ing</w>"
      ],
      [
        "ou",
        "s</w>"
      ],
      [
        "v",
        "ing</w>"
      ],
      [
        "t",
        "re"
      ],
      [
        "por",
        "t"
      ],
      [
        "es",
        "te</w>"
      ],
      [
        "ç",
        "o</w>"
      ],
      [
        "tr",
        "an"
      ],
      [
        "c",
        "an"
      ],
      [
        "ên",
        "cia</w>"
      ],
      [
        "e",
        "t</w>"
      ],
      [
        "0",
        "0</w>"
      ],
      [
        "o",
        "ver</w>"
      ],
      [
        "n",
        "ós</w>"
      ],
      [
        "li",
        "fe</w>"
      ],
      [
        "b",
        "er"
      ],
      [
        "co",
        "me"
      ],
      [
        "in",
        "do</w>"
      ],
      [
        "de",
        "ix"
      ],
      [
        "r",
        "el"
      ],
      [
        "I",
        "t</w>"
      ],
      [
        "en",
        "ce</w>"
      ],
      [
        "b",
        "ri"
      ],
      [
        "s",
        "in"
      ],
      [
        "m",
        "er"
      ],
      [
        "m",
        "ul"
      ],
      [
        "o",
        "se</w>"
      ],
      [
        "c",
        "t</w>"
      ],
      [
        "ta",
        "ke</w>"
      ],
      [
        "w",
        "o"
      ],
      [
        "ag",
        "ora</w>"
      ],
      [
        "s",
        "em</w>"
      ],
      [
        "an",
        "y"
      ],
      [
        "gon",
        "na</w>"
      ],
      [
        "temp",
        "o</w>"
      ],
      [
        "po",
        "der"
      ],
      [
        "a",
        "is</w>"
      ],
      [
        "h",
        "á</w>"
      ],
      [
        "th",
        "an</w>"
      ],
      [
        "W",
        "h"
      ],
      [
        "v",
        "es</w>"
      ],
      [
        "di",
        "zer</w>"
      ],
      [
        "c",
        "ur"
      ],
      [
        "ca",
        "l</w>"
      ],
      [
        "qu",
        "anto</w>"
      ],
      [
        "j",
        "e"
      ],
      [
        "for",
        "e</w>"
      ],
      [
        "e",
        "ver"
      ],
      [
        "mes",
        "mo</w>"
      ],
      [
        "qu",
        "e"
      ],
      [
        "I",
        "f</w>"
      ],
      [
        "si",
        "m</w>"
      ],
      [
        "t",
        "es</w>"
      ],
      [
        "E",
        "n"
      ],
      [
        "f",
        "ri"
      ],
      [
        "on",
        "de</w>"
      ],
      [
        "dis",
        "se</w>"
      ],
      [
        "an",
        "g"
      ],
      [
        "a",
        "ti"
      ],
      [
        "h",
        "or</w>"
      ],
      [
        "l",
        "ing</w>"
      ],
      [
        "do",
        "wn</w>"
      ],
      [
        "p",
        "ass"
      ],
      [
        "pl",
        "an"
      ],
      [
        "ca",
        "sa</w>"
      ],
      [
        "W",
        "e</w>"
      ],
      [
        "th",
        "ese</w>"
      ],
      [
        "h",
        "el"
      ],
      [
        "N",
        "ão</w>"
      ],
      [
        "ye",
        "ars</w>"
      ],
      [
        "es",
        "sa</w>"
      ],
      [
        "ev",
        "en</w>"
      ],
      [
        "est",
        "ão</w>"
      ],
      [
        "f",
        "un"
      ],
      [
        "di",
        "re"
      ],
      [
        "ever",
        "y"
      ],
      [
        "sel",
        "f</w>"
      ],
      [
        "en",
        "d</w>"
      ],
      [
        "co",
        "s</w>"
      ],
      [
        "m",
        "ã"
      ],
      [
        "re",
        "ally</w>"
      ],
      [
        "p",
        "h"
      ],
      [
        "tw",
        "o</w>"
      ],
      [
        "oug",
        "ht</w>"
      ],
      [
        "de",
        "pois</w>"
      ],
      [
        "pel",
        "o</w>"
      ],
      [
        "tr",
        "u"
      ],
      [
        "s",
        "te"
      ],
      [
        "en",
        "contr"
      ],
      [
        "fir",
        "st</w>"
      ],
      [
        "lit",
        "tle</w>"
      ],
      [
        "te",
        "c"
      ],
      [
        "some",
        "thing</w>"
      ],
      [
        "al",
        "go</w>"
      ],
      [
        "m",
        "es</w>"
      ],
      [
        "a",
        "tion</w>"
      ],
      [
        "en",
        "to</w>"
      ],
      [
        "mun",
        "do</w>"
      ],
      [
        "d",
        "ed</w>"
      ],
      [
        "ca",
        "s"
      ],
      [
        "sa",
        "y</w>"
      ],
      [
        "p",
        "on"
      ],
      [
        "h",
        "or"
      ],
      [
        "it",
        "a</w>"
      ],
      [
        "be",
        "fore</w>"
      ],
      [
        "cois",
        "a</w>"
      ],
      [
        "h",
        "ar</w>"
      ],
      [
        "c",
        "k</w>"
      ],
      [
        "d",
        "in"
      ],
      [
        "h",
        "os</w>"
      ],
      [
        "ta",
        "l</w>"
      ],
      [
        "an",
        "i"
      ],
      [
        "v",
        "ed</w>"
      ],
      [
        "S",
        "o</w>"
      ],
      [
        "st",
        "ar"
      ],
      [
        "h",
        "er"
      ],
      [
        "tin",
        "ha</w>"
      ],
      [
        "n",
        "ing</w>"
      ],
      [
        "t",
        "as</w>"
      ],
      [
        "ch",
        "o"
      ],
      [
        "s",
        "pe"
      ],
      [
        "a",
        "te</w>"
      ],
      [
        "en",
        "ti"
      ],
      [
        "st",
        "u"
      ],
      [
        "s",
        "ho"
      ],
      [
        "re",
        "d</w>"
      ],
      [
        "of",
        "f</w>"
      ],
      [
        "af",
        "ter</w>"
      ],
      [
        "wor",
        "ld</w>"
      ],
      [
        "an",
        "ça</w>"
      ],
      [
        "bo",
        "dy</w>"
      ],
      [
        "o",
        "m</w>"
      ],
      [
        "ag",
        "e</w>"
      ],
      [
        "ent",
        "es</w>"
      ],
      [
        "ab",
        "le</w>"
      ],
      [
        "ca",
        "p"
      ],
      [
        "ci",
        "al</w>"
      ],
      [
        "h",
        "ou"
      ],
      [
        "v",
        "ou</w>"
      ],
      [
        "in",
        "d</w>"
      ],
      [
        "o",
        "l</w>"
      ],
      [
        "V",
        "ocê</w>"
      ],
      [
        "h",
        "ar"
      ],
      [
        "al",
        "g"
      ],
      [
        "in",
        "v"
      ],
      [
        "ma",
        "g"
      ],
      [
        "b",
        "ar"
      ],
      [
        "t",
        "or</w>"
      ],
      [
        "p",
        "as"
      ],
      [
        "est",
        "ou</w>"
      ],
      [
        "f",
        "ac"
      ],
      [
        "di",
        "f"
      ],
      [
        "s",
        "os</w>"
      ],
      [
        "v",
        "oc"
      ],
      [
        "th",
        "r"
      ],
      [
        "s",
        "al"
      ],
      [
        "pr",
        "a</w>"
      ],
      [
        "al",
        "guém</w>"
      ],
      [
        "c",
        "ar</w>"
      ],
      [
        "g",
        "a</w>"
      ],
      [
        "fa",
        "z"
      ],
      [
        "t",
        "ell</w>"
      ],
      [
        "pri",
        "me"
      ],
      [
        "me",
        "n</w>"
      ],
      [
        "m",
        "im</w>"
      ],
      [
        "mo",
        "st</w>"
      ],
      [
        "l",
        "s</w>"
      ],
      [
        "r",
        "y</w>"
      ],
      [
        "be",
        "t"
      ],
      [
        "pr",
        "ó"
      ],
      [
        "b",
        "an"
      ],
      [
        "cois",
        "as</w>"
      ],
      [
        "ic",
        "e</w>"
      ],
      [
        "ho",
        "m"
      ],
      [
        "e",
        "ver</w>"
      ],
      [
        "d",
        "ur"
      ],
      [
        "sa",
        "id</w>"
      ],
      [
        "ma",
        "t"
      ],
      [
        "es",
        "per"
      ],
      [
        "con",
        "he"
      ],
      [
        "p",
        "ela</w>"
      ],
      [
        "ne",
        "ver</w>"
      ],
      [
        "co",
        "un"
      ],
      [
        "in",
        "a</w>"
      ],
      [
        "e",
        "mos</w>"
      ],
      [
        "p",
        "ul"
      ],
      [
        "n",
        "or"
      ],
      [
        "di",
        "d</w>"
      ],
      [
        "si",
        "g"
      ],
      [
        "W",
        "ell</w>"
      ],
      [
        "qu",
        "i"
      ],
      [
        "pro",
        "b"
      ],
      [
        "d",
        "es</w>"
      ],
      [
        "z",
        "es</w>"
      ],
      [
        "on",
        "al</w>"
      ],
      [
        "t",
        "ar"
      ],
      [
        "to",
        "do</w>"
      ],
      [
        "d",
        "ele</w>"
      ],
      [
        "no",
        "ite</w>"
      ],
      [
        "pen",
        "s"
      ],
      [
        "ti",
        "ve</w>"
      ],
      [
        "di",
        "dn</w>"
      ],
      [
        "w",
        "s</w>"
      ],
      [
        "z",
        "a</w>"
      ],
      [
        "voc",
        "ês</w>"
      ],
      [
        "un",
        "ca</w>"
      ],
      [
        "h",
        "ist"
      ],
      [
        "lo",
        "o"
      ],
      [
        "th",
        "ose</w>"
      ],
      [
        "fin",
        "d</w>"
      ],
      [
        "ç",
        "as</w>"
      ],
      [
        "t",
        "ent"
      ],
      [
        "a",
        "con"
      ],
      [
        "ain",
        "da</w>"
      ],
      [
        "go",
        "od</w>"
      ],
      [
        "e",
        "p</w>"
      ],
      [
        "an",
        "o</w>"
      ],
      [
        "ne",
        "ed</w>"
      ],
      [
        "w",
        "ell</w>"
      ],
      [
        "be",
        "ing</w>"
      ],
      [
        "a",
        "tr"
      ],
      [
        "í",
        "vel</w>"
      ],
      [
        "l",
        "á</w>"
      ],
      [
        "a",
        "par"
      ],
      [
        "ur",
        "e</w>"
      ],
      [
        "it",
        "s</w>"
      ],
      [
        "e",
        "y</w>"
      ],
      [
        "su",
        "as</w>"
      ],
      [
        "pr",
        "oc"
      ],
      [
        "il",
        "e</w>"
      ],
      [
        "p",
        "s</w>"
      ],
      [
        ".",
        "\".</w>"
      ],
      [
        "pr",
        "e</w>"
      ],
      [
        "gr",
        "an"
      ],
      [
        "l",
        "on"
      ],
      [
        "v",
        "al"
      ],
      [
        "re",
        "e</w>"
      ],
      [
        "e",
        "very</w>"
      ],
      [
        "sab",
        "e</w>"
      ],
      [
        "ti",
        "r</w>"
      ],
      [
        "thr",
        "ough</w>"
      ],
      [
        "qu",
        "em</w>"
      ],
      [
        "j",
        "á</w>"
      ],
      [
        "hom",
        "em</w>"
      ],
      [
        "pa",
        "i</w>"
      ],
      [
        "ta",
        "mb"
      ],
      [
        "ic",
        "o</w>"
      ],
      [
        "si",
        "de</w>"
      ],
      [
        "el",
        "e"
      ],
      [
        "v",
        "amos</w>"
      ],
      [
        "fu",
        "l</w>"
      ],
      [
        "oc",
        "i"
      ],
      [
        "f",
        "t</w>"
      ],
      [
        "th",
        "ings</w>"
      ],
      [
        "wor",
        "k</w>"
      ],
      [
        "n",
        "unca</w>"
      ],
      [
        "N",
        "o"
      ],
      [
        "at",
        "ed</w>"
      ],
      [
        "u",
        "p"
      ],
      [
        "pl",
        "a"
      ],
      [
        "an",
        "s</w>"
      ],
      [
        "le",
        "t</w>"
      ],
      [
        "me",
        "mb"
      ],
      [
        "po",
        "li"
      ],
      [
        "tamb",
        "ém</w>"
      ],
      [
        "T",
        "h"
      ],
      [
        "ig",
        "o</w>"
      ],
      [
        "na",
        "da</w>"
      ],
      [
        "am",
        "ento</w>"
      ],
      [
        "con",
        "segu"
      ],
      [
        "m",
        "s</w>"
      ],
      [
        "n",
        "ed</w>"
      ],
      [
        "p",
        "ou"
      ],
      [
        "il",
        "y</w>"
      ],
      [
        "per",
        "i"
      ],
      [
        "ac",
        "h</w>"
      ],
      [
        "ol",
        "d</w>"
      ],
      [
        "b",
        "ro"
      ],
      [
        "li",
        "g"
      ],
      [
        "a",
        "ju"
      ],
      [
        "ten",
        "ho</w>"
      ],
      [
        "d",
        "re"
      ],
      [
        "b",
        "re"
      ],
      [
        "in",
        "c"
      ],
      [
        "En",
        "tão</w>"
      ],
      [
        "pen",
        "as</w>"
      ],
      [
        "mu",
        "ch</w>"
      ],
      [
        "se",
        "m"
      ],
      [
        "k",
        "no"
      ],
      [
        "mel",
        "hor</w>"
      ],
      [
        "e",
        "ce</w>"
      ],
      [
        "n",
        "ight</w>"
      ],
      [
        "in",
        "ha</w>"
      ],
      [
        "ca",
        "da</w>"
      ],
      [
        "ac",
        "i"
      ],
      [
        "as",
        "sim</w>"
      ],
      [
        "Qu",
        "ando</w>"
      ],
      [
        "tr",
        "y</w>"
      ],
      [
        "fic",
        "ar</w>"
      ],
      [
        "po",
        "l"
      ],
      [
        "e",
        "ar"
      ],
      [
        "qu",
        "al"
      ],
      [
        "w",
        "at"
      ],
      [
        "im",
        "port"
      ],
      [
        "u",
        "g"
      ],
      [
        "s",
        "to"
      ],
      [
        "ma",
        "de</w>"
      ],
      [
        "l",
        "ast</w>"
      ],
      [
        "p",
        "al"
      ],
      [
        "ar",
        "ound</w>"
      ],
      [
        "re",
        "d"
      ],
      [
        "s",
        "or"
      ],
      [
        "á",
        "rio</w>"
      ],
      [
        "í",
        "ci"
      ],
      [
        "he",
        "iro</w>"
      ],
      [
        "a",
        "ca"
      ],
      [
        "r",
        "is"
      ],
      [
        "sem",
        "pre</w>"
      ],
      [
        "vi",
        "a</w>"
      ],
      [
        "le",
        "v"
      ],
      [
        "or",
        "y</w>"
      ],
      [
        "â",
        "n"
      ],
      [
        "j",
        "un"
      ],
      [
        "f",
        "l"
      ],
      [
        "ti",
        "v"
      ],
      [
        "gran",
        "de</w>"
      ],
      [
        "v",
        "en</w>"
      ],
      [
        "H",
        "e</w>"
      ],
      [
        "a",
        "penas</w>"
      ],
      [
        "s",
        "an"
      ],
      [
        "c",
        "en"
      ],
      [
        "li",
        "a</w>"
      ],
      [
        "ad",
        "as</w>"
      ],
      [
        "it",
        "os</w>"
      ],
      [
        "b",
        "eli"
      ],
      [
        "est",
        "ar</w>"
      ],
      [
        "ch",
        "ar"
      ],
      [
        "g",
        "er"
      ],
      [
        "p",
        "ut</w>"
      ],
      [
        "b",
        "us"
      ],
      [
        "lu",
        "gar</w>"
      ],
      [
        "ma",
        "i"
      ],
      [
        "sh",
        "ould</w>"
      ],
      [
        "nos",
        "so</w>"
      ],
      [
        "sti",
        "ll</w>"
      ],
      [
        "qual",
        "quer</w>"
      ],
      [
        "con",
        "tin"
      ],
      [
        "su",
        "b"
      ],
      [
        "E",
        "le</w>"
      ],
      [
        "i",
        "de"
      ],
      [
        "n",
        "as</w>"
      ],
      [
        "á",
        "s</w>"
      ],
      [
        "ca",
        "me</w>"
      ],
      [
        "l",
        "es</w>"
      ],
      [
        "s",
        "se</w>"
      ],
      [
        "e",
        "ve</w>"
      ],
      [
        "g",
        "ir"
      ],
      [
        "b",
        "as"
      ],
      [
        "d",
        "en"
      ],
      [
        "s",
        "as</w>"
      ],
      [
        "gi",
        "ve</w>"
      ],
      [
        "ac",
        "ho</w>"
      ],
      [
        "wa",
        "ys</w>"
      ],
      [
        "pl",
        "ace</w>"
      ],
      [
        "n",
        "u"
      ],
      [
        "tran",
        "s"
      ],
      [
        "am",
        "ente</w>"
      ],
      [
        "do",
        "is</w>"
      ],
      [
        "g",
        "an"
      ],
      [
        "mã",
        "e</w>"
      ],
      [
        "wi",
        "th"
      ],
      [
        "come",
        "ç"
      ],
      [
        "b",
        "ra"
      ],
      [
        "ig",
        "h"
      ],
      [
        "k",
        "il"
      ],
      [
        "m",
        "ar</w>"
      ],
      [
        "d",
        "em</w>"
      ],
      [
        "in",
        "for"
      ],
      [
        "nos",
        "sa</w>"
      ],
      [
        "w",
        "al"
      ],
      [
        "t",
        "ting</w>"
      ],
      [
        "c",
        "er</w>"
      ],
      [
        "us",
        "ed</w>"
      ],
      [
        "re",
        "ce"
      ],
      [
        "c",
        "le"
      ],
      [
        "e",
        "mb"
      ],
      [
        "o",
        "wn</w>"
      ],
      [
        "i",
        "am</w>"
      ],
      [
        "an",
        "ti"
      ],
      [
        "h",
        "on"
      ],
      [
        "a",
        "se</w>"
      ],
      [
        "un",
        "der"
      ],
      [
        "es",
        "col"
      ],
      [
        "ta",
        "mente</w>"
      ],
      [
        "e",
        "f"
      ],
      [
        "ent",
        "s</w>"
      ],
      [
        "b",
        "li"
      ],
      [
        "g",
        "er</w>"
      ],
      [
        "des",
        "co"
      ],
      [
        "i",
        "do</w>"
      ],
      [
        "lo",
        "ok</w>"
      ],
      [
        "wh",
        "y</w>"
      ],
      [
        "ta",
        "do</w>"
      ],
      [
        "str",
        "u"
      ],
      [
        "th",
        "ought</w>"
      ],
      [
        "co",
        "ur"
      ],
      [
        "ant",
        "ed</w>"
      ],
      [
        "some",
        "one</w>"
      ],
      [
        "ali",
        "z"
      ],
      [
        "it",
        "ar</w>"
      ],
      [
        "am",
        "er"
      ],
      [
        "m",
        "ight</w>"
      ],
      [
        "m",
        "al"
      ],
      [
        "f",
        "ound</w>"
      ],
      [
        "l",
        "and</w>"
      ],
      [
        "outr",
        "o</w>"
      ],
      [
        "el",
        "as</w>"
      ],
      [
        "or",
        "i"
      ],
      [
        "de",
        "ci"
      ],
      [
        "contin",
        "u"
      ],
      [
        "d",
        "r"
      ],
      [
        "is",
        "h</w>"
      ],
      [
        "j",
        "e</w>"
      ],
      [
        "w",
        "r"
      ],
      [
        "lo",
        "ve</w>"
      ],
      [
        "ti",
        "ons</w>"
      ],
      [
        "ú",
        "n"
      ],
      [
        "poder",
        "ia</w>"
      ],
      [
        "fam",
        "í"
      ],
      [
        "l",
        "ti"
      ],
      [
        "ar",
        "á</w>"
      ],
      [
        "si",
        "on</w>"
      ],
      [
        "at",
        "h</w>"
      ],
      [
        "w",
        "er</w>"
      ],
      [
        "ad",
        "or</w>"
      ],
      [
        "ag",
        "em</w>"
      ],
      [
        "ó",
        "ria</w>"
      ],
      [
        "to",
        "ld</w>"
      ],
      [
        "g",
        "ur"
      ],
      [
        "ro",
        "s"
      ],
      [
        "ti",
        "l</w>"
      ],
      [
        "ho",
        "me</w>"
      ],
      [
        "ver",
        "dade</w>"
      ],
      [
        "sh",
        "i"
      ],
      [
        "ú",
        "lti"
      ],
      [
        "hou",
        "se</w>"
      ],
      [
        "to",
        "da</w>"
      ],
      [
        "er",
        "am</w>"
      ],
      [
        "t",
        "on</w>"
      ],
      [
        "pr",
        "is"
      ],
      [
        "so",
        "l"
      ],
      [
        "quer",
        "o</w>"
      ],
      [
        "Wh",
        "en</w>"
      ],
      [
        "s",
        "y"
      ],
      [
        "cl",
        "ar"
      ],
      [
        "ad",
        "y</w>"
      ],
      [
        "ch",
        "il"
      ],
      [
        "min",
        "u"
      ],
      [
        "á",
        "vel</w>"
      ],
      [
        "di",
        "z"
      ],
      [
        "go",
        "ver"
      ],
      [
        "b",
        "el"
      ],
      [
        "ma",
        "y"
      ],
      [
        "di",
        "o</w>"
      ],
      [
        "w",
        "ar"
      ],
      [
        "ex",
        "p"
      ],
      [
        "an",
        "c"
      ],
      [
        "entr",
        "e</w>"
      ],
      [
        "fam",
        "ily</w>"
      ],
      [
        "a",
        "in</w>"
      ],
      [
        "ma",
        "l</w>"
      ],
      [
        "tal",
        "vez</w>"
      ],
      [
        "o",
        "le</w>"
      ],
      [
        "ma",
        "y</w>"
      ],
      [
        "ar",
        "y</w>"
      ],
      [
        "l",
        "ong</w>"
      ],
      [
        "s",
        "is"
      ],
      [
        "h",
        "i"
      ],
      [
        "car",
        "a</w>"
      ],
      [
        "k",
        "es</w>"
      ],
      [
        "st",
        "a</w>"
      ],
      [
        "v",
        "em</w>"
      ],
      [
        "re",
        "s</w>"
      ],
      [
        "tr",
        "o"
      ],
      [
        "s",
        "on"
      ],
      [
        "a",
        "way</w>"
      ],
      [
        "ass",
        "in"
      ],
      [
        "c",
        "lo"
      ],
      [
        "v",
        "am</w>"
      ],
      [
        "w",
        "anted</w>"
      ],
      [
        "ha",
        "p"
      ],
      [
        "s",
        "us"
      ],
      [
        "din",
        "heiro</w>"
      ],
      [
        "a",
        "va</w>"
      ],
      [
        "w",
        "as"
      ],
      [
        "a",
        "h</w>"
      ],
      [
        "par",
        "ti"
      ],
      [
        "in",
        "s</w>"
      ],
      [
        "trabal",
        "ho</w>"
      ],
      [
        "b",
        "ur"
      ],
      [
        "b",
        "at"
      ],
      [
        "es",
        "pe"
      ],
      [
        "wh",
        "ile</w>"
      ],
      [
        "to",
        "o</w>"
      ],
      [
        "ci",
        "dade</w>"
      ],
      [
        "d",
        "ela</w>"
      ],
      [
        "I",
        "n</w>"
      ],
      [
        "x",
        "i"
      ],
      [
        "k",
        "a"
      ],
      [
        "ent",
        "en"
      ],
      [
        "prob",
        "le"
      ],
      [
        "sa",
        "me</w>"
      ],
      [
        "tur",
        "e</w>"
      ],
      [
        "v",
        "ir"
      ],
      [
        "w",
        "ing</w>"
      ],
      [
        "n",
        "er</w>"
      ],
      [
        "A",
        "s</w>"
      ],
      [
        "s",
        "ou"
      ],
      [
        "l",
        "ar"
      ],
      [
        "con",
        "si"
      ],
      [
        "á",
        "ri"
      ],
      [
        "we",
        "e"
      ],
      [
        "ti",
        "r"
      ],
      [
        "i",
        "mag"
      ],
      [
        "hel",
        "p</w>"
      ],
      [
        "at",
        "ing</w>"
      ],
      [
        "to",
        "das</w>"
      ],
      [
        "al",
        "ways</w>"
      ],
      [
        "fe",
        "z</w>"
      ],
      [
        "lo",
        "w</w>"
      ],
      [
        "l",
        "er</w>"
      ],
      [
        "i",
        "l</w>"
      ],
      [
        "se",
        "gur"
      ],
      [
        "m",
        "ur"
      ],
      [
        "mon",
        "ey</w>"
      ],
      [
        "gun",
        "s</w>"
      ],
      [
        "b",
        "or"
      ],
      [
        "r",
        "ou"
      ],
      [
        "famí",
        "lia</w>"
      ],
      [
        "ar",
        "r"
      ],
      [
        "vi",
        "d"
      ],
      [
        "qu",
        "is"
      ],
      [
        "le",
        "g"
      ],
      [
        "pou",
        "co</w>"
      ],
      [
        "comp",
        "le"
      ],
      [
        "acon",
        "tec"
      ],
      [
        "al",
        "so</w>"
      ],
      [
        "l",
        "he</w>"
      ],
      [
        "ag",
        "o</w>"
      ],
      [
        "te",
        "mos</w>"
      ],
      [
        "pos",
        "s"
      ],
      [
        "me",
        "an</w>"
      ],
      [
        "k",
        "ind</w>"
      ],
      [
        "en",
        "quanto</w>"
      ],
      [
        "ic",
        "k</w>"
      ],
      [
        "c",
        "li"
      ],
      [
        "el",
        "y</w>"
      ],
      [
        "se",
        "ja</w>"
      ],
      [
        "ti",
        "po</w>"
      ],
      [
        "lo",
        "t</w>"
      ],
      [
        "1",
        "9"
      ],
      [
        "re",
        "g"
      ],
      [
        "ha",
        "m</w>"
      ],
      [
        "ca",
        "us"
      ],
      [
        "x",
        "t</w>"
      ],
      [
        "su",
        "p"
      ],
      [
        "ye",
        "ar</w>"
      ],
      [
        "pe",
        "di"
      ],
      [
        "sur",
        "e</w>"
      ],
      [
        "fic",
        "a</w>"
      ],
      [
        "ti",
        "mes</w>"
      ],
      [
        "a",
        "k</w>"
      ],
      [
        "c",
        "us"
      ],
      [
        "me",
        "di"
      ],
      [
        "No",
        "w</w>"
      ],
      [
        "re",
        "al</w>"
      ],
      [
        "for",
        "a</w>"
      ],
      [
        "man",
        "y</w>"
      ],
      [
        "gre",
        "at</w>"
      ],
      [
        "d",
        "ro"
      ],
      [
        "fa",
        "ther</w>"
      ],
      [
        "hap",
        "pen"
      ],
      [
        "ca",
        "do</w>"
      ],
      [
        "ter",
        "r"
      ],
      [
        "for",
        "am</w>"
      ],
      [
        "he",
        "y</w>"
      ],
      [
        "po",
        "si"
      ],
      [
        "co",
        "u</w>"
      ],
      [
        "quer",
        "ia</w>"
      ],
      [
        "par",
        "te</w>"
      ],
      [
        "tor",
        "n"
      ],
      [
        "pos",
        "so</w>"
      ],
      [
        "any",
        "thing</w>"
      ],
      [
        "s",
        "it"
      ],
      [
        "w",
        "ent</w>"
      ],
      [
        "pesso",
        "a</w>"
      ],
      [
        "fe",
        "el</w>"
      ],
      [
        "es",
        "p"
      ],
      [
        "gar",
        "o"
      ],
      [
        "ho",
        "je</w>"
      ],
      [
        "B",
        "em</w>"
      ],
      [
        "N",
        "o</w>"
      ],
      [
        "every",
        "thing</w>"
      ],
      [
        "is",
        "ta</w>"
      ],
      [
        "de",
        "mos</w>"
      ],
      [
        "no",
        "vo</w>"
      ],
      [
        "me",
        "us</w>"
      ],
      [
        "i",
        "u</w>"
      ],
      [
        "in",
        "t</w>"
      ],
      [
        "s",
        "how</w>"
      ],
      [
        "re",
        "almente</w>"
      ],
      [
        "st",
        "and</w>"
      ],
      [
        "hu",
        "man"
      ],
      [
        "C",
        "o"
      ],
      [
        "ex",
        "peri"
      ],
      [
        "it",
        "al</w>"
      ],
      [
        "m",
        "é"
      ],
      [
        "th",
        "ree</w>"
      ],
      [
        "m",
        "y"
      ],
      [
        "en",
        "g"
      ],
      [
        "s",
        "es</w>"
      ],
      [
        "l",
        "in"
      ],
      [
        "ci",
        "on"
      ],
      [
        "w",
        "an"
      ],
      [
        "de",
        "u</w>"
      ],
      [
        "le",
        "mb"
      ],
      [
        "k",
        "i"
      ],
      [
        "ess",
        "es</w>"
      ],
      [
        "gu",
        "e</w>"
      ],
      [
        "l",
        "ess</w>"
      ],
      [
        "mul",
        "her</w>"
      ],
      [
        "ve",
        "zes</w>"
      ],
      [
        "d",
        "or</w>"
      ],
      [
        "fi",
        "ci"
      ],
      [
        "p",
        "t</w>"
      ],
      [
        "tr",
        "ying</w>"
      ],
      [
        "qu",
        "en"
      ],
      [
        "u",
        "h</w>"
      ],
      [
        "c",
        "in"
      ],
      [
        "n",
        "e</w>"
      ],
      [
        "c",
        "tion</w>"
      ],
      [
        "i",
        "c</w>"
      ],
      [
        "ag",
        "ain</w>"
      ],
      [
        "entr",
        "o</w>"
      ],
      [
        "contr",
        "a</w>"
      ],
      [
        "ch",
        "ance</w>"
      ],
      [
        "at",
        "ur"
      ],
      [
        "pro",
        "du"
      ],
      [
        "m",
        "it"
      ],
      [
        "men",
        "os</w>"
      ],
      [
        "pol",
        "í"
      ],
      [
        "c",
        "k"
      ],
      [
        "ne",
        "xt</w>"
      ],
      [
        "ke",
        "ep</w>"
      ],
      [
        "s",
        "ou</w>"
      ],
      [
        "may",
        "be</w>"
      ],
      [
        "for",
        "ma</w>"
      ],
      [
        "-",
        "-</w>"
      ],
      [
        "n",
        "em</w>"
      ],
      [
        "is",
        "t</w>"
      ],
      [
        "ta",
        "in</w>"
      ],
      [
        "ser",
        "ia</w>"
      ],
      [
        "t",
        "ou</w>"
      ],
      [
        "s",
        "r</w>"
      ],
      [
        "he",
        "ad</w>"
      ],
      [
        "es",
        "tr"
      ],
      [
        "ass",
        "assin"
      ],
      [
        "sab",
        "er</w>"
      ],
      [
        "d",
        "oc"
      ],
      [
        "de",
        "f"
      ],
      [
        "an",
        "other</w>"
      ],
      [
        "n",
        "in"
      ],
      [
        "ir",
        "os</w>"
      ],
      [
        "ti",
        "c"
      ],
      [
        "al",
        "s</w>"
      ],
      [
        "beli",
        "eve</w>"
      ],
      [
        "l",
        "os</w>"
      ],
      [
        "bi",
        "g</w>"
      ],
      [
        "outr",
        "a</w>"
      ],
      [
        "v",
        "ic"
      ],
      [
        "ha",
        "pp"
      ],
      [
        "do",
        "ing</w>"
      ],
      [
        "gu",
        "y</w>"
      ],
      [
        "m",
        "r</w>"
      ],
      [
        "í",
        "amos</w>"
      ],
      [
        "pos",
        "si"
      ],
      [
        "ter",
        "min"
      ],
      [
        "c",
        "ra"
      ],
      [
        "ro",
        "w</w>"
      ],
      [
        "d",
        "ri"
      ],
      [
        "i",
        "on</w>"
      ],
      [
        "un",
        "til</w>"
      ],
      [
        "o",
        "so</w>"
      ],
      [
        "esta",
        "mos</w>"
      ],
      [
        "ac",
        "red"
      ],
      [
        "le",
        "ft</w>"
      ],
      [
        "t",
        "on"
      ],
      [
        "l",
        "ado</w>"
      ],
      [
        "fal",
        "ar</w>"
      ],
      [
        "se",
        "man"
      ],
      [
        "d",
        "ar"
      ],
      [
        "di",
        "as</w>"
      ],
      [
        "li",
        "v"
      ],
      [
        "T",
        "hey</w>"
      ],
      [
        "ou",
        "l"
      ],
      [
        "de",
        "ve</w>"
      ],
      [
        "infor",
        "ma"
      ],
      [
        "n",
        "am"
      ],
      [
        "per",
        "gun"
      ],
      [
        "ser",
        "á</w>"
      ],
      [
        "he",
        "ar"
      ],
      [
        "pro",
        "te"
      ],
      [
        "ge",
        "ther</w>"
      ],
      [
        "l",
        "an"
      ],
      [
        "t",
        "en</w>"
      ],
      [
        "h",
        "ã</w>"
      ],
      [
        "outr",
        "os</w>"
      ],
      [
        "b",
        "al"
      ],
      [
        "se",
        "cre"
      ],
      [
        "s",
        "k"
      ],
      [
        "T",
        "his</w>"
      ],
      [
        "al",
        "guns</w>"
      ],
      [
        "with",
        "out</w>"
      ],
      [
        "to",
        "gether</w>"
      ],
      [
        "b",
        "est</w>"
      ],
      [
        "m",
        "ust</w>"
      ],
      [
        "an",
        "ge</w>"
      ],
      [
        "m",
        "ão</w>"
      ],
      [
        "alg",
        "um</w>"
      ],
      [
        "e",
        "qui"
      ],
      [
        "s",
        "cho"
      ],
      [
        "wo",
        "man</w>"
      ],
      [
        "a",
        "ções</w>"
      ],
      [
        "fri",
        "end</w>"
      ],
      [
        "in",
        "di"
      ],
      [
        "à",
        "s</w>"
      ],
      [
        "pres",
        "id"
      ],
      [
        "h",
        "an"
      ],
      [
        "í",
        "n"
      ],
      [
        "it",
        "as</w>"
      ],
      [
        "j",
        "o</w>"
      ],
      [
        "f",
        "re"
      ],
      [
        "ca",
        "so</w>"
      ],
      [
        "am",
        "ig"
      ],
      [
        "ec",
        "er</w>"
      ],
      [
        "th",
        "er"
      ],
      [
        "t",
        "est"
      ],
      [
        "sin",
        "ce</w>"
      ],
      [
        "aca",
        "b"
      ],
      [
        "bu",
        "il"
      ],
      [
        "aqu",
        "ele</w>"
      ],
      [
        "f",
        "f</w>"
      ],
      [
        "k",
        "en</w>"
      ],
      [
        "0",
        "00</w>"
      ],
      [
        "we",
        "en</w>"
      ],
      [
        "fe",
        "ito</w>"
      ],
      [
        "ti",
        "c</w>"
      ],
      [
        "h",
        "al"
      ],
      [
        "j",
        "us"
      ],
      [
        "w",
        "il"
      ],
      [
        "con",
        "ta"
      ],
      [
        "bet",
        "ter</w>"
      ],
      [
        "g",
        "ia</w>"
      ],
      [
        "h",
        "ora</w>"
      ],
      [
        "men",
        "tos</w>"
      ],
      [
        "ro",
        "om</w>"
      ],
      [
        "b",
        "lo"
      ],
      [
        "en",
        "s</w>"
      ],
      [
        "per",
        "son</w>"
      ],
      [
        "da",
        "des</w>"
      ],
      [
        "l",
        "at"
      ],
      [
        "o",
        "per"
      ],
      [
        "vol",
        "ta</w>"
      ],
      [
        "f",
        "ul"
      ],
      [
        "memb",
        "er</w>"
      ],
      [
        "s",
        "ha"
      ],
      [
        "v",
        "i</w>"
      ],
      [
        "a",
        "os</w>"
      ],
      [
        "t",
        "ly</w>"
      ],
      [
        "oc",
        "k</w>"
      ],
      [
        "in",
        "o</w>"
      ],
      [
        "es",
        "n</w>"
      ],
      [
        "desco",
        "bri"
      ],
      [
        "s",
        "oci"
      ],
      [
        "our",
        "s</w>"
      ],
      [
        "ac",
        "tu"
      ],
      [
        "m",
        "á"
      ],
      [
        "pe",
        "quen"
      ],
      [
        "fr",
        "on"
      ],
      [
        "ter",
        "s</w>"
      ],
      [
        "en",
        "h"
      ],
      [
        "en",
        "ough</w>"
      ],
      [
        "mo",
        "mento</w>"
      ],
      [
        "do",
        "esn</w>"
      ],
      [
        "of",
        "fic"
      ],
      [
        "tr",
        "ês</w>"
      ],
      [
        "ca",
        "se</w>"
      ],
      [
        "da",
        "ys</w>"
      ],
      [
        "f",
        "ar"
      ],
      [
        "hist",
        "ória</w>"
      ],
      [
        "bo",
        "m</w>"
      ],
      [
        "fe",
        "w</w>"
      ],
      [
        "di",
        "fer"
      ],
      [
        "ag",
        "ain"
      ],
      [
        "again",
        "st</w>"
      ],
      [
        "pr",
        "en"
      ],
      [
        "oc",
        "a</w>"
      ],
      [
        "to",
        "ok</w>"
      ],
      [
        "s",
        "ing</w>"
      ],
      [
        "por",
        "ta</w>"
      ],
      [
        "inv",
        "esti"
      ],
      [
        "p",
        "ag"
      ],
      [
        "mo",
        "ther</w>"
      ],
      [
        "no",
        "va</w>"
      ],
      [
        "h",
        "ed</w>"
      ],
      [
        "w",
        "on</w>"
      ],
      [
        "alg",
        "uma</w>"
      ],
      [
        "pr",
        "ess"
      ],
      [
        "fa",
        "z</w>"
      ],
      [
        "gen",
        "er"
      ],
      [
        "dif",
        "fer"
      ],
      [
        "u",
        "al</w>"
      ],
      [
        "j",
        "a"
      ],
      [
        "f",
        "ace</w>"
      ],
      [
        "fa",
        "v"
      ],
      [
        "c",
        "all</w>"
      ],
      [
        "faz",
        "endo</w>"
      ],
      [
        "E",
        "st"
      ],
      [
        "h",
        "ig"
      ],
      [
        "f",
        "ol"
      ],
      [
        "e",
        "g"
      ],
      [
        "an",
        "ças</w>"
      ],
      [
        "po",
        "dem</w>"
      ],
      [
        "re",
        "ady</w>"
      ],
      [
        "mor",
        "te</w>"
      ],
      [
        "n",
        "ess</w>"
      ],
      [
        "sen",
        "ti"
      ],
      [
        "de",
        "ver"
      ],
      [
        "ti",
        "vo</w>"
      ],
      [
        "to",
        "day</w>"
      ],
      [
        "i",
        "da</w>"
      ],
      [
        "ca",
        "min"
      ],
      [
        "or",
        "g"
      ],
      [
        "wh",
        "ole</w>"
      ],
      [
        "ci",
        "do</w>"
      ],
      [
        "fo",
        "sse</w>"
      ],
      [
        "se",
        "x"
      ],
      [
        "cal",
        "led</w>"
      ],
      [
        "é",
        "s</w>"
      ],
      [
        "ter",
        "ra</w>"
      ],
      [
        "qu",
        "ar"
      ],
      [
        "nin",
        "guém</w>"
      ],
      [
        "E",
        "s"
      ],
      [
        "d",
        "ge</w>"
      ],
      [
        "cer",
        "to</w>"
      ],
      [
        "y",
        "oun"
      ],
      [
        "as",
        "on</w>"
      ],
      [
        "f",
        "eli"
      ],
      [
        "prime",
        "ira</w>"
      ],
      [
        "si",
        "do</w>"
      ],
      [
        "ma",
        "s"
      ],
      [
        "bet",
        "ween</w>"
      ],
      [
        "scho",
        "ol</w>"
      ],
      [
        "c",
        "el"
      ],
      [
        "no",
        "thing</w>"
      ],
      [
        "ne",
        "c"
      ],
      [
        "pro",
        "f"
      ],
      [
        "is",
        "e</w>"
      ],
      [
        "a",
        "cor"
      ],
      [
        "i",
        "z"
      ],
      [
        "D",
        "e"
      ],
      [
        "fil",
        "ho</w>"
      ],
      [
        "in",
        "ho</w>"
      ],
      [
        "gu",
        "er"
      ],
      [
        "atr",
        "ás</w>"
      ],
      [
        "prime",
        "iro</w>"
      ],
      [
        "cha",
        "ma"
      ],
      [
        "en",
        "ds</w>"
      ],
      [
        "oul",
        "dn</w>"
      ],
      [
        "sa",
        "do</w>"
      ],
      [
        "c",
        "ru"
      ],
      [
        "tur",
        "n</w>"
      ],
      [
        "sig",
        "ni"
      ],
      [
        "v",
        "os</w>"
      ],
      [
        "v",
        "ão</w>"
      ],
      [
        "gu",
        "mas</w>"
      ],
      [
        "c",
        "ity</w>"
      ],
      [
        "t",
        "an"
      ],
      [
        "v",
        "í"
      ],
      [
        "O",
        "s</w>"
      ],
      [
        "par",
        "t</w>"
      ],
      [
        "mo",
        "str"
      ],
      [
        "s",
        "pen"
      ],
      [
        "vi",
        "r</w>"
      ],
      [
        "ge",
        "tting</w>"
      ],
      [
        "ê",
        "m</w>"
      ],
      [
        "ho",
        "men"
      ],
      [
        "de",
        "us</w>"
      ],
      [
        "d",
        "or"
      ],
      [
        "ver",
        "s"
      ],
      [
        "e",
        "ach</w>"
      ],
      [
        "aqu",
        "ela</w>"
      ],
      [
        "du",
        "as</w>"
      ],
      [
        "ka",
        "y</w>"
      ],
      [
        "d",
        "eles</w>"
      ],
      [
        "ó",
        "rio</w>"
      ],
      [
        "ve",
        "is</w>"
      ],
      [
        "p",
        "a</w>"
      ],
      [
        "e",
        "vid"
      ],
      [
        "qu",
        "al</w>"
      ],
      [
        "1",
        "0</w>"
      ],
      [
        "a",
        "tra"
      ],
      [
        "loo",
        "king</w>"
      ],
      [
        "de",
        "n</w>"
      ],
      [
        "por",
        "t</w>"
      ],
      [
        "de",
        "ath</w>"
      ],
      [
        "re",
        "i</w>"
      ],
      [
        "me",
        "io</w>"
      ],
      [
        "v",
        "ar</w>"
      ],
      [
        "ca",
        "be"
      ],
      [
        "n",
        "y</w>"
      ],
      [
        "res",
        "pon"
      ],
      [
        "con",
        "f"
      ],
      [
        "b",
        "il"
      ],
      [
        "b",
        "on"
      ],
      [
        "T",
        "here</w>"
      ],
      [
        "as",
        "s</w>"
      ],
      [
        "t",
        "ando</w>"
      ],
      [
        "ti",
        "ca</w>"
      ],
      [
        "proc",
        "ur"
      ],
      [
        "ti",
        "es</w>"
      ],
      [
        "n",
        "enh"
      ],
      [
        "v",
        "il"
      ],
      [
        "pp",
        "ed</w>"
      ],
      [
        "p",
        "ic"
      ],
      [
        "a",
        "to</w>"
      ],
      [
        "se",
        "t</w>"
      ],
      [
        "P",
        "ar"
      ],
      [
        "i",
        "es</w>"
      ],
      [
        "h",
        "es</w>"
      ],
      [
        "A",
        "g"
      ],
      [
        "com",
        "ing</w>"
      ],
      [
        "k",
        "new</w>"
      ],
      [
        "re",
        "aliz"
      ],
      [
        "ou",
        "t"
      ],
      [
        "e",
        "y"
      ],
      [
        "da",
        "do</w>"
      ],
      [
        "par",
        "ece</w>"
      ],
      [
        "on",
        "ce</w>"
      ],
      [
        "p",
        "le"
      ],
      [
        "as",
        "se</w>"
      ],
      [
        "ter",
        "ia</w>"
      ],
      [
        "Th",
        "at</w>"
      ],
      [
        "a",
        "ve</w>"
      ],
      [
        "gir",
        "l</w>"
      ],
      [
        "A",
        "l"
      ],
      [
        "h",
        "un"
      ],
      [
        "nos",
        "sos</w>"
      ],
      [
        "th",
        "s</w>"
      ],
      [
        "shi",
        "p</w>"
      ],
      [
        "j",
        "ec"
      ],
      [
        "U",
        "m</w>"
      ],
      [
        "ess",
        "as</w>"
      ],
      [
        "co",
        "ra"
      ],
      [
        "tal",
        "k</w>"
      ],
      [
        "un",
        "der</w>"
      ],
      [
        "actu",
        "ally</w>"
      ],
      [
        "ári",
        "os</w>"
      ],
      [
        "2",
        "0</w>"
      ],
      [
        "ha",
        "via</w>"
      ],
      [
        "dis",
        "so</w>"
      ],
      [
        "no",
        "me</w>"
      ],
      [
        "des",
        "se</w>"
      ],
      [
        "po",
        "demos</w>"
      ],
      [
        "b",
        "un"
      ],
      [
        "ho",
        "sp"
      ],
      [
        "res",
        "pe"
      ],
      [
        "hor",
        "as</w>"
      ],
      [
        "col",
        "oc"
      ],
      [
        "da",
        "qu"
      ],
      [
        "h",
        "ando</w>"
      ],
      [
        "li",
        "ve</w>"
      ],
      [
        "al",
        "gumas</w>"
      ],
      [
        "homen",
        "s</w>"
      ],
      [
        "m",
        "us"
      ],
      [
        "B",
        "e"
      ],
      [
        "it",
        "ed</w>"
      ],
      [
        "fi",
        "ca"
      ],
      [
        "c",
        "lu"
      ],
      [
        "con",
        "stru"
      ],
      [
        "in",
        "ci"
      ],
      [
        "tur",
        "a</w>"
      ],
      [
        "ten",
        "ha</w>"
      ],
      [
        "sa",
        "w</w>"
      ],
      [
        "z",
        "e</w>"
      ],
      [
        "pu",
        "bli"
      ],
      [
        "r",
        "os</w>"
      ],
      [
        "tent",
        "ando</w>"
      ],
      [
        "t",
        "anto</w>"
      ],
      [
        "o",
        "s"
      ],
      [
        "Ag",
        "ora</w>"
      ],
      [
        "per",
        "ce"
      ],
      [
        "le",
        "y</w>"
      ],
      [
        "ter",
        "i"
      ],
      [
        "n",
        "s</w>"
      ],
      [
        "d",
        "ra"
      ],
      [
        "b",
        "er</w>"
      ],
      [
        "po",
        "der</w>"
      ],
      [
        "h",
        "ard</w>"
      ],
      [
        "p",
        "ing</w>"
      ],
      [
        "ch",
        "i"
      ],
      [
        "s",
        "é"
      ],
      [
        "na",
        "me</w>"
      ],
      [
        "precis",
        "a</w>"
      ],
      [
        "d",
        "one</w>"
      ],
      [
        "f",
        "el"
      ],
      [
        "w",
        "ed</w>"
      ],
      [
        "su",
        "c"
      ],
      [
        "vi",
        "ol"
      ],
      [
        "ca",
        "mp"
      ],
      [
        "te",
        "m"
      ],
      [
        "E",
        "m</w>"
      ],
      [
        "ne",
        "g"
      ],
      [
        "m",
        "ed</w>"
      ],
      [
        "ha",
        "ving</w>"
      ],
      [
        "plan",
        "e"
      ],
      [
        "a",
        "ta"
      ],
      [
        "fr",
        "ente</w>"
      ],
      [
        "w",
        "in"
      ],
      [
        "st",
        "re"
      ],
      [
        "ac",
        "t</w>"
      ],
      [
        "youn",
        "g</w>"
      ],
      [
        "ci",
        "o</w>"
      ],
      [
        "te",
        "za</w>"
      ],
      [
        "it",
        "ing</w>"
      ],
      [
        "el",
        "se</w>"
      ],
      [
        "di",
        "z</w>"
      ],
      [
        "ir",
        "e</w>"
      ],
      [
        "fin",
        "al</w>"
      ],
      [
        "t",
        "êm</w>"
      ],
      [
        "c",
        "ent"
      ],
      [
        "deix",
        "ar</w>"
      ],
      [
        "or",
        "s</w>"
      ],
      [
        "s",
        "ci"
      ],
      [
        "men",
        "ts</w>"
      ],
      [
        "ar",
        "em</w>"
      ],
      [
        "ug",
        "h"
      ],
      [
        "gover",
        "n"
      ],
      [
        "encontr",
        "ar</w>"
      ],
      [
        "s",
        "ac"
      ],
      [
        "pa",
        "í"
      ],
      [
        "consi",
        "der"
      ],
      [
        "wi",
        "fe</w>"
      ],
      [
        "cor",
        "po</w>"
      ],
      [
        "gu",
        "ar"
      ],
      [
        "car",
        "ro</w>"
      ],
      [
        "ne",
        "e"
      ],
      [
        "ac",
        "e"
      ],
      [
        "d",
        "i</w>"
      ],
      [
        "d",
        "entro</w>"
      ],
      [
        "c",
        "es</w>"
      ],
      [
        "en",
        "er"
      ],
      [
        "k",
        "er</w>"
      ],
      [
        "n",
        "um</w>"
      ],
      [
        "at",
        "a</w>"
      ],
      [
        "m",
        "ic"
      ],
      [
        "poli",
        "ce</w>"
      ],
      [
        "des",
        "de</w>"
      ],
      [
        "p",
        "er</w>"
      ],
      [
        "b",
        "ab"
      ],
      [
        "lig",
        "ht</w>"
      ],
      [
        "po",
        "int</w>"
      ],
      [
        "ar",
        "ti"
      ],
      [
        "ri",
        "ed</w>"
      ],
      [
        "th",
        "ough</w>"
      ],
      [
        "c",
        "y</w>"
      ],
      [
        "ou",
        "s"
      ],
      [
        "go",
        "d</w>"
      ],
      [
        "ho",
        "l"
      ],
      [
        "g",
        "as</w>"
      ],
      [
        "con",
        "fi"
      ],
      [
        "mai",
        "or</w>"
      ],
      [
        "g",
        "l"
      ],
      [
        "E",
        "la</w>"
      ],
      [
        "an",
        "ta"
      ],
      [
        "ó",
        "ri"
      ],
      [
        "su",
        "per"
      ],
      [
        "g",
        "y</w>"
      ],
      [
        "w",
        "ard</w>"
      ],
      [
        "pa",
        "z</w>"
      ],
      [
        "S",
        "he</w>"
      ],
      [
        "an",
        "a</w>"
      ],
      [
        "te",
        "ve</w>"
      ],
      [
        "fac",
        "t</w>"
      ],
      [
        "se",
        "gun"
      ],
      [
        "sit",
        "u"
      ],
      [
        "mb",
        "er</w>"
      ],
      [
        "Co",
        "mo</w>"
      ],
      [
        "ún",
        "ica</w>"
      ],
      [
        "e",
        "ira</w>"
      ],
      [
        "under",
        "stand</w>"
      ],
      [
        "L",
        "o"
      ],
      [
        "e",
        "mp"
      ],
      [
        "b",
        "i</w>"
      ],
      [
        "c",
        "é"
      ],
      [
        "b",
        "ol"
      ],
      [
        "in",
        "ess</w>"
      ],
      [
        "s",
        "ed</w>"
      ],
      [
        "fri",
        "ends</w>"
      ],
      [
        "diz",
        "endo</w>"
      ],
      [
        "jo",
        "b</w>"
      ],
      [
        "c",
        "la"
      ],
      [
        "bo",
        "th</w>"
      ],
      [
        "coun",
        "try</w>"
      ],
      [
        "pre",
        "par"
      ],
      [
        "g",
        "s</w>"
      ],
      [
        "T",
        "o"
      ],
      [
        "min",
        "d</w>"
      ],
      [
        "v",
        "as</w>"
      ],
      [
        "happen",
        "ed</w>"
      ],
      [
        "es",
        "tran"
      ],
      [
        "re",
        "member</w>"
      ],
      [
        "s",
        "m"
      ],
      [
        "po",
        "wer</w>"
      ],
      [
        "ra",
        "do</w>"
      ],
      [
        "e",
        "as"
      ],
      [
        "in",
        "i"
      ],
      [
        "M",
        "y</w>"
      ],
      [
        "gu",
        "a</w>"
      ],
      [
        "P",
        "or</w>"
      ],
      [
        "or",
        "e</w>"
      ],
      [
        "d",
        "el"
      ],
      [
        "dif",
        "íci"
      ],
      [
        "esta",
        "vam</w>"
      ],
      [
        "li",
        "ber"
      ],
      [
        "r",
        "en"
      ],
      [
        "hig",
        "h</w>"
      ],
      [
        "mo",
        "vi"
      ],
      [
        "ch",
        "o</w>"
      ],
      [
        "sa",
        "ir</w>"
      ],
      [
        "polí",
        "cia</w>"
      ],
      [
        "pr",
        "a"
      ],
      [
        "cabe",
        "ça</w>"
      ],
      [
        "cri",
        "me</w>"
      ],
      [
        "res",
        "t</w>"
      ],
      [
        "ix",
        "o</w>"
      ],
      [
        "ros",
        "s</w>"
      ],
      [
        "l",
        "ou"
      ],
      [
        "star",
        "t</w>"
      ],
      [
        "su",
        "ch</w>"
      ],
      [
        "sen",
        "do</w>"
      ],
      [
        "l",
        "ine</w>"
      ],
      [
        "co",
        "lo"
      ],
      [
        "hosp",
        "ital</w>"
      ],
      [
        "es",
        "so</w>"
      ],
      [
        "ve",
        "mos</w>"
      ],
      [
        "est",
        "u"
      ],
      [
        "dur",
        "ante</w>"
      ],
      [
        "w",
        "ouldn</w>"
      ],
      [
        "com",
        "igo</w>"
      ],
      [
        "i",
        "li"
      ],
      [
        "com",
        "es</w>"
      ],
      [
        "pens",
        "ar</w>"
      ],
      [
        "sa",
        "ying</w>"
      ],
      [
        "be",
        "g"
      ],
      [
        "fi",
        "m</w>"
      ],
      [
        "ta",
        "mento</w>"
      ],
      [
        "guer",
        "ra</w>"
      ],
      [
        "star",
        "ted</w>"
      ],
      [
        "ma",
        "king</w>"
      ],
      [
        "g",
        "al"
      ],
      [
        "in",
        "f"
      ],
      [
        "d",
        "r</w>"
      ],
      [
        "o",
        "t</w>"
      ],
      [
        "des",
        "tru"
      ],
      [
        "m",
        "er</w>"
      ],
      [
        "te",
        "l</w>"
      ],
      [
        "differ",
        "ent</w>"
      ],
      [
        "mor",
        "r"
      ],
      [
        "b",
        "and</w>"
      ],
      [
        "sus",
        "pe"
      ],
      [
        "com",
        "pr"
      ],
      [
        "my",
        "self</w>"
      ],
      [
        "vol",
        "tar</w>"
      ],
      [
        "ac",
        "k"
      ],
      [
        "i",
        "dade</w>"
      ],
      [
        "te",
        "i</w>"
      ],
      [
        "b",
        "it</w>"
      ],
      [
        "se",
        "con"
      ],
      [
        "was",
        "n</w>"
      ],
      [
        "fr",
        "an"
      ],
      [
        "poss",
        "ível</w>"
      ],
      [
        "b",
        "en"
      ],
      [
        "jo",
        "h"
      ],
      [
        "re",
        "cor"
      ],
      [
        "sto",
        "p</w>"
      ],
      [
        "5",
        "0</w>"
      ],
      [
        "\"",
        ",</w>"
      ],
      [
        "ap",
        "pe"
      ],
      [
        "s",
        "ent"
      ],
      [
        "h",
        "ões</w>"
      ],
      [
        "te",
        "am</w>"
      ],
      [
        "d",
        "on"
      ],
      [
        "amig",
        "os</w>"
      ],
      [
        "tiv",
        "esse</w>"
      ],
      [
        "me",
        "ans</w>"
      ],
      [
        "at",
        "os</w>"
      ],
      [
        "le",
        "ave</w>"
      ],
      [
        "cer",
        "teza</w>"
      ],
      [
        "w",
        "er"
      ],
      [
        "3",
        "0</w>"
      ],
      [
        "par",
        "e"
      ],
      [
        "gr",
        "and"
      ],
      [
        "ab",
        "ri"
      ],
      [
        "w",
        "ar</w>"
      ],
      [
        "di",
        "to</w>"
      ],
      [
        "in",
        "ed</w>"
      ],
      [
        "every",
        "one</w>"
      ],
      [
        "car",
        "e</w>"
      ],
      [
        "fe",
        "el"
      ],
      [
        "d",
        "ou</w>"
      ],
      [
        "si",
        "m"
      ],
      [
        "wat",
        "er</w>"
      ],
      [
        "con",
        "di"
      ],
      [
        "exp",
        "lo"
      ],
      [
        "cri",
        "anças</w>"
      ],
      [
        "ul",
        "t</w>"
      ],
      [
        "ti",
        "onal</w>"
      ],
      [
        "id",
        "enti"
      ],
      [
        "vi",
        "e"
      ],
      [
        "a",
        "po"
      ],
      [
        "o",
        "sa</w>"
      ],
      [
        "per",
        "fe"
      ],
      [
        "kil",
        "led</w>"
      ],
      [
        "paí",
        "s</w>"
      ],
      [
        "precis",
        "o</w>"
      ],
      [
        "to",
        "wn</w>"
      ],
      [
        "li",
        "on</w>"
      ],
      [
        "p",
        "ur"
      ],
      [
        "uni",
        "ver"
      ],
      [
        "l",
        "en"
      ],
      [
        "coul",
        "dn</w>"
      ],
      [
        "b",
        "ul"
      ],
      [
        "amer",
        "ic"
      ],
      [
        "gu",
        "ys</w>"
      ],
      [
        "ú",
        "s"
      ],
      [
        "de",
        "ad</w>"
      ],
      [
        "re",
        "f"
      ],
      [
        "import",
        "ante</w>"
      ],
      [
        "as",
        "k</w>"
      ],
      [
        "wor",
        "king</w>"
      ],
      [
        "jus",
        "ti"
      ],
      [
        "lo",
        "cal</w>"
      ],
      [
        "ac",
        "ha</w>"
      ],
      [
        "ist",
        "as</w>"
      ],
      [
        "P",
        "or"
      ],
      [
        "mes",
        "ma</w>"
      ],
      [
        "a",
        "ma"
      ],
      [
        "c",
        "ed</w>"
      ],
      [
        "n",
        "uma</w>"
      ],
      [
        "sab",
        "ia</w>"
      ],
      [
        "inc",
        "lu"
      ],
      [
        "r",
        "us"
      ],
      [
        "x",
        "im"
      ],
      [
        "ab",
        "ly</w>"
      ],
      [
        "pass",
        "ar</w>"
      ],
      [
        "caus",
        "a</w>"
      ],
      [
        "c",
        "ted</w>"
      ],
      [
        "man",
        "hã</w>"
      ],
      [
        "b",
        "ad</w>"
      ],
      [
        "de",
        "cis"
      ],
      [
        "ci",
        "r"
      ],
      [
        "mor",
        "ning</w>"
      ],
      [
        "ma",
        "j"
      ],
      [
        "espe",
        "ci"
      ],
      [
        "is",
        "to</w>"
      ],
      [
        "pró",
        "pri"
      ],
      [
        "r",
        "ar</w>"
      ],
      [
        "le",
        "ar"
      ],
      [
        "possi",
        "ble</w>"
      ],
      [
        "ar",
        "e"
      ],
      [
        "dever",
        "ia</w>"
      ],
      [
        "en",
        "vol"
      ],
      [
        "ç",
        "os</w>"
      ],
      [
        "Wh",
        "at</w>"
      ],
      [
        "ch",
        "u"
      ],
      [
        "def",
        "en"
      ],
      [
        "y",
        "our"
      ],
      [
        "import",
        "ant</w>"
      ],
      [
        "uni",
        "dade</w>"
      ],
      [
        "pre",
        "oc"
      ],
      [
        "fa",
        "to</w>"
      ],
      [
        "hear",
        "t</w>"
      ],
      [
        "aju",
        "dar</w>"
      ],
      [
        "ca",
        "m"
      ],
      [
        "seman",
        "a</w>"
      ],
      [
        "go",
        "st"
      ],
      [
        "dre",
        "n</w>"
      ],
      [
        "g",
        "ou</w>"
      ],
      [
        "w",
        "ha"
      ],
      [
        "h",
        "us"
      ],
      [
        "de",
        "m"
      ],
      [
        "ex",
        "is"
      ],
      [
        "sti",
        "tu"
      ],
      [
        "ear",
        "th</w>"
      ],
      [
        "difíci",
        "l</w>"
      ],
      [
        "w",
        "it"
      ],
      [
        "pres",
        "a</w>"
      ],
      [
        "per",
        "to</w>"
      ],
      [
        "bo",
        "a</w>"
      ],
      [
        "é",
        "r"
      ],
      [
        "mat",
        "ter</w>"
      ],
      [
        "fron",
        "t</w>"
      ],
      [
        "chil",
        "dren</w>"
      ],
      [
        "y",
        "ed</w>"
      ],
      [
        "th",
        "ers</w>"
      ],
      [
        "b",
        "ar</w>"
      ],
      [
        "tr",
        "ou"
      ],
      [
        "v",
        "in"
      ],
      [
        "f",
        "ar</w>"
      ],
      [
        "re",
        "ason</w>"
      ],
      [
[...]
