{
  "version": "1.0",
  "truncation": null,
  "padding": null,
  "added_tokens": [
    {
      "id": 0,
      "content": "<PAD>",
      "single_word": false,
      "lstrip": false,
      "rstrip": false,
      "normalized": false,
      "special": true
    },
    {
      "id": 1,
      "content": "<UNK>",
      "single_word": false,
      "lstrip": false,
      "rstrip": false,
      "normalized": false,
      "special": true
    },
    {
      "id": 2,
      "content": "<CLS>",
      "single_word": false,
      "lstrip": false,
      "rstrip": false,
      "normalized": false,
      "special": true
    },
    {
      "id": 3,
      "content": "<SEP>",
      "single_word": false,
      "lstrip": false,
      "rstrip": false,
      "normalized": false,
      "special": true
    },
    {
      "id": 4,
      "content": "<MASK>",
      "single_word": false,
      "lstrip": false,
      "rstrip": false,
      "normalized": false,
      "special": true
    },
    {
      "id": 5,
      "content": "<BOS>",
      "single_word": false,
      "lstrip": false,
      "rstrip": false,
      "normalized": false,
      "special": true
    },
    {
      "id": 6,
      "content": "<EOS>",
      "single_word": false,
      "lstrip": false,
      "rstrip": false,
      "normalized": false,
      "special": true
    },
    {
      "id": 7,
      "content": "<2pt>",
      "single_word": false,
      "lstrip": false,
      "rstrip": false,
      "normalized": false,
      "special": true
    },
    {
      "id": 8,
      "content": "<2es>",
      "single_word": false,
      "lstrip": false,
      "rstrip": false,
      "normalized": false,
      "special": true
    }
  ],
  "normalizer": null,
  "pre_tokenizer": {
    "type": "Whitespace"
  },
  "post_processor": {
    "type": "TemplateProcessing",
    "single": [
      {
        "SpecialToken": {
          "id": "<BOS>",
          "type_id": 0
        }
      },
      {
        "Sequence": {
          "id": "A",
          "type_id": 0
        }
      },
      {
        "SpecialToken": {
          "id": "<EOS>",
          "type_id": 0
        }
      }
    ],
    "pair": [
      {
        "SpecialToken": {
          "id": "<BOS>",
          "type_id": 0
        }
      },
      {
        "Sequence": {
          "id": "A",
          "type_id": 0
        }
      },
      {
        "SpecialToken": {
          "id": "<SEP>",
          "type_id": 0
        }
      },
      {
        "Sequence": {
          "id": "B",
          "type_id": 1
        }
      },
      {
        "SpecialToken": {
          "id": "<EOS>",
          "type_id": 1
        }
      }
    ],
    "special_tokens": {
      "<BOS>": {
        "id": "<BOS>",
        "ids": [
          5
        ],
        "tokens": [
          "<BOS>"
        ]
      },
      "<EOS>": {
        "id": "<EOS>",
        "ids": [
          6
        ],
        "tokens": [
          "<EOS>"
        ]
      },
      "<SEP>": {
        "id": "<SEP>",
        "ids": [
          3
        ],
        "tokens": [
          "<SEP>"
        ]
      }
    }
  },
  "decoder": {
    "type": "BPEDecoder",
    "suffix": "</w>"
  },
  "model": {
    "type": "BPE",
    "dropout": null,
    "unk_token": "<UNK>",
    "continuing_subword_prefix": null,
    "end_of_word_suffix": "</w>",
    "fuse_unk": false,
    "byte_fallback": false,
    "ignore_merges": false,
    "vocab": {
      "<PAD>": 0,
      "<UNK>": 1,
      "<CLS>": 2,
      "<SEP>": 3,
      "<MASK>": 4,
      "<BOS>": 5,
      "<EOS>": 6,
      "<2pt>": 7,
      "<2es>": 8,
      "!": 9,
      "\"": 10,
      "#": 11,
      "$": 12,
      "%": 13,
      "&": 14,
      "'": 15,
      "(": 16,
      ")": 17,
      "*": 18,
      "+": 19,
      ",": 20,
      "-": 21,
      ".": 22,
      "/": 23,
      "0": 24,
      "1": 25,
      "2": 26,
      "3": 27,
      "4": 28,
      "5": 29,
      "6": 30,
      "7": 31,
      "8": 32,
      "9": 33,
      ":": 34,
      ";": 35,
      "<": 36,
      "=": 37,
      ">": 38,
      "?": 39,
      "@": 40,
      "A": 41,
      "B": 42,
      "C": 43,
      "D": 44,
      "E": 45,
      "F": 46,
      "G": 47,
      "H": 48,
      "I": 49,
      "J": 50,
      "K": 51,
      "L": 52,
      "M": 53,
      "N": 54,
      "O": 55,
      "P": 56,
      "Q": 57,
      "R": 58,
      "S": 59,
      "T": 60,
      "U": 61,
      "V": 62,
      "W": 63,
      "X": 64,
      "Y": 65,
      "Z": 66,
      "[": 67,
      "\\": 68,
      "]": 69,
      "^": 70,
      "_": 71,
      "`": 72,
      "a": 73,
      "b": 74,
      "c": 75,
      "d": 76,
      "e": 77,
      "f": 78,
      "g": 79,
      "h": 80,
      "i": 81,
      "j": 82,
      "k": 83,
      "l": 84,
      "m": 85,
      "n": 86,
      "o": 87,
      "p": 88,
      "q": 89,
      "r": 90,
      "s": 91,
      "t": 92,
      "u": 93,
      "v": 94,
      "w": 95,
      "x": 96,
      "y": 97,
      "z": 98,
      "{": 99,
      "|": 100,
      "}": 101,
      "~": 102,
      "¡": 103,
      "¢": 104,
      "£": 105,
      "¤": 106,
      "¥": 107,
      "¦": 108,
      "§": 109,
      "¨": 110,
      "©": 111,
      "ª": 112,
      "«": 113,
      "¬": 114,
      "­": 115,
      "®": 116,
      "¯": 117,
      "°": 118,
      "±": 119,
      "²": 120,
      "³": 121,
      "´": 122,
      "µ": 123,
      "¶": 124,
      "·": 125,
      "¸": 126,
      "¹": 127,
      "º": 128,
      "»": 129,
      "¼": 130,
      "½": 131,
      "¾": 132,
      "¿": 133,
      "À": 134,
      "Á": 135,
      "Â": 136,
      "Ã": 137,
      "Ä": 138,
      "Å": 139,
      "Æ": 140,
      "Ç": 141,
      "È": 142,
      "É": 143,
      "Ê": 144,
      "Ë": 145,
      "Ì": 146,
      "Í": 147,
      "Î": 148,
      "Ï": 149,
      "Ð": 150,
      "Ñ": 151,
      "Ò": 152,
      "Ó": 153,
      "Ô": 154,
      "Õ": 155,
      "Ö": 156,
      "×": 157,
      "Ø": 158,
      "Ù": 159,
      "Ú": 160,
      "Û": 161,
      "Ü": 162,
      "Ý": 163,
      "Þ": 164,
      "ß": 165,
      "à": 166,
      "á": 167,
      "â": 168,
      "ã": 169,
      "ä": 170,
      "å": 171,
      "æ": 172,
      "ç": 173,
      "è": 174,
      "é": 175,
      "ê": 176,
      "ë": 177,
      "ì": 178,
      "í": 179,
      "î": 180,
      "ï": 181,
      "ð": 182,
      "ñ": 183,
      "ò": 184,
      "ó": 185,
      "ô": 186,
      "õ": 187,
      "ö": 188,
      "÷": 189,
      "ø": 190,
      "ù": 191,
      "ú": 192,
      "û": 193,
      "ü": 194,
      "ý": 195,
      "þ": 196,
      "ÿ": 197,
      "Ā": 198,
      "ā": 199,
      "Ă": 200,
      "ă": 201,
      "Ą": 202,
      "ą": 203,
      "Ć": 204,
      "ć": 205,
      "ĉ": 206,
      "Ċ": 207,
      "ċ": 208,
      "Č": 209,
      "č": 210,
      "Ď": 211,
      "ď": 212,
      "Đ": 213,
      "đ": 214,
      "Ē": 215,
      "ē": 216,
      "ĕ": 217,
      "Ė": 218,
      "ė": 219,
      "Ę": 220,
      "ę": 221,
      "Ě": 222,
      "ě": 223,
      "Ğ": 224,
      "ğ": 225,
      "Ġ": 226,
      "ġ": 227,
      "ģ": 228,
      "Ħ": 229,
      "ħ": 230,
      "ĩ": 231,
      "Ī": 232,
      "ī": 233,
      "ĭ": 234,
      "Į": 235,
      "į": 236,
      "İ": 237,
      "ı": 238,
      "ĳ": 239,
      "Ķ": 240,
      "ķ": 241,
      "ĺ": 242,
      "ļ": 243,
      "ľ": 244,
      "Ł": 245,
      "ł": 246,
      "ń": 247,
      "ņ": 248,
      "ň": 249,
      "ŋ": 250,
      "Ō": 251,
      "ō": 252,
      "ŏ": 253,
      "Ő": 254,
      "ő": 255,
      "Œ": 256,
      "œ": 257,
      "ŕ": 258,
      "Ř": 259,
      "ř": 260,
      "Ś": 261,
      "ś": 262,
      "ŝ": 263,
      "Ş": 264,
      "ş": 265,
      "Š": 266,
      "š": 267,
      "Ţ": 268,
      "ţ": 269,
      "ť": 270,
      "ũ": 271,
      "Ū": 272,
      "ū": 273,
      "Ŭ": 274,
      "ŭ": 275,
      "ů": 276,
      "ű": 277,
      "ų": 278,
      "ŵ": 279,
      "Ŷ": 280,
      "ŷ": 281,
      "Ź": 282,
      "ź": 283,
      "Ż": 284,
      "ż": 285,
      "Ž": 286,
      "ž": 287,
      "ƃ": 288,
      "Ɔ": 289,
      "Ə": 290,
      "Ɛ": 291,
      "ơ": 292,
      "ư": 293,
      "ǀ": 294,
      "ǁ": 295,
      "ǃ": 296,
      "ǎ": 297,
      "ǐ": 298,
      "ǒ": 299,
      "ǔ": 300,
      "ǝ": 301,
      "ǽ": 302,
      "ȍ": 303,
      "ȏ": 304,
      "Ș": 305,
      "ș": 306,
      "Ț": 307,
      "ț": 308,
      "ɐ": 309,
      "ɑ": 310,
      "ɒ": 311,
      "ɔ": 312,
      "ɕ": 313,
      "ə": 314,
      "ɛ": 315,
      "ɜ": 316,
      "ɡ": 317,
      "ɣ": 318,
      "ɦ": 319,
      "ɪ": 320,
      "ɫ": 321,
      "ɴ": 322,
      "ɹ": 323,
      "ɾ": 324,
      "ʁ": 325,
      "ʃ": 326,
      "ʅ": 327,
      "ʊ": 328,
      "ʋ": 329,
      "ʌ": 330,
      "ʎ": 331,
      "ʏ": 332,
      "ʑ": 333,
      "ʒ": 334,
      "ʔ": 335,
      "ʡ": 336,
      "ʰ": 337,
      "ʲ": 338,
      "ʸ": 339,
      "ʹ": 340,
      "ʻ": 341,
      "ʼ": 342,
      "ʽ": 343,
      "ʿ": 344,
      "ˀ": 345,
      "˄": 346,
      "˅": 347,
      "ˆ": 348,
      "ˇ": 349,
      "ˈ": 350,
      "ˌ": 351,
      "ː": 352,
      "ˑ": 353,
      "˙": 354,
      "˚": 355,
      "˛": 356,
      "˜": 357,
      "˝": 358,
      "ˠ": 359,
      "˥": 360,
      "̀": 361,
      "́": 362,
      "̃": 363,
      "̆": 364,
      "̇": 365,
      "̈": 366,
      "̉": 367,
      "̊": 368,
      "̌": 369,
      "̍": 370,
      "̞": 371,
      "̣": 372,
      "̤": 373,
      "̧": 374,
      "̩": 375,
      "̪": 376,
      "̯": 377,
      "̲": 378,
      "͂": 379,
      "͡": 380,
      "ͣ": 381,
      "ͥ": 382,
      "΄": 383,
      "Ά": 384,
      "Έ": 385,
      "Ό": 386,
      "ΐ": 387,
      "Α": 388,
      "Β": 389,
      "Γ": 390,
      "Δ": 391,
      "Ε": 392,
      "Ζ": 393,
      "Θ": 394,
      "Ι": 395,
      "Κ": 396,
      "Λ": 397,
      "Μ": 398,
      "Ν": 399,
      "Ο": 400,
      "Π": 401,
      "Ρ": 402,
      "Σ": 403,
      "Τ": 404,
      "Φ": 405,
      "Χ": 406,
      "Ψ": 407,
      "Ω": 408,
      "ά": 409,
      "έ": 410,
      "ή": 411,
      "ί": 412,
      "α": 413,
      "β": 414,
      "γ": 415,
      "δ": 416,
      "ε": 417,
      "ζ": 418,
      "η": 419,
      "θ": 420,
      "ι": 421,
      "κ": 422,
      "λ": 423,
      "μ": 424,
      "ν": 425,
      "ξ": 426,
      "ο": 427,
      "π": 428,
      "ρ": 429,
      "ς": 430,
      "σ": 431,
      "τ": 432,
      "υ": 433,
      "φ": 434,
      "χ": 435,
      "ψ": 436,
      "ω": 437,
      "ϊ": 438,
      "ό": 439,
      "ύ": 440,
      "ώ": 441,
      "ϐ": 442,
      "ϕ": 443,
      "Ϣ": 444,
      "Ϭ": 445,
      "ϭ": 446,
      "ϵ": 447,
      "Ѐ": 448,
      "Ё": 449,
      "Ѓ": 450,
      "Є": 451,
      "І": 452,
      "Ї": 453,
      "Ј": 454,
      "Ќ": 455,
      "Ѝ": 456,
      "Ў": 457,
      "А": 458,
      "Б": 459,
      "В": 460,
      "Г": 461,
      "Д": 462,
      "Е": 463,
      "Ж": 464,
      "З": 465,
      "И": 466,
      "Й": 467,
      "К": 468,
      "Л": 469,
      "М": 470,
      "Н": 471,
      "О": 472,
      "П": 473,
      "Р": 474,
      "С": 475,
      "Т": 476,
      "У": 477,
      "Ф": 478,
      "Х": 479,
      "Ц": 480,
      "Ч": 481,
      "Ш": 482,
      "Ы": 483,
      "Э": 484,
      "Ю": 485,
      "Я": 486,
      "а": 487,
      "б": 488,
      "в": 489,
      "г": 490,
      "д": 491,
      "е": 492,
      "ж": 493,
      "з": 494,
      "и": 495,
      "й": 496,
      "к": 497,
      "л": 498,
      "м": 499,
      "н": 500,
      "о": 501,
      "п": 502,
      "р": 503,
      "с": 504,
      "т": 505,
      "у": 506,
      "ф": 507,
      "х": 508,
      "ц": 509,
      "ч": 510,
      "ш": 511,
      "щ": 512,
      "ъ": 513,
      "ы": 514,
      "ь": 515,
      "э": 516,
      "ю": 517,
      "я": 518,
      "ё": 519,
      "ђ": 520,
      "є": 521,
      "і": 522,
      "ї": 523,
      "ј": 524,
      "њ": 525,
      "ћ": 526,
      "ў": 527,
      "ѩ": 528,
      "Ѷ": 529,
      "ѹ": 530,
      "Ѽ": 531,
      "Ѿ": 532,
      "қ": 533,
      "ү": 534,
      "ұ": 535,
      "ҳ": 536,
      "ҵ": 537,
      "ҷ": 538,
      "Ӏ": 539,
      "Ӕ": 540,
      "ӕ": 541,
      "Ә": 542,
      "ә": 543,
      "ӣ": 544,
      "Ө": 545,
      "ө": 546,
      "Բ": 547,
      "Ե": 548,
      "Կ": 549,
      "Հ": 550,
      "Ն": 551,
      "Ս": 552,
      "ՠ": 553,
      "ա": 554,
      "բ": 555,
      "դ": 556,
      "ե": 557,
      "թ": 558,
      "ժ": 559,
      "ի": 560,
      "կ": 561,
      "հ": 562,
      "ղ": 563,
      "մ": 564,
      "յ": 565,
      "ն": 566,
      "շ": 567,
      "ո": 568,
      "պ": 569,
      "ջ": 570,
      "ս": 571,
      "վ": 572,
      "ր": 573,
      "ց": 574,
      "ւ": 575,
      "ְ": 576,
      "ֲ": 577,
      "ֳ": 578,
      "ִ": 579,
      "ֵ": 580,
      "ֶ": 581,
      "ַ": 582,
      "ָ": 583,
      "ֹ": 584,
      "ּ": 585,
      "ׁ": 586,
      "א": 587,
      "ב": 588,
      "ג": 589,
      "ד": 590,
      "ה": 591,
      "ו": 592,
      "ז": 593,
      "ח": 594,
      "ט": 595,
      "י": 596,
      "ך": 597,
      "כ": 598,
      "ל": 599,
      "ם": 600,
      "מ": 601,
      "ן": 602,
      "נ": 603,
      "ס": 604,
      "ע": 605,
      "פ": 606,
      "ץ": 607,
      "צ": 608,
      "ק": 609,
      "ר": 610,
      "ש": 611,
      "ת": 612,
      "ײ": 613,
      "؋": 614,
      "،": 615,
      "؟": 616,
      "ء": 617,
      "آ": 618,
      "أ": 619,
      "ؤ": 620,
      "إ": 621,
      "ئ": 622,
      "ا": 623,
      "ب": 624,
      "ة": 625,
      "ت": 626,
      "ث": 627,
      "ج": 628,
      "ح": 629,
      "خ": 630,
      "د": 631,
      "ذ": 632,
      "ر": 633,
      "ز": 634,
      "س": 635,
      "ش": 636,
      "ص": 637,
      "ض": 638,
      "ط": 639,
      "ظ": 640,
      "ع": 641,
      "غ": 642,
      "ـ": 643,
      "ف": 644,
      "ق": 645,
      "ك": 646,
      "ل": 647,
      "م": 648,
      "ن": 649,
      "ه": 650,
      "و": 651,
      "ى": 652,
      "ي": 653,
      "ٌ": 654,
      "َ": 655,
      "ُ": 656,
      "ِ": 657,
      "ّ": 658,
      "٦": 659,
      "٩": 660,
      "٪": 661,
      "ٰ": 662,
      "پ": 663,
      "چ": 664,
      "ڈ": 665,
      "ژ": 666,
      "ښ": 667,
      "ک": 668,
      "ڪ": 669,
      "گ": 670,
      "ھ": 671,
      "ہ": 672,
      "ی": 673,
      "ۍ": 674,
      "ې": 675,
      "ے": 676,
      "ܐ": 677,
      "ܕ": 678,
      "ܠ": 679,
      "ܡ": 680,
      "ܣ": 681,
      "ܦ": 682,
      "ܪ": 683,
      "ܬ": 684,
      "އ": 685,
      "މ": 686,
      "ތ": 687,
      "ގ": 688,
      "ަ": 689,
      "ީ": 690,
      "ެ": 691,
      "ޮ": 692,
      "ް": 693,
      "ޱ": 694,
      "ं": 695,
      "अ": 696,
      "इ": 697,
      "ए": 698,
      "औ": 699,
      "क": 700,
      "ग": 701,
      "च": 702,
      "छ": 703,
      "ज": 704,
      "ट": 705,
      "ठ": 706,
      "ड": 707,
      "ण": 708,
      "त": 709,
      "द": 710,
      "ध": 711,
      "न": 712,
      "प": 713,
      "फ": 714,
      "ब": 715,
      "म": 716,
      "य": 717,
      "र": 718,
      "ल": 719,
      "व": 720,
      "ष": 721,
      "स": 722,
      "ह": 723,
      "़": 724,
      "ा": 725,
      "ि": 726,
      "ी": 727,
      "ु": 728,
      "ृ": 729,
      "े": 730,
      "ै": 731,
      "ो": 732,
      "ौ": 733,
      "्": 734,
      "ॐ": 735,
      "ং": 736,
      "অ": 737,
      "ড": 738,
      "ন": 739,
      "ফ": 740,
      "ব": 741,
      "ম": 742,
      "য": 743,
      "র": 744,
      "ল": 745,
      "স": 746,
      "হ": 747,
      "া": 748,
      "ি": 749,
      "ু": 750,
      "্": 751,
      "ਚ": 752,
      "ਨ": 753,
      "ਬ": 754,
      "ਾ": 755,
      "ଚ": 756,
      "ଛ": 757,
      "ଞ": 758,
      "ା": 759,
      "୍": 760,
      "இ": 761,
      "உ": 762,
      "எ": 763,
      "க": 764,
      "ஞ": 765,
      "ட": 766,
      "ண": 767,
      "த": 768,
      "ன": 769,
      "ப": 770,
      "ம": 771,
      "ய": 772,
      "ர": 773,
      "ல": 774,
      "ழ": 775,
      "வ": 776,
      "ஸ": 777,
      "ா": 778,
      "ி": 779,
      "ீ": 780,
      "ு": 781,
      "ை": 782,
      "ொ": 783,
      "்": 784,
      "క": 785,
      "చ": 786,
      "డ": 787,
      "త": 788,
      "న": 789,
      "ర": 790,
      "శ": 791,
      "స": 792,
      "ా": 793,
      "ి": 794,
      "ు": 795,
      "ే": 796,
      "ో": 797,
      "్": 798,
      "ಜ": 799,
      "ತ": 800,
      "ನ": 801,
      "ಫ": 802,
      "ಮ": 803,
      "ಯ": 804,
      "ರ": 805,
      "ವ": 806,
      "ಸ": 807,
      "ಾ": 808,
      "ಿ": 809,
      "ು": 810,
      "ೆ": 811,
      "ೋ": 812,
      "್": 813,
      "ം": 814,
      "ക": 815,
      "ത": 816,
      "ന": 817,
      "ബ": 818,
      "യ": 819,
      "ര": 820,
      "ല": 821,
      "ള": 822,
      "വ": 823,
      "ഷ": 824,
      "ാ": 825,
      "ി": 826,
      "ു": 827,
      "ൂ": 828,
      "്": 829,
      "ං": 830,
      "අ": 831,
      "ක": 832,
      "ග": 833,
      "ට": 834,
      "ණ": 835,
      "ත": 836,
      "න": 837,
      "ඹ": 838,
      "ය": 839,
      "ර": 840,
      "ල": 841,
      "ව": 842,
      "ස": 843,
      "්": 844,
      "ු": 845,
      "ූ": 846,
      "ො": 847,
      "ก": 848,
      "ข": 849,
      "ค": 850,
      "ง": 851,
      "จ": 852,
      "ช": 853,
      "ซ": 854,
      "ณ": 855,
      "ด": 856,
      "ต": 857,
      "ถ": 858,
      "ท": 859,
      "ธ": 860,
      "น": 861,
      "บ": 862,
      "ป": 863,
      "พ": 864,
      "ภ": 865,
      "ม": 866,
      "ย": 867,
      "ร": 868,
      "ฤ": 869,
      "ล": 870,
      "ว": 871,
      "ศ": 872,
      "ษ": 873,
      "ส": 874,
      "ห": 875,
      "ฬ": 876,
      "อ": 877,
      "ะ": 878,
      "ั": 879,
      "า": 880,
      "ิ": 881,
      "ี": 882,
      "ุ": 883,
      "฿": 884,
      "เ": 885,
      "แ": 886,
      "โ": 887,
      "ใ": 888,
      "ไ": 889,
      "็": 890,
      "่": 891,
      "้": 892,
      "๋": 893,
      "์": 894,
      "๐": 895,
      "ຄ": 896,
      "ຫ": 897,
      "ຳ": 898,
      "ໍ": 899,
      "་": 900,
      "ཀ": 901,
      "ཁ": 902,
      "མ": 903,
      "ས": 904,
      "ུ": 905,
      "ླ": 906,
      "࿐": 907,
      "က": 908,
      "ခ": 909,
      "ဂ": 910,
      "င": 911,
      "စ": 912,
      "ဆ": 913,
      "ဇ": 914,
      "ည": 915,
      "တ": 916,
      "န": 917,
      "ပ": 918,
      "ဗ": 919,
      "ဘ": 920,
      "မ": 921,
      "လ": 922,
      "ဟ": 923,
      "အ": 924,
      "ါ": 925,
      "ာ": 926,
      "ီ": 927,
      "ူ": 928,
      "ေ": 929,
      "ဲ": 930,
      "ံ": 931,
      "း": 932,
      "်": 933,
      "ြ": 934,
      "ွ": 935,
      "ა": 936,
      "ბ": 937,
      "ე": 938,
      "ვ": 939,
      "ზ": 940,
      "თ": 941,
      "ი": 942,
      "კ": 943,
      "ლ": 944,
      "მ": 945,
      "ნ": 946,
      "ო": 947,
      "რ": 948,
      "ტ": 949,
      "უ": 950,
      "ქ": 951,
      "ძ": 952,
      "წ": 953,
      "ჭ": 954,
      "ხ": 955,
      "ሚ": 956,
      "ሽ": 957,
      "ቅ": 958,
      "ታ": 959,
      "እ": 960,
      "ዋ": 961,
      "ያ": 962,
      "ይ": 963,
      "ድ": 964,
      "ᐅ": 965,
      "ᚻ": 966,
      "ខ": 967,
      "ជ": 968,
      "ដ": 969,
      "ណ": 970,
      "ត": 971,
      "ទ": 972,
      "ន": 973,
      "ប": 974,
      "ព": 975,
      "ម": 976,
      "យ": 977,
      "រ": 978,
      "ស": 979,
      "ា": 980,
      "ិ": 981,
      "ូ": 982,
      "ួ": 983,
      "ែ": 984,
      "ោ": 985,
      "ំ": 986,
      "ះ": 987,
      "៉": 988,
      "្": 989,
      "៛": 990,
      "១": 991,
      "៥": 992,
      "Გ": 993,
      "ᴹ": 994,
      "ᵀ": 995,
      "ᵈ": 996,
      "ḇ": 997,
      "Ḍ": 998,
      "ḍ": 999,
      "Ḏ": 1000,
      "ḏ": 1001,
      "ḑ": 1002,
      "ḗ": 1003,
      "Ḣ": 1004,
      "Ḥ": 1005,
      "ḥ": 1006,
      "Ḩ": 1007,
      "ḩ": 1008,
      "ḭ": 1009,
      "ḯ": 1010,
      "ḱ": 1011,
      "ḳ": 1012,
      "ṁ": 1013,
      "ṃ": 1014,
      "ṅ": 1015,
      "Ṇ": 1016,
      "ṇ": 1017,
      "Ṛ": 1018,
      "ṛ": 1019,
      "ṝ": 1020,
      "Ṣ": 1021,
      "ṣ": 1022,
      "Ṫ": 1023,
      "Ṭ": 1024,
      "ṭ": 1025,
      "ṯ": 1026,
      "ṳ": 1027,
      "Ẕ": 1028,
      "ẕ": 1029,
      "ạ": 1030,
      "ả": 1031,
      "ầ": 1032,
      "ẩ": 1033,
      "ậ": 1034,
      "ắ": 1035,
      "ằ": 1036,
      "ẵ": 1037,
      "ẹ": 1038,
      "ẻ": 1039,
      "ẽ": 1040,
      "ế": 1041,
      "ề": 1042,
      "ễ": 1043,
      "ệ": 1044,
      "ị": 1045,
      "Ọ": 1046,
      "ọ": 1047,
      "ỏ": 1048,
      "ố": 1049,
      "Ồ": 1050,
      "ồ": 1051,
      "ổ": 1052,
      "Ộ": 1053,
      "ộ": 1054,
      "ớ": 1055,
      "ờ": 1056,
      "Ủ": 1057,
      "ứ": 1058,
      "ừ": 1059,
      "ữ": 1060,
      "ỳ": 1061,
      "ỹ": 1062,
      "ἀ": 1063,
      "ἄ": 1064,
      "Ἀ": 1065,
      "Ἃ": 1066,
      "Ἄ": 1067,
      "ἐ": 1068,
      "ἔ": 1069,
      "ἕ": 1070,
      "ἡ": 1071,
      "Ἡ": 1072,
      "ἰ": 1073,
      "Ἰ": 1074,
      "Ἱ": 1075,
      "ὀ": 1076,
      "ὁ": 1077,
      "ὄ": 1078,
      "Ὀ": 1079,
      "ὐ": 1080,
      "ὖ": 1081,
      "Ὑ": 1082,
      "ὶ": 1083,
      "ὸ": 1084,
      "ὺ": 1085,
      "ᾰ": 1086,
      "ῆ": 1087,
      "ῖ": 1088,
      "ῠ": 1089,
      "ῥ": 1090,
      "ῦ": 1091,
      "Ῥ": 1092,
      "ῶ": 1093,
      "​": 1094,
      "‌": 1095,
      "‎": 1096,
      "‐": 1097,
      "‑": 1098,
      "‒": 1099,
      "–": 1100,
      "—": 1101,
      "―": 1102,
      "‖": 1103,
      "‘": 1104,
      "’": 1105,
      "‚": 1106,
      "‛": 1107,
      "“": 1108,
      "”": 1109,
      "„": 1110,
      "‟": 1111,
      "†": 1112,
      "‡": 1113,
      "•": 1114,
      "…": 1115,
      "‧": 1116,
      "‰": 1117,
      "′": 1118,
      "″": 1119,
      "‹": 1120,
      "›": 1121,
      "※": 1122,
      "‼": 1123,
      "⁄": 1124,
      "⁡": 1125,
      "⁰": 1126,
      "⁴": 1127,
      "⁾": 1128,
      "ⁿ": 1129,
      "₁": 1130,
      "₂": 1131,
      "₃": 1132,
      "₡": 1133,
      "₤": 1134,
      "₨": 1135,
      "₩": 1136,
      "₪": 1137,
      "₫": 1138,
      "€": 1139,
      "₱": 1140,
      "₹": 1141,
      "℃": 1142,
      "ℏ": 1143,
      "ℓ": 1144,
      "№": 1145,
      "℗": 1146,
      "ℝ": 1147,
      "℟": 1148,
      "℠": 1149,
      "™": 1150,
      "℣": 1151,
      "⅓": 1152,
      "⅛": 1153,
      "⅜": 1154,
      "⅝": 1155,
      "Ⅰ": 1156,
      "Ⅱ": 1157,
      "←": 1158,
      "↑": 1159,
      "→": 1160,
      "↓": 1161,
      "↔": 1162,
      "↗": 1163,
      "↜": 1164,
      "↦": 1165,
      "↩": 1166,
      "↵": 1167,
      "↹": 1168,
      "⇌": 1169,
      "⇐": 1170,
      "⇒": 1171,
      "⇔": 1172,
      "⇢": 1173,
      "⇧": 1174,
      "⇩": 1175,
      "∀": 1176,
      "∂": 1177,
      "∆": 1178,
      "∇": 1179,
      "∈": 1180,
      "∎": 1181,
      "∏": 1182,
      "∑": 1183,
      "−": 1184,
      "∕": 1185,
      "∗": 1186,
      "∘": 1187,
      "∙": 1188,
      "√": 1189,
      "∞": 1190,
      "∠": 1191,
      "∣": 1192,
      "∥": 1193,
      "∧": 1194,
      "∨": 1195,
      "∩": 1196,
      "∪": 1197,
      "∫": 1198,
      "∴": 1199,
      "∶": 1200,
      "∼": 1201,
      "≅": 1202,
      "≈": 1203,
      "≠": 1204,
      "≡": 1205,
      "≤": 1206,
      "≥": 1207,
      "≦": 1208,
      "≧": 1209,
      "≪": 1210,
      "≫": 1211,
      "⊂": 1212,
      "⊆": 1213,
      "⊕": 1214,
      "⊖": 1215,
      "⊗": 1216,
      "⊛": 1217,
      "⊞": 1218,
      "⊢": 1219,
      "⊥": 1220,
      "⊨": 1221,
      "⋅": 1222,
      "⋆": 1223,
      "⋌": 1224,
      "⋮": 1225,
      "⋯": 1226,
      "⋱": 1227,
      "⌂": 1228,
      "⌃": 1229,
      "⌈": 1230,
      "⌉": 1231,
      "⌊": 1232,
      "⌋": 1233,
      "⌘": 1234,
      "⎪": 1235,
      "⎷": 1236,
      "①": 1237,
      "②": 1238,
      "③": 1239,
      "④": 1240,
      "⑤": 1241,
      "⑧": 1242,
      "⑨": 1243,
      "⑴": 1244,
      "⒋": 1245,
      "Ⓡ": 1246,
      "ⓒ": 1247,
      "ⓘ": 1248,
      "─": 1249,
      "│": 1250,
      "┐": 1251,
      "└": 1252,
      "├": 1253,
      "┤": 1254,
      "┬": 1255,
      "┼": 1256,
      "║": 1257,
      "╝": 1258,
      "╳": 1259,
      "█": 1260,
      "▌": 1261,
      "▐": 1262,
      "▒": 1263,
      "■": 1264,
      "□": 1265,
      "▪": 1266,
      "▲": 1267,
      "▶": 1268,
      "▷": 1269,
      "▸": 1270,
      "►": 1271,
      "▼": 1272,
      "▾": 1273,
      "◀": 1274,
      "◄": 1275,
      "◆": 1276,
      "◇": 1277,
      "◉": 1278,
      "◊": 1279,
      "○": 1280,
      "◌": 1281,
      "◎": 1282,
      "●": 1283,
      "◔": 1284,
      "◗": 1285,
      "◙": 1286,
      "◡": 1287,
      "◦": 1288,
      "◻": 1289,
      "◾": 1290,
      "★": 1291,
      "☆": 1292,
      "☉": 1293,
      "☎": 1294,
      "☐": 1295,
      "☑": 1296,
      "☝": 1297,
      "☞": 1298,
      "☢": 1299,
      "☰": 1300,
      "☹": 1301,
      "☺": 1302,
      "♔": 1303,
      "♕": 1304,
      "♠": 1305,
      "♡": 1306,
      "♣": 1307,
      "♥": 1308,
      "♦": 1309,
      "♪": 1310,
      "♫": 1311,
      "♬": 1312,
      "♭": 1313,
      "♯": 1314,
      "♻": 1315,
      "⚡": 1316,
      "⚽": 1317,
      "✄": 1318,
      "✅": 1319,
      "✈": 1320,
      "✓": 1321,
      "✔": 1322,
      "✕": 1323,
      "✖": 1324,
      "✝": 1325,
      "✤": 1326,
      "✪": 1327,
      "✮": 1328,
      "✯": 1329,
      "✰": 1330,
      "✳": 1331,
      "✵": 1332,
      "✺": 1333,
      "❀": 1334,
      "❂": 1335,
      "❈": 1336,
      "❏": 1337,
      "❑": 1338,
      "❖": 1339,
      "❘": 1340,
      "❤": 1341,
      "❥": 1342,
      "❮": 1343,
      "❯": 1344,
      "➀": 1345,
      "➁": 1346,
      "➔": 1347,
      "➕": 1348,
      "➖": 1349,
      "➘": 1350,
      "➜": 1351,
      "➡": 1352,
      "➢": 1353,
      "➣": 1354,
      "➤": 1355,
      "➧": 1356,
      "➫": 1357,
      "➯": 1358,
      "⟨": 1359,
      "⟩": 1360,
      "⠀": 1361,
      "⠇": 1362,
      "⦁": 1363,
      "⨯": 1364,
      "⭐": 1365,
      "⭠": 1366,
      "ⲉ": 1367,
      "ⲓ": 1368,
      "ⲙ": 1369,
      "ⲛ": 1370,
      "ⲟ": 1371,
      "ⲩ": 1372,
      "Ⳝ": 1373,
      "ⳝ": 1374,
      "ⴰ": 1375,
      "ⴷ": 1376,
      "ⴹ": 1377,
      "ⵃ": 1378,
      "ⵉ": 1379,
      "ⵊ": 1380,
      "ⵍ": 1381,
      "ⵎ": 1382,
      "ⵏ": 1383,
      "ⵓ": 1384,
      "ⵔ": 1385,
      "ⵙ": 1386,
      "ⵜ": 1387,
      "ⵟ": 1388,
      "ⵡ": 1389,
      "ⵢ": 1390,
      "ⵣ": 1391,
      "、": 1392,
      "々": 1393,
      "《": 1394,
      "》": 1395,
      "「": 1396,
      "」": 1397,
      "『": 1398,
      "』": 1399,
      "〜": 1400,
      "あ": 1401,
      "ぃ": 1402,
      "い": 1403,
      "う": 1404,
      "え": 1405,
      "お": 1406,
      "か": 1407,
      "が": 1408,
      "き": 1409,
      "ぎ": 1410,
      "く": 1411,
      "ぐ": 1412,
      "け": 1413,
      "こ": 1414,
      "ご": 1415,
      "さ": 1416,
      "し": 1417,
      "じ": 1418,
      "す": 1419,
      "ず": 1420,
      "せ": 1421,
      "そ": 1422,
      "ぞ": 1423,
      "た": 1424,
      "だ": 1425,
      "ち": 1426,
      "っ": 1427,
      "つ": 1428,
      "づ": 1429,
      "て": 1430,
      "で": 1431,
      "と": 1432,
      "ど": 1433,
      "な": 1434,
      "に": 1435,
      "ぬ": 1436,
      "の": 1437,
      "は": 1438,
      "ば": 1439,
      "ひ": 1440,
      "び": 1441,
      "ふ": 1442,
      "ぶ": 1443,
      "へ": 1444,
      "べ": 1445,
      "ま": 1446,
      "み": 1447,
      "む": 1448,
      "め": 1449,
      "も": 1450,
      "ゃ": 1451,
      "や": 1452,
      "ゅ": 1453,
      "ゆ": 1454,
      "ょ": 1455,
      "よ": 1456,
      "ら": 1457,
      "り": 1458,
      "る": 1459,
      "れ": 1460,
      "わ": 1461,
      "を": 1462,
      "ん": 1463,
      "゙": 1464,
      "ァ": 1465,
      "ア": 1466,
      "ィ": 1467,
      "イ": 1468,
      "ウ": 1469,
      "ェ": 1470,
      "エ": 1471,
      "ォ": 1472,
      "オ": 1473,
      "カ": 1474,
      "ガ": 1475,
      "キ": 1476,
      "ギ": 1477,
      "ク": 1478,
      "グ": 1479,
      "ケ": 1480,
      "ゲ": 1481,
      "コ": 1482,
      "ゴ": 1483,
      "サ": 1484,
      "ザ": 1485,
      "シ": 1486,
      "ジ": 1487,
      "ス": 1488,
      "ズ": 1489,
      "セ": 1490,
      "ゼ": 1491,
      "ソ": 1492,
      "タ": 1493,
      "ダ": 1494,
      "チ": 1495,
      "ヂ": 1496,
      "ッ": 1497,
      "ツ": 1498,
      "テ": 1499,
      "デ": 1500,
      "ト": 1501,
      "ド": 1502,
      "ナ": 1503,
      "ニ": 1504,
      "ヌ": 1505,
      "ネ": 1506,
      "ノ": 1507,
      "ハ": 1508,
      "バ": 1509,
      "パ": 1510,
      "ビ": 1511,
      "ピ": 1512,
      "フ": 1513,
      "ブ": 1514,
      "プ": 1515,
      "ヘ": 1516,
      "ベ": 1517,
      "ペ": 1518,
      "ホ": 1519,
      "ボ": 1520,
      "ポ": 1521,
      "マ": 1522,
      "ミ": 1523,
      "ム": 1524,
      "メ": 1525,
      "モ": 1526,
      "ャ": 1527,
      "ヤ": 1528,
      "ュ": 1529,
      "ユ": 1530,
      "ョ": 1531,
      "ヨ": 1532,
      "ラ": 1533,
      "リ": 1534,
      "ル": 1535,
      "レ": 1536,
      "ロ": 1537,
      "ワ": 1538,
      "ン": 1539,
      "ヴ": 1540,
      "・": 1541,
      "ー": 1542,
      "ㅊ": 1543,
      "ㅋ": 1544,
      "ㅌ": 1545,
      "ㅍ": 1546,
      "㎡": 1547,
      "䈉": 1548,
      "一": 1549,
      "七": 1550,
      "丈": 1551,
      "三": 1552,
      "上": 1553,
      "下": 1554,
      "不": 1555,
      "与": 1556,
      "世": 1557,
      "丘": 1558,
      "业": 1559,
      "东": 1560,
      "丝": 1561,
      "丞": 1562,
      "両": 1563,
      "个": 1564,
      "中": 1565,
      "串": 1566,
      "临": 1567,
      "丸": 1568,
      "丹": 1569,
      "为": 1570,
      "主": 1571,
      "久": 1572,
      "义": 1573,
      "之": 1574,
      "乐": 1575,
      "乔": 1576,
      "九": 1577,
      "也": 1578,
      "乡": 1579,
      "书": 1580,
      "予": 1581,
      "争": 1582,
      "事": 1583,
      "二": 1584,
      "于": 1585,
      "云": 1586,
      "互": 1587,
      "五": 1588,
      "井": 1589,
      "亚": 1590,
      "亜": 1591,
      "亡": 1592,
      "产": 1593,
      "京": 1594,
      "亭": 1595,
      "人": 1596,
      "什": 1597,
      "仁": 1598,
      "今": 1599,
      "仏": 1600,
      "仔": 1601,
      "他": 1602,
      "仙": 1603,
      "代": 1604,
      "令": 1605,
      "以": 1606,
      "们": 1607,
      "仮": 1608,
      "件": 1609,
      "价": 1610,
      "任": 1611,
      "份": 1612,
      "仿": 1613,
      "伉": 1614,
      "伊": 1615,
      "伐": 1616,
      "会": 1617,
      "伝": 1618,
      "传": 1619,
      "估": 1620,
      "位": 1621,
      "住": 1622,
      "佐": 1623,
      "体": 1624,
      "何": 1625,
      "佛": 1626,
      "作": 1627,
      "你": 1628,
      "佩": 1629,
      "佰": 1630,
      "佳": 1631,
      "使": 1632,
      "來": 1633,
      "例": 1634,
      "依": 1635,
      "侦": 1636,
      "侯": 1637,
      "便": 1638,
      "係": 1639,
      "俊": 1640,
      "保": 1641,
      "信": 1642,
      "俣": 1643,
      "修": 1644,
      "個": 1645,
      "候": 1646,
      "倪": 1647,
      "值": 1648,
      "偉": 1649,
      "停": 1650,
      "健": 1651,
      "備": 1652,
      "催": 1653,
      "傷": 1654,
      "傾": 1655,
      "像": 1656,
      "價": 1657,
      "儀": 1658,
      "優": 1659,
      "元": 1660,
      "兄": 1661,
      "先": 1662,
      "光": 1663,
      "克": 1664,
      "兒": 1665,
      "党": 1666,
      "全": 1667,
      "八": 1668,
      "公": 1669,
      "六": 1670,
      "关": 1671,
      "兵": 1672,
      "其": 1673,
      "典": 1674,
      "内": 1675,
      "円": 1676,
      "冈": 1677,
      "冉": 1678,
      "冊": 1679,
      "军": 1680,
      "冢": 1681,
      "冬": 1682,
      "决": 1683,
      "冷": 1684,
      "凯": 1685,
      "出": 1686,
      "函": 1687,
      "刃": 1688,
      "分": 1689,
      "刊": 1690,
      "列": 1691,
      "刘": 1692,
      "初": 1693,
      "別": 1694,
      "利": 1695,
      "别": 1696,
      "制": 1697,
      "刻": 1698,
      "則": 1699,
      "前": 1700,
      "剑": 1701,
      "剛": 1702,
      "剣": 1703,
      "剤": 1704,
      "剧": 1705,
      "劍": 1706,
      "力": 1707,
      "功": 1708,
      "加": 1709,
      "动": 1710,
      "助": 1711,
      "势": 1712,
      "勇": 1713,
      "動": 1714,
      "務": 1715,
      "募": 1716,
      "勰": 1717,
      "化": 1718,
      "北": 1719,
      "匹": 1720,
      "区": 1721,
      "医": 1722,
      "區": 1723,
      "十": 1724,
      "千": 1725,
      "华": 1726,
      "卓": 1727,
      "協": 1728,
      "南": 1729,
      "単": 1730,
      "博": 1731,
      "卧": 1732,
      "卫": 1733,
      "印": 1734,
      "危": 1735,
      "即": 1736,
      "却": 1737,
      "厄": 1738,
      "历": 1739,
      "原": 1740,
      "厳": 1741,
      "县": 1742,
      "參": 1743,
      "及": 1744,
      "双": 1745,
      "反": 1746,
      "发": 1747,
      "取": 1748,
      "受": 1749,
      "变": 1750,
      "叢": 1751,
      "口": 1752,
      "古": 1753,
      "只": 1754,
      "可": 1755,
      "台": 1756,
      "史": 1757,
      "号": 1758,
      "司": 1759,
      "合": 1760,
      "吉": 1761,
      "同": 1762,
      "名": 1763,
      "君": 1764,
      "否": 1765,
      "吧": 1766,
      "含": 1767,
      "周": 1768,
      "味": 1769,
      "呼": 1770,
      "和": 1771,
      "咩": 1772,
      "哈": 1773,
      "員": 1774,
      "哲": 1775,
      "唐": 1776,
      "商": 1777,
      "問": 1778,
      "啟": 1779,
      "喂": 1780,
      "善": 1781,
      "喜": 1782,
      "單": 1783,
      "嘉": 1784,
      "四": 1785,
      "囝": 1786,
      "回": 1787,
      "因": 1788,
      "团": 1789,
      "园": 1790,
      "固": 1791,
      "国": 1792,
      "國": 1793,
      "園": 1794,
      "團": 1795,
      "土": 1796,
      "圧": 1797,
      "在": 1798,
      "地": 1799,
      "圳": 1800,
      "场": 1801,
      "址": 1802,
      "坂": 1803,
      "均": 1804,
      "坎": 1805,
      "坚": 1806,
      "坡": 1807,
      "坪": 1808,
      "垂": 1809,
      "型": 1810,
      "垣": 1811,
      "城": 1812,
      "域": 1813,
      "基": 1814,
      "堂": 1815,
      "堤": 1816,
      "場": 1817,
      "塑": 1818,
      "塔": 1819,
      "塘": 1820,
      "塚": 1821,
      "壁": 1822,
      "壘": 1823,
      "士": 1824,
      "変": 1825,
      "夏": 1826,
      "外": 1827,
      "多": 1828,
      "夜": 1829,
      "大": 1830,
      "天": 1831,
      "太": 1832,
      "夫": 1833,
      "央": 1834,
      "奇": 1835,
      "奈": 1836,
      "奉": 1837,
      "奔": 1838,
      "套": 1839,
      "奥": 1840,
      "奧": 1841,
      "女": 1842,
      "好": 1843,
      "妖": 1844,
      "妮": 1845,
      "妹": 1846,
      "妻": 1847,
      "始": 1848,
      "委": 1849,
      "姫": 1850,
      "姬": 1851,
      "姻": 1852,
      "娃": 1853,
      "娘": 1854,
      "娱": 1855,
      "婁": 1856,
      "婚": 1857,
      "婦": 1858,
      "媛": 1859,
      "媵": 1860,
      "子": 1861,
      "字": 1862,
      "孙": 1863,
      "孛": 1864,
      "孟": 1865,
      "季": 1866,
      "学": 1867,
      "孫": 1868,
      "學": 1869,
      "宁": 1870,
      "它": 1871,
      "宇": 1872,
      "守": 1873,
      "安": 1874,
      "完": 1875,
      "宏": 1876,
      "宗": 1877,
      "官": 1878,
      "定": 1879,
      "宝": 1880,
      "审": 1881,
      "客": 1882,
      "宣": 1883,
      "室": 1884,
      "宮": 1885,
      "家": 1886,
      "宾": 1887,
      "宿": 1888,
      "寅": 1889,
      "寒": 1890,
      "察": 1891,
      "實": 1892,
      "寧": 1893,
      "寶": 1894,
      "对": 1895,
      "寺": 1896,
      "対": 1897,
      "寿": 1898,
      "将": 1899,
      "專": 1900,
      "尋": 1901,
      "對": 1902,
      "小": 1903,
      "少": 1904,
      "尖": 1905,
      "尺": 1906,
      "尾": 1907,
      "局": 1908,
      "屋": 1909,
      "屏": 1910,
      "属": 1911,
      "屬": 1912,
      "山": 1913,
      "岑": 1914,
      "岩": 1915,
      "岳": 1916,
      "岸": 1917,
      "島": 1918,
      "崎": 1919,
      "崔": 1920,
      "嶋": 1921,
      "嶠": 1922,
      "嶺": 1923,
      "巌": 1924,
      "川": 1925,
      "州": 1926,
      "工": 1927,
      "左": 1928,
      "巨": 1929,
      "已": 1930,
      "巻": 1931,
      "市": 1932,
      "布": 1933,
      "帕": 1934,
      "帝": 1935,
      "師": 1936,
      "席": 1937,
      "帮": 1938,
      "帰": 1939,
      "帽": 1940,
      "幅": 1941,
      "干": 1942,
      "平": 1943,
      "年": 1944,
      "幸": 1945,
      "幻": 1946,
      "广": 1947,
      "広": 1948,
      "庄": 1949,
      "床": 1950,
      "库": 1951,
      "店": 1952,
      "府": 1953,
      "度": 1954,
      "座": 1955,
      "庫": 1956,
      "庭": 1957,
      "庵": 1958,
      "康": 1959,
      "廓": 1960,
      "廣": 1961,
      "延": 1962,
      "建": 1963,
      "廿": 1964,
      "开": 1965,
      "弁": 1966,
      "式": 1967,
      "弘": 1968,
      "张": 1969,
      "弥": 1970,
      "弾": 1971,
      "归": 1972,
      "录": 1973,
      "形": 1974,
      "彩": 1975,
      "影": 1976,
      "很": 1977,
      "律": 1978,
      "後": 1979,
      "徐": 1980,
      "従": 1981,
      "得": 1982,
      "從": 1983,
      "御": 1984,
      "復": 1985,
      "微": 1986,
      "徳": 1987,
      "德": 1988,
      "心": 1989,
      "志": 1990,
      "快": 1991,
      "忽": 1992,
      "态": 1993,
      "怒": 1994,
      "怔": 1995,
      "思": 1996,
      "性": 1997,
      "怪": 1998,
      "总": 1999,
      "恩": 2000,
      "息": 2001,
      "恵": 2002,
      "悟": 2003,
      "您": 2004,
      "悪": 2005,
      "情": 2006,
      "惠": 2007,
      "想": 2008,
      "意": 2009,
      "愛": 2010,
      "感": 2011,
      "愿": 2012,
      "慎": 2013,
      "慧": 2014,
      "慶": 2015,
      "憂": 2016,
      "憑": 2017,
      "憤": 2018,
      "懷": 2019,
      "戈": 2020,
      "戏": 2021,
      "成": 2022,
      "我": 2023,
      "战": 2024,
      "戦": 2025,
      "戰": 2026,
      "戴": 2027,
      "戶": 2028,
      "戸": 2029,
      "房": 2030,
      "所": 2031,
      "手": 2032,
      "才": 2033,
      "打": 2034,
      "扬": 2035,
      "扶": 2036,
      "承": 2037,
      "技": 2038,
      "投": 2039,
      "护": 2040,
      "报": 2041,
      "抯": 2042,
      "拿": 2043,
      "指": 2044,
      "按": 2045,
      "振": 2046,
      "捕": 2047,
      "换": 2048,
      "据": 2049,
      "掌": 2050,
      "排": 2051,
      "推": 2052,
      "揋": 2053,
      "提": 2054,
      "搜": 2055,
      "摄": 2056,
      "摇": 2057,
      "撃": 2058,
      "播": 2059,
      "撮": 2060,
      "操": 2061,
      "擷": 2062,
      "收": 2063,
      "改": 2064,
      "攻": 2065,
      "放": 2066,
      "政": 2067,
      "效": 2068,
      "敏": 2069,
      "教": 2070,
      "数": 2071,
      "整": 2072,
      "數": 2073,
      "文": 2074,
      "斉": 2075,
      "斎": 2076,
      "斑": 2077,
      "斗": 2078,
      "料": 2079,
      "斛": 2080,
      "斤": 2081,
      "斬": 2082,
      "断": 2083,
      "斯": 2084,
      "新": 2085,
      "方": 2086,
      "旅": 2087,
      "族": 2088,
      "无": 2089,
      "日": 2090,
      "旧": 2091,
      "早": 2092,
      "时": 2093,
      "昆": 2094,
      "昌": 2095,
      "明": 2096,
      "星": 2097,
      "春": 2098,
      "昭": 2099,
      "是": 2100,
      "昰": 2101,
      "昴": 2102,
      "昺": 2103,
      "昼": 2104,
      "時": 2105,
      "晉": 2106,
      "晋": 2107,
      "晟": 2108,
      "景": 2109,
      "晴": 2110,
      "暁": 2111,
      "暑": 2112,
      "暗": 2113,
      "暨": 2114,
      "暴": 2115,
      "更": 2116,
      "書": 2117,
      "曼": 2118,
      "曽": 2119,
      "曾": 2120,
      "最": 2121,
      "會": 2122,
      "月": 2123,
      "有": 2124,
      "服": 2125,
      "朗": 2126,
      "朝": 2127,
      "期": 2128,
      "木": 2129,
      "未": 2130,
      "本": 2131,
      "札": 2132,
      "李": 2133,
      "村": 2134,
      "杜": 2135,
      "条": 2136,
      "来": 2137,
      "杭": 2138,
      "東": 2139,
      "松": 2140,
      "枕": 2141,
      "林": 2142,
      "果": 2143,
      "枝": 2144,
      "染": 2145,
      "查": 2146,
      "标": 2147,
      "栖": 2148,
      "校": 2149,
      "株": 2150,
      "根": 2151,
      "格": 2152,
      "桂": 2153,
      "桃": 2154,
      "桌": 2155,
      "桐": 2156,
      "桑": 2157,
      "桜": 2158,
      "档": 2159,
      "桥": 2160,
      "桶": 2161,
      "梁": 2162,
      "梅": 2163,
      "梦": 2164,
      "梨": 2165,
      "梯": 2166,
      "棋": 2167,
      "椒": 2168,
      "楊": 2169,
      "楚": 2170,
      "業": 2171,
      "極": 2172,
      "楼": 2173,
      "楽": 2174,
      "榎": 2175,
      "榜": 2176,
      "榮": 2177,
      "榴": 2178,
      "樋": 2179,
      "模": 2180,
      "権": 2181,
      "横": 2182,
      "樹": 2183,
      "橋": 2184,
      "機": 2185,
      "檀": 2186,
      "檔": 2187,
      "櫻": 2188,
      "權": 2189,
      "次": 2190,
      "欧": 2191,
      "款": 2192,
      "歌": 2193,
      "正": 2194,
      "武": 2195,
      "歷": 2196,
      "死": 2197,
      "殊": 2198,
      "残": 2199,
      "殺": 2200,
      "殿": 2201,
      "毅": 2202,
      "母": 2203,
      "比": 2204,
      "毛": 2205,
      "氏": 2206,
      "民": 2207,
      "気": 2208,
      "氣": 2209,
      "氧": 2210,
      "水": 2211,
      "氷": 2212,
      "永": 2213,
      "氽": 2214,
      "汀": 2215,
      "求": 2216,
      "汉": 2217,
      "汝": 2218,
      "江": 2219,
      "池": 2220,
      "決": 2221,
      "沌": 2222,
      "沖": 2223,
      "沙": 2224,
      "沟": 2225,
      "沢": 2226,
      "河": 2227,
      "治": 2228,
      "泉": 2229,
      "法": 2230,
      "波": 2231,
      "注": 2232,
      "洋": 2233,
      "洛": 2234,
      "洞": 2235,
      "津": 2236,
      "洪": 2237,
      "活": 2238,
      "派": 2239,
      "流": 2240,
      "济": 2241,
      "浙": 2242,
      "浜": 2243,
      "浦": 2244,
      "浪": 2245,
      "浮": 2246,
      "浵": 2247,
      "海": 2248,
      "涟": 2249,
      "深": 2250,
      "淳": 2251,
      "混": 2252,
      "清": 2253,
      "渡": 2254,
      "温": 2255,
      "港": 2256,
      "游": 2257,
      "湖": 2258,
      "湾": 2259,
      "源": 2260,
      "滇": 2261,
      "滴": 2262,
      "演": 2263,
      "漢": 2264,
      "漣": 2265,
      "漫": 2266,
      "漯": 2267,
      "漿": 2268,
      "潘": 2269,
      "澄": 2270,
      "澤": 2271,
      "濃": 2272,
      "濱": 2273,
      "灌": 2274,
      "灣": 2275,
      "火": 2276,
      "灭": 2277,
      "灯": 2278,
      "灵": 2279,
      "炭": 2280,
      "炮": 2281,
      "為": 2282,
      "烏": 2283,
      "热": 2284,
      "無": 2285,
      "然": 2286,
      "焼": 2287,
      "煤": 2288,
      "熙": 2289,
      "燃": 2290,
      "燕": 2291,
      "燮": 2292,
      "爆": 2293,
      "爭": 2294,
      "爵": 2295,
      "爾": 2296,
      "片": 2297,
      "版": 2298,
      "牡": 2299,
      "牧": 2300,
      "物": 2301,
      "特": 2302,
      "犬": 2303,
      "状": 2304,
      "狂": 2305,
      "狐": 2306,
      "狗": 2307,
      "狩": 2308,
      "独": 2309,
      "狷": 2310,
      "狸": 2311,
      "猛": 2312,
      "猫": 2313,
      "猴": 2314,
      "猿": 2315,
      "獣": 2316,
      "獨": 2317,
      "玄": 2318,
      "玉": 2319,
      "王": 2320,
      "玟": 2321,
      "玫": 2322,
      "环": 2323,
      "现": 2324,
      "玲": 2325,
      "玻": 2326,
      "珂": 2327,
      "珍": 2328,
      "珠": 2329,
      "球": 2330,
      "琅": 2331,
      "理": 2332,
      "琊": 2333,
      "琴": 2334,
      "琶": 2335,
      "瑛": 2336,
      "瑞": 2337,
      "璃": 2338,
      "瓜": 2339,
      "瓶": 2340,
      "甄": 2341,
      "甕": 2342,
      "甘": 2343,
      "甜": 2344,
      "生": 2345,
      "產": 2346,
      "用": 2347,
      "甫": 2348,
      "田": 2349,
      "由": 2350,
      "甲": 2351,
      "电": 2352,
      "男": 2353,
      "町": 2354,
      "画": 2355,
      "界": 2356,
      "留": 2357,
      "略": 2358,
      "異": 2359,
      "畳": 2360,
      "疆": 2361,
      "疏": 2362,
      "白": 2363,
      "百": 2364,
      "的": 2365,
      "皇": 2366,
      "皮": 2367,
      "盆": 2368,
      "盈": 2369,
      "盒": 2370,
      "盘": 2371,
      "盛": 2372,
      "盟": 2373,
      "監": 2374,
      "目": 2375,
      "盲": 2376,
      "相": 2377,
      "省": 2378,
      "眉": 2379,
      "看": 2380,
      "県": 2381,
      "真": 2382,
      "眠": 2383,
      "瞬": 2384,
      "矢": 2385,
      "知": 2386,
      "短": 2387,
      "石": 2388,
      "码": 2389,
      "砂": 2390,
      "砥": 2391,
      "砲": 2392,
      "破": 2393,
      "硕": 2394,
      "硫": 2395,
      "确": 2396,
      "硯": 2397,
      "碩": 2398,
      "示": 2399,
      "社": 2400,
      "祖": 2401,
      "神": 2402,
      "祭": 2403,
      "禎": 2404,
      "福": 2405,
      "禪": 2406,
      "离": 2407,
      "秀": 2408,
      "秋": 2409,
      "科": 2410,
      "秘": 2411,
      "移": 2412,
      "程": 2413,
      "稿": 2414,
      "穆": 2415,
      "空": 2416,
      "立": 2417,
      "竜": 2418,
      "章": 2419,
      "童": 2420,
      "笠": 2421,
      "符": 2422,
      "第": 2423,
      "答": 2424,
      "简": 2425,
      "算": 2426,
      "管": 2427,
      "節": 2428,
      "篇": 2429,
      "簡": 2430,
      "籠": 2431,
      "米": 2432,
      "类": 2433,
      "粉": 2434,
      "粒": 2435,
      "粤": 2436,
      "粥": 2437,
      "精": 2438,
      "糖": 2439,
      "系": 2440,
      "紀": 2441,
      "紅": 2442,
      "納": 2443,
      "紗": 2444,
      "索": 2445,
      "細": 2446,
      "終": 2447,
      "組": 2448,
      "結": 2449,
      "統": 2450,
      "絲": 2451,
      "絶": 2452,
      "經": 2453,
      "継": 2454,
      "維": 2455,
      "線": 2456,
      "編": 2457,
      "縄": 2458,
      "縊": 2459,
      "縣": 2460,
      "繁": 2461,
      "織": 2462,
      "繰": 2463,
      "红": 2464,
      "纳": 2465,
      "线": 2466,
      "练": 2467,
      "组": 2468,
      "结": 2469,
      "绳": 2470,
      "维": 2471,
      "缲": 2472,
      "缺": 2473,
      "网": 2474,
      "罪": 2475,
      "置": 2476,
      "羅": 2477,
      "羊": 2478,
      "美": 2479,
      "群": 2480,
      "義": 2481,
      "羽": 2482,
      "翁": 2483,
      "翔": 2484,
      "翼": 2485,
      "老": 2486,
      "者": 2487,
      "而": 2488,
      "聖": 2489,
      "聞": 2490,
      "聯": 2491,
      "聽": 2492,
      "肉": 2493,
      "股": 2494,
      "肩": 2495,
      "育": 2496,
      "肺": 2497,
      "胶": 2498,
      "能": 2499,
      "脈": 2500,
      "脚": 2501,
      "脡": 2502,
      "脷": 2503,
      "腐": 2504,
      "自": 2505,
      "臭": 2506,
      "至": 2507,
      "臺": 2508,
      "舃": 2509,
      "興": 2510,
      "舉": 2511,
      "舒": 2512,
      "舜": 2513,
      "舞": 2514,
      "舟": 2515,
      "般": 2516,
      "艇": 2517,
      "艦": 2518,
      "良": 2519,
      "色": 2520,
      "艳": 2521,
      "节": 2522,
      "芍": 2523,
      "芝": 2524,
      "芦": 2525,
      "花": 2526,
      "芳": 2527,
      "芽": 2528,
      "苗": 2529,
      "若": 2530,
      "英": 2531,
      "茂": 2532,
      "茄": 2533,
      "茅": 2534,
      "茫": 2535,
      "茶": 2536,
      "草": 2537,
      "荒": 2538,
      "荘": 2539,
      "药": 2540,
      "莫": 2541,
      "获": 2542,
      "莽": 2543,
      "菜": 2544,
      "華": 2545,
      "菲": 2546,
      "萌": 2547,
      "落": 2548,
      "葉": 2549,
      "葫": 2550,
      "蒂": 2551,
      "蓉": 2552,
      "蓋": 2553,
      "蓮": 2554,
      "蔡": 2555,
      "蔵": 2556,
      "蕉": 2557,
      "薄": 2558,
      "薇": 2559,
      "薔": 2560,
      "薦": 2561,
      "薯": 2562,
      "藤": 2563,
      "虎": 2564,
      "處": 2565,
      "虚": 2566,
      "虞": 2567,
      "虫": 2568,
      "虹": 2569,
      "蚀": 2570,
      "蛇": 2571,
      "蛙": 2572,
      "螺": 2573,
      "蟠": 2574,
      "血": 2575,
      "行": 2576,
      "術": 2577,
      "街": 2578,
      "衣": 2579,
      "表": 2580,
      "被": 2581,
      "装": 2582,
      "裕": 2583,
      "製": 2584,
      "西": 2585,
      "要": 2586,
      "覇": 2587,
      "見": 2588,
      "視": 2589,
      "親": 2590,
      "観": 2591,
      "觀": 2592,
      "见": 2593,
      "觅": 2594,
      "视": 2595,
      "解": 2596,
      "言": 2597,
      "訂": 2598,
      "計": 2599,
      "設": 2600,
      "許": 2601,
      "註": 2602,
      "詔": 2603,
      "評": 2604,
      "試": 2605,
      "話": 2606,
      "詳": 2607,
      "誌": 2608,
      "誘": 2609,
      "語": 2610,
      "說": 2611,
      "説": 2612,
      "読": 2613,
      "談": 2614,
      "論": 2615,
      "諸": 2616,
      "謎": 2617,
      "謙": 2618,
      "謝": 2619,
      "譚": 2620,
      "譜": 2621,
      "警": 2622,
      "護": 2623,
      "计": 2624,
      "认": 2625,
      "讲": 2626,
      "设": 2627,
      "评": 2628,
      "识": 2629,
      "词": 2630,
      "诚": 2631,
      "话": 2632,
      "语": 2633,
      "诱": 2634,
      "说": 2635,
      "读": 2636,
      "谢": 2637,
      "谨": 2638,
      "谩": 2639,
      "谷": 2640,
      "豆": 2641,
      "豉": 2642,
      "豊": 2643,
      "豐": 2644,
      "象": 2645,
      "豪": 2646,
      "貫": 2647,
      "資": 2648,
      "賓": 2649,
      "賞": 2650,
      "質": 2651,
      "贸": 2652,
      "贾": 2653,
      "资": 2654,
      "赌": 2655,
      "赛": 2656,
      "赞": 2657,
      "赤": 2658,
      "走": 2659,
      "赵": 2660,
      "赶": 2661,
      "越": 2662,
      "趙": 2663,
      "足": 2664,
      "跑": 2665,
      "距": 2666,
      "跡": 2667,
      "路": 2668,
      "踊": 2669,
      "踏": 2670,
      "躲": 2671,
      "車": 2672,
      "軍": 2673,
      "載": 2674,
      "輕": 2675,
      "輪": 2676,
      "轉": 2677,
      "轟": 2678,
      "转": 2679,
      "轼": 2680,
      "辛": 2681,
      "辦": 2682,
      "边": 2683,
      "辺": 2684,
      "辻": 2685,
      "込": 2686,
      "迆": 2687,
      "返": 2688,
      "还": 2689,
      "这": 2690,
      "远": 2691,
      "连": 2692,
      "追": 2693,
      "送": 2694,
      "适": 2695,
      "這": 2696,
      "通": 2697,
      "速": 2698,
      "造": 2699,
      "逢": 2700,
      "連": 2701,
      "週": 2702,
      "遁": 2703,
      "遊": 2704,
      "運": 2705,
      "過": 2706,
      "道": 2707,
      "遙": 2708,
      "遠": 2709,
      "遷": 2710,
      "選": 2711,
      "遺": 2712,
      "還": 2713,
      "邊": 2714,
      "那": 2715,
      "邦": 2716,
      "邪": 2717,
      "邵": 2718,
      "郁": 2719,
      "郎": 2720,
      "郑": 2721,
      "郡": 2722,
      "部": 2723,
      "郭": 2724,
      "郷": 2725,
      "都": 2726,
      "鄉": 2727,
      "鄒": 2728,
      "酋": 2729,
      "酌": 2730,
      "配": 2731,
      "酒": 2732,
      "酱": 2733,
      "酸": 2734,
      "醤": 2735,
      "醫": 2736,
      "里": 2737,
      "重": 2738,
      "野": 2739,
      "金": 2740,
      "鈥": 2741,
      "鈺": 2742,
      "鉄": 2743,
      "鉅": 2744,
      "鉻": 2745,
      "錄": 2746,
      "錢": 2747,
      "錸": 2748,
      "鍋": 2749,
      "鎢": 2750,
      "鎮": 2751,
      "鏡": 2752,
      "鏮": 2753,
      "鐨": 2754,
      "钓": 2755,
      "钚": 2756,
      "钟": 2757,
      "铆": 2758,
      "错": 2759,
      "锚": 2760,
      "锺": 2761,
      "镇": 2762,
      "長": 2763,
      "长": 2764,
      "門": 2765,
      "閃": 2766,
      "開": 2767,
      "関": 2768,
      "閣": 2769,
      "闇": 2770,
      "闘": 2771,
      "關": 2772,
      "门": 2773,
      "闪": 2774,
      "闭": 2775,
      "问": 2776,
      "闲": 2777,
      "间": 2778,
      "闻": 2779,
      "阅": 2780,
      "阮": 2781,
      "防": 2782,
      "阳": 2783,
      "阿": 2784,
      "陀": 2785,
      "际": 2786,
      "陈": 2787,
      "限": 2788,
      "院": 2789,
      "陣": 2790,
      "险": 2791,
      "陵": 2792,
      "陶": 2793,
      "険": 2794,
      "陽": 2795,
      "隈": 2796,
      "隊": 2797,
      "隼": 2798,
      "雄": 2799,
      "集": 2800,
      "雜": 2801,
      "離": 2802,
      "雨": 2803,
      "雪": 2804,
      "雷": 2805,
      "電": 2806,
      "需": 2807,
      "霊": 2808,
      "霜": 2809,
      "露": 2810,
      "靈": 2811,
      "青": 2812,
      "靖": 2813,
      "非": 2814,
      "面": 2815,
      "革": 2816,
      "鞭": 2817,
      "音": 2818,
      "韵": 2819,
      "韻": 2820,
      "頀": 2821,
      "頂": 2822,
      "項": 2823,
      "順": 2824,
      "頻": 2825,
      "額": 2826,
      "顯": 2827,
      "页": 2828,
      "顺": 2829,
      "顿": 2830,
      "领": 2831,
      "频": 2832,
      "颗": 2833,
      "题": 2834,
      "風": 2835,
      "飛": 2836,
      "飞": 2837,
      "食": 2838,
      "飯": 2839,
      "飾": 2840,
      "養": 2841,
      "餐": 2842,
      "館": 2843,
      "馆": 2844,
      "香": 2845,
      "馥": 2846,
      "馬": 2847,
      "馮": 2848,
      "駅": 2849,
      "駆": 2850,
      "駐": 2851,
      "駒": 2852,
      "駿": 2853,
      "騎": 2854,
      "験": 2855,
      "騨": 2856,
      "马": 2857,
      "驰": 2858,
      "驴": 2859,
      "驻": 2860,
      "骨": 2861,
      "髇": 2862,
      "體": 2863,
      "高": 2864,
      "髙": 2865,
      "鬧": 2866,
      "鬼": 2867,
      "魂": 2868,
      "魔": 2869,
      "魚": 2870,
      "鯨": 2871,
      "鯪": 2872,
      "鱼": 2873,
      "鲁": 2874,
      "鲸": 2875,
      "鳥": 2876,
      "鳴": 2877,
      "鴉": 2878,
      "鶴": 2879,
      "鷲": 2880,
      "鸞": 2881,
      "鸣": 2882,
      "鹤": 2883,
      "鹫": 2884,
      "鹿": 2885,
      "麗": 2886,
      "麻": 2887,
      "黃": 2888,
      "黄": 2889,
      "黑": 2890,
      "黒": 2891,
      "黨": 2892,
      "鼠": 2893,
      "鼬": 2894,
      "齊": 2895,
      "龍": 2896,
      "龐": 2897,
      "龙": 2898,
      "ꌣ": 2899,
      "ꞏ": 2900,
      "Ɡ": 2901,
      "간": 2902,
      "갈": 2903,
      "강": 2904,
      "건": 2905,
      "게": 2906,
      "겠": 2907,
      "견": 2908,
      "계": 2909,
      "고": 2910,
      "관": 2911,
      "구": 2912,
      "국": 2913,
      "군": 2914,
      "권": 2915,
      "규": 2916,
      "그": 2917,
      "급": 2918,
      "기": 2919,
      "김": 2920,
      "뀐": 2921,
      "끸": 2922,
      "난": 2923,
      "낞": 2924,
      "남": 2925,
      "내": 2926,
      "년": 2927,
      "노": 2928,
      "높": 2929,
      "눇": 2930,
      "눉": 2931,
      "눱": 2932,
      "뉴": 2933,
      "능": 2934,
      "니": 2935,
      "다": 2936,
      "당": 2937,
      "대": 2938,
      "더": 2939,
      "덕": 2940,
      "도": 2941,
      "독": 2942,
      "돌": 2943,
      "동": 2944,
      "됨": 2945,
      "두": 2946,
      "들": 2947,
      "라": 2948,
      "랑": 2949,
      "래": 2950,
      "략": 2951,
      "럽": 2952,
      "레": 2953,
      "련": 2954,
      "로": 2955,
      "루": 2956,
      "르": 2957,
      "리": 2958,
      "림": 2959,
      "링": 2960,
      "마": 2961,
      "막": 2962,
      "만": 2963,
      "맨": 2964,
      "명": 2965,
      "모": 2966,
      "무": 2967,
      "문": 2968,
      "미": 2969,
      "민": 2970,
      "밀": 2971,
      "바": 2972,
      "박": 2973,
      "반": 2974,
      "발": 2975,
      "방": 2976,
      "백": 2977,
      "벌": 2978,
      "베": 2979,
      "벨": 2980,
      "변": 2981,
      "별": 2982,
      "보": 2983,
      "비": 2984,
      "사": 2985,
      "산": 2986,
      "살": 2987,
      "상": 2988,
      "서": 2989,
      "설": 2990,
      "섬": 2991,
      "섯": 2992,
      "성": 2993,
      "세": 2994,
      "센": 2995,
      "셧": 2996,
      "소": 2997,
      "속": 2998,
      "솥": 2999,
      "수": 3000,
      "순": 3001,
      "슈": 3002,
      "스": 3003,
      "슬": 3004,
      "시": 3005,
      "신": 3006,
      "심": 3007,
      "십": 3008,
      "썸": 3009,
      "아": 3010,
      "어": 3011,
      "언": 3012,
      "에": 3013,
      "엑": 3014,
      "엠": 3015,
      "연": 3016,
      "열": 3017,
      "영": 3018,
      "예": 3019,
      "오": 3020,
      "옥": 3021,
      "왔": 3022,
      "외": 3023,
      "요": 3024,
      "용": 3025,
      "운": 3026,
      "울": 3027,
      "워": 3028,
      "원": 3029,
      "유": 3030,
      "은": 3031,
      "을": 3032,
      "의": 3033,
      "이": 3034,
      "인": 3035,
      "일": 3036,
      "임": 3037,
      "자": 3038,
      "작": 3039,
      "장": 3040,
      "쟁": 3041,
      "전": 3042,
      "절": 3043,
      "점": 3044,
      "정": 3045,
      "제": 3046,
      "조": 3047,
      "주": 3048,
      "중": 3049,
      "즈": 3050,
      "증": 3051,
      "지": 3052,
      "직": 3053,
      "진": 3054,
      "집": 3055,
      "처": 3056,
      "천": 3057,
      "철": 3058,
      "청": 3059,
      "충": 3060,
      "케": 3061,
      "코": 3062,
      "크": 3063,
      "타": 3064,
      "태": 3065,
      "텔": 3066,
      "템": 3067,
      "토": 3068,
      "통": 3069,
      "트": 3070,
      "티": 3071,
      "퍼": 3072,
      "평": 3073,
      "품": 3074,
      "프": 3075,
      "피": 3076,
      "픽": 3077,
      "하": 3078,
      "학": 3079,
      "한": 3080,
      "합": 3081,
      "해": 3082,
      "했": 3083,
      "현": 3084,
      "호": 3085,
      "회": 3086,
      "희": 3087,
      "히": 3088,
      "": 3089,
      "": 3090,
      "": 3091,
      "": 3092,
      "": 3093,
      "": 3094,
      "": 3095,
      "": 3096,
      "": 3097,
      "": 3098,
      "": 3099,
      "": 3100,
      "": 3101,
      "﻿": 3102,
      "（": 3103,
      "）": 3104,
      "～": 3105,
      "𒀭": 3106,
      "𒁺": 3107,
      "𒆗": 3108,
      "𝐴": 3109,
      "𝐵": 3110,
      "𝑥": 3111,
      "𝑦": 3112,
      "🅾": 3113,
      "🇪": 3114,
      "🇾": 3115,
      "🌞": 3116,
      "🌟": 3117,
      "🌸": 3118,
      "🍺": 3119,
      "🍿": 3120,
      "🎀": 3121,
      "🎂": 3122,
      "🎉": 3123,
      "🎬": 3124,
      "🎯": 3125,
      "🏠": 3126,
      "🏡": 3127,
      "🏷": 3128,
      "🏻": 3129,
      "🐷": 3130,
      "👍": 3131,
      "👏": 3132,
      "💔": 3133,
      "💕": 3134,
      "💗": 3135,
      "💚": 3136,
      "💣": 3137,
      "💧": 3138,
      "📂": 3139,
      "📆": 3140,
      "📑": 3141,
      "📷": 3142,
      "🔊": 3143,
      "🔎": 3144,
      "🔥": 3145,
      "🔴": 3146,
      "🕒": 3147,
      "😀": 3148,
      "😂": 3149,
      "😃": 3150,
      "😄": 3151,
      "😉": 3152,
      "😊": 3153,
      "😍": 3154,
      "😘": 3155,
      "🙂": 3156,
      "🚚": 3157,
      "🚨": 3158,
      "🚫": 3159,
      "🛑": 3160,
      "🛡": 3161,
      "🤖": 3162,
      "🤽": 3163,
      "🦊": 3164,
      "r</w>": 3165,
      "d</w>": 3166,
      "o</w>": 3167,
      "a</w>": 3168,
      "e</w>": 3169,
      "y</w>": 3170,
      "h</w>": 3171,
      "b</w>": 3172,
      "u</w>": 3173,
      "l</w>": 3174,
      "g</w>": 3175,
      "s</w>": 3176,
      "i</w>": 3177,
      "F</w>": 3178,
      "n</w>": 3179,
      "m</w>": 3180,
      "N</w>": 3181,
      "D</w>": 3182,
      "O</w>": 3183,
      "p</w>": 3184,
      "t</w>": 3185,
      "3</w>": 3186,
      "י</w>": 3187,
      "E</w>": 3188,
      "7</w>": 3189,
      "6</w>": 3190,
      "k</w>": 3191,
      "A</w>": 3192,
      "と</w>": 3193,
      "é</w>": 3194,
      "H</w>": 3195,
      "x</w>": 3196,
      "C</w>": 3197,
      "K</w>": 3198,
      "L</w>": 3199,
      "R</w>": 3200,
      "I</w>": 3201,
      "T</w>": 3202,
      "></w>": 3203,
      "f</w>": 3204,
      "0</w>": 3205,
      "c</w>": 3206,
      "S</w>": 3207,
      "Y</w>": 3208,
      "G</w>": 3209,
      "~</w>": 3210,
      "v</w>": 3211,
      "P</w>": 3212,
      "á</w>": 3213,
      "w</w>": 3214,
      "💕</w>": 3215,
      "U</w>": 3216,
      "1</w>": 3217,
      "z</w>": 3218,
      "B</w>": 3219,
      "9</w>": 3220,
      "2</w>": 3221,
      ":</w>": 3222,
      "ˆ</w>": 3223,
      "à</w>": 3224,
      "J</w>": 3225,
      "ó</w>": 3226,
      "X</w>": 3227,
      ")</w>": 3228,
      "¡</w>": 3229,
      "</w>": 3230,
      "ã</w>": 3231,
      "5</w>": 3232,
      "8</w>": 3233,
      "星</w>": 3234,
      "V</w>": 3235,
      ",</w>": 3236,
      "M</w>": 3237,
      "✮</w>": 3238,
      "ם</w>": 3239,
      "♔</w>": 3240,
      "خ</w>": 3241,
      "4</w>": 3242,
      "ô</w>": 3243,
      "ć</w>": 3244,
      "Z</w>": 3245,
      "í</w>": 3246,
      ".</w>": 3247,
      "»</w>": 3248,
      "ū</w>": 3249,
      "q</w>": 3250,
      "¿</w>": 3251,
      "É</w>": 3252,
      "ò</w>": 3253,
      "!</w>": 3254,
      "-</w>": 3255,
      "集</w>": 3256,
      "j</w>": 3257,
      "战</w>": 3258,
      "й</w>": 3259,
      "W</w>": 3260,
      "ê</w>": 3261,
      "Þ</w>": 3262,
      "™</w>": 3263,
      "â</w>": 3264,
      "ي</w>": 3265,
      "º</w>": 3266,
      "합</w>": 3267,
      "]</w>": 3268,
      "Q</w>": 3269,
      "生</w>": 3270,
      "{</w>": 3271,
      "}</w>": 3272,
      "”</w>": 3273,
      "õ</w>": 3274,
      "ย</w>": 3275,
      "ע</w>": 3276,
      "್</w>": 3277,
      "ı</w>": 3278,
      "✅</w>": 3279,
      "'</w>": 3280,
      "и</w>": 3281,
      "池</w>": 3282,
      "ō</w>": 3283,
      "Â</w>": 3284,
      "ā</w>": 3285,
      "а</w>": 3286,
      "ý</w>": 3287,
      "ª</w>": 3288,
      "도</w>": 3289,
      "ћ</w>": 3290,
      "ب</w>": 3291,
      "с</w>": 3292,
      "ʡ</w>": 3293,
      "ל</w>": 3294,
      "町</w>": 3295,
      "ż</w>": 3296,
      "ù</w>": 3297,
      "•</w>": 3298,
      "\"</w>": 3299,
      "逢</w>": 3300,
      "Í</w>": 3301,
      "$</w>": 3302,
      "“</w>": 3303,
      "、</w>": 3304,
      "φ</w>": 3305,
      "்</w>": 3306,
      "의</w>": 3307,
      "館</w>": 3308,
      "④</w>": 3309,
      "ف</w>": 3310,
      "…</w>": 3311,
      "_</w>": 3312,
      "/</w>": 3313,
      "ν</w>": 3314,
      "아</w>": 3315,
      "☐</w>": 3316,
      "泉</w>": 3317,
      "[</w>": 3318,
      "ˇ</w>": 3319,
      "ů</w>": 3320,
      "ä</w>": 3321,
      "模</w>": 3322,
      "ъ</w>": 3323,
      "+</w>": 3324,
      "(</w>": 3325,
      "в</w>": 3326,
      "ú</w>": 3327,
      "è</w>": 3328,
      "​</w>": 3329,
      "ա</w>": 3330,
      ";</w>": 3331,
      "î</w>": 3332,
      "=</w>": 3333,
      "ி</w>": 3334,
      "る</w>": 3335,
      "∞</w>": 3336,
      "À</w>": 3337,
      "Σ</w>": 3338,
      "́</w>": 3339,
      "ö</w>": 3340,
      "б</w>": 3341,
      "Á</w>": 3342,
      "花</w>": 3343,
      "派</w>": 3344,
      "ĭ</w>": 3345,
      "*</w>": 3346,
      "ß</w>": 3347,
      "瓜</w>": 3348,
      "″</w>": 3349,
      "\\</w>": 3350,
      "˛</w>": 3351,
      "ラ</w>": 3352,
      "«</w>": 3353,
      "주</w>": 3354,
      "ş</w>": 3355,
      "끸</w>": 3356,
      "د</w>": 3357,
      "市</w>": 3358,
      "ς</w>": 3359,
      "片</w>": 3360,
      "嶠</w>": 3361,
      "บ</w>": 3362,
      "ل</w>": 3363,
      "်</w>": 3364,
      "陽</w>": 3365,
      "符</w>": 3366,
      "ổ</w>": 3367,
      "Ô</w>": 3368,
      "?</w>": 3369,
      "ʿ</w>": 3370,
      "相</w>": 3371,
      "ň</w>": 3372,
      "ă</w>": 3373,
      "≥</w>": 3374,
      "◄</w>": 3375,
      "ì</w>": 3376,
      "š</w>": 3377,
      "Г</w>": 3378,
      "Ϭ</w>": 3379,
      "ी</w>": 3380,
      "⟩</w>": 3381,
      "ת</w>": 3382,
      "▲</w>": 3383,
      "м</w>": 3384,
      "⨯</w>": 3385,
      "フ</w>": 3386,
      "剑</w>": 3387,
      "ー</w>": 3388,
      "骨</w>": 3389,
      "🎯</w>": 3390,
      "↔</w>": 3391,
      "@</w>": 3392,
      "Ë</w>": 3393,
      "요</w>": 3394,
      "д</w>": 3395,
      "æ</w>": 3396,
      "本</w>": 3397,
      "섬</w>": 3398,
      "博</w>": 3399,
      "數</w>": 3400,
      "⁰</w>": 3401,
      "ñ</w>": 3402,
      "斎</w>": 3403,
      "ီ</w>": 3404,
      "⇧</w>": 3405,
      "ড</w>": 3406,
      "е</w>": 3407,
      "死</w>": 3408,
      "▸</w>": 3409,
      "ة</w>": 3410,
      "気</w>": 3411,
      "н</w>": 3412,
      "影</w>": 3413,
      "鴉</w>": 3414,
      "ç</w>": 3415,
      "子</w>": 3416,
      "р</w>": 3417,
      "§</w>": 3418,
      "放</w>": 3419,
      "美</w>": 3420,
      "변</w>": 3421,
      "ο</w>": 3422,
      "り</w>": 3423,
      "ι</w>": 3424,
      "‑</w>": 3425,
      "字</w>": 3426,
      "☆</w>": 3427,
      "場</w>": 3428,
      "⋅</w>": 3429,
      "å</w>": 3430,
      "島</w>": 3431,
      "艳</w>": 3432,
      "#</w>": 3433,
      "Ú</w>": 3434,
      "ě</w>": 3435,
      "σ</w>": 3436,
      "②</w>": 3437,
      "ī</w>": 3438,
      "‘</w>": 3439,
      "ְ</w>": 3440,
      "%</w>": 3441,
      "ő</w>": 3442,
      "ζ</w>": 3443,
      "ⴷ</w>": 3444,
      "国</w>": 3445,
      "民</w>": 3446,
      "Ă</w>": 3447,
      "맨</w>": 3448,
      "家</w>": 3449,
      "ॐ</w>": 3450,
      "甫</w>": 3451,
      "造</w>": 3452,
      "一</w>": 3453,
      "č</w>": 3454,
      "я</w>": 3455,
      "区</w>": 3456,
      "吧</w>": 3457,
      "神</w>": 3458,
      "ت</w>": 3459,
      "暁</w>": 3460,
      "ニ</w>": 3461,
      "殿</w>": 3462,
      "’</w>": 3463,
      "堂</w>": 3464,
      "ή</w>": 3465,
      "氏</w>": 3466,
      "◊</w>": 3467,
      "帝</w>": 3468,
      "ë</w>": 3469,
      "ك</w>": 3470,
      "ウ</w>": 3471,
      "υ</w>": 3472,
      "ن</w>": 3473,
      "ӕ</w>": 3474,
      "스</w>": 3475,
      "长</w>": 3476,
      "藤</w>": 3477,
      "|</w>": 3478,
      "♦</w>": 3479,
      "−</w>": 3480,
      "贾</w>": 3481,
      "ی</w>": 3482,
      "ן</w>": 3483,
      "ǒ</w>": 3484,
      "関</w>": 3485,
      "م</w>": 3486,
      "ט</w>": 3487,
      "ว</w>": 3488,
      "ى</w>": 3489,
      "€</w>": 3490,
      "論</w>": 3491,
      "ا</w>": 3492,
      "野</w>": 3493,
      "Я</w>": 3494,
      "芦</w>": 3495,
      "α</w>": 3496,
      "<</w>": 3497,
      "安</w>": 3498,
      "у</w>": 3499,
      "ซ</w>": 3500,
      "ج</w>": 3501,
      "新</w>": 3502,
      "寺</w>": 3503,
      "遁</w>": 3504,
      "^</w>": 3505,
      "│</w>": 3506,
      "Ø</w>": 3507,
      "║</w>": 3508,
      "డ</w>": 3509,
      "—</w>": 3510,
      "·</w>": 3511,
      "體</w>": 3512,
      "к</w>": 3513,
      "蓮</w>": 3514,
      "ה</w>": 3515,
      "∏</w>": 3516,
      "Ć</w>": 3517,
      "ϭ</w>": 3518,
      "¼</w>": 3519,
      "박</w>": 3520,
      "青</w>": 3521,
      "ɛ</w>": 3522,
      "ы</w>": 3523,
      "ɕ</w>": 3524,
      "源</w>": 3525,
      "义</w>": 3526,
      "ḥ</w>": 3527,
      "郡</w>": 3528,
      "荘</w>": 3529,
      "트</w>": 3530,
      "ē</w>": 3531,
      "版</w>": 3532,
      "∂</w>": 3533,
      "צ</w>": 3534,
      "°</w>": 3535,
      "τ</w>": 3536,
      "速</w>": 3537,
      "다</w>": 3538,
      "ʃ</w>": 3539,
      "学</w>": 3540,
      "ï</w>": 3541,
      "★</w>": 3542,
      "ト</w>": 3543,
      "`</w>": 3544,
      "∙</w>": 3545,
      "Ә</w>": 3546,
      "意</w>": 3547,
      "总</w>": 3548,
      "⑤</w>": 3549,
      "钚</w>": 3550,
      "聽</w>": 3551,
      "ム</w>": 3552,
      "ų</w>": 3553,
      "ž</w>": 3554,
      "▾</w>": 3555,
      "♥</w>": 3556,
      "ð</w>": 3557,
      "巻</w>": 3558,
      "ر</w>": 3559,
      "场</w>": 3560,
      "春</w>": 3561,
      "ۍ</w>": 3562,
      "¶</w>": 3563,
      "飞</w>": 3564,
      "л</w>": 3565,
      "‛</w>": 3566,
      "ר</w>": 3567,
      "惠</w>": 3568,
      "ę</w>": 3569,
      "̩</w>": 3570,
      "赞</w>": 3571,
      "来</w>": 3572,
      "ø</w>": 3573,
      "➜</w>": 3574,
      "仙</w>": 3575,
      "ü</w>": 3576,
      "昺</w>": 3577,
      "羽</w>": 3578,
      "³</w>": 3579,
      "宿</w>": 3580,
      "戦</w>": 3581,
      "使</w>": 3582,
      "社</w>": 3583,
      "ц</w>": 3584,
      "า</w>": 3585,
      "′</w>": 3586,
      "坂</w>": 3587,
      "贸</w>": 3588,
      "ス</w>": 3589,
      "©</w>": 3590,
      "Р</w>": 3591,
      "국</w>": 3592,
      "报</w>": 3593,
      "ɔ</w>": 3594,
      "🚨</w>": 3595,
      "ə</w>": 3596,
      "ń</w>": 3597,
      "🔎</w>": 3598,
      "斗</w>": 3599,
      "ლ</w>": 3600,
      "ブ</w>": 3601,
      "ナ</w>": 3602,
      "岩</w>": 3603,
      "仁</w>": 3604,
      "州</w>": 3605,
      "β</w>": 3606,
      "È</w>": 3607,
      "☞</w>": 3608,
      "云</w>": 3609,
      "–</w>": 3610,
      "&</w>": 3611,
      "江</w>": 3612,
      "開</w>": 3613,
      "ί</w>": 3614,
      "🕒</w>": 3615,
      "保</w>": 3616,
      "跡</w>": 3617,
      "師</w>": 3618,
      "属</w>": 3619,
      "法</w>": 3620,
      "ʼ</w>": 3621,
      "Č</w>": 3622,
      "質</w>": 3623,
      "λ</w>": 3624,
      "东</w>": 3625,
      "Ā</w>": 3626,
      "」</w>": 3627,
      "薯</w>": 3628,
      "ș</w>": 3629,
      "枝</w>": 3630,
      "距</w>": 3631,
      "ா</w>": 3632,
      "活</w>": 3633,
      "‹</w>": 3634,
      "т</w>": 3635,
      "ь</w>": 3636,
      "ு</w>": 3637,
      "і</w>": 3638,
      "ː</w>": 3639,
      "連</w>": 3640,
      "力</w>": 3641,
      "園</w>": 3642,
      "怒</w>": 3643,
      "ס</w>": 3644,
      "ṛ</w>": 3645,
      "ש</w>": 3646,
      "ч</w>": 3647,
      "月</w>": 3648,
      "劍</w>": 3649,
      "δ</w>": 3650,
      "鄒</w>": 3651,
      "心</w>": 3652,
      "雨</w>": 3653,
      "´</w>": 3654,
      "幸</w>": 3655,
      "冉</w>": 3656,
      "許</w>": 3657,
      "滇</w>": 3658,
      "⠇</w>": 3659,
      "次</w>": 3660,
      "ʑ</w>": 3661,
      "葉</w>": 3662,
      "里</w>": 3663,
      "집</w>": 3664,
      "は</w>": 3665,
      "ा</w>": 3666,
      "せ</w>": 3667,
      "១</w>": 3668,
      "┬</w>": 3669,
      "낞</w>": 3670,
      "⎪</w>": 3671,
      "護</w>": 3672,
      "Л</w>": 3673,
      "会</w>": 3674,
      "Ó</w>": 3675,
      "ル</w>": 3676,
      "्</w>": 3677,
      "分</w>": 3678,
      "ś</w>": 3679,
      "蓉</w>": 3680,
      "景</w>": 3681,
      "►</w>": 3682,
      "房</w>": 3683,
      "■</w>": 3684,
      "®</w>": 3685,
      "鲸</w>": 3686,
      "त</w>": 3687,
      "˅</w>": 3688,
      "و</w>": 3689,
      "û</w>": 3690,
      "南</w>": 3691,
      "س</w>": 3692,
      "洞</w>": 3693,
      "≡</w>": 3694,
      "🔊</w>": 3695,
      "ण</w>": 3696,
      "ი</w>": 3697,
      "氽</w>": 3698,
      "查</w>": 3699,
      "ଚ</w>": 3700,
      "ე</w>": 3701,
      "</w>": 3702,
      "ğ</w>": 3703,
      "昭</w>": 3704,
      "›</w>": 3705,
      "ം</w>": 3706,
      "Φ</w>": 3707,
      "ł</w>": 3708,
      "ɴ</w>": 3709,
      "급</w>": 3710,
      "რ</w>": 3711,
      "픽</w>": 3712,
      "Ç</w>": 3713,
      "⋮</w>": 3714,
      "†</w>": 3715,
      "ং</w>": 3716,
      "丝</w>": 3717,
      "鯨</w>": 3718,
      "∨</w>": 3719,
      "螺</w>": 3720,
      "ے</w>": 3721,
      "鎢</w>": 3722,
      "戸</w>": 3723,
      "毅</w>": 3724,
      "🚚</w>": 3725,
      "ρ</w>": 3726,
      "合</w>": 3727,
      "ɡ</w>": 3728,
      "◦</w>": 3729,
      "ⓒ</w>": 3730,
      "ὁ</w>": 3731,
      "河</w>": 3732,
      "●</w>": 3733,
      "₱</w>": 3734,
      "타</w>": 3735,
      "ύ</w>": 3736,
      "⌉</w>": 3737,
      "ल</w>": 3738,
      "華</w>": 3739,
      "イ</w>": 3740,
      "《</w>": 3741,
      "タ</w>": 3742,
      "ῦ</w>": 3743,
      "隊</w>": 3744,
      "ẽ</w>": 3745,
      "ю</w>": 3746,
      "ඹ</w>": 3747,
      "🚫</w>": 3748,
      "➯</w>": 3749,
      "食</w>": 3750,
      "武</w>": 3751,
      "久</w>": 3752,
      "э</w>": 3753,
      "书</w>": 3754,
      "❤</w>": 3755,
      "라</w>": 3756,
      "장</w>": 3757,
      "Ê</w>": 3758,
      "Ī</w>": 3759,
      "ड</w>": 3760,
      "₹</w>": 3761,
      "烏</w>": 3762,
      "ỳ</w>": 3763,
      "硯</w>": 3764,
      "貫</w>": 3765,
      "决</w>": 3766,
      "う</w>": 3767,
      "魂</w>": 3768,
      "人</w>": 3769,
      "ṝ</w>": 3770,
      "谩</w>": 3771,
      "兄</w>": 3772,
      "き</w>": 3773,
      "檔</w>": 3774,
      "乡</w>": 3775,
      "🏠</w>": 3776,
      "ع</w>": 3777,
      "¹</w>": 3778,
      "義</w>": 3779,
      "山</w>": 3780,
      "ฬ</w>": 3781,
      "з</w>": 3782,
      "輪</w>": 3783,
      "℠</w>": 3784,
      "珂</w>": 3785,
      "↗</w>": 3786,
      "ン</w>": 3787,
      "ก</w>": 3788,
      "我</w>": 3789,
      "黄</w>": 3790,
      "冷</w>": 3791,
      "鬼</w>": 3792,
      "ア</w>": 3793,
      "克</w>": 3794,
      "栖</w>": 3795,
      "γ</w>": 3796,
      "酱</w>": 3797,
      "ታ</w>": 3798,
      "虎</w>": 3799,
      "क</w>": 3800,
      "ε</w>": 3801,
      "边</w>": 3802,
      "건</w>": 3803,
      "縣</w>": 3804,
      "即</w>": 3805,
      "✳</w>": 3806,
      "इ</w>": 3807,
      "🦊</w>": 3808,
      "能</w>": 3809,
      "ح</w>": 3810,
      "ṯ</w>": 3811,
      "』</w>": 3812,
      "媵</w>": 3813,
      "±</w>": 3814,
      "Ū</w>": 3815,
      "Ö</w>": 3816,
      "ץ</w>": 3817,
      "Ã</w>": 3818,
      "院</w>": 3819,
      "방</w>": 3820,
      "明</w>": 3821,
      "世</w>": 3822,
      "΄</w>": 3823,
      "Ü</w>": 3824,
      "о</w>": 3825,
      "🙂</w>": 3826,
      "撮</w>": 3827,
      "士</w>": 3828,
      "俊</w>": 3829,
      "ṁ</w>": 3830,
      "喜</w>": 3831,
      "‰</w>": 3832,
      "₤</w>": 3833,
      "位</w>": 3834,
      "➕</w>": 3835,
      "息</w>": 3836,
      "̃</w>": 3837,
      "夜</w>": 3838,
      "Ἡ</w>": 3839,
      "木</w>": 3840,
      "女</w>": 3841,
      "ه</w>": 3842,
      "≤</w>": 3843,
      "℃</w>": 3844,
      "書</w>": 3845,
      "）</w>": 3846,
      "田</w>": 3847,
      "祭</w>": 3848,
      "Ї</w>": 3849,
      "ⴰ</w>": 3850,
      "プ</w>": 3851,
      "む</w>": 3852,
      "桥</w>": 3853,
      "周</w>": 3854,
      "ʊ</w>": 3855,
      "ド</w>": 3856,
      "산</w>": 3857,
      "♡</w>": 3858,
      "🎂</w>": 3859,
      "Š</w>": 3860,
      "言</w>": 3861,
      "ノ</w>": 3862,
      "ට</w>": 3863,
      "䈉</w>": 3864,
      "</w>": 3865,
      "ꌣ</w>": 3866,
      "ɐ</w>": 3867,
      "ん</w>": 3868,
      "川</w>": 3869,
      "門</w>": 3870,
      "ゆ</w>": 3871,
      "Ι</w>": 3872,
      "游</w>": 3873,
      "¥</w>": 3874,
      "Ё</w>": 3875,
      "ב</w>": 3876,
      "̊</w>": 3877,
      "ὶ</w>": 3878,
      "х</w>": 3879,
      "서</w>": 3880,
      "锚</w>": 3881,
      "ツ</w>": 3882,
      "界</w>": 3883,
      "↵</w>": 3884,
      "慎</w>": 3885,
      "狸</w>": 3886,
      "⇔</w>": 3887,
      "ょ</w>": 3888,
      "洋</w>": 3889,
      "✯</w>": 3890,
      "ր</w>": 3891,
      "网</w>": 3892,
      "√</w>": 3893,
      "鼬</w>": 3894,
      "店</w>": 3895,
      "⊕</w>": 3896,
      "✺</w>": 3897,
      "体</w>": 3898,
      "政</w>": 3899,
      "昴</w>": 3900,
      "ヘ</w>": 3901,
      "あ</w>": 3902,
      "ズ</w>": 3903,
      "ּ</w>": 3904,
      "⊨</w>": 3905,
      "ד</w>": 3906,
      "×</w>": 3907,
      "ė</w>": 3908,
      "也</w>": 3909,
      "Ź</w>": 3910,
      "ک</w>": 3911,
      "梁</w>": 3912,
      "岳</w>": 3913,
      "經</w>": 3914,
      "기</w>": 3915,
      "র</w>": 3916,
      "串</w>": 3917,
      "⋱</w>": 3918,
      "屋</w>": 3919,
      "・</w>": 3920,
      "的</w>": 3921,
      "行</w>": 3922,
      "∗</w>": 3923,
      "族</w>": 3924,
      "榜</w>": 3925,
      "ḱ</w>": 3926,
      "당</w>": 3927,
      "보</w>": 3928,
      "ث</w>": 3929,
      "舞</w>": 3930,
      "い</w>": 3931,
      "遙</w>": 3932,
      "⟨</w>": 3933,
      "゙</w>": 3934,
      "し</w>": 3935,
      "฿</w>": 3936,
      "상</w>": 3937,
      "ල</w>": 3938,
      "න</w>": 3939,
      "譚</w>": 3940,
      "琶</w>": 3941,
      "រ</w>": 3942,
      "頻</w>": 3943,
      "中</w>": 3944,
      "ز</w>": 3945,
      "⇐</w>": 3946,
      "赵</w>": 3947,
      "清</w>": 3948,
      "バ</w>": 3949,
      "Є</w>": 3950,
      "酒</w>": 3951,
      "Н</w>": 3952,
      "ό</w>": 3953,
      "離</w>": 3954,
      "楽</w>": 3955,
      "狗</w>": 3956,
      "离</w>": 3957,
      "越</w>": 3958,
      "➣</w>": 3959,
      "カ</w>": 3960,
      "ያ</w>": 3961,
      "姫</w>": 3962,
      "ง</w>": 3963,
      "ʋ</w>": 3964,
      "火</w>": 3965,
      "ა</w>": 3966,
      "﻿</w>": 3967,
      "ж</w>": 3968,
      "➖</w>": 3969,
      "词</w>": 3970,
      "丸</w>": 3971,
      "Ḣ</w>": 3972,
      "説</w>": 3973,
      "疆</w>": 3974,
      "ɹ</w>": 3975,
      "塔</w>": 3976,
      "茅</w>": 3977,
      "視</w>": 3978,
      "弾</w>": 3979,
      "戰</w>": 3980,
      "前</w>": 3981,
      "Ä</w>": 3982,
      "솥</w>": 3983,
      "↓</w>": 3984,
      "く</w>": 3985,
      "错</w>": 3986,
      "ม</w>": 3987,
      "규</w>": 3988,
      "ⓘ</w>": 3989,
      "馆</w>": 3990,
      "Θ</w>": 3991,
      "ٰ</w>": 3992,
      "翔</w>": 3993,
      "ṣ</w>": 3994,
      "ط</w>": 3995,
      "ξ</w>": 3996,
      "은</w>": 3997,
      "น</w>": 3998,
      "リ</w>": 3999,
      "ہ</w>": 4000,
      "ą</w>": 4001,
      "</w>": 4002,
      "ヴ</w>": 4003,
      "滴</w>": 4004,
      "厄</w>": 4005,
      "マ</w>": 4006,
      "統</w>": 4007,
      "璃</w>": 4008,
      "伝</w>": 4009,
      "甄</w>": 4010,
      "ク</w>": 4011,
      "↑</w>": 4012,
      "梨</w>": 4013,
      "비</w>": 4014,
      "チ</w>": 4015,
      "值</w>": 4016,
      "蒂</w>": 4017,
      "草</w>": 4018,
      "好</w>": 4019,
      "梅</w>": 4020,
      "𝑥</w>": 4021,
      "塚</w>": 4022,
      "年</w>": 4023,
      "③</w>": 4024,
      "知</w>": 4025,
      "『</w>": 4026,
      "抯</w>": 4027,
      "¯</w>": 4028,
      "ミ</w>": 4029,
      "≠</w>": 4030,
      "道</w>": 4031,
      "▼</w>": 4032,
      "娃</w>": 4033,
      "ौ</w>": 4034,
      "ў</w>": 4035,
      "ㅊ</w>": 4036,
      "📑</w>": 4037,
      "┐</w>": 4038,
      "қ</w>": 4039,
      "舃</w>": 4040,
      "ɑ</w>": 4041,
      "県</w>": 4042,
      "县</w>": 4043,
      "Ⅰ</w>": 4044,
      "謎</w>": 4045,
      "ో</w>": 4046,
      "➫</w>": 4047,
      "駅</w>": 4048,
      "ダ</w>": 4049,
      "码</w>": 4050,
      "掌</w>": 4051,
      "➤</w>": 4052,
      "♠</w>": 4053,
      "孟</w>": 4054,
      "Π</w>": 4055,
      "す</w>": 4056,
      "石</w>": 4057,
      "⊞</w>": 4058,
      "制</w>": 4059,
      "↦</w>": 4060,
      "⌂</w>": 4061,
      "朝</w>": 4062,
      "ュ</w>": 4063,
      "港</w>": 4064,
      "♯</w>": 4065,
      "ㅍ</w>": 4066,
      "兵</w>": 4067,
      "長</w>": 4068,
      "‟</w>": 4069,
      "ᴹ</w>": 4070,
      "镇</w>": 4071,
      "要</w>": 4072,
      "ὸ</w>": 4073,
      "ג</w>": 4074,
      "圳</w>": 4075,
      "Õ</w>": 4076,
      "個</w>": 4077,
      "ら</w>": 4078,
      "①</w>": 4079,
      "Ò</w>": 4080,
      "城</w>": 4081,
      "回</w>": 4082,
      "流</w>": 4083,
      "Ț</w>": 4084,
      "◀</w>": 4085,
      "ร</w>": 4086,
      "͂</w>": 4087,
      "洪</w>": 4088,
      "蕉</w>": 4089,
      "樹</w>": 4090,
      "시</w>": 4091,
      "²</w>": 4092,
      "琊</w>": 4093,
      "錄</w>": 4094,
      "Б</w>": 4095,
      "學</w>": 4096,
      "ế</w>": 4097,
      "氣</w>": 4098,
      "📷</w>": 4099,
      "게</w>": 4100,
      "✪</w>": 4101,
      "✔</w>": 4102,
      "熙</w>": 4103,
      "∆</w>": 4104,
      "哲</w>": 4105,
      "も</w>": 4106,
      "ŋ</w>": 4107,
      "դ</w>": 4108,
      "官</w>": 4109,
      "犬</w>": 4110,
      "會</w>": 4111,
      "🤽</w>": 4112,
      "ศ</w>": 4113,
      "雪</w>": 4114,
      "汀</w>": 4115,
      "デ</w>": 4116,
      "▶</w>": 4117,
      "ق</w>": 4118,
      "</w>": 4119,
      "ి</w>": 4120,
      "索</w>": 4121,
      "🛡</w>": 4122,
      "へ</w>": 4123,
      "Î</w>": 4124,
      "灭</w>": 4125,
      "َ</w>": 4126,
      "妹</w>": 4127,
      "ŕ</w>": 4128,
      "脡</w>": 4129,
      "ộ</w>": 4130,
      "η</w>": 4131,
      "😀</w>": 4132,
      "¨</w>": 4133,
      "沢</w>": 4134,
      "∈</w>": 4135,
      "💚</w>": 4136,
      "团</w>": 4137,
      "٪</w>": 4138,
      "👏</w>": 4139,
      "ɒ</w>": 4140,
      "ℝ</w>": 4141,
      "ܐ</w>": 4142,
      "텔</w>": 4143,
      "话</w>": 4144,
      "ᚻ</w>": 4145,
      "Ω</w>": 4146,
      "助</w>": 4147,
      "루</w>": 4148,
      "篇</w>": 4149,
      "郎</w>": 4150,
      "便</w>": 4151,
      "別</w>": 4152,
      "ɦ</w>": 4153,
      "😃</w>": 4154,
      "ˀ</w>": 4155,
      "य</w>": 4156,
      "「</w>": 4157,
      "Ў</w>": 4158,
      "티</w>": 4159,
      "ⵏ</w>": 4160,
      "グ</w>": 4161,
      "├</w>": 4162,
      "┤</w>": 4163,
      "₡</w>": 4164,
      "ề</w>": 4165,
      "❑</w>": 4166,
      "ʁ</w>": 4167,
      "电</w>": 4168,
      "象</w>": 4169,
      "漿</w>": 4170,
      "谢</w>": 4171,
      "现</w>": 4172,
      "⇢</w>": 4173,
      "π</w>": 4174,
      "ㅌ</w>": 4175,
      "ά</w>": 4176,
      "⇒</w>": 4177,
      "者</w>": 4178,
      "ो</w>": 4179,
      "三</w>": 4180,
      "姬</w>": 4181,
      "Κ</w>": 4182,
      "录</w>": 4183,
      "茶</w>": 4184,
      "Ė</w>": 4185,
      "像</w>": 4186,
      "飯</w>": 4187,
      "れ</w>": 4188,
      "є</w>": 4189,
      "🏷</w>": 4190,
      "⊂</w>": 4191,
      "宏</w>": 4192,
      "情</w>": 4193,
      "╳</w>": 4194,
      "橋</w>": 4195,
      "∠</w>": 4196,
      "破</w>": 4197,
      "ℏ</w>": 4198,
      "ӣ</w>": 4199,
      "🛑</w>": 4200,
      "ỏ</w>": 4201,
      "ต</w>": 4202,
      "炭</w>": 4203,
      "⁡</w>": 4204,
      "̌</w>": 4205,
      "▒</w>": 4206,
      "燕</w>": 4207,
      "З</w>": 4208,
      "錸</w>": 4209,
      "度</w>": 4210,
      "淳</w>": 4211,
      "村</w>": 4212,
      "Ⓡ</w>": 4213,
      "˙</w>": 4214,
      "断</w>": 4215,
      "⎷</w>": 4216,
      "🍿</w>": 4217,
      "Ţ</w>": 4218,
      "翼</w>": 4219,
      "○</w>": 4220,
      "亡</w>": 4221,
      "に</w>": 4222,
      "₫</w>": 4223,
      "誌</w>": 4224,
      "Ѷ</w>": 4225,
      "落</w>": 4226,
      "☎</w>": 4227,
      "밀</w>": 4228,
      "µ</w>": 4229,
      "Ρ</w>": 4230,
      "별</w>": 4231,
      "ź</w>": 4232,
      "ය</w>": 4233,
      "정</w>": 4234,
      "ು</w>": 4235,
      "诱</w>": 4236,
      "薇</w>": 4237,
      "ḇ</w>": 4238,
      "它</w>": 4239,
      "练</w>": 4240,
      "림</w>": 4241,
      "京</w>": 4242,
      "영</w>": 4243,
      "ἡ</w>": 4244,
      "း</w>": 4245,
      "海</w>": 4246,
      "₩</w>": 4247,
      "Ï</w>": 4248,
      "鳴</w>": 4249,
      "賞</w>": 4250,
      "反</w>": 4251,
      "矢</w>": 4252,
      "塘</w>": 4253,
      "Å</w>": 4254,
      "ү</w>": 4255,
      "제</w>": 4256,
      "‚</w>": 4257,
      "☰</w>": 4258,
      "</w>": 4259,
      "п</w>": 4260,
      "▌</w>": 4261,
      "地</w>": 4262,
      "服</w>": 4263,
      "原</w>": 4264,
      "播</w>": 4265,
      "历</w>": 4266,
      "勰</w>": 4267,
      "⒋</w>": 4268,
      "Ě</w>": 4269,
      "☑</w>": 4270,
      "目</w>": 4271,
      "仔</w>": 4272,
      "见</w>": 4273,
      "💣</w>": 4274,
      "察</w>": 4275,
      "露</w>": 4276,
      "⊖</w>": 4277,
      "­</w>": 4278,
      "أ</w>": 4279,
      "✕</w>": 4280,
      "🌟</w>": 4281,
      "澄</w>": 4282,
      "➢</w>": 4283,
      "◻</w>": 4284,
      "文</w>": 4285,
      "ữ</w>": 4286,
      "Ñ</w>": 4287,
      "ɣ</w>": 4288,
      "紀</w>": 4289,
      "̇</w>": 4290,
      "传</w>": 4291,
      "以</w>": 4292,
      "Μ</w>": 4293,
      "問</w>": 4294,
      "鼠</w>": 4295,
      "真</w>": 4296,
      "г</w>": 4297,
      "ш</w>": 4298,
      "音</w>": 4299,
      "司</w>": 4300,
      "난</w>": 4301,
      "玄</w>": 4302,
      "え</w>": 4303,
      "衣</w>": 4304,
      "ὖ</w>": 4305,
      "Ē</w>": 4306,
      "⋌</w>": 4307,
      "精</w>": 4308,
      "„</w>": 4309,
      "說</w>": 4310,
      "頂</w>": 4311,
      "💧</w>": 4312,
      "八</w>": 4313,
      "初</w>": 4314,
      "天</w>": 4315,
      "醤</w>": 4316,
      "Ќ</w>": 4317,
      "ެ</w>": 4318,
      "Ɛ</w>": 4319,
      "이</w>": 4320,
      "ヌ</w>": 4321,
      "₁</w>": 4322,
      "羊</w>": 4323,
      "ď</w>": 4324,
      "즈</w>": 4325,
      "所</w>": 4326,
      "斤</w>": 4327,
      "伉</w>": 4328,
      "ț</w>": 4329,
      "倪</w>": 4330,
      "物</w>": 4331,
      "임</w>": 4332,
      "め</w>": 4333,
      "左</w>": 4334,
      "℗</w>": 4335,
      "ẻ</w>": 4336,
      "ǐ</w>": 4337,
      "К</w>": 4338,
      "鐨</w>": 4339,
      "碩</w>": 4340,
      "四</w>": 4341,
      "¦</w>": 4342,
      "❈</w>": 4343,
      "औ</w>": 4344,
      "为</w>": 4345,
      "</w>": 4346,
      "♕</w>": 4347,
      "운</w>": 4348,
      "斯</w>": 4349,
      "đ</w>": 4350,
      "ÿ</w>": 4351,
      "龐</w>": 4352,
      "号</w>": 4353,
      "⌃</w>": 4354,
      "⊢</w>": 4355,
      "晴</w>": 4356,
      "喂</w>": 4357,
      "</w>": 4358,
      "シ</w>": 4359,
      "継</w>": 4360,
      "</w>": 4361,
      "间</w>": 4362,
      "送</w>": 4363,
      "ǔ</w>": 4364,
      "☉</w>": 4365,
      "獣</w>": 4366,
      "孫</w>": 4367,
      "수</w>": 4368,
      "果</w>": 4369,
      "↩</w>": 4370,
      "Ѽ</w>": 4371,
      "ạ</w>": 4372,
      "利</w>": 4373,
      "៛</w>": 4374,
      "ϵ</w>": 4375,
      "բ</w>": 4376,
      "❖</w>": 4377,
      "ŭ</w>": 4378,
      "백</w>": 4379,
      "汉</w>": 4380,
      "½</w>": 4381,
      "🏡</w>": 4382,
      "템</w>": 4383,
      "史</w>": 4384,
      "坚</w>": 4385,
      "ば</w>": 4386,
      "库</w>": 4387,
      "ޱ</w>": 4388,
      "¢</w>": 4389,
      "馬</w>": 4390,
      "략</w>": 4391,
      "略</w>": 4392,
      "辛</w>": 4393,
      "來</w>": 4394,
      "含</w>": 4395,
      "‡</w>": 4396,
      "昰</w>": 4397,
      "ŝ</w>": 4398,
      "ק</w>": 4399,
      "話</w>": 4400,
      "健</w>": 4401,
      "£</w>": 4402,
      "系</w>": 4403,
      "府</w>": 4404,
      "¤</w>": 4405,
      "ϕ</w>": 4406,
      "₨</w>": 4407,
      "鬧</w>": 4408,
      "무</w>": 4409,
      "省</w>": 4410,
      "國</w>": 4411,
      "ֹ</w>": 4412,
      "嶺</w>": 4413,
      "嶋</w>": 4414,
      "酌</w>": 4415,
      "𝑦</w>": 4416,
      "漣</w>": 4417,
      "鞭</w>": 4418,
      "견</w>": 4419,
      "處</w>": 4420,
      "П</w>": 4421,
      "レ</w>": 4422,
      "⌈</w>": 4423,
      "ʰ</w>": 4424,
      "機</w>": 4425,
      "修</w>": 4426,
      "什</w>": 4427,
      "幅</w>": 4428,
      "ז</w>": 4429,
      "⊆</w>": 4430,
      "⭐</w>": 4431,
      "札</w>": 4432,
      "─</w>": 4433,
      "ω</w>": 4434,
      "鈥</w>": 4435,
      "用</w>": 4436,
      "С</w>": 4437,
      "主</w>": 4438,
      "ĩ</w>": 4439,
      "▷</w>": 4440,
      "을</w>": 4441,
      "└</w>": 4442,
      "ʹ</w>": 4443,
      "ʔ</w>": 4444,
      "べ</w>": 4445,
      "章</w>": 4446,
      "¾</w>": 4447,
      "か</w>": 4448,
      "👍</w>": 4449,
      "❮</w>": 4450,
      "♬</w>": 4451,
      "令</w>": 4452,
      "坪</w>": 4453,
      "例</w>": 4454,
      "摇</w>": 4455,
      "🌞</w>": 4456,
      "হ</w>": 4457,
      "永</w>": 4458,
      "№</w>": 4459,
      "∀</w>": 4460,
      "嘉</w>": 4461,
      "Э</w>": 4462,
      "🏻</w>": 4463,
      "换</w>": 4464,
      "監</w>": 4465,
      "轉</w>": 4466,
      "ͣ</w>": 4467,
      "➔</w>": 4468,
      "格</w>": 4469,
      "➡</w>": 4470,
      "섯</w>": 4471,
      "𒆗</w>": 4472,
      "儀</w>": 4473,
      "☺</w>": 4474,
      "♣</w>": 4475,
      "∕</w>": 4476,
      "📂</w>": 4477,
      "婁</w>": 4478,
      "Ѐ</w>": 4479,
      "구</w>": 4480,
      "井</w>": 4481,
      "紗</w>": 4482,
      "ώ</w>": 4483,
      "爾</w>": 4484,
      "通</w>": 4485,
      "～</w>": 4486,
      "←</w>": 4487,
      "🐷</w>": 4488,
      "求</w>": 4489,
      "團</w>": 4490,
      "ش</w>": 4491,
      "θ</w>": 4492,
      "✤</w>": 4493,
      "咩</w>": 4494,
      "█</w>": 4495,
      "崔</w>": 4496,
      "催</w>": 4497,
      "斛</w>": 4498,
      "弥</w>": 4499,
      "佐</w>": 4500,
      "方</w>": 4501,
      "桂</w>": 4502,
      "壘</w>": 4503,
      "⭠</w>": 4504,
      "Ð</w>": 4505,
      "Ѝ</w>": 4506,
      "𒁺</w>": 4507,
      "က</w>": 4508,
      "語</w>": 4509,
      "ф</w>": 4510,
      "ն</w>": 4511,
      "ᐅ</w>": 4512,
      "→</w>": 4513,
      "囝</w>": 4514,
      "五</w>": 4515,
      "🤖</w>": 4516,
      "‎</w>": 4517,
      "✄</w>": 4518,
      "¸</w>": 4519,
      "∇</w>": 4520,
      "部</w>": 4521,
      "辦</w>": 4522,
      "</w>": 4523,
      "甲</w>": 4524,
      "籠</w>": 4525,
      "鏮</w>": 4526,
      "؟</w>": 4527,
      "大</w>": 4528,
      "日</w>": 4529,
      "작</w>": 4530,
      "线</w>": 4531,
      "專</w>": 4532,
      "И</w>": 4533,
      "和</w>": 4534,
      "☢</w>": 4535,
      "⑴</w>": 4536,
      "茂</w>": 4537,
      "կ</w>": 4538,
      "说</w>": 4539,
      "ّ</w>": 4540,
      "别</w>": 4541,
      "🍺</w>": 4542,
      "Λ</w>": 4543,
      "ՠ</w>": 4544,
      "ص</w>": 4545,
      "❀</w>": 4546,
      "校</w>": 4547,
      "¬</w>": 4548,
      "変</w>": 4549,
      "剤</w>": 4550,
      "手</w>": 4551,
      "ء</w>": 4552,
      "闭</w>": 4553,
      "ま</w>": 4554,
      "ŏ</w>": 4555,
      "∧</w>": 4556,
      "岸</w>": 4557,
      "◎</w>": 4558,
      "护</w>": 4559,
      "ུ</w>": 4560,
      "😂</w>": 4561,
      "😊</w>": 4562,
      "の</w>": 4563,
      "ә</w>": 4564,
      "》</w>": 4565,
      "药</w>": 4566,
      "더</w>": 4567,
      "桑</w>": 4568,
      "都</w>": 4569,
      "٩</w>": 4570,
      "ţ</w>": 4571,
      "∑</w>": 4572,
      "≪</w>": 4573,
      "魚</w>": 4574,
      "눱</w>": 4575,
      "∩</w>": 4576,
      "脈</w>": 4577,
      "认</w>": 4578,
      "ʒ</w>": 4579,
      "</w>": 4580,
      "朗</w>": 4581,
      "な</w>": 4582,
      "𝐵</w>": 4583,
      "陵</w>": 4584,
      "ぃ</w>": 4585,
      "Û</w>": 4586,
      "円</w>": 4587,
      "般</w>": 4588,
      "न</w>": 4589,
      "✖</w>": 4590,
      "謙</w>": 4591,
      "ˈ</w>": 4592,
      "Ⅱ</w>": 4593,
      "ű</w>": 4594,
      "،</w>": 4595,
      "⅝</w>": 4596,
      "◌</w>": 4597,
      "ម</w>": 4598,
      "轼</w>": 4599,
      "∼</w>": 4600,
      "사</w>": 4601,
      "㎡</w>": 4602,
      "盒</w>": 4603,
      "◇</w>": 4604,
      "業</w>": 4605,
      "Δ</w>": 4606,
      "에</w>": 4607,
      "❂</w>": 4608,
      "動</w>": 4609,
      "七</w>": 4610,
      "‖</w>": 4611,
      "계</w>": 4612,
      "Ѿ</w>": 4613,
      "布</w>": 4614,
      "්</w>": 4615,
      "ʲ</w>": 4616,
      "∶</w>": 4617,
      "원</w>": 4618,
      "히</w>": 4619,
      "代</w>": 4620,
      "阳</w>": 4621,
      "奈</w>": 4622,
      "水</w>": 4623,
      "虹</w>": 4624,
      "員</w>": 4625,
      "간</w>": 4626,
      "😘</w>": 4627,
      "련</w>": 4628,
      "玟</w>": 4629,
      "ɪ</w>": 4630,
      "鸣</w>": 4631,
      "鈺</w>": 4632,
      "鄉</w>": 4633,
      "⇌</w>": 4634,
      "典</w>": 4635,
      "∣</w>": 4636,
      "涟</w>": 4637,
      "❯</w>": 4638,
      "语</w>": 4639,
      "ณ</w>": 4640,
      "๐</w>": 4641,
      "英</w>": 4642,
      "⊥</w>": 4643,
      "腐</w>": 4644,
      "式</w>": 4645,
      "Đ</w>": 4646,
      "件</w>": 4647,
      "盟</w>": 4648,
      "東</w>": 4649,
      "羅</w>": 4650,
      "势</w>": 4651,
      "됨</w>": 4652,
      "ຳ</w>": 4653,
      "ර</w>": 4654,
      "路</w>": 4655,
      "Α</w>": 4656,
      "학</w>": 4657,
      "⇩</w>": 4658,
      "ས</w>": 4659,
      "₃</w>": 4660,
      "远</w>": 4661,
      "╝</w>": 4662,
      "≦</w>": 4663,
      "千</w>": 4664,
      "⠀</w>": 4665,
      "ข</w>": 4666,
      "パ</w>": 4667,
      "∘</w>": 4668,
      "然</w>": 4669,
      "ब</w>": 4670,
      "⚡</w>": 4671,
      "灣</w>": 4672,
      "˚</w>": 4673,
      "霊</w>": 4674,
      "≈</w>": 4675,
      "┼</w>": 4676,
      "⚽</w>": 4677,
      "桶</w>": 4678,
      "帕</w>": 4679,
      "א</w>": 4680,
      "ի</w>": 4681,
      "ḭ</w>": 4682,
      "で</w>": 4683,
      "乐</w>": 4684,
      "오</w>": 4685,
      "顯</w>": 4686,
      "⁄</w>": 4687,
      "慧</w>": 4688,
      "动</w>": 4689,
      "≫</w>": 4690,
      "た</w>": 4691,
      "却</w>": 4692,
      "芝</w>": 4693,
      "⊗</w>": 4694,
      "養</w>": 4695,
      "∥</w>": 4696,
      "粥</w>": 4697,
      "</w>": 4698,
      "廓</w>": 4699,
      "龍</w>": 4700,
      "✝</w>": 4701,
      "ਬ</w>": 4702,
      "✓</w>": 4703,
      "キ</w>": 4704,
      "飾</w>": 4705,
      "阮</w>": 4706,
      "凯</w>": 4707,
      "弁</w>": 4708,
      "뀐</w>": 4709,
      "―</w>": 4710,
      "み</w>": 4711,
      "亚</w>": 4712,
      "同</w>": 4713,
      "雄</w>": 4714,
      "織</w>": 4715,
      "娘</w>": 4716,
      "為</w>": 4717,
      "殊</w>": 4718,
      "硕</w>": 4719,
      "車</w>": 4720,
      "Ⳝ</w>": 4721,
      "울</w>": 4722,
      "沙</w>": 4723,
      "링</w>": 4724,
      "禎</w>": 4725,
      "지</w>": 4726,
      "₪</w>": 4727,
      "仏</w>": 4728,
      "画</w>": 4729,
      "业</w>": 4730,
      "早</w>": 4731,
      "項</w>": 4732,
      "之</w>": 4733,
      "蚀</w>": 4734,
      "憂</w>": 4735,
      "计</w>": 4736,
      "◙</w>": 4737,
      "∪</w>": 4738,
      "˝</w>": 4739,
      "驰</w>": 4740,
      "鳥</w>": 4741,
      "ⲛ</w>": 4742,
      "∫</w>": 4743,
      "₂</w>": 4744,
      "‼</w>": 4745,
      "진</w>": 4746,
      "德</w>": 4747,
      "들</w>": 4748,
      "ช</w>": 4749,
      "ו</w>": 4750,
      "敏</w>": 4751,
      "ց</w>": 4752,
      "🎉</w>": 4753,
      "〜</w>": 4754,
      "恵</w>": 4755,
      "κ</w>": 4756,
      "μ</w>": 4757,
      "皮</w>": 4758,
      "頀</w>": 4759,
      "昆</w>": 4760,
      "ȍ</w>": 4761,
      "价</w>": 4762,
      "ֲ</w>": 4763,
      "ゴ</w>": 4764,
      "产</w>": 4765,
      "⦁</w>": 4766,
      "Γ</w>": 4767,
      "ट</w>": 4768,
      "⋆</w>": 4769,
      "皇</w>": 4770,
      "聞</w>": 4771,
      "化</w>": 4772,
      "編</w>": 4773,
      "猿</w>": 4774,
      "ḩ</w>": 4775,
      "ồ</w>": 4776,
      "ザ</w>": 4777,
      "◆</w>": 4778,
      "⑧</w>": 4779,
      "鸞</w>": 4780,
      "お</w>": 4781,
      "Ɔ</w>": 4782,
      "列</w>": 4783,
      "̉</w>": 4784,
      "辺</w>": 4785,
      "尺</w>": 4786,
      "見</w>": 4787,
      "랑</w>": 4788,
      "ℓ</w>": 4789,
      "ỹ</w>": 4790,
      "志</w>": 4791,
      "Ì</w>": 4792,
      "ន</w>": 4793,
      "蛙</w>": 4794,
      "청</w>": 4795,
      "ತ</w>": 4796,
      "黨</w>": 4797,
      "住</w>": 4798,
      "际</w>": 4799,
      "♭</w>": 4800,
      "Й</w>": 4801,
      "殺</w>": 4802,
      "盘</w>": 4803,
      "ⳝ</w>": 4804,
      "ゲ</w>": 4805,
      "💗</w>": 4806,
      "髇</w>": 4807,
      "香</w>": 4808,
      "珍</w>": 4809,
      "傷</w>": 4810,
      "♻</w>": 4811,
      "平</w>": 4812,
      "◉</w>": 4813,
      "⊛</w>": 4814,
      "˥</w>": 4815,
      "忽</w>": 4816,
      "막</w>": 4817,
      "基</w>": 4818,
      "党</w>": 4819,
      "页</w>": 4820,
      "梯</w>": 4821,
      "款</w>": 4822,
      "♪</w>": 4823,
      "✈</w>": 4824,
      "冊</w>": 4825,
      "名</w>": 4826,
      "ʌ</w>": 4827,
      "😍</w>": 4828,
      "✰</w>": 4829,
      "黒</w>": 4830,
      "♫</w>": 4831,
      "‒</w>": 4832,
      "➧</w>": 4833,
      "̈</w>": 4834,
      "☝</w>": 4835,
      "读</w>": 4836,
      "̀</w>": 4837,
      "ᵈ</w>": 4838,
      "Ό</w>": 4839,
      "态</w>": 4840,
      "テ</w>": 4841,
      "燮</w>": 4842,
      "解</w>": 4843,
      "謝</w>": 4844,
      "명</w>": 4845,
      "园</w>": 4846,
      "Д</w>": 4847,
      "譜</w>": 4848,
      "ⵜ</w>": 4849,
      "恩</w>": 4850,
      "Ѓ</w>": 4851,
      "期</w>": 4852,
      "⅛</w>": 4853,
      "⌊</w>": 4854,
      "▪</w>": 4855,
      "ಿ</w>": 4856,
      "Ψ</w>": 4857,
      "Ş</w>": 4858,
      "垣</w>": 4859,
      "躲</w>": 4860,
      "˜</w>": 4861,
      "良</w>": 4862,
      "া</w>": 4863,
      "捕</w>": 4864,
      "่</w>": 4865,
      "⁴</w>": 4866,
      "≅</w>": 4867,
      "द</w>": 4868,
      "어</w>": 4869,
      "菜</w>": 4870,
      "🔥</w>": 4871,
      "愿</w>": 4872,
      "↹</w>": 4873,
      "球</w>": 4874,
      "绳</w>": 4875,
      "🎀</w>": 4876,
      "鉄</w>": 4877,
      "Ș</w>": 4878,
      "⅓</w>": 4879,
      "Æ</w>": 4880,
      "🔴</w>": 4881,
      "想</w>": 4882,
      "언</w>": 4883,
      "‧</w>": 4884,
      "答</w>": 4885,
      "丈</w>": 4886,
      "氧</w>": 4887,
      "❏</w>": 4888,
      "趙</w>": 4889,
      "局</w>": 4890,
      "མ</w>": 4891,
      "◗</w>": 4892,
      "÷</w>": 4893,
      "🌸</w>": 4894,
      "➀</w>": 4895,
      "ψ</w>": 4896,
      "跑</w>": 4897,
      "щ</w>": 4898,
      "ё</w>": 4899,
      "∴</w>": 4900,
      "년</w>": 4901,
      "□</w>": 4902,
      "表</w>": 4903,
      "Ś</w>": 4904,
      "😉</w>": 4905,
      "口</w>": 4906,
      "ㅋ</w>": 4907,
      "ղ</w>": 4908,
      "價</w>": 4909,
      "按</w>": 4910,
      "榴</w>": 4911,
      "ဂ</w>": 4912,
      "榮</w>": 4913,
      "（</w>": 4914,
      "白</w>": 4915,
      "妮</w>": 4916,
      "依</w>": 4917,
      "✵</w>": 4918,
      "均</w>": 4919,
      "老</w>": 4920,
      "偉</w>": 4921,
      "夫</w>": 4922,
      "‐</w>": 4923,
      "兒</w>": 4924,
      "ް</w>": 4925,
      "亜</w>": 4926,
      "점</w>": 4927,
      "ዋ</w>": 4928,
      "남</w>": 4929,
      "◾</w>": 4930,
      "ẹ</w>": 4931,
      "❘</w>": 4932,
      "※</w>": 4933,
      "ָ</w>": 4934,
      "晟</w>": 4935,
      "六</w>": 4936,
      "华</w>": 4937,
      "Ə</w>": 4938,
      "浵</w>": 4939,
      "延</w>": 4940,
      "ล</w>": 4941,
      "ř</w>": 4942,
      "∎</w>": 4943,
      "en": 4944,
      "in": 4945,
      "an": 4946,
      "er": 4947,
      "es</w>": 4948,
      "ar": 4949,
      "de</w>": 4950,
      "es": 4951,
      "th": 4952,
      "on": 4953,
      "ti": 4954,
      "or": 4955,
      "os</w>": 4956,
      "as</w>": 4957,
      "re": 4958,
      "ci": 4959,
      "al": 4960,
      "the</w>": 4961,
      "to</w>": 4962,
      "te": 4963,
      "ad": 4964,
      "ro": 4965,
      "co": 4966,
      "ic": 4967,
      "it": 4968,
      "is": 4969,
      "qu": 4970,
      "tr": 4971,
      "or</w>": 4972,
      "on</w>": 4973,
      "er</w>": 4974,
      "el": 4975,
      "al</w>": 4976,
      "pt</w>": 4977,
      "and</w>": 4978,
      "2pt</w>": 4979,
      "ent": 4980,
      "of</w>": 4981,
      "is</w>": 4982,
      "am": 4983,
      "2es</w>": 4984,
      "in</w>": 4985,
      "ur": 4986,
      "ing</w>": 4987,
      "as": 4988,
      "at": 4989,
      "ac": 4990,
      "en</w>": 4991,
      "id": 4992,
      "un": 4993,
      "ar</w>": 4994,
      "par": 4995,
      "il": 4996,
      "con": 4997,
      "ri": 4998,
      "de": 4999,
      "ou": 5000,
      "do</w>": 5001,
      "ati": 5002,
      "di": 5003,
      "ol": 5004,
      "ão</w>": 5005,
      "ec": 5006,
      "os": 5007,
      "us": 5008,
      "ed</w>": 5009,
      "que</w>": 5010,
      "ab": 5011,
      "est": 5012,
      "pro": 5013,
      "an</w>": 5014,
      "com": 5015,
      "ul": 5016,
      "res": 5017,
      "om": 5018,
      "pl": 5019,
      "el</w>": 5020,
      "em": 5021,
      "la</w>": 5022,
      "em</w>": 5023,
      "ag": 5024,
      "para</w>": 5025,
      "av": 5026,
      "li": 5027,
      "ir": 5028,
      "per": 5029,
      "at</w>": 5030,
      "st": 5031,
      "ou</w>": 5032,
      "ch": 5033,
      "ter": 5034,
      "si": 5035,
      "for": 5036,
      "su": 5037,
      "aci": 5038,
      "et": 5039,
      "Th": 5040,
      "ap": 5041,
      "ex": 5042,
      "da</w>": 5043,
      "um": 5044,
      "se</w>": 5045,
      "se": 5046,
      "ón</w>": 5047,
      "lo": 5048,
      "im": 5049,
      "ção</w>": 5050,
      "le</w>": 5051,
      "ant": 5052,
      "ma": 5053,
      "ation</w>": 5054,
      "ia</w>": 5055,
      "ente</w>": 5056,
      "ado</w>": 5057,
      "for</w>": 5058,
      "ith</w>": 5059,
      "ent</w>": 5060,
      "vi": 5061,
      "ote": 5062,
      "with</w>": 5063,
      "ver": 5064,
      "le": 5065,
      "ig": 5066,
      "pe": 5067,
      "ted</w>": 5068,
      "ly</w>": 5069,
      "to": 5070,
      "br": 5071,
      "po": 5072,
      "no": 5073,
      "por": 5074,
      "ce</w>": 5075,
      "so": 5076,
      "gr": 5077,
      "ed": 5078,
      "you</w>": 5079,
      "our</w>": 5080,
      "no</w>": 5081,
      "ne": 5082,
      "wh": 5083,
      "ve</w>": 5084,
      "los</w>": 5085,
      "oo": 5086,
      "des": 5087,
      "cl": 5088,
      "oc": 5089,
      "The</w>": 5090,
      "ons</w>": 5091,
      "um</w>": 5092,
      "ut": 5093,
      "that</w>": 5094,
      "tic": 5095,
      "ad</w>": 5096,
      "are</w>": 5097,
      "ts</w>": 5098,
      "ter</w>": 5099,
      "pr": 5100,
      "ação</w>": 5101,
      "iz": 5102,
      "uc": 5103,
      "ist": 5104,
      "por</w>": 5105,
      "ento</w>": 5106,
      "Hote": 5107,
      "ados</w>": 5108,
      "am</w>": 5109,
      "ada</w>": 5110,
      "In": 5111,
      "tion</w>": 5112,
      "erv": 5113,
      "me": 5114,
      "so</w>": 5115,
      "fer": 5116,
      "com</w>": 5117,
      "form": 5118,
      "mo": 5119,
      "fi": 5120,
      "pos": 5121,
      "Co": 5122,
      "gu": 5123,
      "pu": 5124,
      "dis": 5125,
      "ay</w>": 5126,
      "fic": 5127,
      "rom</w>": 5128,
      "dos</w>": 5129,
      "vis": 5130,
      "del</w>": 5131,
      "ación</w>": 5132,
      "ine</w>": 5133,
      "by</w>": 5134,
      "from</w>": 5135,
      "pre": 5136,
      "ões</w>": 5137,
      "ev": 5138,
      "sh": 5139,
      "ot": 5140,
      "Ch": 5141,
      "be</w>": 5142,
      "ers</w>": 5143,
      "ores</w>": 5144,
      "ing": 5145,
      "us</w>": 5146,
      "ity</w>": 5147,
      "it</w>": 5148,
      "con</w>": 5149,
      "pres": 5150,
      "ir</w>": 5151,
      "onal</w>": 5152,
      "ade</w>": 5153,
      "rec": 5154,
      "ere</w>": 5155,
      "un</w>": 5156,
      "your</w>": 5157,
      "ta</w>": 5158,
      "las</w>": 5159,
      "entr": 5160,
      "ate</w>": 5161,
      "cia</w>": 5162,
      "te</w>": 5163,
      "ud": 5164,
      "20": 5165,
      "ten": 5166,
      "tem": 5167,
      "uma</w>": 5168,
      "ari": 5169,
      "cu": 5170,
      "op": 5171,
      "eg": 5172,
      "est</w>": 5173,
      "af": 5174,
      "et</w>": 5175,
      "ando</w>": 5176,
      "ay": 5177,
      "tu": 5178,
      "ones</w>": 5179,
      "man": 5180,
      "como</w>": 5181,
      "ções</w>": 5182,
      "ta": 5183,
      "ow": 5184,
      "ch</w>": 5185,
      "Com</w>": 5186,
      "ica</w>": 5187,
      "be": 5188,
      "gh": 5189,
      "ther</w>": 5190,
      "na</w>": 5191,
      "vid": 5192,
      "az": 5193,
      "ni": 5194,
      "aj": 5195,
      "bl": 5196,
      "Al": 5197,
      "we": 5198,
      "ess": 5199,
      "min": 5200,
      "cor": 5201,
      "all</w>": 5202,
      "ob": 5203,
      "tim": 5204,
      "one</w>": 5205,
      "una</w>": 5206,
      "was</w>": 5207,
      "ite</w>": 5208,
      "og": 5209,
      "car": 5210,
      "end": 5211,
      "bu": 5212,
      "rip": 5213,
      "tri": 5214,
      "bi": 5215,
      "cont": 5216,
      "pri": 5217,
      "ais</w>": 5218,
      "ave</w>": 5219,
      "tur": 5220,
      "ls</w>": 5221,
      "can</w>": 5222,
      "tiv": 5223,
      "inter": 5224,
      "Com": 5225,
      "able</w>": 5226,
      "ina</w>": 5227,
      "qui": 5228,
      "ans": 5229,
      "ents</w>": 5230,
      "ess</w>": 5231,
      "this</w>": 5232,
      "bre</w>": 5233,
      "the": 5234,
      "and": 5235,
      "king</w>": 5236,
      "out</w>": 5237,
      "Ad": 5238,
      "ante</w>": 5239,
      "fin": 5240,
      "cons": 5241,
      "lo</w>": 5242,
      "Con": 5243,
      "wor": 5244,
      "he": 5245,
      "Hotel</w>": 5246,
      "cre": 5247,
      "pa": 5248,
      "age</w>": 5249,
      "ás</w>": 5250,
      "ore</w>": 5251,
      "not</w>": 5252,
      "Tr": 5253,
      "ty</w>": 5254,
      "entes</w>": 5255,
      "ated</w>": 5256,
      "reg": 5257,
      "ke</w>": 5258,
      "pon": 5259,
      "po</w>": 5260,
      "duc": 5261,
      "An": 5262,
      "tam": 5263,
      "ía</w>": 5264,
      "ve": 5265,
      "fe": 5266,
      "anc": 5267,
      "ser": 5268,
      "ug": 5269,
      "ver</w>": 5270,
      "Re": 5271,
      "Trip": 5272,
      "th</w>": 5273,
      "ill</w>": 5274,
      "ence</w>": 5275,
      "antes</w>": 5276,
      "und": 5277,
      "ations</w>": 5278,
      "rel": 5279,
      "ción</w>": 5280,
      "cer": 5281,
      "mar": 5282,
      "of": 5283,
      "tions</w>": 5284,
      "ha</w>": 5285,
      "ico</w>": 5286,
      "ge</w>": 5287,
      "Par": 5288,
      "io</w>": 5289,
      "ment</w>": 5290,
      "contr": 5291,
      "aliz": 5292,
      "..": 5293,
      "du": 5294,
      "ido</w>": 5295,
      "col": 5296,
      "Est": 5297,
      "das</w>": 5298,
      "201": 5299,
      "su</w>": 5300,
      "fr": 5301,
      "não</w>": 5302,
      "ic</w>": 5303,
      "mer": 5304,
      "En": 5305,
      "ári": 5306,
      "ai": 5307,
      "fo": 5308,
      "19": 5309,
      "have</w>": 5310,
      "Ex": 5311,
      "Qu": 5312,
      "dia</w>": 5313,
      "ich</w>": 5314,
      "ase</w>": 5315,
      "ant</w>": 5316,
      "cul": 5317,
      "ear": 5318,
      "ales</w>": 5319,
      "ho</w>": 5320,
      "ast</w>": 5321,
      "ocê</w>": 5322,
      "adas</w>": 5323,
      "idade</w>": 5324,
      "pers": 5325,
      "mu": 5326,
      "bo": 5327,
      "ser</w>": 5328,
      "ice</w>": 5329,
      "ld</w>": 5330,
      "loc": 5331,
      "amente</w>": 5332,
      "has</w>": 5333,
      "entos</w>": 5334,
      "aur": 5335,
      "ce": 5336,
      "ên": 5337,
      "ance</w>": 5338,
      "St": 5339,
      "ind": 5340,
      "Pro": 5341,
      "cial</w>": 5342,
      "ph": 5343,
      "port": 5344,
      "mente</w>": 5345,
      "ca</w>": 5346,
      "will</w>": 5347,
      "str": 5348,
      "incl": 5349,
      "its</w>": 5350,
      "ure</w>": 5351,
      "mais</w>": 5352,
      "sobre</w>": 5353,
      "...</w>": 5354,
      "fu": 5355,
      "hote": 5356,
      "go</w>": 5357,
      "são</w>": 5358,
      "serv": 5359,
      "ass": 5360,
      "les</w>": 5361,
      "inform": 5362,
      "ow</w>": 5363,
      "fil": 5364,
      "ades</w>": 5365,
      "Ar": 5366,
      "reserv": 5367,
      "which</w>": 5368,
      "ici": 5369,
      "sol": 5370,
      "oci": 5371,
      "Pr": 5372,
      "mo</w>": 5373,
      "up": 5374,
      "nec": 5375,
      "ally</w>": 5376,
      "igh": 5377,
      "use</w>": 5378,
      "pel": 5379,
      "der": 5380,
      "enti": 5381,
      "mi": 5382,
      "iv": 5383,
      "estaur": 5384,
      "ies</w>": 5385,
      "cr": 5386,
      "estr": 5387,
      "tos</w>": 5388,
      "cri": 5389,
      "ds</w>": 5390,
      "line</w>": 5391,
      "você</w>": 5392,
      "tor": 5393,
      "fec": 5394,
      "visor</w>": 5395,
      "vel</w>": 5396,
      "ens": 5397,
      "au": 5398,
      "mon": 5399,
      "cas": 5400,
      "do": 5401,
      "Advisor</w>": 5402,
      "fl": 5403,
      "TripAdvisor</w>": 5404,
      "tem</w>": 5405,
      "ça</w>": 5406,
      "gen": 5407,
      "ao</w>": 5408,
      "hi": 5409,
      "vol": 5410,
      "ace</w>": 5411,
      "ome</w>": 5412,
      "pi": 5413,
      "any</w>": 5414,
      "ador</w>": 5415,
      "ativ": 5416,
      "más</w>": 5417,
      "dr": 5418,
      "ical</w>": 5419,
      "In</w>": 5420,
      "ys": 5421,
      ").</w>": 5422,
      "trans": 5423,
      "El</w>": 5424,
      "ary</w>": 5425,
      "ire</w>": 5426,
      "ree</w>": 5427,
      "Hotels</w>": 5428,
      "he</w>": 5429,
      "ks</w>": 5430,
      "st</w>": 5431,
      "ali": 5432,
      "ações</w>": 5433,
      "ple</w>": 5434,
      "ain": 5435,
      "sel": 5436,
      "ito</w>": 5437,
      "ose</w>": 5438,
      "pes": 5439,
      "boo": 5440,
      "cam": 5441,
      "peri": 5442,
      "está</w>": 5443,
      "Br": 5444,
      "ings</w>": 5445,
      "cur": 5446,
      "idad</w>": 5447,
      "ese</w>": 5448,
      "more</w>": 5449,
      "produc": 5450,
      "other</w>": 5451,
      "ght</w>": 5452,
      "ate": 5453,
      "ble</w>": 5454,
      "era</w>": 5455,
      "este</w>": 5456,
      "err": 5457,
      "ting</w>": 5458,
      "org": 5459,
      "nu": 5460,
      "pec": 5461,
      "Mar": 5462,
      "ord": 5463,
      "La</w>": 5464,
      "Es": 5465,
      "ven": 5466,
      "ew</w>": 5467,
      "amento</w>": 5468,
      "up</w>": 5469,
      "all": 5470,
      "ora</w>": 5471,
      "mos": 5472,
      "plic": 5473,
      "als</w>": 5474,
      "pol": 5475,
      "ef": 5476,
      "ber</w>": 5477,
      "mun": 5478,
      "ame</w>": 5479,
      "ties</w>": 5480,
      "ém</w>": 5481,
      "ang": 5482,
      "ência</w>": 5483,
      "vel": 5484,
      "comp": 5485,
      "ida</w>": 5486,
      "To": 5487,
      "co</w>": 5488,
      "za</w>": 5489,
      "ail": 5490,
      "Sh": 5491,
      "sion</w>": 5492,
      "lis": 5493,
      "ong</w>": 5494,
      "also</w>": 5495,
      "almente</w>": 5496,
      "men": 5497,
      "sit": 5498,
      "we</w>": 5499,
      "cio</w>": 5500,
      "their</w>": 5501,
      "cion": 5502,
      "spe": 5503,
      "dat": 5504,
      "cip": 5505,
      "aciones</w>": 5506,
      "part": 5507,
      "mis": 5508,
      "00</w>": 5509,
      "Or": 5510,
      "cap": 5511,
      "és</w>": 5512,
      "ber": 5513,
      "Wh": 5514,
      "On": 5515,
      "und</w>": 5516,
      "ak": 5517,
      "ew": 5518,
      "olog": 5519,
      "ous</w>": 5520,
      "Di": 5521,
      "dur": 5522,
      "go": 5523,
      "),</w>": 5524,
      "ick": 5525,
      "bil": 5526,
      "port</w>": 5527,
      "posi": 5528,
      "Res": 5529,
      "entre</w>": 5530,
      "parti": 5531,
      "tw": 5532,
      "uti": 5533,
      "book</w>": 5534,
      "ana</w>": 5535,
      "val": 5536,
      "tros</w>": 5537,
      "ded</w>": 5538,
      "Se": 5539,
      "seu</w>": 5540,
      "lin": 5541,
      "anti": 5542,
      "were</w>": 5543,
      "ano</w>": 5544,
      "tec": 5545,
      "tica</w>": 5546,
      "ard</w>": 5547,
      "proc": 5548,
      "atur": 5549,
      "Su": 5550,
      "esta</w>": 5551,
      "Fr": 5552,
      "coun": 5553,
      "Pl": 5554,
      "This</w>": 5555,
      "sub": 5556,
      "sa</w>": 5557,
      "ea": 5558,
      "ma</w>": 5559,
      "low": 5560,
      "uro": 5561,
      "me</w>": 5562,
      "wi": 5563,
      "compl": 5564,
      "ach</w>": 5565,
      "tom": 5566,
      "trav": 5567,
      "nos</w>": 5568,
      "hotel</w>": 5569,
      "site</w>": 5570,
      "De": 5571,
      "time</w>": 5572,
      "ets</w>": 5573,
      "Uni": 5574,
      "del": 5575,
      "ino</w>": 5576,
      "Des": 5577,
      "sua</w>": 5578,
      "resul": 5579,
      "ices</w>": 5580,
      "encontr": 5581,
      "about</w>": 5582,
      "pul": 5583,
      "foi</w>": 5584,
      "cel": 5585,
      "fun": 5586,
      "fir": 5587,
      "his</w>": 5588,
      "Boo": 5589,
      "ood</w>": 5590,
      "bar": 5591,
      "ita</w>": 5592,
      "ould</w>": 5593,
      "abil": 5594,
      "ach": 5595,
      "il</w>": 5596,
      "ov": 5597,
      "inclu": 5598,
      "Restaur": 5599,
      "jec": 5600,
      "tor</w>": 5601,
      "Gr": 5602,
      "mat": 5603,
      "endo</w>": 5604,
      "eir": 5605,
      "gun": 5606,
      "ares</w>": 5607,
      "anto</w>": 5608,
      "mil": 5609,
      "ack</w>": 5610,
      "agem</w>": 5611,
      "sec": 5612,
      "vers": 5613,
      "hel": 5614,
      "Trav": 5615,
      "esti": 5616,
      "tre": 5617,
      "istr": 5618,
      "soci": 5619,
      "ick</w>": 5620,
      "cal": 5621,
      "nos": 5622,
      "son</w>": 5623,
      "teri": 5624,
      "It</w>": 5625,
      "ista</w>": 5626,
      "bas": 5627,
      "lu": 5628,
      "ís": 5629,
      "icos</w>": 5630,
      "ner</w>": 5631,
      "qual": 5632,
      "én</w>": 5633,
      "amos</w>": 5634,
      "our": 5635,
      "but</w>": 5636,
      "ol</w>": 5637,
      "liz": 5638,
      "KA": 5639,
      "aw": 5640,
      "sig": 5641,
      "elh": 5642,
      "200": 5643,
      "pode</w>": 5644,
      "ual</w>": 5645,
      "ates</w>": 5646,
      "YA": 5647,
      "Inter": 5648,
      "very</w>": 5649,
      "ust</w>": 5650,
      "they</w>": 5651,
      "ris": 5652,
      "aut": 5653,
      "cli": 5654,
      "YAK</w>": 5655,
      "KAYAK</w>": 5656,
      "ell</w>": 5657,
      "information</w>": 5658,
      "ens</w>": 5659,
      "fam": 5660,
      "enc": 5661,
      "fac": 5662,
      "vari": 5663,
      "ory</w>": 5664,
      "tive</w>": 5665,
      "gro": 5666,
      "tas</w>": 5667,
      "dif": 5668,
      "red</w>": 5669,
      "Gu": 5670,
      "re</w>": 5671,
      "Hot": 5672,
      "respon": 5673,
      "prin": 5674,
      "ton</w>": 5675,
      "Ac": 5676,
      "Por": 5677,
      "gi": 5678,
      "ard": 5679,
      "idades</w>": 5680,
      "idos</w>": 5681,
      "aqu": 5682,
      "ej": 5683,
      "tro": 5684,
      "uel": 5685,
      "med": 5686,
      "ors</w>": 5687,
      "encia</w>": 5688,
      "pedia</w>": 5689,
      "ghts</w>": 5690,
      "who</w>": 5691,
      "ants</w>": 5692,
      "todos</w>": 5693,
      "Ph": 5694,
      "ins": 5695,
      "cios</w>": 5696,
      "ays</w>": 5697,
      "thro": 5698,
      "ational</w>": 5699,
      "eri": 5700,
      "ión</w>": 5701,
      "direc": 5702,
      "trab": 5703,
      "ami": 5704,
      "oper": 5705,
      "gram": 5706,
      "ll": 5707,
      "pe</w>": 5708,
      "ço</w>": 5709,
      "itos</w>": 5710,
      "ciones</w>": 5711,
      "bet": 5712,
      "servi": 5713,
      "SA</w>": 5714,
      "anos</w>": 5715,
      "od": 5716,
      "xim": 5717,
      "idas</w>": 5718,
      "No</w>": 5719,
      "may</w>": 5720,
      "ement</w>": 5721,
      "dade</w>": 5722,
      "Los</w>": 5723,
      "Car": 5724,
      "10</w>": 5725,
      "añ": 5726,
      "Col": 5727,
      "conf": 5728,
      "eral</w>": 5729,
      "ofer": 5730,
      "Un": 5731,
      "quis": 5732,
      "best</w>": 5733,
      "sal": 5734,
      "bus": 5735,
      "Op": 5736,
      "ue</w>": 5737,
      "new</w>": 5738,
      "Travel": 5739,
      "Booking</w>": 5740,
      "enta</w>": 5741,
      "utiliz": 5742,
      "For": 5743,
      "ain</w>": 5744,
      "fol": 5745,
      "contro": 5746,
      "ion</w>": 5747,
      "Cl": 5748,
      "tal": 5749,
      "acion": 5750,
      "mas</w>": 5751,
      "Euro": 5752,
      "ight</w>": 5753,
      "faz": 5754,
      "ill": 5755,
      "import": 5756,
      "adores</w>": 5757,
      "od</w>": 5758,
      "sus</w>": 5759,
      "forma": 5760,
      "Is": 5761,
      "ey</w>": 5762,
      "tro</w>": 5763,
      "own</w>": 5764,
      "desig": 5765,
      "icas</w>": 5766,
      "mé": 5767,
      "ca": 5768,
      "enci": 5769,
      "ário</w>": 5770,
      "kno": 5771,
      "ating</w>": 5772,
      "gre": 5773,
      "der</w>": 5774,
      "hac": 5775,
      "fici": 5776,
      "equi": 5777,
      "ori": 5778,
      "ep": 5779,
      "Online</w>": 5780,
      "prof": 5781,
      "ero</w>": 5782,
      "gl": 5783,
      "used</w>": 5784,
      "We</w>": 5785,
      "Air": 5786,
      "condi": 5787,
      "pen": 5788,
      "most</w>": 5789,
      "bém</w>": 5790,
      "when</w>": 5791,
      "ea</w>": 5792,
      "id</w>": 5793,
      "tico</w>": 5794,
      "dio</w>": 5795,
      "mej": 5796,
      "rá": 5797,
      "You</w>": 5798,
      "En</w>": 5799,
      "sur": 5800,
      "inst": 5801,
      "earch</w>": 5802,
      "espe": 5803,
      "ario</w>": 5804,
      "nov": 5805,
      "her</w>": 5806,
      "Be": 5807,
      "sem": 5808,
      "personal</w>": 5809,
      "tar</w>": 5810,
      "sup": 5811,
      "arch": 5812,
      "ocity</w>": 5813,
      "been</w>": 5814,
      "ular</w>": 5815,
      "ona</w>": 5816,
      "with": 5817,
      "ateg": 5818,
      "pue": 5819,
      "Expedia</w>": 5820,
      "can": 5821,
      "ental</w>": 5822,
      "Travelocity</w>": 5823,
      "work</w>": 5824,
      "ança</w>": 5825,
      "ack": 5826,
      "ile</w>": 5827,
      "leg": 5828,
      "day</w>": 5829,
      "hab": 5830,
      "Cas": 5831,
      "bit": 5832,
      "Os</w>": 5833,
      "ments</w>": 5834,
      "ding</w>": 5835,
      "ans</w>": 5836,
      "centr": 5837,
      "20</w>": 5838,
      "pan": 5839,
      "mul": 5840,
      "wire</w>": 5841,
      "ther": 5842,
      "eng": 5843,
      "ning</w>": 5844,
      "mit": 5845,
      "sites</w>": 5846,
      "find</w>": 5847,
      "ro</w>": 5848,
      "atu": 5849,
      "such</w>": 5850,
      "mes": 5851,
      "ân": 5852,
      "tain": 5853,
      "ustr": 5854,
      "lec": 5855,
      "seg": 5856,
      "act</w>": 5857,
      "low</w>": 5858,
      "também</w>": 5859,
      "eap</w>": 5860,
      "If</w>": 5861,
      "ages</w>": 5862,
      "om</w>": 5863,
      "istem": 5864,
      "ín": 5865,
      "Mon": 5866,
      "Hotwire</w>": 5867,
      "ten</w>": 5868,
      "experi": 5869,
      "there</w>": 5870,
      "án</w>": 5871,
      "acc": 5872,
      "elec": 5873,
      "inv": 5874,
      "ai</w>": 5875,
      "óri": 5876,
      "Man": 5877,
      "ah": 5878,
      "hist": 5879,
      "had</w>": 5880,
      "air": 5881,
      "titu": 5882,
      "desde</w>": 5883,
      "sof": 5884,
      "Para</w>": 5885,
      "ja</w>": 5886,
      "land</w>": 5887,
      "bel": 5888,
      "veis</w>": 5889,
      "As</w>": 5890,
      "ini": 5891,
      "forma</w>": 5892,
      "ider": 5893,
      "ticas</w>": 5894,
      "ater</w>": 5895,
      "melh": 5896,
      "lights</w>": 5897,
      "get</w>": 5898,
      "Mo": 5899,
      "ês</w>": 5900,
      "ps</w>": 5901,
      "ra": 5902,
      "fazer</w>": 5903,
      "enas</w>": 5904,
      "only</w>": 5905,
      "mem": 5906,
      "ub": 5907,
      "estas</w>": 5908,
      "into</w>": 5909,
      "popul": 5910,
      "Per": 5911,
      "if</w>": 5912,
      "contin": 5913,
      "ancel": 5914,
      "estu": 5915,
      "ários</w>": 5916,
      "organ": 5917,
      "cus": 5918,
      "ós</w>": 5919,
      "tien": 5920,
      "requ": 5921,
      "que": 5922,
      "ll</w>": 5923,
      "oy": 5924,
      "data</w>": 5925,
      "empl": 5926,
      "first</w>": 5927,
      "way</w>": 5928,
      "art</w>": 5929,
      "tic</w>": 5930,
      "ág": 5931,
      "these</w>": 5932,
      "fe</w>": 5933,
      "tar": 5934,
      "segu": 5935,
      "lar": 5936,
      "Vi": 5937,
      "nor": 5938,
      "ili": 5939,
      "ange</w>": 5940,
      "lev": 5941,
      "prov": 5942,
      "hum": 5943,
      "uni": 5944,
      "erg": 5945,
      "uso</w>": 5946,
      "Li": 5947,
      "ráp": 5948,
      "eta</w>": 5949,
      "view": 5950,
      "trat": 5951,
      "well</w>": 5952,
      "hacer</w>": 5953,
      "ível</w>": 5954,
      "ople</w>": 5955,
      "des</w>": 5956,
      "web": 5957,
      "sp": 5958,
      "them</w>": 5959,
      "bur": 5960,
      "bre": 5961,
      "near</w>": 5962,
      "program": 5963,
      "probl": 5964,
      "Bar": 5965,
      "like</w>": 5966,
      "especi": 5967,
      "hos": 5968,
      "tivo</w>": 5969,
      "Ob": 5970,
      "TripOnline</w>": 5971,
      "help</w>": 5972,
      "own": 5973,
      "iro</w>": 5974,
      "ide": 5975,
      "ative</w>": 5976,
      "suas</w>": 5977,
      "sys": 5978,
      "ful</w>": 5979,
      "ok": 5980,
      "ween</w>": 5981,
      "otos</w>": 5982,
      "pas": 5983,
      "ura</w>": 5984,
      "mos</w>": 5985,
      "ger": 5986,
      "tra</w>": 5987,
      "inte": 5988,
      "end</w>": 5989,
      "Se</w>": 5990,
      "tal</w>": 5991,
      "ouse</w>": 5992,
      "ud</w>": 5993,
      "sistem": 5994,
      "atos</w>": 5995,
      "than</w>": 5996,
      "priv": 5997,
      "ital</w>": 5998,
      "ests</w>": 5999,
      "ong": 6000,
      "produ": 6001,
      "adi": 6002,
      "Cheap</w>": 6003,
      "vir": 6004,
      "idence</w>": 6005,
      "pati": 6006,
      "ra</w>": 6007,
      "Cam": 6008,
      "person": 6009,
      "todo</w>": 6010,
      "Le": 6011,
      "je": 6012,
      "lan": 6013,
      "man</w>": 6014,
      "estab": 6015,
      "eline</w>": 6016,
      "Orbit": 6017,
      "ily</w>": 6018,
      "Nor": 6019,
      "Orbitz</w>": 6020,
      "ish</w>": 6021,
      "As": 6022,
      "between</w>": 6023,
      "Bu": 6024,
      "ér": 6025,
      "visit": 6026,
      "necess": 6027,
      "medi": 6028,
      "iness</w>": 6029,
      "shi": 6030,
      "mento</w>": 6031,
      "ture</w>": 6032,
      "ato</w>": 6033,
      "cada</w>": 6034,
      "pa</w>": 6035,
      "car</w>": 6036,
      "restaur": 6037,
      "éis</w>": 6038,
      "many</w>": 6039,
      "ters</w>": 6040,
      "Cancel": 6041,
      "parte</w>": 6042,
      "emos</w>": 6043,
      "gar": 6044,
      "Im": 6045,
      "rece": 6046,
      "ear</w>": 6047,
      "ira</w>": 6048,
      "confi": 6049,
      "her": 6050,
      "light</w>": 6051,
      "indi": 6052,
      "tes</w>": 6053,
      "bro": 6054,
      "view</w>": 6055,
      "puede</w>": 6056,
      "vo</w>": 6057,
      "pesso": 6058,
      "nific": 6059,
      "mus": 6060,
      "tribu": 6061,
      "acional</w>": 6062,
      "ugh</w>": 6063,
      "aix": 6064,
      "wn</w>": 6065,
      "after</w>": 6066,
      "fore</w>": 6067,
      "dispon": 6068,
      "sa": 6069,
      "ços</w>": 6070,
      "jun": 6071,
      "dic": 6072,
      "princip": 6073,
      "people</w>": 6074,
      "anteri": 6075,
      "nuestr": 6076,
      "Pric": 6077,
      "quer</w>": 6078,
      "consider": 6079,
      "sos</w>": 6080,
      "New</w>": 6081,
      "lug": 6082,
      "Priceline</w>": 6083,
      "doc": 6084,
      "apar": 6085,
      "pelo</w>": 6086,
      "bién</w>": 6087,
      "ior</w>": 6088,
      "sin": 6089,
      "encontrar</w>": 6090,
      "ome": 6091,
      "ely</w>": 6092,
      "ind</w>": 6093,
      "provid": 6094,
      "igh</w>": 6095,
      "Cancelon</w>": 6096,
      "cias</w>": 6097,
      "ças</w>": 6098,
      "Hol": 6099,
      "paci": 6100,
      "aplic": 6101,
      "oso</w>": 6102,
      "ren": 6103,
      "stud": 6104,
      "tura</w>": 6105,
      "mor": 6106,
      "tras</w>": 6107,
      "Ma": 6108,
      "tle</w>": 6109,
      "ete</w>": 6110,
      "file</w>": 6111,
      "Wor": 6112,
      "devel": 6113,
      "bli": 6114,
      "difer": 6115,
      "two</w>": 6116,
      "nas</w>": 6117,
      "nolog": 6118,
      "char": 6119,
      "identi": 6120,
      "30</w>": 6121,
      "ero": 6122,
      "where</w>": 6123,
      "differ": 6124,
      "dom": 6125,
      "ish": 6126,
      "vida</w>": 6127,
      "seus</w>": 6128,
      "over</w>": 6129,
      "bot": 6130,
      "ickly</w>": 6131,
      "publ": 6132,
      "ever</w>": 6133,
      "num": 6134,
      "ju": 6135,
      "cerca</w>": 6136,
      "50</w>": 6137,
      "amiento</w>": 6138,
      "realiz": 6139,
      "rit": 6140,
      "durante</w>": 6141,
      "sk": 6142,
      "avail": 6143,
      "tu</w>": 6144,
      "ist</w>": 6145,
      "ech": 6146,
      "deci": 6147,
      "fav": 6148,
      "án": 6149,
      "come</w>": 6150,
      "utos</w>": 6151,
      "ministr": 6152,
      "solu": 6153,
      "econ": 6154,
      "some</w>": 6155,
      "hol": 6156,
      "ável</w>": 6157,
      "ms</w>": 6158,
      "Pre": 6159,
      "Hotel": 6160,
      "Cor": 6161,
      "national</w>": 6162,
      "signific": 6163,
      "Dis": 6164,
      "cent": 6165,
      "dest": 6166,
      "wers</w>": 6167,
      "cep": 6168,
      "dem</w>": 6169,
      "ty": 6170,
      "We": 6171,
      "Amer": 6172,
      "hor": 6173,
      "ena</w>": 6174,
      "viaj": 6175,
      "materi": 6176,
      "ban": 6177,
      "vez</w>": 6178,
      "\".</w>": 6179,
      "ece</w>": 6180,
      "sim": 6181,
      "eas": 6182,
      "18": 6183,
      "quil": 6184,
      "Pol": 6185,
      "comun": 6186,
      "ute</w>": 6187,
      "trabal": 6188,
      "Bus": 6189,
      "bec": 6190,
      "online</w>": 6191,
      "ías</w>": 6192,
      "includ": 6193,
      "my</w>": 6194,
      "ows</w>": 6195,
      "organiz": 6196,
      "mark": 6197,
      "dire": 6198,
      "aff</w>": 6199,
      "ún": 6200,
      "constr": 6201,
      "arios</w>": 6202,
      "For</w>": 6203,
      "should</w>": 6204,
      "right</w>": 6205,
      "pró": 6206,
      "oria</w>": 6207,
      "free</w>": 6208,
      "vac": 6209,
      "chil": 6210,
      "dep": 6211,
      "ga</w>": 6212,
      "inas</w>": 6213,
      "through</w>": 6214,
      "result": 6215,
      "problem": 6216,
      "Ap": 6217,
      "Get</w>": 6218,
      "lit": 6219,
      "would</w>": 6220,
      "web</w>": 6221,
      "ned</w>": 6222,
      "informa": 6223,
      "ears</w>": 6224,
      "ela</w>": 6225,
      "uelos</w>": 6226,
      "anal": 6227,
      "termin": 6228,
      "Search</w>": 6229,
      "San</w>": 6230,
      "Inn</w>": 6231,
      "present": 6232,
      "what</w>": 6233,
      "dro": 6234,
      "Best</w>": 6235,
      "net</w>": 6236,
      "Can": 6237,
      "segur": 6238,
      "Jo": 6239,
      "tex": 6240,
      "assi": 6241,
      "preci": 6242,
      "alth</w>": 6243,
      "ames</w>": 6244,
      "respu": 6245,
      "ús": 6246,
      "Fl": 6247,
      "pañ": 6248,
      "thing</w>": 6249,
      "staff</w>": 6250,
      "muito</w>": 6251,
      "sy": 6252,
      "jo": 6253,
      "neg": 6254,
      "De</w>": 6255,
      "bol": 6256,
      "oun": 6257,
      "pela</w>": 6258,
      "He": 6259,
      "see</w>": 6260,
      "past</w>": 6261,
      "actu": 6262,
      "dist": 6263,
      "ele</w>": 6264,
      "hu": 6265,
      "ress</w>": 6266,
      "ns</w>": 6267,
      "speci": 6268,
      "arti": 6269,
      "envol": 6270,
      "fa": 6271,
      "pal": 6272,
      "usu": 6273,
      "essi": 6274,
      "eles</w>": 6275,
      "partner</w>": 6276,
      "ous": 6277,
      "All</w>": 6278,
      "dre": 6279,
      "dados</w>": 6280,
      "Me": 6281,
      "liv": 6282,
      "views</w>": 6283,
      "continu": 6284,
      "jo</w>": 6285,
      "onde</w>": 6286,
      "tware</w>": 6287,
      "mov": 6288,
      "ará</w>": 6289,
      "fue</w>": 6290,
      "dad</w>": 6291,
      "fri": 6292,
      "óg": 6293,
      "Ser": 6294,
      "hom": 6295,
      "lí": 6296,
      "aram</w>": 6297,
      "información</w>": 6298,
      "acti": 6299,
      "make</w>": 6300,
      "reservas</w>": 6301,
      "mp": 6302,
      "incre": 6303,
      "now</w>": 6304,
      "la": 6305,
      "orig": 6306,
      "Sal": 6307,
      "si</w>": 6308,
      "fal": 6309,
      "possi": 6310,
      "tain</w>": 6311,
      "years</w>": 6312,
      "United</w>": 6313,
      "follow": 6314,
      "op</w>": 6315,
      "tional</w>": 6316,
      "reci": 6317,
      "pesquis": 6318,
      "pass": 6319,
      "Eng": 6320,
      "todas</w>": 6321,
      "Las</w>": 6322,
      "tech": 6323,
      "ór": 6324,
      "lig": 6325,
      "confidence</w>": 6326,
      "Quickly</w>": 6327,
      "ands</w>": 6328,
      "Serv": 6329,
      "orgul": 6330,
      "indo</w>": 6331,
      "cho": 6332,
      "éri": 6333,
      "form</w>": 6334,
      "HotelQuickly</w>": 6335,
      "plan": 6336,
      "available</w>": 6337,
      "unci": 6338,
      "Restaurants</w>": 6339,
      "using</w>": 6340,
      "Gre": 6341,
      "ise</w>": 6342,
      "199": 6343,
      "úl": 6344,
      "foram</w>": 6345,
      "esso</w>": 6346,
      "cen": 6347,
      "compar": 6348,
      "fer</w>": 6349,
      "recom": 6350,
      "develop": 6351,
      "IN": 6352,
      "side</w>": 6353,
      "ele": 6354,
      "equip": 6355,
      "He</w>": 6356,
      "reservations</w>": 6357,
      "agr": 6358,
      "úmer": 6359,
      "ícul": 6360,
      "Em</w>": 6361,
      "estão</w>": 6362,
      "Cu": 6363,
      "ata</w>": 6364,
      "proud</w>": 6365,
      "pli": 6366,
      "Pri": 6367,
      "flu": 6368,
      "empres": 6369,
      "log": 6370,
      "tical</w>": 6371,
      "crip": 6372,
      "mundo</w>": 6373,
      "otros</w>": 6374,
      "ago</w>": 6375,
      "ticos</w>": 6376,
      "istas</w>": 6377,
      "pur": 6378,
      "To</w>": 6379,
      "nuev": 6380,
      "try</w>": 6381,
      "effec": 6382,
      "world</w>": 6383,
      "Por</w>": 6384,
      "oj": 6385,
      "ok</w>": 6386,
      "per</w>": 6387,
      "Lu": 6388,
      "gh</w>": 6389,
      "Ou": 6390,
      "ava</w>": 6391,
      "15</w>": 6392,
      "abr": 6393,
      "eñ": 6394,
      "eo</w>": 6395,
      "City</w>": 6396,
      "tion": 6397,
      "también</w>": 6398,
      "inal</w>": 6399,
      "associ": 6400,
      "vo": 6401,
      "promo": 6402,
      "cab": 6403,
      "particip": 6404,
      "defin": 6405,
      "alg": 6406,
      "pág": 6407,
      "abor": 6408,
      "erto</w>": 6409,
      "arr": 6410,
      "exten": 6411,
      "deal</w>": 6412,
      "anteriores</w>": 6413,
      "eira</w>": 6414,
      "tific": 6415,
      "travel</w>": 6416,
      "need</w>": 6417,
      "website</w>": 6418,
      "publi": 6419,
      "sistema</w>": 6420,
      "quick</w>": 6421,
      "indic": 6422,
      "met": 6423,
      "cin": 6424,
      "gener": 6425,
      "rea</w>": 6426,
      "lish</w>": 6427,
      "Pu": 6428,
      "ik": 6429,
      "aum": 6430,
      "tempo</w>": 6431,
      "how</w>": 6432,
      "compr": 6433,
      "ort</w>": 6434,
      "refer": 6435,
      "answers</w>": 6436,
      "oom</w>": 6437,
      "selec": 6438,
      "system</w>": 6439,
      "Pal": 6440,
      "Ro": 6441,
      "Pa": 6442,
      "ene": 6443,
      "eres</w>": 6444,
      "ature</w>": 6445,
      "play": 6446,
      "ví": 6447,
      "ability</w>": 6448,
      "ot</w>": 6449,
      "iday</w>": 6450,
      "services</w>": 6451,
      "situ": 6452,
      "ón": 6453,
      "respuestas</w>": 6454,
      "Tick": 6455,
      "trad": 6456,
      "place</w>": 6457,
      "cour": 6458,
      "Em": 6459,
      "12</w>": 6460,
      "úbl": 6461,
      "ya</w>": 6462,
      "ject</w>": 6463,
      "ajo</w>": 6464,
      "tamente</w>": 6465,
      "ites</w>": 6466,
      "erra</w>": 6467,
      "acter": 6468,
      "aos</w>": 6469,
      "ás": 6470,
      "ru": 6471,
      "ace": 6472,
      "través</w>": 6473,
      "ge": 6474,
      "ful": 6475,
      "dev": 6476,
      "lob": 6477,
      "sen": 6478,
      "found</w>": 6479,
      "bro</w>": 6480,
      "outh</w>": 6481,
      "rig": 6482,
      "ause</w>": 6483,
      "Este</w>": 6484,
      "aid</w>": 6485,
      "ces</w>": 6486,
      "local</w>": 6487,
      "offer": 6488,
      "comb": 6489,
      "mas": 6490,
      "then</w>": 6491,
      "observ": 6492,
      "Tickets</w>": 6493,
      "ownlo": 6494,
      "fon": 6495,
      "including</w>": 6496,
      "Ab": 6497,
      "ismo</w>": 6498,
      "medic": 6499,
      "high</w>": 6500,
      "gran": 6501,
      "tipo</w>": 6502,
      "vil": 6503,
      "int</w>": 6504,
      "pir": 6505,
      "mom": 6506,
      "entro</w>": 6507,
      "China</w>": 6508,
      "ne</w>": 6509,
      "eron</w>": 6510,
      "\",</w>": 6511,
      "ines</w>": 6512,
      "pued": 6513,
      "tly</w>": 6514,
      "ety</w>": 6515,
      "trac": 6516,
      "depend": 6517,
      "alter": 6518,
      "tiem": 6519,
      "ste": 6520,
      "bor": 6521,
      "tivos</w>": 6522,
      "life</w>": 6523,
      "ican</w>": 6524,
      "tiene</w>": 6525,
      "ama</w>": 6526,
      "Mic": 6527,
      "Val": 6528,
      "blo": 6529,
      "gan": 6530,
      "Reg": 6531,
      "Min": 6532,
      "aph": 6533,
      "design</w>": 6534,
      "Inform": 6535,
      "sin</w>": 6536,
      "Cos": 6537,
      "service</w>": 6538,
      "Am": 6539,
      "made</w>": 6540,
      "cir": 6541,
      "éc": 6542,
      "hotels</w>": 6543,
      "ive</w>": 6544,
      "ough</w>": 6545,
      "Pe": 6546,
      "má": 6547,
      "ego</w>": 6548,
      "expl": 6549,
      "those</w>": 6550,
      "old</w>": 6551,
      "TV</w>": 6552,
      "social</w>": 6553,
      "natur": 6554,
      "don</w>": 6555,
      "ke": 6556,
      "prime": 6557,
      "get": 6558,
      "ajud": 6559,
      "More</w>": 6560,
      "tin": 6561,
      "dy</w>": 6562,
      "ator</w>": 6563,
      "anta</w>": 6564,
      "ness</w>": 6565,
      "podr": 6566,
      "sus": 6567,
      "qualquer</w>": 6568,
      "hav": 6569,
      "gui": 6570,
      "take</w>": 6571,
      "order</w>": 6572,
      "under": 6573,
      "autom": 6574,
      "ently</w>": 6575,
      "bem</w>": 6576,
      "without</w>": 6577,
      "oferta</w>": 6578,
      "AN": 6579,
      "ros": 6580,
      "ying</w>": 6581,
      "ship</w>": 6582,
      "rápidas</w>": 6583,
      "RE": 6584,
      "curr": 6585,
      "Fran": 6586,
      "públ": 6587,
      "alqui": 6588,
      "just</w>": 6589,
      "aria</w>": 6590,
      "úmero</w>": 6591,
      "during</w>": 6592,
      "atis": 6593,
      "buil": 6594,
      "sem</w>": 6595,
      "itas</w>": 6596,
      "ics</w>": 6597,
      "ativa</w>": 6598,
      "entar</w>": 6599,
      "part</w>": 6600,
      "protec": 6601,
      "itar</w>": 6602,
      "individ": 6603,
      "lugar</w>": 6604,
      "pero</w>": 6605,
      "patients</w>": 6606,
      "có": 6607,
      "reservar</w>": 6608,
      "educ": 6609,
      "different</w>": 6610,
      "So": 6611,
      "quando</w>": 6612,
      "out": 6613,
      "outros</w>": 6614,
      "pre</w>": 6615,
      "What</w>": 6616,
      "plac": 6617,
      "software</w>": 6618,
      "enh": 6619,
      "Nu": 6620,
      "cid": 6621,
      "inten": 6622,
      "cimento</w>": 6623,
      "podem</w>": 6624,
      "And</w>": 6625,
      "Ger": 6626,
      "Hos": 6627,
      "imento</w>": 6628,
      "eting</w>": 6629,
      "sab": 6630,
      "faci": 6631,
      "self</w>": 6632,
      "Univers": 6633,
      "Bi": 6634,
      "últim": 6635,
      "public": 6636,
      "Ti": 6637,
      "ail</w>": 6638,
      "less</w>": 6639,
      "algun": 6640,
      "ale</w>": 6641,
      "wer</w>": 6642,
      "pesquisa</w>": 6643,
      "him</w>": 6644,
      "compan": 6645,
      "set</w>": 6646,
      "informações</w>": 6647,
      "struc": 6648,
      "ba</w>": 6649,
      "being</w>": 6650,
      "até</w>": 6651,
      "edi": 6652,
      "2017</w>": 6653,
      "Portu": 6654,
      "prote": 6655,
      "tus</w>": 6656,
      "asta</w>": 6657,
      "agens</w>": 6658,
      "commun": 6659,
      "ífic": 6660,
      "tics</w>": 6661,
      "English</w>": 6662,
      "ins</w>": 6663,
      "sm": 6664,
      "tab": 6665,
      "flights</w>": 6666,
      "sia</w>": 6667,
      "gle</w>": 6668,
      "jog": 6669,
      "cualqui": 6670,
      "neces": 6671,
      "city</w>": 6672,
      "Free</w>": 6673,
      "equ": 6674,
      "suc": 6675,
      "ses</w>": 6676,
      "gover": 6677,
      "eso</w>": 6678,
      "arqui": 6679,
      "How</w>": 6680,
      "air</w>": 6681,
      "arm": 6682,
      "Si": 6683,
      "fic</w>": 6684,
      "US": 6685,
      "apres": 6686,
      "even</w>": 6687,
      "Sk": 6688,
      "Mus": 6689,
      "perform": 6690,
      "agu": 6691,
      "study</w>": 6692,
      "Things</w>": 6693,
      "cle": 6694,
      "each</w>": 6695,
      "ender</w>": 6696,
      "pos</w>": 6697,
      "spedes</w>": 6698,
      "administr": 6699,
      "under</w>": 6700,
      "eiro</w>": 6701,
      "íveis</w>": 6702,
      "There</w>": 6703,
      "following</w>": 6704,
      "CO": 6705,
      "esse</w>": 6706,
      "ún</w>": 6707,
      "same</w>": 6708,
      "relacion": 6709,
      "categ": 6710,
      "Wind": 6711,
      "upo</w>": 6712,
      "eu</w>": 6713,
      "úde</w>": 6714,
      "Estados</w>": 6715,
      "tempor": 6716,
      "Bel": 6717,
      "Si</w>": 6718,
      "process": 6719,
      "Bo": 6720,
      "ked</w>": 6721,
      "avali": 6722,
      "ath</w>": 6723,
      "sión</w>": 6724,
      "apa</w>": 6725,
      "public</w>": 6726,
      "quality</w>": 6727,
      "Rom": 6728,
      "year</w>": 6729,
      "Po": 6730,
      "año</w>": 6731,
      "area</w>": 6732,
      "number</w>": 6733,
      "sum": 6734,
      "read": 6735,
      "applic": 6736,
      "olu": 6737,
      "tis": 6738,
      "conver": 6739,
      "because</w>": 6740,
      "Nov": 6741,
      "tel": 6742,
      "ti</w>": 6743,
      "before</w>": 6744,
      "ativo</w>": 6745,
      "good</w>": 6746,
      "tio</w>": 6747,
      "adv": 6748,
      "capaci": 6749,
      "clus": 6750,
      "led</w>": 6751,
      "II</w>": 6752,
      "anim": 6753,
      "high": 6754,
      "ficar</w>": 6755,
      "Lon": 6756,
      "over": 6757,
      "Ci": 6758,
      "arro": 6759,
      "ER": 6760,
      "mod": 6761,
      "may": 6762,
      "Reserv": 6763,
      "Ne": 6764,
      "mejores</w>": 6765,
      "sch": 6766,
      "Bl": 6767,
      "dren</w>": 6768,
      "docum": 6769,
      "hy": 6770,
      "lia</w>": 6771,
      "guests</w>": 6772,
      "owever</w>": 6773,
      "integr": 6774,
      "change</w>": 6775,
      "impl": 6776,
      "polí": 6777,
      "moder": 6778,
      "Como</w>": 6779,
      "clar": 6780,
      "room</w>": 6781,
      "Mos": 6782,
      "sti": 6783,
      "health</w>": 6784,
      "control</w>": 6785,
      "eld</w>": 6786,
      "cido</w>": 6787,
      "estar</w>": 6788,
      "dig": 6789,
      "nea</w>": 6790,
      "Europe": 6791,
      "25</w>": 6792,
      "til</w>": 6793,
      "ality</w>": 6794,
      "osa</w>": 6795,
      "caus": 6796,
      "tiva</w>": 6797,
      "tanto</w>": 6798,
      "ping</w>": 6799,
      "nacional</w>": 6800,
      "ís</w>": 6801,
      "EN": 6802,
      "IC": 6803,
      "Gen": 6804,
      "vide</w>": 6805,
      "bal": 6806,
      "AT": 6807,
      "desenvol": 6808,
      "adr": 6809,
      "ways</w>": 6810,
      "ál": 6811,
      "table</w>": 6812,
      "via</w>": 6813,
      "cualquier</w>": 6814,
      "products</w>": 6815,
      "exist": 6816,
      "Direc": 6817,
      "ulo</w>": 6818,
      "ownload</w>": 6819,
      "deb": 6820,
      "ign</w>": 6821,
      "vin": 6822,
      "based</w>": 6823,
      "model": 6824,
      "tiempo</w>": 6825,
      "coul": 6826,
      "instal": 6827,
      "resid": 6828,
      "oms</w>": 6829,
      "página</w>": 6830,
      "va</w>": 6831,
      "Ri": 6832,
      "ição</w>": 6833,
      "exam": 6834,
      "fied</w>": 6835,
      "econom": 6836,
      "esa</w>": 6837,
      "here</w>": 6838,
      "energ": 6839,
      "pois</w>": 6840,
      "gue</w>": 6841,
      "porte</w>": 6842,
      "udi": 6843,
      "ft</w>": 6844,
      "hos</w>": 6845,
      "amentos</w>": 6846,
      "nav": 6847,
      "want</w>": 6848,
      "oriz": 6849,
      "IS": 6850,
      "back</w>": 6851,
      "fá": 6852,
      "ples</w>": 6853,
      "nam": 6854,
      "ang</w>": 6855,
      "Loc": 6856,
      "ep</w>": 6857,
      "viagem</w>": 6858,
      "Ver": 6859,
      "redu": 6860,
      "ek</w>": 6861,
      "Bras": 6862,
      "Trans": 6863,
      "hund": 6864,
      "ather</w>": 6865,
      "cuando</w>": 6866,
      "proxim": 6867,
      "mesmo</w>": 6868,
      "super": 6869,
      "ches</w>": 6870,
      "both</w>": 6871,
      "ling</w>": 6872,
      "great</w>": 6873,
      "propri": 6874,
      "much": 6875,
      "war": 6876,
      "connec": 6877,
      "ix": 6878,
      "ences</w>": 6879,
      "24</w>": 6880,
      "said</w>": 6881,
      "Med": 6882,
      "Af": 6883,
      "ash": 6884,
      "could</w>": 6885,
      "tén</w>": 6886,
      "din": 6887,
      "sido</w>": 6888,
      "search": 6889,
      "ency</w>": 6890,
      "When</w>": 6891,
      "comple": 6892,
      "els</w>": 6893,
      "ências</w>": 6894,
      "ass</w>": 6895,
      "within</w>": 6896,
      "reli": 6897,
      "Yor": 6898,
      "Dec": 6899,
      "ley</w>": 6900,
      "Ber": 6901,
      "uch</w>": 6902,
      "bra</w>": 6903,
      "base</w>": 6904,
      "Unidos</w>": 6905,
      "000</w>": 6906,
      "temente</w>": 6907,
      "che": 6908,
      "La": 6909,
      "States</w>": 6910,
      "contra</w>": 6911,
      "stand": 6912,
      "sever": 6913,
      "illa</w>": 6914,
      "resultados</w>": 6915,
      "años</w>": 6916,
      "11</w>": 6917,
      "AR": 6918,
      "grande</w>": 6919,
      "pap": 6920,
      "partir</w>": 6921,
      "partic": 6922,
      "peti": 6923,
      "ool</w>": 6924,
      "aron</w>": 6925,
      "care</w>": 6926,
      "apenas</w>": 6927,
      "At": 6928,
      "hot": 6929,
      "Obtén</w>": 6930,
      "name</w>": 6931,
      "while</w>": 6932,
      "100</w>": 6933,
      "tems</w>": 6934,
      "ease</w>": 6935,
      "Austr": 6936,
      "nom": 6937,
      "ax": 6938,
      "ze</w>": 6939,
      "graph": 6940,
      "ger</w>": 6941,
      "must</w>": 6942,
      "pron": 6943,
      "aro": 6944,
      "lim": 6945,
      "provide</w>": 6946,
      "results</w>": 6947,
      "Fe": 6948,
      "Windows</w>": 6949,
      "segun": 6950,
      "perfe": 6951,
      "ry</w>": 6952,
      "business</w>": 6953,
      "Goo": 6954,
      "ism</w>": 6955,
      "conhe": 6956,
      "giv": 6957,
      "Tur": 6958,
      "tele": 6959,
      "ports</w>": 6960,
      "casa</w>": 6961,
      "melhor</w>": 6962,
      "estig": 6963,
      "ença</w>": 6964,
      "abri": 6965,
      "ased</w>": 6966,
      "usted</w>": 6967,
      "anza</w>": 6968,
      "ester": 6969,
      "page</w>": 6970,
      "solo</w>": 6971,
      "poder": 6972,
      "pacientes</w>": 6973,
      "art": 6974,
      "ath": 6975,
      "grá": 6976,
      "Internet</w>": 6977,
      "does</w>": 6978,
      "ária</w>": 6979,
      "fund": 6980,
      "prim": 6981,
      "access</w>": 6982,
      "Options</w>": 6983,
      "she</w>": 6984,
      "tors</w>": 6985,
      "ambi": 6986,
      "Esta</w>": 6987,
      "ie</w>": 6988,
      "alta</w>": 6989,
      "funcion": 6990,
      "On</w>": 6991,
      ".\"</w>": 6992,
      "custom": 6993,
      "habit": 6994,
      "número</w>": 6995,
      "arse</w>": 6996,
      "collec": 6997,
      "children</w>": 6998,
      "reds</w>": 6999,
      "cook": 7000,
      "uno</w>": 7001,
      "God</w>": 7002,
      "press": 7003,
      "igur": 7004,
      "cuentr": 7005,
      "int": 7006,
      "Sec": 7007,
      "star": 7008,
      "alled</w>": 7009,
      "hasta</w>": 7010,
      "muy</w>": 7011,
      "Servi": 7012,
      "Todos</w>": 7013,
      "Airport</w>": 7014,
      "wom": 7015,
      "ury</w>": 7016,
      "menos</w>": 7017,
      "related</w>": 7018,
      "18</w>": 7019,
      "bri": 7020,
      "hundreds</w>": 7021,
      "York</w>": 7022,
      "Restaurantes</w>": 7023,
      "esto</w>": 7024,
      "mejor</w>": 7025,
      "simil": 7026,
      "hué": 7027,
      "ológ": 7028,
      "clu": 7029,
      "sex": 7030,
      "auth": 7031,
      "ibil": 7032,
      "Lin": 7033,
      "know</w>": 7034,
      "Rent": 7035,
      "regi": 7036,
      "14</w>": 7037,
      "quanto</w>": 7038,
      "ias</w>": 7039,
      "fut": 7040,
      "ól": 7041,
      "ann": 7042,
      "prepar": 7043,
      "let</w>": 7044,
      "determin": 7045,
      "stay</w>": 7046,
      "Sch": 7047,
      "fur": 7048,
      "poss": 7049,
      "trip</w>": 7050,
      "198": 7051,
      "huéspedes</w>": 7052,
      "pués</w>": 7053,
      "quar": 7054,
      "pain</w>": 7055,
      "Cr": 7056,
      "top</w>": 7057,
      "ply</w>": 7058,
      "Você</w>": 7059,
      "AC": 7060,
      "erci": 7061,
      "ats</w>": 7062,
      "Braz": 7063,
      "ficial</w>": 7064,
      "possa</w>": 7065,
      "emplo</w>": 7066,
      "partment</w>": 7067,
      "body</w>": 7068,
      "reco": 7069,
      "corre": 7070,
      "restaurantes</w>": 7071,
      "searches</w>": 7072,
      "World</w>": 7073,
      "Ste": 7074,
      "nal</w>": 7075,
      "eds</w>": 7076,
      "Não</w>": 7077,
      "pessoas</w>": 7078,
      "tra": 7079,
      "perfec": 7080,
      "vent": 7081,
      "cil</w>": 7082,
      "aje</w>": 7083,
      "three</w>": 7084,
      "eros</w>": 7085,
      "norm": 7086,
      "process</w>": 7087,
      "registr": 7088,
      "han</w>": 7089,
      "Tam": 7090,
      "Ago": 7091,
      "wit": 7092,
      "baratos</w>": 7093,
      "tries</w>": 7094,
      "uda</w>": 7095,
      "miento</w>": 7096,
      "requi": 7097,
      "Beach</w>": 7098,
      "Cal": 7099,
      "Cont": 7100,
      "Agoda</w>": 7101,
      "func": 7102,
      "bar</w>": 7103,
      "regul": 7104,
      "trabalho</w>": 7105,
      "caso</w>": 7106,
      "40</w>": 7107,
      "ania</w>": 7108,
      "Home</w>": 7109,
      "merc": 7110,
      "ves</w>": 7111,
      "diferentes</w>": 7112,
      "ird</w>": 7113,
      "atóri": 7114,
      "Cre": 7115,
      "ância</w>": 7116,
      "écn": 7117,
      "Dur": 7118,
      "some": 7119,
      "iros</w>": 7120,
      "main</w>": 7121,
      "propor": 7122,
      "sas</w>": 7123,
      "ham</w>": 7124,
      "appe": 7125,
      "are": 7126,
      "grupo</w>": 7127,
      "archiv": 7128,
      "junto</w>": 7129,
      "den</w>": 7130,
      "áveis</w>": 7131,
      "ísticas</w>": 7132,
      "Google</w>": 7133,
      "clientes</w>": 7134,
      "let": 7135,
      "obje": 7136,
      "ides</w>": 7137,
      "ara</w>": 7138,
      "Flights</w>": 7139,
      "16</w>": 7140,
      "family</w>": 7141,
      "viol": 7142,
      "experience</w>": 7143,
      "ecu": 7144,
      "favor": 7145,
      "manag": 7146,
      "tel</w>": 7147,
      "addi": 7148,
      "Cap": 7149,
      "important</w>": 7150,
      "represent": 7151,
      "crit": 7152,
      "bles</w>": 7153,
      "real</w>": 7154,
      "Ag": 7155,
      "dri": 7156,
      "sea</w>": 7157,
      "lat": 7158,
      "With</w>": 7159,
      "activ": 7160,
      "km</w>": 7161,
      "dutos</w>": 7162,
      "material</w>": 7163,
      "counts</w>": 7164,
      "water</w>": 7165,
      "Park</w>": 7166,
      "treat": 7167,
      "suits</w>": 7168,
      "Mad": 7169,
      "ak</w>": 7170,
      "udad</w>": 7171,
      "pueden</w>": 7172,
      "Ter": 7173,
      "support</w>": 7174,
      "cost": 7175,
      "momento</w>": 7176,
      "atic</w>": 7177,
      "hotéis</w>": 7178,
      "edad</w>": 7179,
      "gua</w>": 7180,
      "datos</w>": 7181,
      "respec": 7182,
      "maior</w>": 7183,
      "total</w>": 7184,
      "face</w>": 7185,
      "saúde</w>": 7186,
      "Holiday</w>": 7187,
      "El": 7188,
      "group</w>": 7189,
      "gram</w>": 7190,
      "alização</w>": 7191,
      "Joh": 7192,
      "long</w>": 7193,
      "son": 7194,
      "envi": 7195,
      "ories</w>": 7196,
      "Mas": 7197,
      "ove</w>": 7198,
      "set": 7199,
      "méd": 7200,
      "play</w>": 7201,
      "mag": 7202,
      "disposi": 7203,
      "exper": 7204,
      "proper": 7205,
      "nia</w>": 7206,
      "ática</w>": 7207,
      "combin": 7208,
      "frequ": 7209,
      "aroom</w>": 7210,
      "getaroom</w>": 7211,
      "den": 7212,
      "chang": 7213,
      "ES": 7214,
      "los": 7215,
      "Top</w>": 7216,
      "beg": 7217,
      "cidade</w>": 7218,
      "final</w>": 7219,
      "che</w>": 7220,
      "será</w>": 7221,
      "sions</w>": 7222,
      "tener</w>": 7223,
      "possible</w>": 7224,
      "sing": 7225,
      "10": 7226,
      "Hoteles</w>": 7227,
      "Mu": 7228,
      "ney</w>": 7229,
      "very": 7230,
      "corpor": 7231,
      "ide</w>": 7232,
      "Jes": 7233,
      "acto</w>": 7234,
      "alu": 7235,
      "miti": 7236,
      "around</w>": 7237,
      "Our</w>": 7238,
      "gn": 7239,
      "imp": 7240,
      "offers</w>": 7241,
      "inici": 7242,
      "Bro": 7243,
      "constru": 7244,
      "RO": 7245,
      "Mil": 7246,
      "enz": 7247,
      "zes</w>": 7248,
      "ton": 7249,
      "known</w>": 7250,
      "anas</w>": 7251,
      "visão</w>": 7252,
      "compu": 7253,
      "13</w>": 7254,
      "pat": 7255,
      "confiança</w>": 7256,
      "aba</w>": 7257,
      "elo</w>": 7258,
      "investig": 7259,
      "excel": 7260,
      "nosso</w>": 7261,
      "Pes": 7262,
      "descri": 7263,
      "Vuelos</w>": 7264,
      "tamento</w>": 7265,
      "2019</w>": 7266,
      "def": 7267,
      "anco</w>": 7268,
      "gratu": 7269,
      "Mi": 7270,
      "Fin": 7271,
      "60</w>": 7272,
      "aga</w>": 7273,
      "sive</w>": 7274,
      "iento</w>": 7275,
      "ember</w>": 7276,
      "bia</w>": 7277,
      "ainda</w>": 7278,
      "poten": 7279,
      "general</w>": 7280,
      "cambi": 7281,
      "International</w>": 7282,
      "às</w>": 7283,
      "ables</w>": 7284,
      "utes</w>": 7285,
      "mal": 7286,
      "field</w>": 7287,
      "ula</w>": 7288,
      "programa</w>": 7289,
      "House</w>": 7290,
      "kes</w>": 7291,
      "Sol": 7292,
      "remo": 7293,
      "arch</w>": 7294,
      "tan": 7295,
      "Jap": 7296,
      "ine": 7297,
      "days</w>": 7298,
      "anças</w>": 7299,
      "próxim": 7300,
      "secon": 7301,
      "count</w>": 7302,
      "fornec": 7303,
      "bat": 7304,
      "az</w>": 7305,
      "Us": 7306,
      "tures</w>": 7307,
      "ible</w>": 7308,
      "Fo": 7309,
      "Find</w>": 7310,
      ".”</w>": 7311,
      "Brasil</w>": 7312,
      "estudo</w>": 7313,
      "US</w>": 7314,
      "much</w>": 7315,
      "files</w>": 7316,
      "add": 7317,
      "American</w>": 7318,
      "sion": 7319,
      "escol": 7320,
      "atura</w>": 7321,
      "OR": 7322,
      "inf": 7323,
      "parcer": 7324,
      "isso</w>": 7325,
      "icion": 7326,
      "They</w>": 7327,
      "content</w>": 7328,
      "ecer</w>": 7329,
      "cos</w>": 7330,
      "Of": 7331,
      "ális": 7332,
      "técn": 7333,
      "ation": 7334,
      "trib": 7335,
      "estim": 7336,
      "ion": 7337,
      "ainst</w>": 7338,
      "estos</w>": 7339,
      "sitio</w>": 7340,
      "bers</w>": 7341,
      "ere": 7342,
      "ols</w>": 7343,
      "studi": 7344,
      "espec": 7345,
      "Produc": 7346,
      "eño</w>": 7347,
      "allow": 7348,
      "Vis": 7349,
      "ie": 7350,
      "natural</w>": 7351,
      "har</w>": 7352,
      "lobal</w>": 7353,
      "Airb": 7354,
      "saf": 7355,
      "ext</w>": 7356,
      "home</w>": 7357,
      "flight</w>": 7358,
      "reserva</w>": 7359,
      "reas</w>": 7360,
      "prop": 7361,
      "serviços</w>": 7362,
      "sequ": 7363,
      "times</w>": 7364,
      "Rel": 7365,
      "esc": 7366,
      "Ge": 7367,
      "jus": 7368,
      "au</w>": 7369,
      "lines</w>": 7370,
      "apresent": 7371,
      "porque</w>": 7372,
      "ingl": 7373,
      "mite</w>": 7374,
      "infec": 7375,
      "bed</w>": 7376,
      "entemente</w>": 7377,
      "Mor": 7378,
      "professi": 7379,
      "Sup": 7380,
      "parceria</w>": 7381,
      "há</w>": 7382,
      "dose</w>": 7383,
      "graf": 7384,
      "aloj": 7385,
      "cuentra</w>": 7386,
      "distribu": 7387,
      "inos</w>": 7388,
      "Suites</w>": 7389,
      "Do</w>": 7390,
      "Jan": 7391,
      "mail</w>": 7392,
      "edade</w>": 7393,
      "limit": 7394,
      "mens": 7395,
      "Web</w>": 7396,
      "cording</w>": 7397,
      "viron": 7398,
      "acy</w>": 7399,
      "2018</w>": 7400,
      "long": 7401,
      "instr": 7402,
      "Ju": 7403,
      "cookies</w>": 7404,
      "against</w>": 7405,
      "gráfic": 7406,
      "ativas</w>": 7407,
      "nb</w>": 7408,
      "vista</w>": 7409,
      "Pos": 7410,
      "ler</w>": 7411,
      "principal</w>": 7412,
      "multi": 7413,
      "cop": 7414,
      "ements</w>": 7415,
      "every</w>": 7416,
      "ativos</w>": 7417,
      "comm": 7418,
      "Rentals</w>": 7419,
      "ian</w>": 7420,
      "Char": 7421,
      "Gro": 7422,
      "manu": 7423,
      "ah</w>": 7424,
      "South</w>": 7425,
      "cum": 7426,
      "lead": 7427,
      "search</w>": 7428,
      "aten": 7429,
      "Reservation</w>": 7430,
      "enter</w>": 7431,
      "mission</w>": 7432,
      "institu": 7433,
      "Airbnb</w>": 7434,
      "pun": 7435,
      "área</w>": 7436,
      "usar</w>": 7437,
      "esper": 7438,
      "treatment</w>": 7439,
      "vuelos</w>": 7440,
      "Du": 7441,
      "Coun": 7442,
      "though</w>": 7443,
      "gar</w>": 7444,
      "men</w>": 7445,
      "main": 7446,
      "aces</w>": 7447,
      "electr": 7448,
      "logo</w>": 7449,
      "lands</w>": 7450,
      "país</w>": 7451,
      "thers</w>": 7452,
      "osos</w>": 7453,
      "dentro</w>": 7454,
      "él": 7455,
      "foc": 7456,
      "17</w>": 7457,
      "house</w>": 7458,
      "sor": 7459,
      "company</w>": 7460,
      "gal</w>": 7461,
      "Ev": 7462,
      "OS</w>": 7463,
      "baix": 7464,
      "consul": 7465,
      "mostr": 7466,
      "recu": 7467,
      "tural</w>": 7468,
      "net": 7469,
      "fast</w>": 7470,
      "open</w>": 7471,
      "influ": 7472,
      "if": 7473,
      "ures</w>": 7474,
      "ink</w>": 7475,
      "centro</w>": 7476,
      "Chris": 7477,
      "centenas</w>": 7478,
      "mica</w>": 7479,
      "It": 7480,
      "Es</w>": 7481,
      "New": 7482,
      "action</w>": 7483,
      "ox": 7484,
      "ery</w>": 7485,
      "See</w>": 7486,
      "echo</w>": 7487,
      "íses</w>": 7488,
      "ished</w>": 7489,
      "acia</w>": 7490,
      "temper": 7491,
      "ends</w>": 7492,
      "eno</w>": 7493,
      "pens": 7494,
      "importante</w>": 7495,
      "fron": 7496,
      "tado</w>": 7497,
      "anab": 7498,
      "case</w>": 7499,
      "deve</w>": 7500,
      "ists</w>": 7501,
      "orgulho</w>": 7502,
      "aya</w>": 7503,
      ".,</w>": 7504,
      "amb": 7505,
      "ye</w>": 7506,
      "Mal": 7507,
      "hosp": 7508,
      "eck</w>": 7509,
      "game</w>": 7510,
      "Au": 7511,
      "govern": 7512,
      "tí": 7513,
      "Cons": 7514,
      "pic": 7515,
      "phone</w>": 7516,
      "Rec": 7517,
      "ficul": 7518,
      "ville</w>": 7519,
      "clos": 7520,
      "están</w>": 7521,
      "sigui": 7522,
      "Ital": 7523,
      "orr": 7524,
      "small</w>": 7525,
      "respons": 7526,
      "atures</w>": 7527,
      "estions</w>": 7528,
      "Mun": 7529,
      "así</w>": 7530,
      "development</w>": 7531,
      "type</w>": 7532,
      "perfeita</w>": 7533,
      "Mé": 7534,
      "día</w>": 7535,
      "commod": 7536,
      "etc</w>": 7537,
      "country</w>": 7538,
      "abric": 7539,
      "ower</w>": 7540,
      "vision</w>": 7541,
      "adora</w>": 7542,
      "caracter": 7543,
      "ped</w>": 7544,
      "tory</w>": 7545,
      "wal": 7546,
      "did</w>": 7547,
      "ids</w>": 7548,
      "product</w>": 7549,
      "melhores</w>": 7550,
      "hoteles</w>": 7551,
      "19</w>": 7552,
      "197": 7553,
      "hora</w>": 7554,
      "weather</w>": 7555,
      "conditions</w>": 7556,
      "própri": 7557,
      "ped": 7558,
      "Ver</w>": 7559,
      "através</w>": 7560,
      "alim": 7561,
      "ba": 7562,
      "adu": 7563,
      "diag": 7564,
      "know": 7565,
      "estado</w>": 7566,
      "Rus": 7567,
      "dor</w>": 7568,
      "uro</w>": 7569,
      "bros</w>": 7570,
      "Portugal</w>": 7571,
      "outras</w>": 7572,
      "dem": 7573,
      "list</w>": 7574,
      "mic": 7575,
      "tores</w>": 7576,
      "Spe": 7577,
      "primer": 7578,
      "Ingl": 7579,
      "ós": 7580,
      "Business</w>": 7581,
      "ES</w>": 7582,
      "lado</w>": 7583,
      "However</w>": 7584,
      "present</w>": 7585,
      "located</w>": 7586,
      "Bre": 7587,
      "ases</w>": 7588,
      "):</w>": 7589,
      "ker</w>": 7590,
      "Categ": 7591,
      "torn": 7592,
      "empresa</w>": 7593,
      "come": 7594,
      "discounts</w>": 7595,
      "frica</w>": 7596,
      "ysis</w>": 7597,
      "cat": 7598,
      "mach": 7599,
      "gas</w>": 7600,
      "among</w>": 7601,
      "tail": 7602,
      "tran": 7603,
      "date</w>": 7604,
      "level</w>": 7605,
      "popular</w>": 7606,
      "alidade</w>": 7607,
      "Fil": 7608,
      "conven": 7609,
      "vos</w>": 7610,
      "propi": 7611,
      "oría</w>": 7612,
      "power</w>": 7613,
      "ities</w>": 7614,
      "lear": 7615,
      "eza</w>": 7616,
      "construc": 7617,
      "mús": 7618,
      "fre": 7619,
      "prices</w>": 7620,
      "third</w>": 7621,
      "press</w>": 7622,
      "ício</w>": 7623,
      "works</w>": 7624,
      "Pan": 7625,
      "cription</w>": 7626,
      "ord</w>": 7627,
      "ram": 7628,
      "ys</w>": 7629,
      "cha</w>": 7630,
      "ances</w>": 7631,
      "individu": 7632,
      "After</w>": 7633,
      "qualidade</w>": 7634,
      "Sof": 7635,
      "eria</w>": 7636,
      "att": 7637,
      "podrás</w>": 7638,
      "cham": 7639,
      "show</w>": 7640,
      "urity</w>": 7641,
      "These</w>": 7642,
      "ich": 7643,
      "recur": 7644,
      "raz": 7645,
      "embar": 7646,
      "AS": 7647,
      "atr": 7648,
      "comunic": 7649,
      "desarro": 7650,
      "acer": 7651,
      "Wik": 7652,
      "ented</w>": 7653,
      "oma</w>": 7654,
      "contact</w>": 7655,
      "êm</w>": 7656,
      "Her": 7657,
      "lease</w>": 7658,
      "Bay</w>": 7659,
      "Ban": 7660,
      "etas</w>": 7661,
      "technolog": 7662,
      "ían</w>": 7663,
      "ória</w>": 7664,
      "location</w>": 7665,
      "esses</w>": 7666,
      "encias</w>": 7667,
      "vil</w>": 7668,
      "ken</w>": 7669,
      "Fi": 7670,
      "apest</w>": 7671,
      "new": 7672,
      "00": 7673,
      "Paris</w>": 7674,
      "cer</w>": 7675,
      "meas": 7676,
      "servicios</w>": 7677,
      "last</w>": 7678,
      "atic": 7679,
      "led": 7680,
      "confianza</w>": 7681,
      "modo</w>": 7682,
      "ested</w>": 7683,
      "produtos</w>": 7684,
      "Coment": 7685,
      "22</w>": 7686,
      "Hel": 7687,
      "ups</w>": 7688,
      "mobil": 7689,
      "odo</w>": 7690,
      "transl": 7691,
      "full</w>": 7692,
      "conten": 7693,
      "vidades</w>": 7694,
      "user</w>": 7695,
      "orgull": 7696,
      "aint</w>": 7697,
      "called</w>": 7698,
      "21</w>": 7699,
      "2016</w>": 7700,
      "td</w>": 7701,
      "rooms</w>": 7702,
      "após</w>": 7703,
      "socio</w>": 7704,
      "cuid": 7705,
      "offer</w>": 7706,
      "essa</w>": 7707,
      "orgulloso</w>": 7708,
      "san": 7709,
      "elev": 7710,
      "conoci": 7711,
      "árias</w>": 7712,
      "ready</w>": 7713,
      "download</w>": 7714,
      "én": 7715,
      "ington</w>": 7716,
      "profis": 7717,
      "loo": 7718,
      "Mais</w>": 7719,
      "Wil": 7720,
      "dom</w>": 7721,
      "One</w>": 7722,
      "tão</w>": 7723,
      "alia</w>": 7724,
      "bon": 7725,
      "AP": 7726,
      "superi": 7727,
      "ific": 7728,
      "enda</w>": 7729,
      "ported</w>": 7730,
      "dos": 7731,
      "yn": 7732,
      "ately</w>": 7733,
      "perman": 7734,
      "European</w>": 7735,
      "uses</w>": 7736,
      "reas": 7737,
      "reviews</w>": 7738,
      "AL": 7739,
      "email</w>": 7740,
      "Ang": 7741,
      "ustri": 7742,
      "ON": 7743,
      "concer": 7744,
      "Sa": 7745,
      "point</w>": 7746,
      "uta</w>": 7747,
      "comput": 7748,
      "Del": 7749,
      "look</w>": 7750,
      "ock</w>": 7751,
      "grand": 7752,
      "relação</w>": 7753,
      "Europa</w>": 7754,
      "women</w>": 7755,
      "17": 7756,
      "ajudar</w>": 7757,
      "ben": 7758,
      "Resort</w>": 7759,
      "icy</w>": 7760,
      "original</w>": 7761,
      "Centr": 7762,
      "vuel": 7763,
      "descu": 7764,
      "plat": 7765,
      "nio</w>": 7766,
      "Mat": 7767,
      "lleg": 7768,
      "meth": 7769,
      "issu": 7770,
      "contain": 7771,
      "AD": 7772,
      "orar</w>": 7773,
      "yle</w>": 7774,
      "Seg": 7775,
      "ref": 7776,
      "separ": 7777,
      "hap": 7778,
      "ole</w>": 7779,
      "efe": 7780,
      "donde</w>": 7781,
      "wat": 7782,
      "tir": 7783,
      "gos</w>": 7784,
      "hay</w>": 7785,
      "But</w>": 7786,
      "ars</w>": 7787,
      "ense</w>": 7788,
      "dois</w>": 7789,
      "Barcel": 7790,
      "correc": 7791,
      "cular</w>": 7792,
      "Micro": 7793,
      "después</w>": 7794,
      "ours</w>": 7795,
      "anális": 7796,
      "large</w>": 7797,
      "acon": 7798,
      "ware</w>": 7799,
      "ka</w>": 7800,
      "ths</w>": 7801,
      "permite</w>": 7802,
      "gres": 7803,
      "langu": 7804,
      "shall</w>": 7805,
      "No": 7806,
      "já</w>": 7807,
      "Av": 7808,
      "since</w>": 7809,
      "cas</w>": 7810,
      "environ": 7811,
      "igu": 7812,
      "jects</w>": 7813,
      "Santa</w>": 7814,
      "”.</w>": 7815,
      "off</w>": 7816,
      "Te": 7817,
      "writ": 7818,
      "idi": 7819,
      "itor</w>": 7820,
      "Bal": 7821,
      "vimento</w>": 7822,
      "Hotéis</w>": 7823,
      "live</w>": 7824,
      "lista</w>": 7825,
      "toda</w>": 7826,
      "down</w>": 7827,
      "mol": 7828,
      "tas": 7829,
      "sing</w>": 7830,
      "ement": 7831,
      "provides</w>": 7832,
      "below</w>": 7833,
      "scre": 7834,
      "etes</w>": 7835,
      "key</w>": 7836,
      "non</w>": 7837,
      "arly</w>": 7838,
      "price</w>": 7839,
      "bene": 7840,
      "ck</w>": 7841,
      "tis</w>": 7842,
      "fuer": 7843,
      "Españ": 7844,
      "several</w>": 7845,
      "reduc": 7846,
      "”,</w>": 7847,
      "pou": 7848,
      "precios</w>": 7849,
      "alizado</w>": 7850,
      "burg</w>": 7851,
      "Um</w>": 7852,
      "portun": 7853,
      "quer": 7854,
      "cles</w>": 7855,
      "London</w>": 7856,
      "Fam": 7857,
      "ret": 7858,
      "curso</w>": 7859,
      "vers</w>": 7860,
      "ár": 7861,
      "video</w>": 7862,
      "Más</w>": 7863,
      "mar</w>": 7864,
      "them": 7865,
      "Ele</w>": 7866,
      "dial</w>": 7867,
      "yec": 7868,
      "ene</w>": 7869,
      "bus</w>": 7870,
      "exclus": 7871,
      "Ind": 7872,
      "til": 7873,
      "iones</w>": 7874,
      "aim": 7875,
      "prob": 7876,
      "Ed": 7877,
      "AM": 7878,
      "Cer": 7879,
      "comes</w>": 7880,
      "Information</w>": 7881,
      "aspec": 7882,
      "15": 7883,
      "finan": 7884,
      "pes</w>": 7885,
      "another</w>": 7886,
      "cis": 7887,
      "diz": 7888,
      "grav": 7889,
      "mant": 7890,
      "flex": 7891,
      "som": 7892,
      "garanti": 7893,
      "bum</w>": 7894,
      "línea</w>": 7895,
      "Barcelona</w>": 7896,
      "favor</w>": 7897,
      "aqui</w>": 7898,
      "IT": 7899,
      "ross</w>": 7900,
      "application</w>": 7901,
      "still</w>": 7902,
      "intro": 7903,
      "lhe</w>": 7904,
      "minutos</w>": 7905,
      "tecnolog": 7906,
      "Pi": 7907,
      "personas</w>": 7908,
      "tudo</w>": 7909,
      "maj": 7910,
      "created</w>": 7911,
      "computer</w>": 7912,
      "ote</w>": 7913,
      "ize</w>": 7914,
      "esp": 7915,
      "ward</w>": 7916,
      "ners</w>": 7917,
      "fy</w>": 7918,
      "dar</w>": 7919,
      "conce": 7920,
      "sil": 7921,
      "har": 7922,
      "state</w>": 7923,
      "tual</w>": 7924,
      "contribu": 7925,
      "ell": 7926,
      "Pron": 7927,
      "Casa</w>": 7928,
      "Mer": 7929,
      "ved</w>": 7930,
      "every": 7931,
      "things</w>": 7932,
      "imin": 7933,
      "ques</w>": 7934,
      "nuestro</w>": 7935,
      "mismo</w>": 7936,
      "marketing</w>": 7937,
      "due</w>": 7938,
      "mes</w>": 7939,
      "entas</w>": 7940,
      "países</w>": 7941,
      "confir": 7942,
      "gran</w>": 7943,
      "few</w>": 7944,
      "At</w>": 7945,
      "research</w>": 7946,
      "nossa</w>": 7947,
      "dias</w>": 7948,
      "adem": 7949,
      "subs": 7950,
      "Aero": 7951,
      "fotos</w>": 7952,
      "configur": 7953,
      "ized</w>": 7954,
      "test</w>": 7955,
      "cle</w>": 7956,
      "pis": 7957,
      "Ir": 7958,
      "efec": 7959,
      "poli": 7960,
      "dor": 7961,
      "View</w>": 7962,
      "uary</w>": 7963,
      "trabaj": 7964,
      "similar</w>": 7965,
      "invol": 7966,
      "adequ": 7967,
      "etos</w>": 7968,
      "Jesus</w>": 7969,
      "link</w>": 7970,
      "les": 7971,
      "studies</w>": 7972,
      "evalu": 7973,
      "PC</w>": 7974,
      "eci": 7975,
      "nossos</w>": 7976,
      "naveg": 7977,
      "ha": 7978,
      "divers": 7979,
      "Pesquis": 7980,
      "problemas</w>": 7981,
      "itch": 7982,
      "abilidade</w>": 7983,
      "resist": 7984,
      "Gar": 7985,
      "perí": 7986,
      "ern": 7987,
      "Tor": 7988,
      "cess</w>": 7989,
      "vai</w>": 7990,
      "tratamento</w>": 7991,
      "responsi": 7992,
      "proporcion": 7993,
      "soft</w>": 7994,
      "ake</w>": 7995,
      "food</w>": 7996,
      "production</w>": 7997,
      "compon": 7998,
      "tamentos</w>": 7999,
      "cuenta</w>": 8000,
      "negoci": 8001,
      "Vol": 8002,
      "map</w>": 8003,
      "im</w>": 8004,
      "Europe</w>": 8005,
      "human</w>": 8006,
      "cess": 8007,
      "mico</w>": 8008,
      "Nuev": 8009,
      "visitors</w>": 8010,
      "assim</w>": 8011,
      "tit": 8012,
      "impres": 8013,
      "Cosas</w>": 8014,
      "Har": 8015,
      "pag": 8016,
      "senti": 8017,
      "lic": 8018,
      "National</w>": 8019,
      "mai": 8020,
      "Cur": 8021,
      "better</w>": 8022,
      "oto</w>": 8023,
      "eja</w>": 8024,
      "tric</w>": 8025,
      "close</w>": 8026,
      "Service</w>": 8027,
      "aining</w>": 8028,
      "têm</w>": 8029,
      "visitantes</w>": 8030,
      "bo</w>": 8031,
      "vities</w>": 8032,
      "vido</w>": 8033,
      "ancia</w>": 8034,
      "seja</w>": 8035,
      "acor": 8036,
      "mercado</w>": 8037,
      "games</w>": 8038,
      "France</w>": 8039,
      "fort</w>": 8040,
      "sug": 8041,
      "always</w>": 8042,
      "ford</w>": 8043,
      "tax": 8044,
      "onic</w>": 8045,
      "mental</w>": 8046,
      "2012</w>": 8047,
      "Isra": 8048,
      "program</w>": 8049,
      "North</w>": 8050,
      "casos</w>": 8051,
      "team</w>": 8052,
      "town</w>": 8053,
      "incluindo</w>": 8054,
      "tin</w>": 8055,
      "Jul": 8056,
      "tre</w>": 8057,
      "defini": 8058,
      "identific": 8059,
      "deli": 8060,
      "second</w>": 8061,
      "include</w>": 8062,
      "Restaurant</w>": 8063,
      "performance</w>": 8064,
      "ly": 8065,
      "tan</w>": 8066,
      "partments</w>": 8067,
      "nós</w>": 8068,
      "cost</w>": 8069,
      "previ": 8070,
      "ños</w>": 8071,
      "love</w>": 8072,
      "tido</w>": 8073,
      "instrum": 8074,
      "Prin": 8075,
      "retur": 8076,
      "VI": 8077,
      "poder</w>": 8078,
      "nacion": 8079,
      "atro</w>": 8080,
      "23</w>": 8081,
      "Bri": 8082,
      "tres</w>": 8083,
      "Travel</w>": 8084,
      "Sam": 8085,
      "grandes</w>": 8086,
      "fas": 8087,
      "ket</w>": 8088,
      "ciudad</w>": 8089,
      "ology</w>": 8090,
      "University</w>": 8091,
      "Spain</w>": 8092,
      "extre": 8093,
      "fabric": 8094,
      "ecast</w>": 8095,
      "ledge</w>": 8096,
      "Dev": 8097,
      "Your</w>": 8098,
      "vul": 8099,
      "word</w>": 8100,
      "classi": 8101,
      "ering</w>": 8102,
      "Fre": 8103,
      "rid</w>": 8104,
      "flo": 8105,
      "satis": 8106,
      "provided</w>": 8107,
      "servicio</w>": 8108,
      "religi": 8109,
      "risk</w>": 8110,
      "amig": 8111,
      "alquil": 8112,
      "Brazil</w>": 8113,
      "Tim": 8114,
      "stor": 8115,
      "competi": 8116,
      "version</w>": 8117,
      "liber": 8118,
      "Hom": 8119,
      "Lis": 8120,
      "fácil</w>": 8121,
      "ash</w>": 8122,
      "expec": 8123,
      "const": 8124,
      "recomend": 8125,
      "nuevo</w>": 8126,
      "específic": 8127,
      "pil": 8128,
      "idge</w>": 8129,
      "eget": 8130,
      "16": 8131,
      "estiv": 8132,
      "adap": 8133,
      "users</w>": 8134,
      "acu": 8135,
      "Ham": 8136,
      "novo</w>": 8137,
      "EU": 8138,
      "mg</w>": 8139,
      "padr": 8140,
      "adul": 8141,
      "serviço</w>": 8142,
      "igr": 8143,
      "alguns</w>": 8144,
      "Encontr": 8145,
      "market</w>": 8146,
      "elas</w>": 8147,
      "rica</w>": 8148,
      "ening</w>": 8149,
      "ier": 8150,
      "expres": 8151,
      "valu": 8152,
      "particular</w>": 8153,
      "purpos": 8154,
      "hal": 8155,
      "lities</w>": 8156,
      "mac": 8157,
      "urch</w>": 8158,
      "pequ": 8159,
      "account</w>": 8160,
      "dedic": 8161,
      "guar": 8162,
      "28</w>": 8163,
      "estad": 8164,
      "receiv": 8165,
      "ads</w>": 8166,
      "away</w>": 8167,
      "Al</w>": 8168,
      "Na</w>": 8169,
      "processo</w>": 8170,
      "ho": 8171,
      "upos</w>": 8172,
      "adamente</w>": 8173,
      "labor": 8174,
      "example</w>": 8175,
      "São</w>": 8176,
      "next</w>": 8177,
      "color</w>": 8178,
      "Jun": 8179,
      "necessary</w>": 8180,
      "work": 8181,
      "fice</w>": 8182,
      "Có": 8183,
      "put</w>": 8184,
      "King": 8185,
      "box</w>": 8186,
      "eleg": 8187,
      "DE</w>": 8188,
      "coment": 8189,
      "empresas</w>": 8190,
      "outro</w>": 8191,
      "Apar": 8192,
      "detail": 8193,
      "mud": 8194,
      "sci": 8195,
      "genes</w>": 8196,
      "Wi": 8197,
      "position</w>": 8198,
      "ampl": 8199,
      "text</w>": 8200,
      "altern": 8201,
      "Cli": 8202,
      "John</w>": 8203,
      "Air</w>": 8204,
      "primeiro</w>": 8205,
      "AL</w>": 8206,
      "ayud": 8207,
      "onia</w>": 8208,
      "single</w>": 8209,
      "maz": 8210,
      "ib": 8211,
      "productos</w>": 8212,
      "independ": 8213,
      "cy": 8214,
      "Sw": 8215,
      "clo": 8216,
      "eram</w>": 8217,
      "elimin": 8218,
      "countries</w>": 8219,
      "Saint</w>": 8220,
      "Cat": 8221,
      "voc": 8222,
      "aza</w>": 8223,
      "create</w>": 8224,
      "wood</w>": 8225,
      "ination</w>": 8226,
      "law</w>": 8227,
      "Tu": 8228,
      "cina</w>": 8229,
      "detec": 8230,
      "texto</w>": 8231,
      "Bas": 8232,
      "ros</w>": 8233,
      "means</w>": 8234,
      "Dom": 8235,
      "enfer": 8236,
      "compro": 8237,
      "llev": 8238,
      "rights</w>": 8239,
      "CI": 8240,
      "seguin": 8241,
      "tradi": 8242,
      "ame": 8243,
      "terior</w>": 8244,
      "wide</w>": 8245,
      "minu": 8246,
      "General</w>": 8247,
      "Gal": 8248,
      "Deus</w>": 8249,
      "legal</w>": 8250,
      "Tri": 8251,
      "Hum": 8252,
      "fís": 8253,
      "Andro": 8254,
      "Face": 8255,
      "alizar</w>": 8256,
      "Photos</w>": 8257,
      "Gl": 8258,
      "demos</w>": 8259,
      "Oc": 8260,
      "given</w>": 8261,
      "until</w>": 8262,
      "vezes</w>": 8263,
      "pública</w>": 8264,
      "Alem": 8265,
      "arri": 8266,
      "Reviews</w>": 8267,
      "eric": 8268,
      "Mex": 8269,
      "oras</w>": 8270,
      "By</w>": 8271,
      "ola</w>": 8272,
      "global</w>": 8273,
      "arden</w>": 8274,
      "Bur": 8275,
      "hes</w>": 8276,
      "Wat": 8277,
      "ean</w>": 8278,
      "lar</w>": 8279,
      "heiro</w>": 8280,
      "196": 8281,
      "Manag": 8282,
      "easy</w>": 8283,
      "ais": 8284,
      "whe": 8285,
      "brow": 8286,
      "Jos": 8287,
      "concentr": 8288,
      "agora</w>": 8289,
      "plas": 8290,
      "eded</w>": 8291,
      "Evol": 8292,
      "Arg": 8293,
      "permiti": 8294,
      "archivo</w>": 8295,
      "features</w>": 8296,
      "ME": 8297,
      "working</w>": 8298,
      "entre": 8299,
      "sour": 8300,
      "opini": 8301,
      "mer</w>": 8302,
      "clin": 8303,
      "estion</w>": 8304,
      "Uma</w>": 8305,
      "test": 8306,
      "Span": 8307,
      "joy</w>": 8308,
      "sens": 8309,
      "Sy": 8310,
      "Tem": 8311,
      "Det": 8312,
      "analysis</w>": 8313,
      "fel": 8314,
      "mi</w>": 8315,
      "três</w>": 8316,
      "America</w>": 8317,
      "ground</w>": 8318,
      "give</w>": 8319,
      "decor": 8320,
      "ench</w>": 8321,
      "arquivo</w>": 8322,
      "distin": 8323,
      "Sur": 8324,
      "domin": 8325,
      "sendo</w>": 8326,
      "famili": 8327,
      "culo</w>": 8328,
      "cases</w>": 8329,
      "gas": 8330,
      "possibil": 8331,
      "From</w>": 8332,
      "any": 8333,
      "Expl": 8334,
      "St</w>": 8335,
      "looking</w>": 8336,
      "Facebook</w>": 8337,
      "Rio</w>": 8338,
      "Roy": 8339,
      "lon": 8340,
      "zin": 8341,
      "party</w>": 8342,
      "debe</w>": 8343,
      "poin": 8344,
      "ex</w>": 8345,
      "porto</w>": 8346,
      "Mag": 8347,
      "mó": 8348,
      "possível</w>": 8349,
      "trabajo</w>": 8350,
      "vidade</w>": 8351,
      "mess": 8352,
      "specific</w>": 8353,
      "ister</w>": 8354,
      "ological</w>": 8355,
      "Central</w>": 8356,
      "26</w>": 8357,
      "demon": 8358,
      "areas</w>": 8359,
      "ria</w>": 8360,
      "arte</w>": 8361,
      "Flor": 8362,
      "cover</w>": 8363,
      "media</w>": 8364,
      "increase</w>": 8365,
      "Pen": 8366,
      "ner": 8367,
      "acesso</w>": 8368,
      "desenvolvimento</w>": 8369,
      "ez": 8370,
      "vec": 8371,
      "declar": 8372,
      "tados</w>": 8373,
      "range</w>": 8374,
      "ict</w>": 8375,
      "comprar</w>": 8376,
      "víde": 8377,
      "communic": 8378,
      "Cro": 8379,
      "umin": 8380,
      "course</w>": 8381,
      "valor</w>": 8382,
      "ôn": 8383,
      "presid": 8384,
      "icul": 8385,
      "qual</w>": 8386,
      "Amé": 8387,
      "Lo": 8388,
      "rap": 8389,
      "constitu": 8390,
      "agre": 8391,
      "visión</w>": 8392,
      "edor</w>": 8393,
      "problema</w>": 8394,
      "Dav": 8395,
      "individual</w>": 8396,
      "ília</w>": 8397,
      "modi": 8398,
      "lugares</w>": 8399,
      "idor</w>": 8400,
      "pelos</w>": 8401,
      "effects</w>": 8402,
      "forecast</w>": 8403,
      "Sim": 8404,
      "vacaciones</w>": 8405,
      "bir": 8406,
      "post</w>": 8407,
      "conec": 8408,
      "stand</w>": 8409,
      "solici": 8410,
      "exter": 8411,
      "ards</w>": 8412,
      "various</w>": 8413,
      "nuestra</w>": 8414,
      "dios</w>": 8415,
      "horas</w>": 8416,
      "ume</w>": 8417,
      "correspon": 8418,
      "crianças</w>": 8419,
      "Android</w>": 8420,
      "Press</w>": 8421,
      "imag": 8422,
      "Eu</w>": 8423,
      "egos</w>": 8424,
      "Alquil": 8425,
      "fem": 8426,
      "meio</w>": 8427,
      "famil": 8428,
      "level": 8429,
      "presente</w>": 8430,
      "boa</w>": 8431,
      "cionado</w>": 8432,
      "music</w>": 8433,
      "person</w>": 8434,
      "groups</w>": 8435,
      "become</w>": 8436,
      "period</w>": 8437,
      "aco</w>": 8438,
      "pronunci": 8439,
      "Phone</w>": 8440,
      "according</w>": 8441,
      "entras</w>": 8442,
      "ocup": 8443,
      "posição</w>": 8444,
      "usa</w>": 8445,
      "phys": 8446,
      "bres</w>": 8447,
      "depois</w>": 8448,
      "embro</w>": 8449,
      "metros</w>": 8450,
      "zo</w>": 8451,
      "Elec": 8452,
      "systems</w>": 8453,
      "click</w>": 8454,
      "Comp": 8455,
      "hou</w>": 8456,
      "acordo</w>": 8457,
      "Aut": 8458,
      "Center</w>": 8459,
      "superior</w>": 8460,
      "llo</w>": 8461,
      "rup": 8462,
      "80</w>": 8463,
      "result</w>": 8464,
      "relev": 8465,
      "tras": 8466,
      "seguir</w>": 8467,
      "activities</w>": 8468,
      "address</w>": 8469,
      "período</w>": 8470,
      "ículos</w>": 8471,
      "AS</w>": 8472,
      "changes</w>": 8473,
      "current</w>": 8474,
      "stre": 8475,
      "sistemas</w>": 8476,
      "Services</w>": 8477,
      "jos</w>": 8478,
      "Sp": 8479,
      "Program": 8480,
      "ideal</w>": 8481,
      "tienen</w>": 8482,
      "ror</w>": 8483,
      "utilizar</w>": 8484,
      "addition</w>": 8485,
      "cheapest</w>": 8486,
      "knowledge</w>": 8487,
      "rer</w>": 8488,
      "tely</w>": 8489,
      "adio</w>": 8490,
      "later</w>": 8491,
      "companies</w>": 8492,
      "alidad</w>": 8493,
      "left</w>": 8494,
      "TI": 8495,
      "ey": 8496,
      "ebr": 8497,
      "accommod": 8498,
      "Israel</w>": 8499,
      "mapa</w>": 8500,
      "otras</w>": 8501,
      "imiento</w>": 8502,
      "often</w>": 8503,
      "LE": 8504,
      "Commun": 8505,
      "making</w>": 8506,
      "weight</w>": 8507,
      "mad": 8508,
      "toge": 8509,
      "ester</w>": 8510,
      "Spanish</w>": 8511,
      "rest": 8512,
      "teú": 8513,
      "2015</w>": 8514,
      "Una</w>": 8515,
      "Australia</w>": 8516,
      "propos": 8517,
      "lish": 8518,
      "together</w>": 8519,
      "prefer": 8520,
      "international</w>": 8521,
      "ofertas</w>": 8522,
      "esia</w>": 8523,
      "vit": 8524,
      "sure</w>": 8525,
      "ante": 8526,
      "French</w>": 8527,
      "Cus": 8528,
      "Cali": 8529,
      "ron</w>": 8530,
      "actions</w>": 8531,
      "puerto</w>": 8532,
      "aja</w>": 8533,
      "segurança</w>": 8534,
      "Other</w>": 8535,
      "lower</w>": 8536,
      "ball</w>": 8537,
      "red": 8538,
      "ellos</w>": 8539,
      "liter": 8540,
      "blood</w>": 8541,
      "head</w>": 8542,
      "umas</w>": 8543,
      "pedi": 8544,
      "therap": 8545,
      "management</w>": 8546,
      "xico</w>": 8547,
      "llam": 8548,
      "Gol": 8549,
      "Aqu": 8550,
      "Rem": 8551,
      "TE": 8552,
      "yo</w>": 8553,
      "itu": 8554,
      "Tele": 8555,
      "law": 8556,
      "medio</w>": 8557,
      "ither</w>": 8558,
      "endly</w>": 8559,
      "auto": 8560,
      "terms</w>": 8561,
      "back": 8562,
      "heart</w>": 8563,
      "start</w>": 8564,
      "Un</w>": 8565,
      "atten": 8566,
      "might</w>": 8567,
      "aver": 8568,
      "Sil": 8569,
      "Vir": 8570,
      "State</w>": 8571,
      "aves</w>": 8572,
      "días</w>": 8573,
      "auti": 8574,
      "segundo</w>": 8575,
      "cional</w>": 8576,
      "erry</w>": 8577,
      "needs</w>": 8578,
      "isti": 8579,
      "grow": 8580,
      "wee": 8581,
      "2010</w>": 8582,
      "azo</w>": 8583,
      "nas": 8584,
      "ella</w>": 8585,
      "Lan": 8586,
      "duas</w>": 8587,
      "language</w>": 8588,
      "ras</w>": 8589,
      "project</w>": 8590,
      "lock</w>": 8591,
      "Hist": 8592,
      "detal": 8593,
      "27</w>": 8594,
      "TA</w>": 8595,
      "ule</w>": 8596,
      "ning": 8597,
      "adver": 8598,
      "oral</w>": 8599,
      "Italy</w>": 8600,
      "options</w>": 8601,
      "transfer": 8602,
      "industr": 8603,
      "Do": 8604,
      "active</w>": 8605,
      "central</w>": 8606,
      "initi": 8607,
      "West</w>": 8608,
      "ON</w>": 8609,
      "ota</w>": 8610,
      "ios</w>": 8611,
      "others</w>": 8612,
      "fit</w>": 8613,
      "Reino</w>": 8614,
      "ously</w>": 8615,
      "UN": 8616,
      "artic": 8617,
      "oto": 8618,
      "series</w>": 8619,
      "nuestros</w>": 8620,
      "nombre</w>": 8621,
      "camin": 8622,
      "Men": 8623,
      "Island</w>": 8624,
      "pack": 8625,
      "2013</w>": 8626,
      "Coo": 8627,
      "primeira</w>": 8628,
      "audi": 8629,
      "common</w>": 8630,
      "estra</w>": 8631,
      "Er": 8632,
      "consist": 8633,
      "dades</w>": 8634,
      "grupos</w>": 8635,
      "Ben": 8636,
      "ani": 8637,
      "lion</w>": 8638,
      "having</w>": 8639,
      "exemplo</w>": 8640,
      "Dr": 8641,
      "zona</w>": 8642,
      "ác": 8643,
      "visit</w>": 8644,
      "Moun": 8645,
      "ank</w>": 8646,
      "cover": 8647,
      "conduc": 8648,
      "bien</w>": 8649,
      "echos</w>": 8650,
      "Comments</w>": 8651,
      "arding</w>": 8652,
      "dates</w>": 8653,
      "board</w>": 8654,
      "consu": 8655,
      "Vo": 8656,
      "2011</w>": 8657,
      "Tel": 8658,
      "Bul": 8659,
      "rece</w>": 8660,
      "calidad</w>": 8661,
      "digital</w>": 8662,
      "manera</w>": 8663,
      "viaje</w>": 8664,
      "tipos</w>": 8665,
      "máqu": 8666,
      "fil</w>": 8667,
      "hours</w>": 8668,
      "ni</w>": 8669,
      "nome</w>": 8670,
      "sempre</w>": 8671,
      "tom</w>": 8672,
      "cru": 8673,
      "incluy": 8674,
      "Información</w>": 8675,
      "eather</w>": 8676,
      "minutes</w>": 8677,
      "Lim": 8678,
      "member</w>": 8679,
      "política</w>": 8680,
      "hand</w>": 8681,
      "cheg": 8682,
      "clín": 8683,
      "ams</w>": 8684,
      "Site</w>": 8685,
      "radi": 8686,
      "value</w>": 8687,
      "aire</w>": 8688,
      "adicion": 8689,
      "TH": 8690,
      "lab": 8691,
      "Rob": 8692,
      "osas</w>": 8693,
      "éfon": 8694,
      "security</w>": 8695,
      "sufici": 8696,
      "tent": 8697,
      "core</w>": 8698,
      "semana</w>": 8699,
      "México</w>": 8700,
      "amientos</w>": 8701,
      "ído</w>": 8702,
      "Hy": 8703,
      "ística</w>": 8704,
      "Stu": 8705,
      "considered</w>": 8706,
      "condições</w>": 8707,
      "associated</w>": 8708,
      "Blu": 8709,
      "consum": 8710,
      "Priv": 8711,
      "peso</w>": 8712,
      "employ": 8713,
      "Quando</w>": 8714,
      "dol": 8715,
      "agua</w>": 8716,
      "My</w>": 8717,
      "peque": 8718,
      "atis</w>": 8719,
      "aquí</w>": 8720,
      "ur</w>": 8721,
      "relacionados</w>": 8722,
      "ving</w>": 8723,
      "descar": 8724,
      "atory</w>": 8725,
      "four</w>": 8726,
      "América</w>": 8727,
      "caf": 8728,
      "proce": 8729,
      "pris": 8730,
      "começ": 8731,
      "avam</w>": 8732,
      "direct</w>": 8733,
      "mel": 8734,
      "ills</w>": 8735,
      "words</w>": 8736,
      "discus": 8737,
      "manufac": 8738,
      "sw": 8739,
      "TR": 8740,
      "2014</w>": 8741,
      "complete</w>": 8742,
      "above</w>": 8743,
      "Ni": 8744,
      "private</w>": 8745,
      "Pop": 8746,
      "lin</w>": 8747,
      "bras</w>": 8748,
      "univers": 8749,
      "45</w>": 8750,
      "Pas": 8751,
      "nical</w>": 8752,
      "irm": 8753,
      "She</w>": 8754,
      "Gran": 8755,
      "erve</w>": 8756,
      "mitted</w>": 8757,
      "aero": 8758,
      "terap": 8759,
      "aily</w>": 8760,
      "Web": 8761,
      "space</w>": 8762,
      "mm</w>": 8763,
      "spo": 8764,
      "mayor</w>": 8765,
      "ac</w>": 8766,
      "aring</w>": 8767,
      "quare</w>": 8768,
      "dou": 8769,
      "anda</w>": 8770,
      "IP</w>": 8771,
      "Use</w>": 8772,
      "thy</w>": 8773,
      "disease</w>": 8774,
      "ala</w>": 8775,
      "médico</w>": 8776,
      "Jer": 8777,
      "aé": 8778,
      "needed</w>": 8779,
      "Clu": 8780,
      "sun": 8781,
      "queda</w>": 8782,
      "oung</w>": 8783,
      "recursos</w>": 8784,
      "Fi</w>": 8785,
      "ño</w>": 8786,
      "Bol": 8787,
      "Vac": 8788,
      "diseño</w>": 8789,
      "choose</w>": 8790,
      "ony</w>": 8791,
      "ltd</w>": 8792,
      "anced</w>": 8793,
      "establish": 8794,
      "Presid": 8795,
      "ought</w>": 8796,
      "papel</w>": 8797,
      "ajus": 8798,
      "history</w>": 8799,
      "só</w>": 8800,
      "2008</w>": 8801,
      "prac": 8802,
      "meses</w>": 8803,
      "heres</w>": 8804,
      "Sys": 8805,
      "ágenes</w>": 8806,
      "histór": 8807,
      "micro": 8808,
      "Ctrip</w>": 8809,
      "Stre": 8810,
      "ming</w>": 8811,
      "recommen": 8812,
      "property</w>": 8813,
      "rate</w>": 8814,
      "conteú": 8815,
      "compañ": 8816,
      "edades</w>": 8817,
      "conveni": 8818,
      "ven</w>": 8819,
      "monit": 8820,
      "building</w>": 8821,
      "Cab": 8822,
      "jug": 8823,
      "truc": 8824,
      "emente</w>": 8825,
      "ambiente</w>": 8826,
      "members</w>": 8827,
      "luz</w>": 8828,
      "experiência</w>": 8829,
      "Kingdom</w>": 8830,
      "professional</w>": 8831,
      "35</w>": 8832,
      "lot</w>": 8833,
      "29</w>": 8834,
      "Mis": 8835,
      "Design</w>": 8836,
      "otro</w>": 8837,
      "going</w>": 8838,
      "there": 8839,
      "Itali": 8840,
      "Pres": 8841,
      "aus": 8842,
      "campo</w>": 8843,
      "hon": 8844,
      "arm</w>": 8845,
      "ark</w>": 8846,
      "normal</w>": 8847,
      "gos": 8848,
      "Chr": 8849,
      "escri": 8850,
      "Evoline</w>": 8851,
      "aumento</w>": 8852,
      "Cómo</w>": 8853,
      "cad": 8854,
      "interpre": 8855,
      "prove</w>": 8856,
      "tice</w>": 8857,
      "ators</w>": 8858,
      "ules</w>": 8859,
      "sale</w>": 8860,
      "nível</w>": 8861,
      "eder": 8862,
      "demonstr": 8863,
      "deste</w>": 8864,
      "ofrece</w>": 8865,
      "Microsoft</w>": 8866,
      "estern</w>": 8867,
      "night</w>": 8868,
      "ículo</w>": 8869,
      "ech</w>": 8870,
      "Hu": 8871,
      "edores</w>": 8872,
      "ague</w>": 8873,
      "Grand</w>": 8874,
      "door</w>": 8875,
      "frut": 8876,
      "cí": 8877,
      "higher</w>": 8878,
      "again</w>": 8879,
      "fueron</w>": 8880,
      "ID": 8881,
      "economic</w>": 8882,
      "dam": 8883,
      "akfast</w>": 8884,
      "included</w>": 8885,
      "inglés</w>": 8886,
      "Data</w>": 8887,
      "digo</w>": 8888,
      "Argent": 8889,
      "gest</w>": 8890,
      "eras</w>": 8891,
      "levels</w>": 8892,
      "Add</w>": 8893,
      "technology</w>": 8894,
      "procur": 8895,
      "directly</w>": 8896,
      "cres": 8897,
      "already</w>": 8898,
      "música</w>": 8899,
      "erta</w>": 8900,
      "lam": 8901,
      "special</w>": 8902,
      "ops</w>": 8903,
      "too</w>": 8904,
      "wer": 8905,
      "Manu": 8906,
      "show": 8907,
      "wards</w>": 8908,
      "Car</w>": 8909,
      "objetivo</w>": 8910,
      "comod": 8911,
      "além</w>": 8912,
      "AR</w>": 8913,
      "designs</w>": 8914,
      "compos": 8915,
      "resultado</w>": 8916,
      "99": 8917,
      "Sto": 8918,
      "improv": 8919,
      "prove": 8920,
      "bajo</w>": 8921,
      "espa": 8922,
      "ung": 8923,
      "ions</w>": 8924,
      "Melh": 8925,
      "activity</w>": 8926,
      "Madrid</w>": 8927,
      "East</w>": 8928,
      "Portugu": 8929,
      "Fu": 8930,
      "España</w>": 8931,
      "ajes</w>": 8932,
      "atório</w>": 8933,
      "olic</w>": 8934,
      "hem": 8935,
      "cot": 8936,
      "coming</w>": 8937,
      "suf": 8938,
      "produção</w>": 8939,
      "água</w>": 8940,
      "ast": 8941,
      "Pág": 8942,
      "vic": 8943,
      "hid": 8944,
      "algo</w>": 8945,
      "Fotos</w>": 8946,
      "ordin": 8947,
      "physical</w>": 8948,
      "liza</w>": 8949,
      "embargo</w>": 8950,
      "ustrial</w>": 8951,
      "enter": 8952,
      "Sub": 8953,
      "disponível</w>": 8954,
      "share</w>": 8955,
      "temporada</w>": 8956,
      "interest</w>": 8957,
      "assist": 8958,
      "film</w>": 8959,
      "child</w>": 8960,
      "government</w>": 8961,
      "Tech": 8962,
      "cois": 8963,
      "desem": 8964,
      "fully</w>": 8965,
      "Ros": 8966,
      "list": 8967,
      "irá</w>": 8968,
      "Bar</w>": 8969,
      "disso</w>": 8970,
      "taking</w>": 8971,
      "Germany</w>": 8972,
      "ementos</w>": 8973,
      "experim": 8974,
      "70</w>": 8975,
      "ático</w>": 8976,
      "Sing": 8977,
      "estre": 8978,
      "Tw": 8979,
      "cut": 8980,
      "él</w>": 8981,
      "quanti": 8982,
      "plan</w>": 8983,
      "ster": 8984,
      "ferram": 8985,
      "Ty": 8986,
      "Le</w>": 8987,
      "Cour": 8988,
      "precis": 8989,
      "modelo</w>": 8990,
      "but": 8991,
      "acción</w>": 8992,
      "problems</w>": 8993,
      "early</w>": 8994,
      "óstico</w>": 8995,
      "Please</w>": 8996,
      "achi": 8997,
      "designed</w>": 8998,
      "Pic": 8999,
      "pool</w>": 9000,
      "Unido</w>": 9001,
      "today</w>": 9002,
      "Arch": 9003,
      "difficul": 9004,
      "ged</w>": 9005,
      "unca</w>": 9006,
      "size</w>": 9007,
      "2007</w>": 9008,
      "proced": 9009,
      "ights</w>": 9010,
      "ín</w>": 9011,
      "ared</w>": 9012,
      "Nova</w>": 9013,
      "kets</w>": 9014,
      "His</w>": 9015,
      "entanto</w>": 9016,
      "lav": 9017,
      "ização</w>": 9018,
      "center</w>": 9019,
      "qué</w>": 9020,
      "tiz": 9021,
      "jogo</w>": 9022,
      "ority</w>": 9023,
      "problem</w>": 9024,
      "éfono</w>": 9025,
      "então</w>": 9026,
      "style</w>": 9027,
      "Con</w>": 9028,
      "31</w>": 9029,
      "Qué</w>": 9030,
      "electrón": 9031,
      "USD</w>": 9032,
      "hace</w>": 9033,
      "Lux": 9034,
      "Ten": 9035,
      "busca</w>": 9036,
      "ial</w>": 9037,
      "capital</w>": 9038,
      "ami</w>": 9039,
      "little</w>": 9040,
      "spec": 9041,
      "ane</w>": 9042,
      "perten": 9043,
      "eve</w>": 9044,
      "anz": 9045,
      "iza</w>": 9046,
      "once</w>": 9047,
      "along</w>": 9048,
      "ap</w>": 9049,
      "shows</w>": 9050,
      "estudos</w>": 9051,
      "benef": 9052,
      "ld": 9053,
      "Sou": 9054,
      "inning</w>": 9055,
      "nova</w>": 9056,
      "tour": 9057,
      "195": 9058,
      "perto</w>": 9059,
      "ayuda</w>": 9060,
      "bol</w>": 9061,
      "Soci": 9062,
      "berg</w>": 9063,
      "programas</w>": 9064,
      "Spr": 9065,
      "check</w>": 9066,
      "carri": 9067,
      "había</w>": 9068,
      "device</w>": 9069,
      "keep</w>": 9070,
      "mentos</w>": 9071,
      "muj": 9072,
      "months</w>": 9073,
      "students</w>": 9074,
      "presented</w>": 9075,
      "read</w>": 9076,
      "land": 9077,
      "ulas</w>": 9078,
      "So</w>": 9079,
      "Encuentra</w>": 9080,
      "enos</w>": 9081,
      "aco": 9082,
      "eum</w>": 9083,
      "places</w>": 9084,
      "please</w>": 9085,
      "internet</w>": 9086,
      "compre": 9087,
      "ética</w>": 9088,
      "ue": 9089,
      "fim</w>": 9090,
      "análise</w>": 9091,
      "receive</w>": 9092,
      "AB": 9093,
      "gra": 9094,
      "infr": 9095,
      "Aug": 9096,
      "Mul": 9097,
      "ization</w>": 9098,
      "Indi": 9099,
      "Out": 9100,
      "icional</w>": 9101,
      "aca</w>": 9102,
      "white</w>": 9103,
      "Fri": 9104,
      "eos</w>": 9105,
      "orio</w>": 9106,
      "complet": 9107,
      "sta</w>": 9108,
      "formação</w>": 9109,
      "americ": 9110,
      "interven": 9111,
      "Dios</w>": 9112,
      "jour": 9113,
      "ugh": 9114,
      "PD": 9115,
      "ña</w>": 9116,
      "enquanto</w>": 9117,
      "review</w>": 9118,
      "model</w>": 9119,
      "gol": 9120,
      "Internacional</w>": 9121,
      "allows</w>": 9122,
      "esco": 9123,
      "Nueva</w>": 9124,
      "ij": 9125,
      "jur": 9126,
      "alto</w>": 9127,
      "Sci": 9128,
      "fee</w>": 9129,
      "32</w>": 9130,
      "Selec": 9131,
      "CA</w>": 9132,
      "energy</w>": 9133,
      "Bud": 9134,
      "proyec": 9135,
      "idores</w>": 9136,
      "notific": 9137,
      "Ba": 9138,
      "ider</w>": 9139,
      "Além</w>": 9140,
      "Met": 9141,
      "cidos</w>": 9142,
      "aixo</w>": 9143,
      "14": 9144,
      "ains</w>": 9145,
      "origin": 9146,
      "SE": 9147,
      "gradu": 9148,
      "Compar": 9149,
      "County</w>": 9150,
      "Contro": 9151,
      "especially</w>": 9152,
      "community</w>": 9153,
      "Is</w>": 9154,
      "histor": 9155,
      "certain</w>": 9156,
      "foo": 9157,
      "ayer</w>": 9158,
      "seguridad</w>": 9159,
      "Book</w>": 9160,
      "2009</w>": 9161,
      "ahora</w>": 9162,
      "informação</w>": 9163,
      "purch": 9164,
      "Sin": 9165,
      "Health</w>": 9166,
      "90</w>": 9167,
      "MS</w>": 9168,
      "saber</w>": 9169,
      "estrut": 9170,
      "resour": 9171,
      "strateg": 9172,
      "Bat": 9173,
      "tern</w>": 9174,
      "Villa</w>": 9175,
      "required</w>": 9176,
      "evolu": 9177,
      "Tour": 9178,
      "orial</w>": 9179,
      "respos": 9180,
      "cuer": 9181,
      "tivas</w>": 9182,
      "innov": 9183,
      "profes": 9184,
      "ert</w>": 9185,
      "analy": 9186,
      "function</w>": 9187,
      "fit": 9188,
      "formul": 9189,
      "fact</w>": 9190,
      "carro</w>": 9191,
      "simple</w>": 9192,
      "Go": 9193,
      "Wal": 9194,
      "viajes</w>": 9195,
      "ced</w>": 9196,
      "relation": 9197,
      "wel": 9198,
      "formas</w>": 9199,
      "máxim": 9200,
      "Word": 9201,
      "ubic": 9202,
      "aning</w>": 9203,
      "Room</w>": 9204,
      "insul": 9205,
      "juego</w>": 9206,
      "Az": 9207,
      "muitos</w>": 9208,
      "nutri": 9209,
      "Su</w>": 9210,
      "taken</w>": 9211,
      "network</w>": 9212,
      "Dll</w>": 9213,
      "primera</w>": 9214,
      "Nacional</w>": 9215,
      "preven": 9216,
      "ãos</w>": 9217,
      "week</w>": 9218,
      "heal": 9219,
      "screen</w>": 9220,
      "ength</w>": 9221,
      "customers</w>": 9222,
      "ofrec": 9223,
      "standing</w>": 9224,
      "ister": 9225,
      "depen": 9226,
      "Show</w>": 9227,
      "oferece</w>": 9228,
      "Fol": 9229,
      "icamente</w>": 9230,
      "estilo</w>": 9231,
      "Dr</w>": 9232,
      "abilidad</w>": 9233,
      "ised</w>": 9234,
      "ille</w>": 9235,
      "jeto</w>": 9236,
      "recib": 9237,
      "say</w>": 9238,
      "equipment</w>": 9239,
      "promoções</w>": 9240,
      "school</w>": 9241,
      "coloc": 9242,
      "effici": 9243,
      "demás</w>": 9244,
      "avi": 9245,
      "ails</w>": 9246,
      "Mc": 9247,
      "tomar</w>": 9248,
      "emia</w>": 9249,
      "actual</w>": 9250,
      "acerca</w>": 9251,
      "érias</w>": 9252,
      "ibles</w>": 9253,
      "tian</w>": 9254,
      "subject</w>": 9255,
      "character": 9256,
      "Weather</w>": 9257,
      "ería</w>": 9258,
      "gir": 9259,
      "hospit": 9260,
      "ítica</w>": 9261,
      "beb": 9262,
      "bour": 9263,
      "aft</w>": 9264,
      "Centro</w>": 9265,
      "ky</w>": 9266,
      "anabol</w>": 9267,
      "events</w>": 9268,
      "mary</w>": 9269,
      "recor": 9270,
      "eses</w>": 9271,
      "Din": 9272,
      "conta</w>": 9273,
      "future</w>": 9274,
      "extension</w>": 9275,
      "education</w>": 9276,
      "autiful</w>": 9277,
      "ign": 9278,
      "affec": 9279,
      "became</w>": 9280,
      "happ": 9281,
      "ff": 9282,
      "anti</w>": 9283,
      "populares</w>": 9284,
      "facilities</w>": 9285,
      "particul": 9286,
      "Blo": 9287,
      "interior</w>": 9288,
      "veh": 9289,
      "population</w>": 9290,
      "vas": 9291,
      "significant</w>": 9292,
      "cro": 9293,
      "certific": 9294,
      "Mac": 9295,
      "infl": 9296,
      "training</w>": 9297,
      "apo": 9298,
      "Dianabol</w>": 9299,
      "idd": 9300,
      "ligh": 9301,
      "deix": 9302,
      "orden": 9303,
      "estion": 9304,
      "alla</w>": 9305,
      "tained</w>": 9306,
      "major</w>": 9307,
      "Vic": 9308,
      "Up": 9309,
      "enças</w>": 9310,
      "ically</w>": 9311,
      "neas</w>": 9312,
      "hou": 9313,
      "maneira</w>": 9314,
      "Educ": 9315,
      "Sin</w>": 9316,
      "tron": 9317,
      "posible</w>": 9318,
      "upon</w>": 9319,
      "Gi": 9320,
      "Tre": 9321,
      "gratis</w>": 9322,
      "risco</w>": 9323,
      "incorpor": 9324,
      "agrad": 9325,
      "yet</w>": 9326,
      "instruc": 9327,
      "Paulo</w>": 9328,
      "diagnos": 9329,
      "Estado</w>": 9330,
      "Organ": 9331,
      "top": 9332,
      "iu</w>": 9333,
      "omas</w>": 9334,
      "dres</w>": 9335,
      "hacia</w>": 9336,
      "yer</w>": 9337,
      "makes</w>": 9338,
      "negó": 9339,
      "áreas</w>": 9340,
      "infer": 9341,
      "lux": 9342,
      "perfect</w>": 9343,
      "comerci": 9344,
      "conform": 9345,
      "evid": 9346,
      "geral</w>": 9347,
      "sian</w>": 9348,
      "That</w>": 9349,
      "cionar</w>": 9350,
      "tradu": 9351,
      "patient</w>": 9352,
      "ajudá</w>": 9353,
      "cliente</w>": 9354,
      "Francis": 9355,
      "empre</w>": 9356,
      "celebr": 9357,
      "developed</w>": 9358,
      "ading</w>": 9359,
      "star</w>": 9360,
      "OR</w>": 9361,
      "living</w>": 9362,
      "200</w>": 9363,
      "500</w>": 9364,
      "put": 9365,
      "val</w>": 9366,
      "mal</w>": 9367,
      "endas</w>": 9368,
      "solution</w>": 9369,
      "zir</w>": 9370,
      "ema</w>": 9371,
      "prev": 9372,
      "efic": 9373,
      "arg": 9374,
      "destin": 9375,
      "region</w>": 9376,
      "ason</w>": 9377,
      "otel</w>": 9378,
      "cord": 9379,
      "death</w>": 9380,
      "mientras</w>": 9381,
      "teach": 9382,
      "deman": 9383,
      "Chin": 9384,
      "transform": 9385,
      "Econ": 9386,
      "think</w>": 9387,
      "LI": 9388,
      "oportun": 9389,
      "mulheres</w>": 9390,
      "fundam": 9391,
      "También</w>": 9392,
      "Doc": 9393,
      "role</w>": 9394,
      "atus</w>": 9395,
      "ette</w>": 9396,
      "Cri": 9397,
      "far</w>": 9398,
      "precisa</w>": 9399,
      "never</w>": 9400,
      "disponíveis</w>": 9401,
      "ália</w>": 9402,
      "palav": 9403,
      "CA": 9404,
      "único</w>": 9405,
      "disponibil": 9406,
      "app</w>": 9407,
      "atem": 9408,
      "adol": 9409,
      "unos</w>": 9410,
      "An</w>": 9411,
      "ending</w>": 9412,
      "veget": 9413,
      "emb": 9414,
      "really</w>": 9415,
      "Group</w>": 9416,
      "aer": 9417,
      "tratamiento</w>": 9418,
      "holiday</w>": 9419,
      "fat": 9420,
      "Den": 9421,
      "ced": 9422,
      "buy</w>": 9423,
      "Net": 9424,
      "kind</w>": 9425,
      "tulo</w>": 9426,
      "usando</w>": 9427,
      "esqu": 9428,
      "PE": 9429,
      "mir": 9430,
      "muitas</w>": 9431,
      "DE": 9432,
      "ki</w>": 9433,
      "Download</w>": 9434,
      "dad": 9435,
      "dej": 9436,
      "sele": 9437,
      "cida</w>": 9438,
      "sional</w>": 9439,
      "precio</w>": 9440,
      "Cris": 9441,
      "2006</w>": 9442,
      "tools</w>": 9443,
      "conex": 9444,
      "avaliações</w>": 9445,
      "principais</w>": 9446,
      "cómo</w>": 9447,
      "fort": 9448,
      "otra</w>": 9449,
      "marca</w>": 9450,
      "details</w>": 9451,
      "CH": 9452,
      "revel": 9453,
      "equipo</w>": 9454,
      "front</w>": 9455,
      "questions</w>": 9456,
      "nada</w>": 9457,
      "ags</w>": 9458,
      "sam": 9459,
      "diver": 9460,
      "Argentina</w>": 9461,
      "maioria</w>": 9462,
      "sões</w>": 9463,
      "encial</w>": 9464,
      "efici": 9465,
      "arian</w>": 9466,
      "Read</w>": 9467,
      "público</w>": 9468,
      "IV</w>": 9469,
      "gia</w>": 9470,
      "conjunto</w>": 9471,
      "territ": 9472,
      "nature</w>": 9473,
      "Nav": 9474,
      "obter</w>": 9475,
      "Log": 9476,
      "mec": 9477,
      "13": 9478,
      "cir</w>": 9479,
      "Inst": 9480,
      "características</w>": 9481,
      "Forum</w>": 9482,
      "Mem": 9483,
      "term</w>": 9484,
      "utiliza</w>": 9485,
      "numer": 9486,
      "Bou": 9487,
      "jetos</w>": 9488,
      "até": 9489,
      "preços</w>": 9490,
      "received</w>": 9491,
      "wind": 9492,
      "five</w>": 9493,
      "travel": 9494,
      "skin</w>": 9495,
      "Nos": 9496,
      "migr": 9497,
      "Francisco</w>": 9498,
      "exclusiv": 9499,
      "dado</w>": 9500,
      "Londres</w>": 9501,
      "última</w>": 9502,
      "conteúdo</w>": 9503,
      "nenh": 9504,
      "syn": 9505,
      "antly</w>": 9506,
      "estava</w>": 9507,
      "tioning</w>": 9508,
      "Tro": 9509,
      "jud": 9510,
      "cause</w>": 9511,
      "machine</w>": 9512,
      "Mas</w>": 9513,
      "pergun": 9514,
      "Ins": 9515,
      "German</w>": 9516,
      "valores</w>": 9517,
      "cinco</w>": 9518,
      "Vene": 9519,
      "subst": 9520,
      "especialmente</w>": 9521,
      "Games</w>": 9522,
      "espaci": 9523,
      "cou</w>": 9524,
      "ejo</w>": 9525,
      "Costa</w>": 9526,
      "minim": 9527,
      "Lat": 9528,
      "alizada</w>": 9529,
      "faz</w>": 9530,
      "RS</w>": 9531,
      "nosotros</w>": 9532,
      "especial</w>": 9533,
      "wid": 9534,
      "High</w>": 9535,
      "throom</w>": 9536,
      "terr": 9537,
      "transporte</w>": 9538,
      "controle</w>": 9539,
      "Fir": 9540,
      "ural</w>": 9541,
      "veloci": 9542,
      "either</w>": 9543,
      "cho</w>": 9544,
      "Vacation</w>": 9545,
      "Ao</w>": 9546,
      "nunca</w>": 9547,
      "echan": 9548,
      "dispositivo</w>": 9549,
      "ograph": 9550,
      "tot": 9551,
      "values</w>": 9552,
      "zar</w>": 9553,
      "rio</w>": 9554,
      "ejemplo</w>": 9555,
      "tais</w>": 9556,
      "facil": 9557,
      "computador</w>": 9558,
      "importantes</w>": 9559,
      "orias</w>": 9560,
      "Some</w>": 9561,
      "improve</w>": 9562,
      "Califor": 9563,
      "Now</w>": 9564,
      "event</w>": 9565,
      "ancer</w>": 9566,
      "ional</w>": 9567,
      "algumas</w>": 9568,
      "card</w>": 9569,
      "Apartments</w>": 9570,
      "shown</w>": 9571,
      "oud</w>": 9572,
      "stop</w>": 9573,
      "effect</w>": 9574,
      "Bos": 9575,
      "implement": 9576,
      "my": 9577,
      "amoun": 9578,
      "pin": 9579,
      "cultural</w>": 9580,
      "avaliação</w>": 9581,
      "hand": 9582,
      "ilton</w>": 9583,
      "podemos</w>": 9584,
      "produto</w>": 9585,
      "however</w>": 9586,
      "section</w>": 9587,
      "completo</w>": 9588,
      "fica</w>": 9589,
      "clinical</w>": 9590,
      "bul": 9591,
      "incid": 9592,
      "visu": 9593,
      "allow</w>": 9594,
      "primer</w>": 9595,
      "environment</w>": 9596,
      "Club</w>": 9597,
      "links</w>": 9598,
      "manten": 9599,
      "ul</w>": 9600,
      "vários</w>": 9601,
      "esis</w>": 9602,
      "dies</w>": 9603,
      "tér": 9604,
      "señ": 9605,
      "194": 9606,
      "Mel": 9607,
      "sed</w>": 9608,
      "Places</w>": 9609,
      "exig": 9610,
      "estud": 9611,
      "UR": 9612,
      "ío</w>": 9613,
      "conserv": 9614,
      "conhecimento</w>": 9615,
      "California</w>": 9616,
      "ment": 9617,
      "complic": 9618,
      "Condi": 9619,
      "Africa</w>": 9620,
      "enjoy</w>": 9621,
      "responsible</w>": 9622,
      "Dig": 9623,
      "Spa</w>": 9624,
      "dice</w>": 9625,
      "wa": 9626,
      "cicl": 9627,
      "Page</w>": 9628,
      "exce": 9629,
      "recep": 9630,
      "Last</w>": 9631,
      "gente</w>": 9632,
      "ential</w>": 9633,
      "epis": 9634,
      "óp": 9635,
      "add</w>": 9636,
      "milit": 9637,
      "tish</w>": 9638,
      "Pesquise</w>": 9639,
      "Lou": 9640,
      "PS</w>": 9641,
      "pay": 9642,
      "bility</w>": 9643,
      "WordPress</w>": 9644,
      "sionais</w>": 9645,
      "Lord</w>": 9646,
      "compati": 9647,
      "completa</w>": 9648,
      "India</w>": 9649,
      "calend": 9650,
      "Janeiro</w>": 9651,
      "terce": 9652,
      "policy</w>": 9653,
      "%.</w>": 9654,
      "partil": 9655,
      "Click</w>": 9656,
      "loss</w>": 9657,
      "Str": 9658,
      "ee</w>": 9659,
      "Cham": 9660,
      "quartos</w>": 9661,
      "sim</w>": 9662,
      "ip": 9663,
      "correo</w>": 9664,
      "ensure</w>": 9665,
      "daily</w>": 9666,
      "áticas</w>": 9667,
      "yl": 9668,
      "May</w>": 9669,
      "difí": 9670,
      "longo</w>": 9671,
      "família</w>": 9672,
      "Great</w>": 9673,
      "born</w>": 9674,
      "nit": 9675,
      "Cho": 9676,
      "occu": 9677,
      "flec": 9678,
      "sou": 9679,
      "Dic": 9680,
      "simpl": 9681,
      "Cuando</w>": 9682,
      "arias</w>": 9683,
      "Hor": 9684,
      "tation</w>": 9685,
      "image</w>": 9686,
      "limi": 9687,
      "anca</w>": 9688,
      "uras</w>": 9689,
      "hol</w>": 9690,
      "cardi": 9691,
      "Sep": 9692,
      "Vide": 9693,
      "Black</w>": 9694,
      "rest</w>": 9695,
      "took</w>": 9696,
      "technical</w>": 9697,
      "cos": 9698,
      "mucho</w>": 9699,
      "privaci": 9700,
      "statis": 9701,
      "cannot</w>": 9702,
      "voos</w>": 9703,
      "Ke": 9704,
[...]
