{
  "version": "1.0",
  "truncation": null,
  "padding": null,
  "added_tokens": [
    {
      "id": 0,
      "content": "<PAD>",
      "single_word": false,
      "lstrip": false,
      "rstrip": false,
      "normalized": false,
      "special": true
    },
    {
      "id": 1,
      "content": "<UNK>",
      "single_word": false,
      "lstrip": false,
      "rstrip": false,
      "normalized": false,
      "special": true
    },
    {
      "id": 2,
      "content": "<CLS>",
      "single_word": false,
      "lstrip": false,
      "rstrip": false,
      "normalized": false,
      "special": true
    },
    {
      "id": 3,
      "content": "<SEP>",
      "single_word": false,
      "lstrip": false,
      "rstrip": false,
      "normalized": false,
      "special": true
    },
    {
      "id": 4,
      "content": "<MASK>",
      "single_word": false,
      "lstrip": false,
      "rstrip": false,
      "normalized": false,
      "special": true
    },
    {
      "id": 5,
      "content": "<BOS>",
      "single_word": false,
      "lstrip": false,
      "rstrip": false,
      "normalized": false,
      "special": true
    },
    {
      "id": 6,
      "content": "<EOS>",
      "single_word": false,
      "lstrip": false,
      "rstrip": false,
      "normalized": false,
      "special": true
    }
  ],
  "normalizer": null,
  "pre_tokenizer": {
    "type": "Whitespace"
  },
  "post_processor": {
    "type": "TemplateProcessing",
    "single": [
      {
        "SpecialToken": {
          "id": "<BOS>",
          "type_id": 0
        }
      },
      {
        "Sequence": {
          "id": "A",
          "type_id": 0
        }
      },
      {
        "SpecialToken": {
          "id": "<EOS>",
          "type_id": 0
        }
      }
    ],
    "pair": [
      {
        "SpecialToken": {
          "id": "<BOS>",
          "type_id": 0
        }
      },
      {
        "Sequence": {
          "id": "A",
          "type_id": 0
        }
      },
      {
        "SpecialToken": {
          "id": "<SEP>",
          "type_id": 0
        }
      },
      {
        "Sequence": {
          "id": "B",
          "type_id": 1
        }
      },
      {
        "SpecialToken": {
          "id": "<EOS>",
          "type_id": 1
        }
      }
    ],
    "special_tokens": {
      "<BOS>": {
        "id": "<BOS>",
        "ids": [
          5
        ],
        "tokens": [
          "<BOS>"
        ]
      },
      "<EOS>": {
        "id": "<EOS>",
        "ids": [
          6
        ],
        "tokens": [
          "<EOS>"
        ]
      },
      "<SEP>": {
        "id": "<SEP>",
        "ids": [
          3
        ],
        "tokens": [
          "<SEP>"
        ]
      }
    }
  },
  "decoder": {
    "type": "BPEDecoder",
    "suffix": "</w>"
  },
  "model": {
    "type": "BPE",
    "dropout": null,
    "unk_token": "<UNK>",
    "continuing_subword_prefix": null,
    "end_of_word_suffix": "</w>",
    "fuse_unk": false,
    "byte_fallback": false,
    "ignore_merges": false,
    "vocab": {
      "<PAD>": 0,
      "<UNK>": 1,
      "<CLS>": 2,
      "<SEP>": 3,
      "<MASK>": 4,
      "<BOS>": 5,
      "<EOS>": 6,
      "!": 7,
      "\"": 8,
      "#": 9,
      "$": 10,
      "%": 11,
      "'": 12,
      "(": 13,
      ")": 14,
      "*": 15,
      "+": 16,
      ",": 17,
      "-": 18,
      ".": 19,
      "/": 20,
      "0": 21,
      "1": 22,
      "2": 23,
      "3": 24,
      "4": 25,
      "5": 26,
      "6": 27,
      "7": 28,
      "8": 29,
      "9": 30,
      ":": 31,
      ";": 32,
      "=": 33,
      "?": 34,
      "@": 35,
      "A": 36,
      "B": 37,
      "C": 38,
      "D": 39,
      "E": 40,
      "F": 41,
      "G": 42,
      "H": 43,
      "I": 44,
      "J": 45,
      "K": 46,
      "L": 47,
      "M": 48,
      "N": 49,
      "O": 50,
      "P": 51,
      "Q": 52,
      "R": 53,
      "S": 54,
      "T": 55,
      "U": 56,
      "V": 57,
      "W": 58,
      "X": 59,
      "Y": 60,
      "Z": 61,
      "[": 62,
      "\\": 63,
      "]": 64,
      "^": 65,
      "_": 66,
      "`": 67,
      "a": 68,
      "b": 69,
      "c": 70,
      "d": 71,
      "e": 72,
      "f": 73,
      "g": 74,
      "h": 75,
      "i": 76,
      "j": 77,
      "k": 78,
      "l": 79,
      "m": 80,
      "n": 81,
      "o": 82,
      "p": 83,
      "q": 84,
      "r": 85,
      "s": 86,
      "t": 87,
      "u": 88,
      "v": 89,
      "w": 90,
      "x": 91,
      "y": 92,
      "z": 93,
      "{": 94,
      "|": 95,
      "}": 96,
      "~": 97,
      "": 98,
      "": 99,
      "": 100,
      "": 101,
      "": 102,
      "": 103,
      "": 104,
      "": 105,
      "": 106,
      "": 107,
      "": 108,
      "": 109,
      "": 110,
      "": 111,
      "": 112,
      "": 113,
      "": 114,
      "": 115,
      "": 116,
      "": 117,
      "": 118,
      "": 119,
      "": 120,
      "": 121,
      "¡": 122,
      "¢": 123,
      "£": 124,
      "¤": 125,
      "¥": 126,
      "¦": 127,
      "§": 128,
      "¨": 129,
      "©": 130,
      "ª": 131,
      "¬": 132,
      "­": 133,
      "®": 134,
      "¯": 135,
      "°": 136,
      "±": 137,
      "²": 138,
      "³": 139,
      "´": 140,
      "µ": 141,
      "¶": 142,
      "·": 143,
      "¸": 144,
      "¹": 145,
      "º": 146,
      "¼": 147,
      "½": 148,
      "¾": 149,
      "¿": 150,
      "À": 151,
      "Á": 152,
      "Â": 153,
      "Ã": 154,
      "Ä": 155,
      "Å": 156,
      "Ç": 157,
      "È": 158,
      "É": 159,
      "Ê": 160,
      "Ë": 161,
      "Ì": 162,
      "Í": 163,
      "Î": 164,
      "Ï": 165,
      "Ð": 166,
      "Ñ": 167,
      "Ò": 168,
      "Ó": 169,
      "Ô": 170,
      "Ö": 171,
      "×": 172,
      "Ø": 173,
      "Ú": 174,
      "Ý": 175,
      "ß": 176,
      "à": 177,
      "á": 178,
      "â": 179,
      "ã": 180,
      "ä": 181,
      "å": 182,
      "æ": 183,
      "ç": 184,
      "è": 185,
      "é": 186,
      "ê": 187,
      "ë": 188,
      "ì": 189,
      "í": 190,
      "î": 191,
      "ï": 192,
      "ð": 193,
      "ñ": 194,
      "ò": 195,
      "ó": 196,
      "ô": 197,
      "õ": 198,
      "ö": 199,
      "ø": 200,
      "ù": 201,
      "ú": 202,
      "û": 203,
      "ü": 204,
      "ý": 205,
      "þ": 206,
      "ÿ": 207,
      "ā": 208,
      "ă": 209,
      "ć": 210,
      "č": 211,
      "ď": 212,
      "ē": 213,
      "ė": 214,
      "ę": 215,
      "ě": 216,
      "Ī": 217,
      "ī": 218,
      "İ": 219,
      "ı": 220,
      "ł": 221,
      "ń": 222,
      "ň": 223,
      "ō": 224,
      "ő": 225,
      "Œ": 226,
      "œ": 227,
      "ř": 228,
      "ś": 229,
      "ŝ": 230,
      "Ş": 231,
      "ş": 232,
      "š": 233,
      "ũ": 234,
      "ů": 235,
      "ű": 236,
      "ź": 237,
      "ż": 238,
      "ž": 239,
      "ƒ": 240,
      "ư": 241,
      "ʼ": 242,
      "ˆ": 243,
      "̶": 244,
      "΄": 245,
      "Ώ": 246,
      "Α": 247,
      "Β": 248,
      "Ε": 249,
      "Η": 250,
      "Ι": 251,
      "Κ": 252,
      "Μ": 253,
      "Ν": 254,
      "Τ": 255,
      "Υ": 256,
      "έ": 257,
      "ή": 258,
      "α": 259,
      "β": 260,
      "δ": 261,
      "ε": 262,
      "η": 263,
      "ι": 264,
      "κ": 265,
      "μ": 266,
      "ν": 267,
      "ο": 268,
      "ρ": 269,
      "ς": 270,
      "σ": 271,
      "τ": 272,
      "υ": 273,
      "ϊ": 274,
      "ό": 275,
      "ώ": 276,
      "Ї": 277,
      "Ј": 278,
      "Ў": 279,
      "А": 280,
      "В": 281,
      "Й": 282,
      "М": 283,
      "Н": 284,
      "О": 285,
      "Р": 286,
      "С": 287,
      "Т": 288,
      "У": 289,
      "Ъ": 290,
      "а": 291,
      "б": 292,
      "в": 293,
      "г": 294,
      "д": 295,
      "е": 296,
      "ж": 297,
      "з": 298,
      "и": 299,
      "й": 300,
      "л": 301,
      "м": 302,
      "н": 303,
      "о": 304,
      "п": 305,
      "р": 306,
      "с": 307,
      "т": 308,
      "у": 309,
      "х": 310,
      "ъ": 311,
      "ы": 312,
      "ь": 313,
      "ё": 314,
      "є": 315,
      "ї": 316,
      "ј": 317,
      "њ": 318,
      "ў": 319,
      "Ґ": 320,
      "ґ": 321,
      "ב": 322,
      "י": 323,
      "ب": 324,
      "ـ": 325,
      "م": 326,
      "ن": 327,
      "و": 328,
      "ى": 329,
      "ي": 330,
      "ٌ": 331,
      "ُ": 332,
      "ٹ": 333,
      "ڑ": 334,
      "ẞ": 335,
      "ạ": 336,
      "​": 337,
      "‎": 338,
      "‐": 339,
      "‒": 340,
      "–": 341,
      "—": 342,
      "―": 343,
      "‚": 344,
      "†": 345,
      "•": 346,
      "‪": 347,
      "‬": 348,
      "‭": 349,
      "‰": 350,
      "₤": 351,
      "₩": 352,
      "€": 353,
      "№": 354,
      "™": 355,
      "Ω": 356,
      "⅔": 357,
      "≥": 358,
      "─": 359,
      "│": 360,
      "●": 361,
      "☻": 362,
      "♪": 363,
      "♫": 364,
      "抎": 365,
      "抯": 366,
      "抰": 367,
      "檛": 368,
      "瀽": 369,
      "炄": 370,
      "郀": 371,
      "鈥": 372,
      "": 373,
      "ﬁ": 374,
      "ﬂ": 375,
      "﻿": 376,
      "￡": 377,
      "￩": 378,
      "�": 379,
      "m</w>": 380,
      "h</w>": 381,
      "n</w>": 382,
      "s</w>": 383,
      "o</w>": 384,
      "a</w>": 385,
      "r</w>": 386,
      "l</w>": 387,
      "k</w>": 388,
      "9</w>": 389,
      "g</w>": 390,
      "y</w>": 391,
      "e</w>": 392,
      "x</w>": 393,
      "¶</w>": 394,
      "t</w>": 395,
      "ê</w>": 396,
      "f</w>": 397,
      "d</w>": 398,
      "u</w>": 399,
      "7</w>": 400,
      "á</w>": 401,
      "i</w>": 402,
      "w</w>": 403,
      "[</w>": 404,
      "8</w>": 405,
      "º</w>": 406,
      "c</w>": 407,
      "ē</w>": 408,
      "ó</w>": 409,
      "õ</w>": 410,
      "p</w>": 411,
      "$</w>": 412,
      "0</w>": 413,
      "æ</w>": 414,
      "b</w>": 415,
      "š</w>": 416,
      "α</w>": 417,
      "3</w>": 418,
      "í</w>": 419,
      "?</w>": 420,
      "é</w>": 421,
      "6</w>": 422,
      "z</w>": 423,
      "v</w>": 424,
      "ã</w>": 425,
      "â</w>": 426,
      ".</w>": 427,
      "5</w>": 428,
      "à</w>": 429,
      "4</w>": 430,
      "е</w>": 431,
      "j</w>": 432,
      "q</w>": 433,
      "\"</w>": 434,
      "1</w>": 435,
      "2</w>": 436,
      "è</w>": 437,
      "ï</w>": 438,
      "œ</w>": 439,
      ",</w>": 440,
      "(</w>": 441,
      "¬</w>": 442,
      "/</w>": 443,
      "¾</w>": 444,
      "ô</w>": 445,
      "ι</w>": 446,
      "ú</w>": 447,
      "ò</w>": 448,
      "р</w>": 449,
      "X</w>": 450,
      ";</w>": 451,
      "ª</w>": 452,
      "!</w>": 453,
      "'</w>": 454,
      "ō</w>": 455,
      "%</w>": 456,
      "*</w>": 457,
      "ø</w>": 458,
      "Ä</w>": 459,
      "ö</w>": 460,
      "</w>": 461,
      "а</w>": 462,
      "_</w>": 463,
      "î</w>": 464,
      "у</w>": 465,
      "≥</w>": 466,
      "]</w>": 467,
      "ä</w>": 468,
      "-</w>": 469,
      "#</w>": 470,
      "Υ</w>": 471,
      "½</w>": 472,
      "м</w>": 473,
      "²</w>": 474,
      ":</w>": 475,
      "Y</w>": 476,
      "ž</w>": 477,
      "Ç</w>": 478,
      "ü</w>": 479,
      "•</w>": 480,
      "°</w>": 481,
      "O</w>": 482,
      "T</w>": 483,
      "ù</w>": 484,
      "و</w>": 485,
      "ό</w>": 486,
      "Ï</w>": 487,
      "ο</w>": 488,
      "ç</w>": 489,
      "‎</w>": 490,
      "т</w>": 491,
      "</w>": 492,
      "À</w>": 493,
      "¹</w>": 494,
      "~</w>": 495,
      "</w>": 496,
      "‬</w>": 497,
      "י</w>": 498,
      "S</w>": 499,
      "—</w>": 500,
      "♪</w>": 501,
      "¡</w>": 502,
      "¯</w>": 503,
      "ì</w>": 504,
      "ð</w>": 505,
      "ß</w>": 506,
      ")</w>": 507,
      "</w>": 508,
      "\\</w>": 509,
      "ű</w>": 510,
      "¦</w>": 511,
      "ë</w>": 512,
      "в</w>": 513,
      "=</w>": 514,
      "@</w>": 515,
      "û</w>": 516,
      "³</w>": 517,
      "г</w>": 518,
      "R</w>": 519,
      "U</w>": 520,
      "G</w>": 521,
      "Ó</w>": 522,
      "ý</w>": 523,
      "Α</w>": 524,
      "ъ</w>": 525,
      "</w>": 526,
      "</w>": 527,
      "υ</w>": 528,
      "ś</w>": 529,
      "й</w>": 530,
      "}</w>": 531,
      "​</w>": 532,
      "þ</w>": 533,
      "ī</w>": 534,
      "€</w>": 535,
      "H</w>": 536,
      "</w>": 537,
      "</w>": 538,
      "ـ</w>": 539,
      "+</w>": 540,
      "є</w>": 541,
      "ÿ</w>": 542,
      "δ</w>": 543,
      "�</w>": 544,
      "♫</w>": 545,
      "©</w>": 546,
      "</w>": 547,
      "‒</w>": 548,
      "ρ</w>": 549,
      "Â</w>": 550,
      "о</w>": 551,
      "Ý</w>": 552,
      "ę</w>": 553,
      "|</w>": 554,
      "</w>": 555,
      "̶</w>": 556,
      "`</w>": 557,
      "ڑ</w>": 558,
      "–</w>": 559,
      "ź</w>": 560,
      "ă</w>": 561,
      "Ô</w>": 562,
      "ή</w>": 563,
      "─</w>": 564,
      "ب</w>": 565,
      "Μ</w>": 566,
      "¿</w>": 567,
      "´</w>": 568,
      "å</w>": 569,
      "E</w>": 570,
      "σ</w>": 571,
      "₤</w>": 572,
      "檛</w>": 573,
      "D</w>": 574,
      "^</w>": 575,
      "Ã</w>": 576,
      "Í</w>": 577,
      "ς</w>": 578,
      "¢</w>": 579,
      "¼</w>": 580,
      "V</w>": 581,
      "¥</w>": 582,
      "ñ</w>": 583,
      "µ</w>": 584,
      "N</w>": 585,
      "£</w>": 586,
      "م</w>": 587,
      "Ñ</w>": 588,
      "ٹ</w>": 589,
      "</w>": 590,
      "￡</w>": 591,
      "</w>": 592,
      "</w>": 593,
      "抰</w>": 594,
      "ạ</w>": 595,
      "</w>": 596,
      "È</w>": 597,
      "</w>": 598,
      "I</w>": 599,
      "Ê</w>": 600,
      "―</w>": 601,
      "‪</w>": 602,
      "±</w>": 603,
      "ь</w>": 604,
      "C</w>": 605,
      "‭</w>": 606,
      "‰</w>": 607,
      "</w>": 608,
      "®</w>": 609,
      "{</w>": 610,
      "Á</w>": 611,
      "§</w>": 612,
      "</w>": 613,
      "¨</w>": 614,
      "¤</w>": 615,
      "抯</w>": 616,
      "‚</w>": 617,
      "</w>": 618,
      "х</w>": 619,
      "­</w>": 620,
      "Ў</w>": 621,
      "Ω</w>": 622,
      "с</w>": 623,
      "‐</w>": 624,
      "P</w>": 625,
      "⅔</w>": 626,
      "</w>": 627,
      "Q</w>": 628,
      "ć</w>": 629,
      "·</w>": 630,
      "B</w>": 631,
      "ė</w>": 632,
      "ő</w>": 633,
      "J</w>": 634,
      "б</w>": 635,
      "L</w>": 636,
      "В</w>": 637,
      "™</w>": 638,
      "п</w>": 639,
      "Ë</w>": 640,
      "</w>": 641,
      "</w>": 642,
      "﻿</w>": 643,
      "A</w>": 644,
      "ي</w>": 645,
      "M</w>": 646,
      "W</w>": 647,
      "Й</w>": 648,
      "</w>": 649,
      "</w>": 650,
      "Z</w>": 651,
      "K</w>": 652,
      "ů</w>": 653,
      "΄</w>": 654,
      "ı</w>": 655,
      "ﬂ</w>": 656,
      "†</w>": 657,
      "抎</w>": 658,
      "</w>": 659,
      "ϊ</w>": 660,
      "ב</w>": 661,
      "郀</w>": 662,
      "№</w>": 663,
      "F</w>": 664,
      "ى</w>": 665,
      "н</w>": 666,
      "κ</w>": 667,
      "É</w>": 668,
      "●</w>": 669,
      "¸</w>": 670,
      "￩</w>": 671,
      "th": 672,
      "in": 673,
      "an": 674,
      "er": 675,
      "ar": 676,
      "qu": 677,
      "ou</w>": 678,
      "es": 679,
      "en": 680,
      "co": 681,
      "er</w>": 682,
      "to</w>": 683,
      "ão</w>": 684,
      "ou": 685,
      "el": 686,
      "do</w>": 687,
      "as</w>": 688,
      "or": 689,
      "al": 690,
      "you</w>": 691,
      "de</w>": 692,
      "que</w>": 693,
      "os</w>": 694,
      "the</w>": 695,
      "is</w>": 696,
      "is": 697,
      "me</w>": 698,
      "ar</w>": 699,
      "re": 700,
      "ha": 701,
      "or</w>": 702,
      "on": 703,
      "em</w>": 704,
      "oc": 705,
      "ing</w>": 706,
      "es</w>": 707,
      "est": 708,
      "se</w>": 709,
      "on</w>": 710,
      "it": 711,
      "ve</w>": 712,
      "no": 713,
      "ca": 714,
      "ma": 715,
      "st": 716,
      "se": 717,
      "ri": 718,
      "di": 719,
      "ocê</w>": 720,
      "não</w>": 721,
      "ra": 722,
      "ti": 723,
      "de": 724,
      "par": 725,
      "da</w>": 726,
      "at</w>": 727,
      "am": 728,
      "in</w>": 729,
      "ro": 730,
      "me": 731,
      "it</w>": 732,
      "il": 733,
      "te</w>": 734,
      "he</w>": 735,
      "ed</w>": 736,
      "ch": 737,
      "..": 738,
      "li": 739,
      "so</w>": 740,
      "um</w>": 741,
      "sa": 742,
      "ma</w>": 743,
      "...</w>": 744,
      "le": 745,
      "re</w>": 746,
      "po": 747,
      "você</w>": 748,
      "and</w>": 749,
      "ere</w>": 750,
      "gu": 751,
      "of</w>": 752,
      "en</w>": 753,
      "eu</w>": 754,
      "ia</w>": 755,
      "su": 756,
      "con": 757,
      "go": 758,
      "as": 759,
      "that</w>": 760,
      "ho": 761,
      "ic": 762,
      "ac": 763,
      "so": 764,
      "para</w>": 765,
      "le</w>": 766,
      "at": 767,
      "ir": 768,
      "un": 769,
      "im</w>": 770,
      "be</w>": 771,
      "be": 772,
      "to": 773,
      "ke</w>": 774,
      "our</w>": 775,
      "us": 776,
      "lo": 777,
      "hat</w>": 778,
      "gh": 779,
      "com": 780,
      "da": 781,
      "tr": 782,
      "te": 783,
      "uma</w>": 784,
      "go</w>": 785,
      "for</w>": 786,
      "ho</w>": 787,
      "You</w>": 788,
      "com</w>": 789,
      "he": 790,
      "ld</w>": 791,
      "fa": 792,
      "pe": 793,
      "bo": 794,
      "ver": 795,
      "ando</w>": 796,
      "out</w>": 797,
      "vi": 798,
      "ght</w>": 799,
      "ta": 800,
      "ha</w>": 801,
      "ver</w>": 802,
      "et</w>": 803,
      "now</w>": 804,
      "mu": 805,
      "ne": 806,
      "have</w>": 807,
      "pr": 808,
      "no</w>": 809,
      "here</w>": 810,
      "my</w>": 811,
      "per": 812,
      "ele</w>": 813,
      "ut</w>": 814,
      "ur": 815,
      "do": 816,
      "this</w>": 817,
      "pa": 818,
      "your</w>": 819,
      "ll</w>": 820,
      "ent": 821,
      "ell</w>": 822,
      "ab": 823,
      "an</w>": 824,
      "al</w>": 825,
      "min": 826,
      "está</w>": 827,
      "one</w>": 828,
      "ta</w>": 829,
      "ter</w>": 830,
      "we</w>": 831,
      "Não</w>": 832,
      "mp": 833,
      "na</w>": 834,
      "ve": 835,
      "ce</w>": 836,
      "ith</w>": 837,
      "ag": 838,
      "mos</w>": 839,
      "ly</w>": 840,
      "isso</w>": 841,
      "was</w>": 842,
      "si": 843,
      "all</w>": 844,
      "Eu</w>": 845,
      "ci": 846,
      "us</w>": 847,
      "am</w>": 848,
      "with</w>": 849,
      "sa</w>": 850,
      "ust</w>": 851,
      "mo": 852,
      "por</w>": 853,
      "don</w>": 854,
      "for": 855,
      "Você</w>": 856,
      "are</w>": 857,
      "ol": 858,
      "not</w>": 859,
      "mor": 860,
      "ill</w>": 861,
      "ey</w>": 862,
      "can</w>": 863,
      "ente</w>": 864,
      "amos</w>": 865,
      "ito</w>": 866,
      "la": 867,
      "wa": 868,
      "what</w>": 869,
      "know</w>": 870,
      "aqu": 871,
      "nd</w>": 872,
      "ela</w>": 873,
      "thing</w>": 874,
      "pro": 875,
      "ir</w>": 876,
      "wan": 877,
      "ther</w>": 878,
      "ora</w>": 879,
      "ul": 880,
      "car": 881,
      "fe": 882,
      "va</w>": 883,
      "ad": 884,
      "mas</w>": 885,
      "zer</w>": 886,
      "pen": 887,
      "mais</w>": 888,
      "get</w>": 889,
      "fo": 890,
      "pre": 891,
      "like</w>": 892,
      "ter": 893,
      "wh": 894,
      "ex": 895,
      "thin": 896,
      "ten": 897,
      "man": 898,
      "sh": 899,
      "him</w>": 900,
      "his</w>": 901,
      "her</w>": 902,
      "va": 903,
      "It</w>": 904,
      "ran": 905,
      "dos</w>": 906,
      "fi": 907,
      "des": 908,
      "tra": 909,
      "men": 910,
      "Qu": 911,
      "como</w>": 912,
      "mb": 913,
      "ch</w>": 914,
      "aqui</w>": 915,
      "tem</w>": 916,
      "just</w>": 917,
      "dis": 918,
      "ém</w>": 919,
      "mo</w>": 920,
      "seu</w>": 921,
      "sen": 922,
      "fic": 923,
      "na": 924,
      "about</w>": 925,
      "lu": 926,
      "co</w>": 927,
      "mar": 928,
      "up</w>": 929,
      "The</w>": 930,
      "man</w>": 931,
      "der": 932,
      "quer": 933,
      "Est": 934,
      "And</w>": 935,
      "tu": 936,
      "wor": 937,
      "ould</w>": 938,
      "ça</w>": 939,
      "ei</w>": 940,
      "muito</w>": 941,
      "ix": 942,
      "sua</w>": 943,
      "ra</w>": 944,
      "We</w>": 945,
      "there</w>": 946,
      "got</w>": 947,
      "jo": 948,
      "ru": 949,
      "but</w>": 950,
      "sso</w>": 951,
      "la</w>": 952,
      "ca</w>": 953,
      "will</w>": 954,
      "gi": 955,
      "dn</w>": 956,
      "ção</w>": 957,
      "want</w>": 958,
      "id</w>": 959,
      "meu</w>": 960,
      "vai</w>": 961,
      "king</w>": 962,
      "od</w>": 963,
      "res": 964,
      "they</w>": 965,
      "ado</w>": 966,
      "fu": 967,
      "bem</w>": 968,
      "He</w>": 969,
      "dy</w>": 970,
      "ite</w>": 971,
      "ok</w>": 972,
      "ack</w>": 973,
      "think</w>": 974,
      "fal": 975,
      "ys</w>": 976,
      "ni": 977,
      "ts</w>": 978,
      "ds</w>": 979,
      "der</w>": 980,
      "\".</w>": 981,
      "right</w>": 982,
      "gar</w>": 983,
      "way</w>": 984,
      "tão</w>": 985,
      "wn</w>": 986,
      "cor": 987,
      "st</w>": 988,
      "if</w>": 989,
      "pl": 990,
      "ser": 991,
      "cu": 992,
      "iro</w>": 993,
      "Mas</w>": 994,
      "cer": 995,
      "she</w>": 996,
      "che": 997,
      "tar</w>": 998,
      "cois": 999
    },
    "merges": [
      [
        "t",
        "h"
      ],
      [
        "i",
        "n"
      ],
      [
        "a",
        "n"
      ],
      [
        "e",
        "r"
      ],
      [
        "a",
        "r"
      ],
      [
        "q",
        "u"
      ],
      [
        "o",
        "u</w>"
      ],
      [
        "e",
        "s"
      ],
      [
        "e",
        "n"
      ],
      [
        "c",
        "o"
      ],
      [
        "e",
        "r</w>"
      ],
      [
        "t",
        "o</w>"
      ],
      [
        "ã",
        "o</w>"
      ],
      [
        "o",
        "u"
      ],
      [
        "e",
        "l"
      ],
      [
        "d",
        "o</w>"
      ],
      [
        "a",
        "s</w>"
      ],
      [
        "o",
        "r"
      ],
      [
        "a",
        "l"
      ],
      [
        "y",
        "ou</w>"
      ],
      [
        "d",
        "e</w>"
      ],
      [
        "qu",
        "e</w>"
      ],
      [
        "o",
        "s</w>"
      ],
      [
        "th",
        "e</w>"
      ],
      [
        "i",
        "s</w>"
      ],
      [
        "i",
        "s"
      ],
      [
        "m",
        "e</w>"
      ],
      [
        "a",
        "r</w>"
      ],
      [
        "r",
        "e"
      ],
      [
        "h",
        "a"
      ],
      [
        "o",
        "r</w>"
      ],
      [
        "o",
        "n"
      ],
      [
        "e",
        "m</w>"
      ],
      [
        "o",
        "c"
      ],
      [
        "in",
        "g</w>"
      ],
      [
        "e",
        "s</w>"
      ],
      [
        "es",
        "t"
      ],
      [
        "s",
        "e</w>"
      ],
      [
        "o",
        "n</w>"
      ],
      [
        "i",
        "t"
      ],
      [
        "v",
        "e</w>"
      ],
      [
        "n",
        "o"
      ],
      [
        "c",
        "a"
      ],
      [
        "m",
        "a"
      ],
      [
        "s",
        "t"
      ],
      [
        "s",
        "e"
      ],
      [
        "r",
        "i"
      ],
      [
        "d",
        "i"
      ],
      [
        "oc",
        "ê</w>"
      ],
      [
        "n",
        "ão</w>"
      ],
      [
        "r",
        "a"
      ],
      [
        "t",
        "i"
      ],
      [
        "d",
        "e"
      ],
      [
        "p",
        "ar"
      ],
      [
        "d",
        "a</w>"
      ],
      [
        "a",
        "t</w>"
      ],
      [
        "a",
        "m"
      ],
      [
        "i",
        "n</w>"
      ],
      [
        "r",
        "o"
      ],
      [
        "m",
        "e"
      ],
      [
        "i",
        "t</w>"
      ],
      [
        "i",
        "l"
      ],
      [
        "t",
        "e</w>"
      ],
      [
        "h",
        "e</w>"
      ],
      [
        "e",
        "d</w>"
      ],
      [
        "c",
        "h"
      ],
      [
        ".",
        "."
      ],
      [
        "l",
        "i"
      ],
      [
        "s",
        "o</w>"
      ],
      [
        "u",
        "m</w>"
      ],
      [
        "s",
        "a"
      ],
      [
        "m",
        "a</w>"
      ],
      [
        "..",
        ".</w>"
      ],
      [
        "l",
        "e"
      ],
      [
        "r",
        "e</w>"
      ],
      [
        "p",
        "o"
      ],
      [
        "v",
        "ocê</w>"
      ],
      [
        "an",
        "d</w>"
      ],
      [
        "er",
        "e</w>"
      ],
      [
        "g",
        "u"
      ],
      [
        "o",
        "f</w>"
      ],
      [
        "e",
        "n</w>"
      ],
      [
        "e",
        "u</w>"
      ],
      [
        "i",
        "a</w>"
      ],
      [
        "s",
        "u"
      ],
      [
        "co",
        "n"
      ],
      [
        "g",
        "o"
      ],
      [
        "a",
        "s"
      ],
      [
        "th",
        "at</w>"
      ],
      [
        "h",
        "o"
      ],
      [
        "i",
        "c"
      ],
      [
        "a",
        "c"
      ],
      [
        "s",
        "o"
      ],
      [
        "par",
        "a</w>"
      ],
      [
        "l",
        "e</w>"
      ],
      [
        "a",
        "t"
      ],
      [
        "i",
        "r"
      ],
      [
        "u",
        "n"
      ],
      [
        "i",
        "m</w>"
      ],
      [
        "b",
        "e</w>"
      ],
      [
        "b",
        "e"
      ],
      [
        "t",
        "o"
      ],
      [
        "k",
        "e</w>"
      ],
      [
        "ou",
        "r</w>"
      ],
      [
        "u",
        "s"
      ],
      [
        "l",
        "o"
      ],
      [
        "ha",
        "t</w>"
      ],
      [
        "g",
        "h"
      ],
      [
        "co",
        "m"
      ],
      [
        "d",
        "a"
      ],
      [
        "t",
        "r"
      ],
      [
        "t",
        "e"
      ],
      [
        "u",
        "ma</w>"
      ],
      [
        "g",
        "o</w>"
      ],
      [
        "f",
        "or</w>"
      ],
      [
        "h",
        "o</w>"
      ],
      [
        "Y",
        "ou</w>"
      ],
      [
        "co",
        "m</w>"
      ],
      [
        "h",
        "e"
      ],
      [
        "l",
        "d</w>"
      ],
      [
        "f",
        "a"
      ],
      [
        "p",
        "e"
      ],
      [
        "b",
        "o"
      ],
      [
        "v",
        "er"
      ],
      [
        "an",
        "do</w>"
      ],
      [
        "ou",
        "t</w>"
      ],
      [
        "v",
        "i"
      ],
      [
        "gh",
        "t</w>"
      ],
      [
        "t",
        "a"
      ],
      [
        "h",
        "a</w>"
      ],
      [
        "v",
        "er</w>"
      ],
      [
        "e",
        "t</w>"
      ],
      [
        "no",
        "w</w>"
      ],
      [
        "m",
        "u"
      ],
      [
        "n",
        "e"
      ],
      [
        "ha",
        "ve</w>"
      ],
      [
        "p",
        "r"
      ],
      [
        "n",
        "o</w>"
      ],
      [
        "h",
        "ere</w>"
      ],
      [
        "m",
        "y</w>"
      ],
      [
        "p",
        "er"
      ],
      [
        "el",
        "e</w>"
      ],
      [
        "u",
        "t</w>"
      ],
      [
        "u",
        "r"
      ],
      [
        "d",
        "o"
      ],
      [
        "th",
        "is</w>"
      ],
      [
        "p",
        "a"
      ],
      [
        "y",
        "our</w>"
      ],
      [
        "l",
        "l</w>"
      ],
      [
        "en",
        "t"
      ],
      [
        "el",
        "l</w>"
      ],
      [
        "a",
        "b"
      ],
      [
        "a",
        "n</w>"
      ],
      [
        "a",
        "l</w>"
      ],
      [
        "m",
        "in"
      ],
      [
        "est",
        "á</w>"
      ],
      [
        "on",
        "e</w>"
      ],
      [
        "t",
        "a</w>"
      ],
      [
        "t",
        "er</w>"
      ],
      [
        "w",
        "e</w>"
      ],
      [
        "N",
        "ão</w>"
      ],
      [
        "m",
        "p"
      ],
      [
        "n",
        "a</w>"
      ],
      [
        "v",
        "e"
      ],
      [
        "c",
        "e</w>"
      ],
      [
        "it",
        "h</w>"
      ],
      [
        "a",
        "g"
      ],
      [
        "m",
        "os</w>"
      ],
      [
        "l",
        "y</w>"
      ],
      [
        "is",
        "so</w>"
      ],
      [
        "w",
        "as</w>"
      ],
      [
        "s",
        "i"
      ],
      [
        "al",
        "l</w>"
      ],
      [
        "E",
        "u</w>"
      ],
      [
        "c",
        "i"
      ],
      [
        "u",
        "s</w>"
      ],
      [
        "a",
        "m</w>"
      ],
      [
        "w",
        "ith</w>"
      ],
      [
        "s",
        "a</w>"
      ],
      [
        "us",
        "t</w>"
      ],
      [
        "m",
        "o"
      ],
      [
        "p",
        "or</w>"
      ],
      [
        "d",
        "on</w>"
      ],
      [
        "f",
        "or"
      ],
      [
        "V",
        "ocê</w>"
      ],
      [
        "ar",
        "e</w>"
      ],
      [
        "o",
        "l"
      ],
      [
        "no",
        "t</w>"
      ],
      [
        "m",
        "or"
      ],
      [
        "il",
        "l</w>"
      ],
      [
        "e",
        "y</w>"
      ],
      [
        "ca",
        "n</w>"
      ],
      [
        "en",
        "te</w>"
      ],
      [
        "am",
        "os</w>"
      ],
      [
        "i",
        "to</w>"
      ],
      [
        "l",
        "a"
      ],
      [
        "w",
        "a"
      ],
      [
        "w",
        "hat</w>"
      ],
      [
        "k",
        "now</w>"
      ],
      [
        "a",
        "qu"
      ],
      [
        "n",
        "d</w>"
      ],
      [
        "el",
        "a</w>"
      ],
      [
        "th",
        "ing</w>"
      ],
      [
        "p",
        "ro"
      ],
      [
        "i",
        "r</w>"
      ],
      [
        "w",
        "an"
      ],
      [
        "th",
        "er</w>"
      ],
      [
        "or",
        "a</w>"
      ],
      [
        "u",
        "l"
      ],
      [
        "c",
        "ar"
      ],
      [
        "f",
        "e"
      ],
      [
        "v",
        "a</w>"
      ],
      [
        "a",
        "d"
      ],
      [
        "m",
        "as</w>"
      ],
      [
        "z",
        "er</w>"
      ],
      [
        "p",
        "en"
      ],
      [
        "ma",
        "is</w>"
      ],
      [
        "g",
        "et</w>"
      ],
      [
        "f",
        "o"
      ],
      [
        "p",
        "re"
      ],
      [
        "li",
        "ke</w>"
      ],
      [
        "t",
        "er"
      ],
      [
        "w",
        "h"
      ],
      [
        "e",
        "x"
      ],
      [
        "th",
        "in"
      ],
      [
        "t",
        "en"
      ],
      [
        "m",
        "an"
      ],
      [
        "s",
        "h"
      ],
      [
        "h",
        "im</w>"
      ],
      [
        "h",
        "is</w>"
      ],
      [
        "h",
        "er</w>"
      ],
      [
        "v",
        "a"
      ],
      [
        "I",
        "t</w>"
      ],
      [
        "r",
        "an"
      ],
      [
        "d",
        "os</w>"
      ],
      [
        "f",
        "i"
      ],
      [
        "d",
        "es"
      ],
      [
        "t",
        "ra"
      ],
      [
        "m",
        "en"
      ],
      [
        "Q",
        "u"
      ],
      [
        "com",
        "o</w>"
      ],
      [
        "m",
        "b"
      ],
      [
        "c",
        "h</w>"
      ],
      [
        "aqu",
        "i</w>"
      ],
      [
        "t",
        "em</w>"
      ],
      [
        "j",
        "ust</w>"
      ],
      [
        "d",
        "is"
      ],
      [
        "é",
        "m</w>"
      ],
      [
        "m",
        "o</w>"
      ],
      [
        "se",
        "u</w>"
      ],
      [
        "s",
        "en"
      ],
      [
        "f",
        "ic"
      ],
      [
        "n",
        "a"
      ],
      [
        "ab",
        "out</w>"
      ],
      [
        "l",
        "u"
      ],
      [
        "c",
        "o</w>"
      ],
      [
        "m",
        "ar"
      ],
      [
        "u",
        "p</w>"
      ],
      [
        "T",
        "he</w>"
      ],
      [
        "ma",
        "n</w>"
      ],
      [
        "d",
        "er"
      ],
      [
        "qu",
        "er"
      ],
      [
        "E",
        "st"
      ],
      [
        "A",
        "nd</w>"
      ],
      [
        "t",
        "u"
      ],
      [
        "w",
        "or"
      ],
      [
        "ou",
        "ld</w>"
      ],
      [
        "ç",
        "a</w>"
      ],
      [
        "e",
        "i</w>"
      ],
      [
        "mu",
        "ito</w>"
      ],
      [
        "i",
        "x"
      ],
      [
        "su",
        "a</w>"
      ],
      [
        "r",
        "a</w>"
      ],
      [
        "W",
        "e</w>"
      ],
      [
        "th",
        "ere</w>"
      ],
      [
        "go",
        "t</w>"
      ],
      [
        "j",
        "o"
      ],
      [
        "r",
        "u"
      ],
      [
        "b",
        "ut</w>"
      ],
      [
        "s",
        "so</w>"
      ],
      [
        "l",
        "a</w>"
      ],
      [
        "c",
        "a</w>"
      ],
      [
        "w",
        "ill</w>"
      ],
      [
        "g",
        "i"
      ],
      [
        "d",
        "n</w>"
      ],
      [
        "ç",
        "ão</w>"
      ],
      [
        "wan",
        "t</w>"
      ],
      [
        "i",
        "d</w>"
      ],
      [
        "me",
        "u</w>"
      ],
      [
        "va",
        "i</w>"
      ],
      [
        "k",
        "ing</w>"
      ],
      [
        "o",
        "d</w>"
      ],
      [
        "r",
        "es"
      ],
      [
        "th",
        "ey</w>"
      ],
      [
        "a",
        "do</w>"
      ],
      [
        "f",
        "u"
      ],
      [
        "b",
        "em</w>"
      ],
      [
        "H",
        "e</w>"
      ],
      [
        "d",
        "y</w>"
      ],
      [
        "it",
        "e</w>"
      ],
      [
        "o",
        "k</w>"
      ],
      [
        "ac",
        "k</w>"
      ],
      [
        "thin",
        "k</w>"
      ],
      [
        "f",
        "al"
      ],
      [
        "y",
        "s</w>"
      ],
      [
        "n",
        "i"
      ],
      [
        "t",
        "s</w>"
      ],
      [
        "d",
        "s</w>"
      ],
      [
        "d",
        "er</w>"
      ],
      [
        "\"",
        ".</w>"
      ],
      [
        "ri",
        "ght</w>"
      ],
      [
        "g",
        "ar</w>"
      ],
      [
        "wa",
        "y</w>"
      ],
      [
        "t",
        "ão</w>"
      ],
      [
        "w",
        "n</w>"
      ],
      [
        "co",
        "r"
      ],
      [
        "s",
        "t</w>"
      ],
      [
        "i",
        "f</w>"
      ],
      [
        "p",
        "l"
      ],
      [
        "s",
        "er"
      ],
      [
        "c",
        "u"
      ],
      [
        "ir",
        "o</w>"
      ],
      [
        "M",
        "as</w>"
      ],
      [
        "c",
        "er"
      ],
      [
        "s",
        "he</w>"
      ],
      [
        "ch",
        "e"
      ],
      [
        "t",
        "ar</w>"
      ],
      [
        "co",
        "is"
      ]
    ]
  }
}