{
  "version": "1.0",
  "truncation": null,
  "padding": null,
  "added_tokens": [
    {
      "id": 0,
      "content": "<PAD>",
      "single_word": false,
      "lstrip": false,
      "rstrip": false,
      "normalized": false,
      "special": true
    },
    {
      "id": 1,
      "content": "<UNK>",
      "single_word": false,
      "lstrip": false,
      "rstrip": false,
      "normalized": false,
      "special": true
    },
    {
      "id": 2,
      "content": "<CLS>",
      "single_word": false,
      "lstrip": false,
      "rstrip": false,
      "normalized": false,
      "special": true
    },
    {
      "id": 3,
      "content": "<SEP>",
      "single_word": false,
      "lstrip": false,
      "rstrip": false,
      "normalized": false,
      "special": true
    },
    {
      "id": 4,
      "content": "<MASK>",
      "single_word": false,
      "lstrip": false,
      "rstrip": false,
      "normalized": false,
      "special": true
    },
    {
      "id": 5,
      "content": "<BOS>",
      "single_word": false,
      "lstrip": false,
      "rstrip": false,
      "normalized": false,
      "special": true
    },
    {
      "id": 6,
      "content": "<EOS>",
      "single_word": false,
      "lstrip": false,
      "rstrip": false,
      "normalized": false,
      "special": true
    }
  ],
  "normalizer": null,
  "pre_tokenizer": {
    "type": "Whitespace"
  },
  "post_processor": {
    "type": "TemplateProcessing",
    "single": [
      {
        "SpecialToken": {
          "id": "<BOS>",
          "type_id": 0
        }
      },
      {
        "Sequence": {
          "id": "A",
          "type_id": 0
        }
      },
      {
        "SpecialToken": {
          "id": "<EOS>",
          "type_id": 0
        }
      }
    ],
    "pair": [
      {
        "SpecialToken": {
          "id": "<BOS>",
          "type_id": 0
        }
      },
      {
        "Sequence": {
          "id": "A",
          "type_id": 0
        }
      },
      {
        "SpecialToken": {
          "id": "<SEP>",
          "type_id": 0
        }
      },
      {
        "Sequence": {
          "id": "B",
          "type_id": 1
        }
      },
      {
        "SpecialToken": {
          "id": "<EOS>",
          "type_id": 1
        }
      }
    ],
    "special_tokens": {
      "<BOS>": {
        "id": "<BOS>",
        "ids": [
          5
        ],
        "tokens": [
          "<BOS>"
        ]
      },
      "<EOS>": {
        "id": "<EOS>",
        "ids": [
          6
        ],
        "tokens": [
          "<EOS>"
        ]
      },
      "<SEP>": {
        "id": "<SEP>",
        "ids": [
          3
        ],
        "tokens": [
          "<SEP>"
        ]
      }
    }
  },
  "decoder": {
    "type": "WordPiece",
    "prefix": "##",
    "cleanup": true
  },
  "model": {
    "type": "BPE",
    "dropout": null,
    "unk_token": "<UNK>",
    "continuing_subword_prefix": null,
    "end_of_word_suffix": null,
    "fuse_unk": false,
    "byte_fallback": false,
    "ignore_merges": false,
    "vocab": {
      "<PAD>": 0,
      "<UNK>": 1,
      "<CLS>": 2,
      "<SEP>": 3,
      "<MASK>": 4,
      "<BOS>": 5,
      "<EOS>": 6,
      "!": 7,
      "\"": 8,
      "#": 9,
      "$": 10,
      "%": 11,
      "'": 12,
      "(": 13,
      ")": 14,
      "*": 15,
      "+": 16,
      ",": 17,
      "-": 18,
      ".": 19,
      "/": 20,
      "0": 21,
      "1": 22,
      "2": 23,
      "3": 24,
      "4": 25,
      "5": 26,
      "6": 27,
      "7": 28,
      "8": 29,
      "9": 30,
      ":": 31,
      ";": 32,
      "=": 33,
      "?": 34,
      "@": 35,
      "A": 36,
      "B": 37,
      "C": 38,
      "D": 39,
      "E": 40,
      "F": 41,
      "G": 42,
      "H": 43,
      "I": 44,
      "J": 45,
      "K": 46,
      "L": 47,
      "M": 48,
      "N": 49,
      "O": 50,
      "P": 51,
      "Q": 52,
      "R": 53,
      "S": 54,
      "T": 55,
      "U": 56,
      "V": 57,
      "W": 58,
      "X": 59,
      "Y": 60,
      "Z": 61,
      "[": 62,
      "\\": 63,
      "]": 64,
      "^": 65,
      "_": 66,
      "`": 67,
      "a": 68,
      "b": 69,
      "c": 70,
      "d": 71,
      "e": 72,
      "f": 73,
      "g": 74,
      "h": 75,
      "i": 76,
      "j": 77,
      "k": 78,
      "l": 79,
      "m": 80,
      "n": 81,
      "o": 82,
      "p": 83,
      "q": 84,
      "r": 85,
      "s": 86,
      "t": 87,
      "u": 88,
      "v": 89,
      "w": 90,
      "x": 91,
      "y": 92,
      "z": 93,
      "{": 94,
      "|": 95,
      "}": 96,
      "~": 97,
      "": 98,
      "": 99,
      "": 100,
      "": 101,
      "": 102,
      "": 103,
      "": 104,
      "": 105,
      "": 106,
      "": 107,
      "": 108,
      "": 109,
      "": 110,
      "": 111,
      "": 112,
      "": 113,
      "": 114,
      "": 115,
      "¡": 116,
      "¢": 117,
      "£": 118,
      "¤": 119,
      "¥": 120,
      "¦": 121,
      "§": 122,
      "¨": 123,
      "©": 124,
      "ª": 125,
      "¬": 126,
      "­": 127,
      "®": 128,
      "¯": 129,
      "°": 130,
      "±": 131,
      "²": 132,
      "³": 133,
      "´": 134,
      "µ": 135,
      "¶": 136,
      "·": 137,
      "¹": 138,
      "º": 139,
      "¼": 140,
      "½": 141,
      "¾": 142,
      "¿": 143,
      "À": 144,
      "Á": 145,
      "Â": 146,
      "Ã": 147,
      "È": 148,
      "É": 149,
      "Ê": 150,
      "Í": 151,
      "Ï": 152,
      "Ñ": 153,
      "Ò": 154,
      "Ó": 155,
      "Ô": 156,
      "Ö": 157,
      "×": 158,
      "Ú": 159,
      "Ý": 160,
      "ß": 161,
      "à": 162,
      "á": 163,
      "â": 164,
      "ã": 165,
      "ä": 166,
      "å": 167,
      "æ": 168,
      "ç": 169,
      "è": 170,
      "é": 171,
      "ê": 172,
      "ë": 173,
      "ì": 174,
      "í": 175,
      "î": 176,
      "ï": 177,
      "ð": 178,
      "ñ": 179,
      "ò": 180,
      "ó": 181,
      "ô": 182,
      "õ": 183,
      "ö": 184,
      "÷": 185,
      "ø": 186,
      "ù": 187,
      "ú": 188,
      "û": 189,
      "ü": 190,
      "ý": 191,
      "þ": 192,
      "ÿ": 193,
      "ă": 194,
      "ć": 195,
      "č": 196,
      "ď": 197,
      "Đ": 198,
      "đ": 199,
      "ě": 200,
      "ī": 201,
      "İ": 202,
      "ı": 203,
      "ł": 204,
      "ń": 205,
      "ő": 206,
      "œ": 207,
      "ş": 208,
      "š": 209,
      "ť": 210,
      "ũ": 211,
      "ź": 212,
      "ž": 213,
      "ơ": 214,
      "ư": 215,
      "ǻ": 216,
      "˜": 217,
      "̥": 218,
      "̶": 219,
      "΄": 220,
      "Ώ": 221,
      "Α": 222,
      "Η": 223,
      "Ν": 224,
      "Τ": 225,
      "Υ": 226,
      "ή": 227,
      "β": 228,
      "ε": 229,
      "η": 230,
      "κ": 231,
      "μ": 232,
      "ν": 233,
      "ο": 234,
      "π": 235,
      "ρ": 236,
      "τ": 237,
      "υ": 238,
      "А": 239,
      "В": 240,
      "О": 241,
      "Т": 242,
      "а": 243,
      "в": 244,
      "е": 245,
      "з": 246,
      "и": 247,
      "й": 248,
      "м": 249,
      "н": 250,
      "о": 251,
      "п": 252,
      "р": 253,
      "с": 254,
      "т": 255,
      "у": 256,
      "х": 257,
      "є": 258,
      "ل": 259,
      "م": 260,
      "و": 261,
      "ى": 262,
      "ڑ": 263,
      "ạ": 264,
      "ả": 265,
      "ấ": 266,
      "ầ": 267,
      "ậ": 268,
      "ắ": 269,
      "ặ": 270,
      "ẽ": 271,
      "ế": 272,
      "ề": 273,
      "ể": 274,
      "ễ": 275,
      "ệ": 276,
      "ỉ": 277,
      "ị": 278,
      "ọ": 279,
      "ỏ": 280,
      "ố": 281,
      "ồ": 282,
      "ổ": 283,
      "ộ": 284,
      "ớ": 285,
      "ờ": 286,
      "ở": 287,
      "ỡ": 288,
      "ợ": 289,
      "ủ": 290,
      "ứ": 291,
      "ữ": 292,
      "ự": 293,
      "​": 294,
      "‎": 295,
      "‐": 296,
      "‒": 297,
      "–": 298,
      "—": 299,
      "―": 300,
      "‚": 301,
      "•": 302,
      "‫": 303,
      "‬": 304,
      "‭": 305,
      "‰": 306,
      "€": 307,
      "™": 308,
      "─": 309,
      "★": 310,
      "☆": 311,
      "♪": 312,
      "♫": 313,
      "嫕": 314,
      "炄": 315,
      "ﬁ": 316,
      "ﬂ": 317,
      "﻿": 318,
      "￡": 319,
      "�": 320,
      "th": 321,
      "er": 322,
      "an": 323,
      "in": 324,
      "es": 325,
      "ar": 326,
      "en": 327,
      "ou": 328,
      "as": 329,
      "or": 330,
      "to": 331,
      "de": 332,
      "on": 333,
      "qu": 334,
      "..": 335,
      "os": 336,
      "is": 337,
      "the": 338,
      "al": 339,
      "at": 340,
      "do": 341,
      "re": 342,
      "se": 343,
      "que": 344,
      "om": 345,
      "te": 346,
      "le": 347,
      "am": 348,
      "ing": 349,
      "and": 350,
      "um": 351,
      "ão": 352,
      "...": 353,
      "it": 354,
      "da": 355,
      "you": 356,
      "ve": 357,
      "of": 358,
      "ic": 359,
      "me": 360,
      "be": 361,
      "tr": 362,
      "he": 363,
      "com": 364,
      "no": 365,
      "ir": 366,
      "ha": 367,
      "ac": 368,
      "em": 369,
      "par": 370,
      "pr": 371,
      "est": 372,
      "il": 373,
      "ia": 374,
      "im": 375,
      "ent": 376,
      "so": 377,
      "el": 378,
      "us": 379,
      "oc": 380,
      "ho": 381,
      "ver": 382,
      "ed": 383,
      "for": 384,
      "that": 385,
      "un": 386,
      "ig": 387,
      "con": 388,
      "ma": 389,
      "po": 390,
      "ta": 391,
      "di": 392,
      "ter": 393,
      "para": 394,
      "sa": 395,
      "ur": 396,
      "ol": 397,
      "ut": 398,
      "li": 399,
      "por": 400,
      "wh": 401,
      "não": 402,
      "ca": 403,
      "su": 404,
      "ch": 405,
      "go": 406,
      "ere": 407,
      "uma": 408,
      "ocê": 409,
      "ad": 410,
      "pe": 411,
      "lo": 412,
      "ando": 413,
      "ra": 414,
      "ri": 415,
      "st": 416,
      "ce": 417,
      "na": 418,
      "per": 419,
      "você": 420,
      "all": 421,
      "ti": 422,
      "ke": 423,
      "ab": 424,
      "we": 425,
      "ul": 426,
      "vi": 427,
      "ld": 428,
      "ge": 429,
      "eu": 430,
      "ith": 431,
      "va": 432,
      "ci": 433,
      "ne": 434,
      "ente": 435,
      "co": 436,
      "out": 437,
      "was": 438,
      "with": 439,
      "ro": 440,
      "des": 441,
      "ant": 442,
      "der": 443,
      "la": 444,
      "fe": 445,
      "mas": 446,
      "gu": 447,
      "one": 448,
      "ion": 449,
      "ht": 450,
      "ag": 451,
      "ex": 452,
      "fr": 453,
      "ly": 454,
      "ome": 455,
      "now": 456,
      "my": 457,
      "dos": 458,
      "ould": 459,
      "your": 460,
      "fa": 461,
      "ess": 462,
      "this": 463,
      "have": 464,
      "but": 465,
      "pa": 466,
      "if": 467,
      "tem": 468,
      "pro": 469,
      "ser": 470,
      "ill": 471,
      "ele": 472,
      "man": 473,
      "ção": 474,
      "car": 475,
      "mo": 476,
      "pre": 477,
      "id": 478,
      "his": 479,
      "ight": 480,
      "her": 481,
      "ther": 482,
      "bo": 483,
      "min": 484,
      "can": 485,
      "pos": 486,
      "pen": 487,
      "ll": 488,
      "our": 489,
      "ass": 490,
      "pl": 491,
      "are": 492,
      "como": 493,
      "nd": 494,
      "mor": 495,
      "esta": 496,
      "ust": 497,
      "thing": 498,
      "ito": 499,
      "know": 500,
      "nos": 501,
      "br": 502,
      "dis": 503,
      "mu": 504,
      "up": 505,
      "some": 506,
      "gr": 507,
      "ay": 508,
      "mos": 509,
      "mais": 510,
      "use": 511,
      "not": 512,
      "amos": 513,
      "they": 514,
      "ado": 515,
      "ven": 516,
      "cor": 517,
      "zer": 518,
      "cer": 519,
      "si": 520,
      "dade": 521,
      "ela": 522,
      "cas": 523,
      "sua": 524,
      "mar": 525,
      "tra": 526,
      "gar": 527,
      "quer": 528,
      "seu": 529,
      "fic": 530,
      "ten": 531,
      "fo": 532,
      "ber": 533,
      "wor": 534,
      "ple": 535,
      "from": 536,
      "hor": 537,
      "get": 538,
      "who": 539,
      "lu": 540,
      "ate": 541,
      "ted": 542,
      "king": 543,
      "ento": 544,
      "res": 545,
      "very": 546,
      "like": 547,
      "ça": 548,
      "oug": 549,
      "bre": 550,
      "just": 551,
      "está": 552,
      "ack": 553,
      "qui": 554,
      "das": 555,
      "has": 556,
      "vo": 557,
      "way": 558,
      "wn": 559,
      "when": 560,
      "jo": 561,
      "there": 562,
      "ica": 563,
      "by": 564,
      "sh": 565,
      "will": 566,
      "tu": 567,
      "quando": 568,
      "tar": 569,
      "what": 570,
      "pes": 571,
      "col": 572,
      "tor": 573,
      "about": 574,
      "would": 575,
      "iz": 576,
      "cause": 577,
      "ind": 578,
      "vel": 579,
      "cr": 580,
      "him": 581,
      "had": 582,
      "ém": 583,
      "she": 584,
      "here": 585,
      "The": 586,
      "ix": 587,
      "don": 588,
      "ok": 589,
      "ell": 590,
      "che": 591,
      "come": 592,
      "har": 593,
      "any": 594,
      "end": 595,
      "isso": 596,
      "tro": 597,
      "ation": 598,
      "ao": 599,
      "esse": 600,
      "ora": 601,
      "ear": 602,
      "et": 603,
      "tal": 604,
      "tin": 605,
      "day": 606,
      "pode": 607,
      "vez": 608,
      "fer": 609,
      "cia": 610,
      "io": 611,
      "tos": 612,
      "ally": 613,
      "ble": 614,
      "ast": 615,
      "mes": 616,
      "ist": 617,
      "ões": 618,
      "ame": 619,
      "od": 620,
      "iro": 621,
      "ante": 622,
      "how": 623,
      "cl": 624,
      "ound": 625,
      "were": 626,
      "time": 627,
      "ace": 628,
      "foi": 629,
      "sem": 630,
      "ink": 631,
      "son": 632,
      "muito": 633,
      "ós": 634,
      "ira": 635,
      "cre": 636,
      "pres": 637,
      "mente": 638,
      "vol": 639,
      "endo": 640,
      "ain": 641,
      "And": 642,
      "ap": 643,
      "ive": 644,
      "era": 645,
      "ong": 646,
      "porque": 647,
      "dar": 648,
      "00": 649,
      "cois": 650,
      "into": 651,
      "je": 652,
      "tim": 653,
      "could": 654,
      "them": 655,
      "because": 656,
      "sobre": 657,
      "pesso": 658,
      "alg": 659,
      "ts": 660,
      "meu": 661,
      "men": 662,
      "been": 663,
      "du": 664,
      "af": 665,
      "minha": 666,
      "ough": 667,
      "ity": 668,
      "hos": 669,
      "ite": 670,
      "ans": 671,
      "other": 672,
      "anto": 673,
      "their": 674,
      "pel": 675,
      "You": 676,
      "tur": 677,
      "aqui": 678,
      "anos": 679,
      "ous": 680,
      "bl": 681,
      "every": 682,
      "ine": 683,
      "ich": 684,
      "eles": 685,
      "ja": 686,
      "red": 687,
      "got": 688,
      "think": 689,
      "fazer": 690,
      "fil": 691,
      "then": 692,
      "sel": 693,
      "Eu": 694,
      "mon": 695,
      "este": 696,
      "ople": 697,
      "part": 698,
      "ose": 699,
      "ting": 700,
      "Se": 701,
      "estava": 702,
      "see": 703,
      "hom": 704,
      "dia": 705,
      "people": 706,
      "back": 707,
      "str": 708,
      "tão": 709,
      "dr": 710,
      "fal": 711,
      "want": 712,
      "vis": 713,
      "amente": 714,
      "fi": 715,
      "did": 716,
      "rio": 717,
      "say": 718,
      "led": 719,
      "cis": 720,
      "ên": 721,
      "pri": 722,
      "mil": 723,
      "ico": 724,
      "ens": 725,
      "até": 726,
      "les": 727,
      "dy": 728,
      "então": 729,
      "ação": 730,
      "ard": 731,
      "lit": 732,
      "tle": 733,
      "ice": 734,
      "são": 735,
      "real": 736,
      "vida": 737,
      "ment": 738,
      "mat": 739,
      "ped": 740,
      "new": 741,
      "cam": 742,
      "year": 743,
      "ga": 744,
      "contr": 745,
      "port": 746,
      "ach": 747,
      "more": 748,
      "vai": 749,
      "poder": 750,
      "ers": 751,
      "over": 752,
      "cri": 753,
      "ido": 754,
      "oun": 755,
      "\".": 756,
      "pois": 757,
      "antes": 758,
      "cu": 759,
      "idade": 760,
      "bar": 761,
      "wo": 762,
      "ning": 763,
      "ins": 764,
      "ving": 765,
      "todos": 766,
      "den": 767,
      "ck": 768,
      "ju": 769,
      "pu": 770,
      "gre": 771,
      "tell": 772,
      "seus": 773,
      "bem": 774,
      "só": 775,
      "ang": 776,
      "ct": 777,
      "pare": 778,
      "where": 779,
      "ves": 780,
      "which": 781,
      "mun": 782,
      "ick": 783,
      "ance": 784,
      "than": 785,
      "tion": 786,
      "ada": 787,
      "ados": 788,
      "right": 789,
      "only": 790,
      "Qu": 791,
      "ese": 792,
      "fin": 793,
      "segu": 794,
      "fore": 795,
      "igo": 796,
      "ded": 797,
      "going": 798,
      "No": 799,
      "inter": 800,
      "ton": 801,
      "nós": 802,
      "tudo": 803,
      "fir": 804,
      "indo": 805,
      "ba": 806,
      "bu": 807,
      "sent": 808,
      "pra": 809,
      "try": 810,
      "qual": 811,
      "sei": 812,
      "ie": 813,
      "mis": 814,
      "ço": 815,
      "gon": 816,
      "hap": 817,
      "make": 818,
      "mel": 819,
      "low": 820,
      "dizer": 821,
      "take": 822,
      "ep": 823,
      "hum": 824,
      "faz": 825,
      "ign": 826,
      "gra": 827,
      "amento": 828,
      "tent": 829,
      "pas": 830,
      "ug": 831,
      "life": 832,
      "val": 833,
      "pessoas": 834,
      "fam": 835,
      "down": 836,
      "deix": 837,
      "may": 838,
      "plan": 839,
      "sen": 840,
      "ina": 841,
      "ty": 842,
      "ip": 843,
      "cal": 844,
      "mer": 845,
      "bro": 846,
      "ita": 847,
      "ções": 848,
      "Mas": 849,
      "little": 850,
      "But": 851,
      "cul": 852,
      "ies": 853,
      "há": 854,
      "abal": 855,
      "estar": 856,
      "It": 857,
      "gun": 858,
      "even": 859,
      "tempo": 860,
      "pol": 861,
      "tre": 862,
      "sou": 863,
      "agora": 864,
      "trabal": 865,
      "via": 866,
      "ior": 867,
      "off": 868,
      "cur": 869,
      "Wh": 870,
      "art": 871,
      "let": 872,
      "ase": 873,
      "ida": 874,
      "amb": 875,
      "casa": 876,
      "act": 877,
      "onde": 878,
      "If": 879,
      "ys": 880,
      "self": 881,
      "ure": 882,
      "ria": 883,
      "mesmo": 884,
      "gonna": 885,
      "ência": 886,
      "sim": 887,
      "essa": 888,
      "quanto": 889,
      "precis": 890,
      "ob": 891,
      "aque": 892,
      "Não": 893,
      "ought": 894,
      "ry": 895,
      "coisa": 896,
      "lie": 897,
      "disse": 898,
      "cho": 899,
      "ph": 900,
      "ano": 901,
      "tas": 902,
      "body": 903,
      "var": 904,
      "mã": 905,
      "ile": 906,
      "after": 907,
      "hou": 908,
      "ial": 909,
      "mal": 910,
      "sabe": 911,
      "pon": 912,
      "years": 913,
      "pelo": 914,
      "ful": 915,
      "two": 916,
      "ger": 917,
      "pass": 918,
      "vou": 919,
      "mul": 920,
      "before": 921,
      "Você": 922,
      "work": 923,
      "these": 924,
      "gen": 925,
      "Well": 926,
      "something": 927,
      "ater": 928,
      "bet": 929,
      "ide": 930,
      "sal": 931,
      "world": 932,
      "sta": 933,
      "We": 934,
      "depois": 935,
      "estão": 936,
      "sp": 937,
      "aram": 938,
      "fri": 939,
      "uni": 940,
      "first": 941,
      "long": 942,
      "ree": 943,
      "ish": 944,
      "homem": 945,
      "mundo": 946,
      "noite": 947,
      "look": 948,
      "vir": 949,
      "find": 950,
      "ved": 951,
      "gan": 952,
      "algo": 953,
      "pens": 954,
      "again": 955,
      "emos": 956,
      "mom": 957,
      "night": 958,
      "good": 959,
      "din": 960,
      "under": 961,
      "dire": 962,
      "los": 963,
      "gos": 964,
      "melhor": 965,
      "nas": 966,
      "lá": 967,
      "dor": 968,
      "diz": 969,
      "tru": 970,
      "suas": 971,
      "sol": 972,
      "put": 973,
      "tinha": 974,
      "av": 975,
      "hel": 976,
      "En": 977,
      "itar": 978,
      "its": 979,
      "ás": 980,
      "ança": 981,
      "esper": 982,
      "thr": 983,
      "entre": 984,
      "well": 985,
      "guém": 986,
      "ador": 987,
      "sto": 988,
      "prime": 989,
      "cos": 990,
      "sur": 991,
      "mim": 992,
      "never": 993,
      "ande": 994,
      "ated": 995,
      "fun": 996,
      "bra": 997,
      "onte": 998,
      "estou": 999
    },
    "merges": [
      [
        "t",
        "h"
      ],
      [
        "e",
        "r"
      ],
      [
        "a",
        "n"
      ],
      [
        "i",
        "n"
      ],
      [
        "e",
        "s"
      ],
      [
        "a",
        "r"
      ],
      [
        "e",
        "n"
      ],
      [
        "o",
        "u"
      ],
      [
        "a",
        "s"
      ],
      [
        "o",
        "r"
      ],
      [
        "t",
        "o"
      ],
      [
        "d",
        "e"
      ],
      [
        "o",
        "n"
      ],
      [
        "q",
        "u"
      ],
      [
        ".",
        "."
      ],
      [
        "o",
        "s"
      ],
      [
        "i",
        "s"
      ],
      [
        "th",
        "e"
      ],
      [
        "a",
        "l"
      ],
      [
        "a",
        "t"
      ],
      [
        "d",
        "o"
      ],
      [
        "r",
        "e"
      ],
      [
        "s",
        "e"
      ],
      [
        "qu",
        "e"
      ],
      [
        "o",
        "m"
      ],
      [
        "t",
        "e"
      ],
      [
        "l",
        "e"
      ],
      [
        "a",
        "m"
      ],
      [
        "in",
        "g"
      ],
      [
        "an",
        "d"
      ],
      [
        "u",
        "m"
      ],
      [
        "ã",
        "o"
      ],
      [
        "..",
        "."
      ],
      [
        "i",
        "t"
      ],
      [
        "d",
        "a"
      ],
      [
        "y",
        "ou"
      ],
      [
        "v",
        "e"
      ],
      [
        "o",
        "f"
      ],
      [
        "i",
        "c"
      ],
      [
        "m",
        "e"
      ],
      [
        "b",
        "e"
      ],
      [
        "t",
        "r"
      ],
      [
        "h",
        "e"
      ],
      [
        "c",
        "om"
      ],
      [
        "n",
        "o"
      ],
      [
        "i",
        "r"
      ],
      [
        "h",
        "a"
      ],
      [
        "a",
        "c"
      ],
      [
        "e",
        "m"
      ],
      [
        "p",
        "ar"
      ],
      [
        "p",
        "r"
      ],
      [
        "es",
        "t"
      ],
      [
        "i",
        "l"
      ],
      [
        "i",
        "a"
      ],
      [
        "i",
        "m"
      ],
      [
        "en",
        "t"
      ],
      [
        "s",
        "o"
      ],
      [
        "e",
        "l"
      ],
      [
        "u",
        "s"
      ],
      [
        "o",
        "c"
      ],
      [
        "h",
        "o"
      ],
      [
        "v",
        "er"
      ],
      [
        "e",
        "d"
      ],
      [
        "f",
        "or"
      ],
      [
        "th",
        "at"
      ],
      [
        "u",
        "n"
      ],
      [
        "i",
        "g"
      ],
      [
        "c",
        "on"
      ],
      [
        "m",
        "a"
      ],
      [
        "p",
        "o"
      ],
      [
        "t",
        "a"
      ],
      [
        "d",
        "i"
      ],
      [
        "t",
        "er"
      ],
      [
        "par",
        "a"
      ],
      [
        "s",
        "a"
      ],
      [
        "u",
        "r"
      ],
      [
        "o",
        "l"
      ],
      [
        "u",
        "t"
      ],
      [
        "l",
        "i"
      ],
      [
        "p",
        "or"
      ],
      [
        "w",
        "h"
      ],
      [
        "n",
        "ão"
      ],
      [
        "c",
        "a"
      ],
      [
        "s",
        "u"
      ],
      [
        "c",
        "h"
      ],
      [
        "g",
        "o"
      ],
      [
        "er",
        "e"
      ],
      [
        "um",
        "a"
      ],
      [
        "oc",
        "ê"
      ],
      [
        "a",
        "d"
      ],
      [
        "p",
        "e"
      ],
      [
        "l",
        "o"
      ],
      [
        "an",
        "do"
      ],
      [
        "r",
        "a"
      ],
      [
        "r",
        "i"
      ],
      [
        "s",
        "t"
      ],
      [
        "c",
        "e"
      ],
      [
        "n",
        "a"
      ],
      [
        "p",
        "er"
      ],
      [
        "v",
        "ocê"
      ],
      [
        "al",
        "l"
      ],
      [
        "t",
        "i"
      ],
      [
        "k",
        "e"
      ],
      [
        "a",
        "b"
      ],
      [
        "w",
        "e"
      ],
      [
        "u",
        "l"
      ],
      [
        "v",
        "i"
      ],
      [
        "l",
        "d"
      ],
      [
        "g",
        "e"
      ],
      [
        "e",
        "u"
      ],
      [
        "i",
        "th"
      ],
      [
        "v",
        "a"
      ],
      [
        "c",
        "i"
      ],
      [
        "n",
        "e"
      ],
      [
        "en",
        "te"
      ],
      [
        "c",
        "o"
      ],
      [
        "ou",
        "t"
      ],
      [
        "w",
        "as"
      ],
      [
        "w",
        "ith"
      ],
      [
        "r",
        "o"
      ],
      [
        "d",
        "es"
      ],
      [
        "an",
        "t"
      ],
      [
        "d",
        "er"
      ],
      [
        "l",
        "a"
      ],
      [
        "f",
        "e"
      ],
      [
        "m",
        "as"
      ],
      [
        "g",
        "u"
      ],
      [
        "on",
        "e"
      ],
      [
        "i",
        "on"
      ],
      [
        "h",
        "t"
      ],
      [
        "a",
        "g"
      ],
      [
        "e",
        "x"
      ],
      [
        "f",
        "r"
      ],
      [
        "l",
        "y"
      ],
      [
        "om",
        "e"
      ],
      [
        "no",
        "w"
      ],
      [
        "m",
        "y"
      ],
      [
        "d",
        "os"
      ],
      [
        "ou",
        "ld"
      ],
      [
        "you",
        "r"
      ],
      [
        "f",
        "a"
      ],
      [
        "es",
        "s"
      ],
      [
        "th",
        "is"
      ],
      [
        "ha",
        "ve"
      ],
      [
        "b",
        "ut"
      ],
      [
        "p",
        "a"
      ],
      [
        "i",
        "f"
      ],
      [
        "te",
        "m"
      ],
      [
        "pr",
        "o"
      ],
      [
        "s",
        "er"
      ],
      [
        "il",
        "l"
      ],
      [
        "e",
        "le"
      ],
      [
        "m",
        "an"
      ],
      [
        "ç",
        "ão"
      ],
      [
        "c",
        "ar"
      ],
      [
        "m",
        "o"
      ],
      [
        "p",
        "re"
      ],
      [
        "i",
        "d"
      ],
      [
        "h",
        "is"
      ],
      [
        "ig",
        "ht"
      ],
      [
        "h",
        "er"
      ],
      [
        "th",
        "er"
      ],
      [
        "b",
        "o"
      ],
      [
        "m",
        "in"
      ],
      [
        "c",
        "an"
      ],
      [
        "p",
        "os"
      ],
      [
        "p",
        "en"
      ],
      [
        "l",
        "l"
      ],
      [
        "ou",
        "r"
      ],
      [
        "as",
        "s"
      ],
      [
        "p",
        "l"
      ],
      [
        "ar",
        "e"
      ],
      [
        "com",
        "o"
      ],
      [
        "n",
        "d"
      ],
      [
        "m",
        "or"
      ],
      [
        "est",
        "a"
      ],
      [
        "us",
        "t"
      ],
      [
        "th",
        "ing"
      ],
      [
        "i",
        "to"
      ],
      [
        "k",
        "now"
      ],
      [
        "n",
        "os"
      ],
      [
        "b",
        "r"
      ],
      [
        "d",
        "is"
      ],
      [
        "m",
        "u"
      ],
      [
        "u",
        "p"
      ],
      [
        "s",
        "ome"
      ],
      [
        "g",
        "r"
      ],
      [
        "a",
        "y"
      ],
      [
        "m",
        "os"
      ],
      [
        "ma",
        "is"
      ],
      [
        "u",
        "se"
      ],
      [
        "no",
        "t"
      ],
      [
        "am",
        "os"
      ],
      [
        "the",
        "y"
      ],
      [
        "a",
        "do"
      ],
      [
        "v",
        "en"
      ],
      [
        "c",
        "or"
      ],
      [
        "z",
        "er"
      ],
      [
        "c",
        "er"
      ],
      [
        "s",
        "i"
      ],
      [
        "da",
        "de"
      ],
      [
        "el",
        "a"
      ],
      [
        "c",
        "as"
      ],
      [
        "su",
        "a"
      ],
      [
        "m",
        "ar"
      ],
      [
        "tr",
        "a"
      ],
      [
        "g",
        "ar"
      ],
      [
        "qu",
        "er"
      ],
      [
        "se",
        "u"
      ],
      [
        "f",
        "ic"
      ],
      [
        "t",
        "en"
      ],
      [
        "f",
        "o"
      ],
      [
        "b",
        "er"
      ],
      [
        "w",
        "or"
      ],
      [
        "p",
        "le"
      ],
      [
        "fr",
        "om"
      ],
      [
        "h",
        "or"
      ],
      [
        "ge",
        "t"
      ],
      [
        "w",
        "ho"
      ],
      [
        "l",
        "u"
      ],
      [
        "at",
        "e"
      ],
      [
        "te",
        "d"
      ],
      [
        "k",
        "ing"
      ],
      [
        "en",
        "to"
      ],
      [
        "r",
        "es"
      ],
      [
        "ver",
        "y"
      ],
      [
        "li",
        "ke"
      ],
      [
        "ç",
        "a"
      ],
      [
        "ou",
        "g"
      ],
      [
        "b",
        "re"
      ],
      [
        "j",
        "ust"
      ],
      [
        "est",
        "á"
      ],
      [
        "ac",
        "k"
      ],
      [
        "qu",
        "i"
      ],
      [
        "d",
        "as"
      ],
      [
        "h",
        "as"
      ],
      [
        "v",
        "o"
      ],
      [
        "w",
        "ay"
      ],
      [
        "w",
        "n"
      ],
      [
        "wh",
        "en"
      ],
      [
        "j",
        "o"
      ],
      [
        "th",
        "ere"
      ],
      [
        "ic",
        "a"
      ],
      [
        "b",
        "y"
      ],
      [
        "s",
        "h"
      ],
      [
        "w",
        "ill"
      ],
      [
        "t",
        "u"
      ],
      [
        "qu",
        "ando"
      ],
      [
        "t",
        "ar"
      ],
      [
        "wh",
        "at"
      ],
      [
        "p",
        "es"
      ],
      [
        "c",
        "ol"
      ],
      [
        "t",
        "or"
      ],
      [
        "ab",
        "out"
      ],
      [
        "w",
        "ould"
      ],
      [
        "i",
        "z"
      ],
      [
        "ca",
        "use"
      ],
      [
        "in",
        "d"
      ],
      [
        "ve",
        "l"
      ],
      [
        "c",
        "r"
      ],
      [
        "h",
        "im"
      ],
      [
        "ha",
        "d"
      ],
      [
        "é",
        "m"
      ],
      [
        "s",
        "he"
      ],
      [
        "h",
        "ere"
      ],
      [
        "T",
        "he"
      ],
      [
        "i",
        "x"
      ],
      [
        "d",
        "on"
      ],
      [
        "o",
        "k"
      ],
      [
        "el",
        "l"
      ],
      [
        "c",
        "he"
      ],
      [
        "com",
        "e"
      ],
      [
        "h",
        "ar"
      ],
      [
        "an",
        "y"
      ],
      [
        "en",
        "d"
      ],
      [
        "is",
        "so"
      ],
      [
        "tr",
        "o"
      ],
      [
        "at",
        "ion"
      ],
      [
        "a",
        "o"
      ],
      [
        "es",
        "se"
      ],
      [
        "or",
        "a"
      ],
      [
        "e",
        "ar"
      ],
      [
        "e",
        "t"
      ],
      [
        "t",
        "al"
      ],
      [
        "t",
        "in"
      ],
      [
        "da",
        "y"
      ],
      [
        "po",
        "de"
      ],
      [
        "ve",
        "z"
      ],
      [
        "f",
        "er"
      ],
      [
        "c",
        "ia"
      ],
      [
        "i",
        "o"
      ],
      [
        "to",
        "s"
      ],
      [
        "all",
        "y"
      ],
      [
        "b",
        "le"
      ],
      [
        "as",
        "t"
      ],
      [
        "m",
        "es"
      ],
      [
        "is",
        "t"
      ],
      [
        "õ",
        "es"
      ],
      [
        "am",
        "e"
      ],
      [
        "o",
        "d"
      ],
      [
        "ir",
        "o"
      ],
      [
        "an",
        "te"
      ],
      [
        "ho",
        "w"
      ],
      [
        "c",
        "l"
      ],
      [
        "ou",
        "nd"
      ],
      [
        "w",
        "ere"
      ],
      [
        "ti",
        "me"
      ],
      [
        "ac",
        "e"
      ],
      [
        "fo",
        "i"
      ],
      [
        "se",
        "m"
      ],
      [
        "in",
        "k"
      ],
      [
        "s",
        "on"
      ],
      [
        "mu",
        "ito"
      ],
      [
        "ó",
        "s"
      ],
      [
        "ir",
        "a"
      ],
      [
        "c",
        "re"
      ],
      [
        "pr",
        "es"
      ],
      [
        "m",
        "ente"
      ],
      [
        "v",
        "ol"
      ],
      [
        "en",
        "do"
      ],
      [
        "a",
        "in"
      ],
      [
        "A",
        "nd"
      ],
      [
        "a",
        "p"
      ],
      [
        "i",
        "ve"
      ],
      [
        "er",
        "a"
      ],
      [
        "on",
        "g"
      ],
      [
        "por",
        "que"
      ],
      [
        "d",
        "ar"
      ],
      [
        "0",
        "0"
      ],
      [
        "co",
        "is"
      ],
      [
        "in",
        "to"
      ],
      [
        "j",
        "e"
      ],
      [
        "t",
        "im"
      ],
      [
        "c",
        "ould"
      ],
      [
        "the",
        "m"
      ],
      [
        "be",
        "cause"
      ],
      [
        "so",
        "bre"
      ],
      [
        "pes",
        "so"
      ],
      [
        "al",
        "g"
      ],
      [
        "t",
        "s"
      ],
      [
        "me",
        "u"
      ],
      [
        "m",
        "en"
      ],
      [
        "be",
        "en"
      ],
      [
        "d",
        "u"
      ],
      [
        "a",
        "f"
      ],
      [
        "min",
        "ha"
      ],
      [
        "oug",
        "h"
      ],
      [
        "it",
        "y"
      ],
      [
        "h",
        "os"
      ],
      [
        "i",
        "te"
      ],
      [
        "an",
        "s"
      ],
      [
        "o",
        "ther"
      ],
      [
        "an",
        "to"
      ],
      [
        "the",
        "ir"
      ],
      [
        "p",
        "el"
      ],
      [
        "Y",
        "ou"
      ],
      [
        "t",
        "ur"
      ],
      [
        "a",
        "qui"
      ],
      [
        "an",
        "os"
      ],
      [
        "ou",
        "s"
      ],
      [
        "b",
        "l"
      ],
      [
        "e",
        "very"
      ],
      [
        "in",
        "e"
      ],
      [
        "ic",
        "h"
      ],
      [
        "el",
        "es"
      ],
      [
        "j",
        "a"
      ],
      [
        "re",
        "d"
      ],
      [
        "go",
        "t"
      ],
      [
        "th",
        "ink"
      ],
      [
        "fa",
        "zer"
      ],
      [
        "f",
        "il"
      ],
      [
        "th",
        "en"
      ],
      [
        "se",
        "l"
      ],
      [
        "E",
        "u"
      ],
      [
        "m",
        "on"
      ],
      [
        "es",
        "te"
      ],
      [
        "o",
        "ple"
      ],
      [
        "par",
        "t"
      ],
      [
        "os",
        "e"
      ],
      [
        "t",
        "ing"
      ],
      [
        "S",
        "e"
      ],
      [
        "esta",
        "va"
      ],
      [
        "se",
        "e"
      ],
      [
        "h",
        "om"
      ],
      [
        "d",
        "ia"
      ],
      [
        "pe",
        "ople"
      ],
      [
        "b",
        "ack"
      ],
      [
        "s",
        "tr"
      ],
      [
        "t",
        "ão"
      ],
      [
        "d",
        "r"
      ],
      [
        "f",
        "al"
      ],
      [
        "w",
        "ant"
      ],
      [
        "v",
        "is"
      ],
      [
        "am",
        "ente"
      ],
      [
        "f",
        "i"
      ],
      [
        "di",
        "d"
      ],
      [
        "ri",
        "o"
      ],
      [
        "sa",
        "y"
      ],
      [
        "le",
        "d"
      ],
      [
        "c",
        "is"
      ],
      [
        "ê",
        "n"
      ],
      [
        "pr",
        "i"
      ],
      [
        "m",
        "il"
      ],
      [
        "ic",
        "o"
      ],
      [
        "en",
        "s"
      ],
      [
        "at",
        "é"
      ],
      [
        "l",
        "es"
      ],
      [
        "d",
        "y"
      ],
      [
        "ent",
        "ão"
      ],
      [
        "a",
        "ção"
      ],
      [
        "ar",
        "d"
      ],
      [
        "l",
        "it"
      ],
      [
        "t",
        "le"
      ],
      [
        "ic",
        "e"
      ],
      [
        "s",
        "ão"
      ],
      [
        "re",
        "al"
      ],
      [
        "vi",
        "da"
      ],
      [
        "m",
        "ent"
      ],
      [
        "m",
        "at"
      ],
      [
        "p",
        "ed"
      ],
      [
        "ne",
        "w"
      ],
      [
        "c",
        "am"
      ],
      [
        "y",
        "ear"
      ],
      [
        "g",
        "a"
      ],
      [
        "con",
        "tr"
      ],
      [
        "por",
        "t"
      ],
      [
        "ac",
        "h"
      ],
      [
        "mor",
        "e"
      ],
      [
        "va",
        "i"
      ],
      [
        "po",
        "der"
      ],
      [
        "er",
        "s"
      ],
      [
        "o",
        "ver"
      ],
      [
        "c",
        "ri"
      ],
      [
        "i",
        "do"
      ],
      [
        "ou",
        "n"
      ],
      [
        "\"",
        "."
      ],
      [
        "po",
        "is"
      ],
      [
        "ant",
        "es"
      ],
      [
        "c",
        "u"
      ],
      [
        "i",
        "dade"
      ],
      [
        "b",
        "ar"
      ],
      [
        "w",
        "o"
      ],
      [
        "n",
        "ing"
      ],
      [
        "in",
        "s"
      ],
      [
        "v",
        "ing"
      ],
      [
        "to",
        "dos"
      ],
      [
        "d",
        "en"
      ],
      [
        "c",
        "k"
      ],
      [
        "j",
        "u"
      ],
      [
        "p",
        "u"
      ],
      [
        "g",
        "re"
      ],
      [
        "te",
        "ll"
      ],
      [
        "se",
        "us"
      ],
      [
        "be",
        "m"
      ],
      [
        "s",
        "ó"
      ],
      [
        "an",
        "g"
      ],
      [
        "c",
        "t"
      ],
      [
        "par",
        "e"
      ],
      [
        "wh",
        "ere"
      ],
      [
        "v",
        "es"
      ],
      [
        "wh",
        "ich"
      ],
      [
        "m",
        "un"
      ],
      [
        "ic",
        "k"
      ],
      [
        "an",
        "ce"
      ],
      [
        "th",
        "an"
      ],
      [
        "ti",
        "on"
      ],
      [
        "a",
        "da"
      ],
      [
        "ad",
        "os"
      ],
      [
        "r",
        "ight"
      ],
      [
        "on",
        "ly"
      ],
      [
        "Q",
        "u"
      ],
      [
        "es",
        "e"
      ],
      [
        "f",
        "in"
      ],
      [
        "se",
        "gu"
      ],
      [
        "for",
        "e"
      ],
      [
        "ig",
        "o"
      ],
      [
        "de",
        "d"
      ],
      [
        "go",
        "ing"
      ],
      [
        "N",
        "o"
      ],
      [
        "in",
        "ter"
      ],
      [
        "to",
        "n"
      ],
      [
        "n",
        "ós"
      ],
      [
        "tu",
        "do"
      ],
      [
        "f",
        "ir"
      ],
      [
        "in",
        "do"
      ],
      [
        "b",
        "a"
      ],
      [
        "b",
        "u"
      ],
      [
        "s",
        "ent"
      ],
      [
        "pr",
        "a"
      ],
      [
        "tr",
        "y"
      ],
      [
        "qu",
        "al"
      ],
      [
        "se",
        "i"
      ],
      [
        "i",
        "e"
      ],
      [
        "m",
        "is"
      ],
      [
        "ç",
        "o"
      ],
      [
        "g",
        "on"
      ],
      [
        "ha",
        "p"
      ],
      [
        "ma",
        "ke"
      ],
      [
        "me",
        "l"
      ],
      [
        "lo",
        "w"
      ],
      [
        "di",
        "zer"
      ],
      [
        "ta",
        "ke"
      ],
      [
        "e",
        "p"
      ],
      [
        "h",
        "um"
      ],
      [
        "fa",
        "z"
      ],
      [
        "ig",
        "n"
      ],
      [
        "g",
        "ra"
      ],
      [
        "am",
        "ento"
      ],
      [
        "t",
        "ent"
      ],
      [
        "p",
        "as"
      ],
      [
        "u",
        "g"
      ],
      [
        "li",
        "fe"
      ],
      [
        "v",
        "al"
      ],
      [
        "pesso",
        "as"
      ],
      [
        "f",
        "am"
      ],
      [
        "do",
        "wn"
      ],
      [
        "de",
        "ix"
      ],
      [
        "ma",
        "y"
      ],
      [
        "pl",
        "an"
      ],
      [
        "s",
        "en"
      ],
      [
        "in",
        "a"
      ],
      [
        "t",
        "y"
      ],
      [
        "i",
        "p"
      ],
      [
        "c",
        "al"
      ],
      [
        "m",
        "er"
      ],
      [
        "b",
        "ro"
      ],
      [
        "it",
        "a"
      ],
      [
        "ç",
        "ões"
      ],
      [
        "M",
        "as"
      ],
      [
        "lit",
        "tle"
      ],
      [
        "B",
        "ut"
      ],
      [
        "c",
        "ul"
      ],
      [
        "i",
        "es"
      ],
      [
        "h",
        "á"
      ],
      [
        "ab",
        "al"
      ],
      [
        "est",
        "ar"
      ],
      [
        "I",
        "t"
      ],
      [
        "g",
        "un"
      ],
      [
        "e",
        "ven"
      ],
      [
        "tem",
        "po"
      ],
      [
        "po",
        "l"
      ],
      [
        "t",
        "re"
      ],
      [
        "s",
        "ou"
      ],
      [
        "ag",
        "ora"
      ],
      [
        "tr",
        "abal"
      ],
      [
        "v",
        "ia"
      ],
      [
        "i",
        "or"
      ],
      [
        "of",
        "f"
      ],
      [
        "c",
        "ur"
      ],
      [
        "W",
        "h"
      ],
      [
        "ar",
        "t"
      ],
      [
        "le",
        "t"
      ],
      [
        "as",
        "e"
      ],
      [
        "i",
        "da"
      ],
      [
        "am",
        "b"
      ],
      [
        "cas",
        "a"
      ],
      [
        "ac",
        "t"
      ],
      [
        "on",
        "de"
      ],
      [
        "I",
        "f"
      ],
      [
        "y",
        "s"
      ],
      [
        "sel",
        "f"
      ],
      [
        "u",
        "re"
      ],
      [
        "r",
        "ia"
      ],
      [
        "mes",
        "mo"
      ],
      [
        "gon",
        "na"
      ],
      [
        "ên",
        "cia"
      ],
      [
        "s",
        "im"
      ],
      [
        "es",
        "sa"
      ],
      [
        "qu",
        "anto"
      ],
      [
        "pre",
        "cis"
      ],
      [
        "o",
        "b"
      ],
      [
        "a",
        "que"
      ],
      [
        "N",
        "ão"
      ],
      [
        "oug",
        "ht"
      ],
      [
        "r",
        "y"
      ],
      [
        "cois",
        "a"
      ],
      [
        "li",
        "e"
      ],
      [
        "dis",
        "se"
      ],
      [
        "c",
        "ho"
      ],
      [
        "p",
        "h"
      ],
      [
        "an",
        "o"
      ],
      [
        "t",
        "as"
      ],
      [
        "bo",
        "dy"
      ],
      [
        "v",
        "ar"
      ],
      [
        "m",
        "ã"
      ],
      [
        "i",
        "le"
      ],
      [
        "af",
        "ter"
      ],
      [
        "h",
        "ou"
      ],
      [
        "i",
        "al"
      ],
      [
        "m",
        "al"
      ],
      [
        "sa",
        "be"
      ],
      [
        "p",
        "on"
      ],
      [
        "year",
        "s"
      ],
      [
        "pel",
        "o"
      ],
      [
        "f",
        "ul"
      ],
      [
        "t",
        "wo"
      ],
      [
        "g",
        "er"
      ],
      [
        "p",
        "ass"
      ],
      [
        "v",
        "ou"
      ],
      [
        "m",
        "ul"
      ],
      [
        "be",
        "fore"
      ],
      [
        "V",
        "ocê"
      ],
      [
        "wor",
        "k"
      ],
      [
        "th",
        "ese"
      ],
      [
        "g",
        "en"
      ],
      [
        "W",
        "ell"
      ],
      [
        "some",
        "thing"
      ],
      [
        "at",
        "er"
      ],
      [
        "be",
        "t"
      ],
      [
        "i",
        "de"
      ],
      [
        "s",
        "al"
      ],
      [
        "wor",
        "ld"
      ],
      [
        "s",
        "ta"
      ],
      [
        "W",
        "e"
      ],
      [
        "de",
        "pois"
      ],
      [
        "est",
        "ão"
      ],
      [
        "s",
        "p"
      ],
      [
        "ar",
        "am"
      ],
      [
        "f",
        "ri"
      ],
      [
        "un",
        "i"
      ],
      [
        "fir",
        "st"
      ],
      [
        "l",
        "ong"
      ],
      [
        "re",
        "e"
      ],
      [
        "is",
        "h"
      ],
      [
        "hom",
        "em"
      ],
      [
        "mun",
        "do"
      ],
      [
        "no",
        "ite"
      ],
      [
        "lo",
        "ok"
      ],
      [
        "v",
        "ir"
      ],
      [
        "f",
        "ind"
      ],
      [
        "ve",
        "d"
      ],
      [
        "g",
        "an"
      ],
      [
        "al",
        "go"
      ],
      [
        "pen",
        "s"
      ],
      [
        "ag",
        "ain"
      ],
      [
        "em",
        "os"
      ],
      [
        "m",
        "om"
      ],
      [
        "n",
        "ight"
      ],
      [
        "go",
        "od"
      ],
      [
        "d",
        "in"
      ],
      [
        "un",
        "der"
      ],
      [
        "di",
        "re"
      ],
      [
        "l",
        "os"
      ],
      [
        "g",
        "os"
      ],
      [
        "mel",
        "hor"
      ],
      [
        "n",
        "as"
      ],
      [
        "l",
        "á"
      ],
      [
        "d",
        "or"
      ],
      [
        "di",
        "z"
      ],
      [
        "tr",
        "u"
      ],
      [
        "su",
        "as"
      ],
      [
        "so",
        "l"
      ],
      [
        "p",
        "ut"
      ],
      [
        "tin",
        "ha"
      ],
      [
        "a",
        "v"
      ],
      [
        "he",
        "l"
      ],
      [
        "E",
        "n"
      ],
      [
        "it",
        "ar"
      ],
      [
        "it",
        "s"
      ],
      [
        "á",
        "s"
      ],
      [
        "an",
        "ça"
      ],
      [
        "es",
        "per"
      ],
      [
        "th",
        "r"
      ],
      [
        "ent",
        "re"
      ],
      [
        "w",
        "ell"
      ],
      [
        "gu",
        "ém"
      ],
      [
        "ad",
        "or"
      ],
      [
        "s",
        "to"
      ],
      [
        "pri",
        "me"
      ],
      [
        "c",
        "os"
      ],
      [
        "s",
        "ur"
      ],
      [
        "m",
        "im"
      ],
      [
        "ne",
        "ver"
      ],
      [
        "an",
        "de"
      ],
      [
        "at",
        "ed"
      ],
      [
        "f",
        "un"
      ],
      [
        "b",
        "ra"
      ],
      [
        "on",
        "te"
      ],
      [
        "est",
        "ou"
      ]
    ]
  }
}