{
  "version": "1.0",
  "truncation": null,
  "padding": null,
  "added_tokens": [
    {
      "id": 0,
      "content": "<PAD>",
      "single_word": false,
      "lstrip": false,
      "rstrip": false,
      "normalized": false,
      "special": true
    },
    {
      "id": 1,
      "content": "<UNK>",
      "single_word": false,
      "lstrip": false,
      "rstrip": false,
      "normalized": false,
      "special": true
    },
    {
      "id": 2,
      "content": "<CLS>",
      "single_word": false,
      "lstrip": false,
      "rstrip": false,
      "normalized": false,
      "special": true
    },
    {
      "id": 3,
      "content": "<SEP>",
      "single_word": false,
      "lstrip": false,
      "rstrip": false,
      "normalized": false,
      "special": true
    },
    {
      "id": 4,
      "content": "<MASK>",
      "single_word": false,
      "lstrip": false,
      "rstrip": false,
      "normalized": false,
      "special": true
    },
    {
      "id": 5,
      "content": "<BOS>",
      "single_word": false,
      "lstrip": false,
      "rstrip": false,
      "normalized": false,
      "special": true
    },
    {
      "id": 6,
      "content": "<EOS>",
      "single_word": false,
      "lstrip": false,
      "rstrip": false,
      "normalized": false,
      "special": true
    }
  ],
  "normalizer": null,
  "pre_tokenizer": {
    "type": "Whitespace"
  },
  "post_processor": {
    "type": "TemplateProcessing",
    "single": [
      {
        "SpecialToken": {
          "id": "<BOS>",
          "type_id": 0
        }
      },
      {
        "Sequence": {
          "id": "A",
          "type_id": 0
        }
      },
      {
        "SpecialToken": {
          "id": "<EOS>",
          "type_id": 0
        }
      }
    ],
    "pair": [
      {
        "SpecialToken": {
          "id": "<BOS>",
          "type_id": 0
        }
      },
      {
        "Sequence": {
          "id": "A",
          "type_id": 0
        }
      },
      {
        "SpecialToken": {
          "id": "<SEP>",
          "type_id": 0
        }
      },
      {
        "Sequence": {
          "id": "B",
          "type_id": 1
        }
      },
      {
        "SpecialToken": {
          "id": "<EOS>",
          "type_id": 1
        }
      }
    ],
    "special_tokens": {
      "<BOS>": {
        "id": "<BOS>",
        "ids": [
          5
        ],
        "tokens": [
          "<BOS>"
        ]
      },
      "<EOS>": {
        "id": "<EOS>",
        "ids": [
          6
        ],
        "tokens": [
          "<EOS>"
        ]
      },
      "<SEP>": {
        "id": "<SEP>",
        "ids": [
          3
        ],
        "tokens": [
          "<SEP>"
        ]
      }
    }
  },
  "decoder": {
    "type": "BPEDecoder",
    "suffix": "</w>"
  },
  "model": {
    "type": "BPE",
    "dropout": null,
    "unk_token": "<UNK>",
    "continuing_subword_prefix": null,
    "end_of_word_suffix": "</w>",
    "fuse_unk": false,
    "byte_fallback": false,
    "ignore_merges": false,
    "vocab": {
      "<PAD>": 0,
      "<UNK>": 1,
      "<CLS>": 2,
      "<SEP>": 3,
      "<MASK>": 4,
      "<BOS>": 5,
      "<EOS>": 6,
      "!": 7,
      "\"": 8,
      "#": 9,
      "$": 10,
      "%": 11,
      "'": 12,
      "(": 13,
      ")": 14,
      "*": 15,
      "+": 16,
      ",": 17,
      "-": 18,
      ".": 19,
      "/": 20,
      "0": 21,
      "1": 22,
      "2": 23,
      "3": 24,
      "4": 25,
      "5": 26,
      "6": 27,
      "7": 28,
      "8": 29,
      "9": 30,
      ":": 31,
      ";": 32,
      "=": 33,
      "?": 34,
      "@": 35,
      "A": 36,
      "B": 37,
      "C": 38,
      "D": 39,
      "E": 40,
      "F": 41,
      "G": 42,
      "H": 43,
      "I": 44,
      "J": 45,
      "K": 46,
      "L": 47,
      "M": 48,
      "N": 49,
      "O": 50,
      "P": 51,
      "Q": 52,
      "R": 53,
      "S": 54,
      "T": 55,
      "U": 56,
      "V": 57,
      "W": 58,
      "X": 59,
      "Y": 60,
      "Z": 61,
      "[": 62,
      "\\": 63,
      "]": 64,
      "^": 65,
      "_": 66,
      "`": 67,
      "a": 68,
      "b": 69,
      "c": 70,
      "d": 71,
      "e": 72,
      "f": 73,
      "g": 74,
      "h": 75,
      "i": 76,
      "j": 77,
      "k": 78,
      "l": 79,
      "m": 80,
      "n": 81,
      "o": 82,
      "p": 83,
      "q": 84,
      "r": 85,
      "s": 86,
      "t": 87,
      "u": 88,
      "v": 89,
      "w": 90,
      "x": 91,
      "y": 92,
      "z": 93,
      "{": 94,
      "|": 95,
      "}": 96,
      "~": 97,
      "": 98,
      "": 99,
      "": 100,
      "": 101,
      "": 102,
      "": 103,
      "": 104,
      "": 105,
      "": 106,
      "": 107,
      "": 108,
      "": 109,
      "": 110,
      "": 111,
      "": 112,
      "": 113,
      "": 114,
      "": 115,
      "": 116,
      "": 117,
      "": 118,
      "": 119,
      "": 120,
      "": 121,
      "¡": 122,
      "¢": 123,
      "£": 124,
      "¤": 125,
      "¥": 126,
      "¦": 127,
      "§": 128,
      "¨": 129,
      "©": 130,
      "ª": 131,
      "¬": 132,
      "­": 133,
      "®": 134,
      "¯": 135,
      "°": 136,
      "±": 137,
      "²": 138,
      "³": 139,
      "´": 140,
      "µ": 141,
      "¶": 142,
      "·": 143,
      "¸": 144,
      "¹": 145,
      "º": 146,
      "¼": 147,
      "½": 148,
      "¾": 149,
      "¿": 150,
      "À": 151,
      "Á": 152,
      "Â": 153,
      "Ã": 154,
      "Ä": 155,
      "Å": 156,
      "Ç": 157,
      "È": 158,
      "É": 159,
      "Ê": 160,
      "Ë": 161,
      "Ì": 162,
      "Í": 163,
      "Î": 164,
      "Ï": 165,
      "Ð": 166,
      "Ñ": 167,
      "Ò": 168,
      "Ó": 169,
      "Ô": 170,
      "Ö": 171,
      "×": 172,
      "Ø": 173,
      "Ú": 174,
      "Ý": 175,
      "ß": 176,
      "à": 177,
      "á": 178,
      "â": 179,
      "ã": 180,
      "ä": 181,
      "å": 182,
      "æ": 183,
      "ç": 184,
      "è": 185,
      "é": 186,
      "ê": 187,
      "ë": 188,
      "ì": 189,
      "í": 190,
      "î": 191,
      "ï": 192,
      "ð": 193,
      "ñ": 194,
      "ò": 195,
      "ó": 196,
      "ô": 197,
      "õ": 198,
      "ö": 199,
      "ø": 200,
      "ù": 201,
      "ú": 202,
      "û": 203,
      "ü": 204,
      "ý": 205,
      "þ": 206,
      "ÿ": 207,
      "ā": 208,
      "ă": 209,
      "ć": 210,
      "č": 211,
      "ď": 212,
      "ē": 213,
      "ė": 214,
      "ę": 215,
      "ě": 216,
      "Ī": 217,
      "ī": 218,
      "İ": 219,
      "ı": 220,
      "ł": 221,
      "ń": 222,
      "ň": 223,
      "ō": 224,
      "ő": 225,
      "Œ": 226,
      "œ": 227,
      "ř": 228,
      "ś": 229,
      "ŝ": 230,
      "Ş": 231,
      "ş": 232,
      "š": 233,
      "ũ": 234,
      "ů": 235,
      "ű": 236,
      "ź": 237,
      "ż": 238,
      "ž": 239,
      "ƒ": 240,
      "ư": 241,
      "ʼ": 242,
      "ˆ": 243,
      "̶": 244,
      "΄": 245,
      "Ώ": 246,
      "Α": 247,
      "Β": 248,
      "Ε": 249,
      "Η": 250,
      "Ι": 251,
      "Κ": 252,
      "Μ": 253,
      "Ν": 254,
      "Τ": 255,
      "Υ": 256,
      "έ": 257,
      "ή": 258,
      "α": 259,
      "β": 260,
      "δ": 261,
      "ε": 262,
      "η": 263,
      "ι": 264,
      "κ": 265,
      "μ": 266,
      "ν": 267,
      "ο": 268,
      "ρ": 269,
      "ς": 270,
      "σ": 271,
      "τ": 272,
      "υ": 273,
      "ϊ": 274,
      "ό": 275,
      "ώ": 276,
      "Ї": 277,
      "Ј": 278,
      "Ў": 279,
      "А": 280,
      "В": 281,
      "Й": 282,
      "М": 283,
      "Н": 284,
      "О": 285,
      "Р": 286,
      "С": 287,
      "Т": 288,
      "У": 289,
      "Ъ": 290,
      "а": 291,
      "б": 292,
      "в": 293,
      "г": 294,
      "д": 295,
      "е": 296,
      "ж": 297,
      "з": 298,
      "и": 299,
      "й": 300,
      "л": 301,
      "м": 302,
      "н": 303,
      "о": 304,
      "п": 305,
      "р": 306,
      "с": 307,
      "т": 308,
      "у": 309,
      "х": 310,
      "ъ": 311,
      "ы": 312,
      "ь": 313,
      "ё": 314,
      "є": 315,
      "ї": 316,
      "ј": 317,
      "њ": 318,
      "ў": 319,
      "Ґ": 320,
      "ґ": 321,
      "ב": 322,
      "י": 323,
      "ب": 324,
      "ـ": 325,
      "م": 326,
      "ن": 327,
      "و": 328,
      "ى": 329,
      "ي": 330,
      "ٌ": 331,
      "ُ": 332,
      "ٹ": 333,
      "ڑ": 334,
      "ẞ": 335,
      "ạ": 336,
      "​": 337,
      "‎": 338,
      "‐": 339,
      "‒": 340,
      "–": 341,
      "—": 342,
      "―": 343,
      "‚": 344,
      "†": 345,
      "•": 346,
      "‪": 347,
      "‬": 348,
      "‭": 349,
      "‰": 350,
      "₤": 351,
      "₩": 352,
      "€": 353,
      "№": 354,
      "™": 355,
      "Ω": 356,
      "⅔": 357,
      "≥": 358,
      "─": 359,
      "│": 360,
      "●": 361,
      "☻": 362,
      "♪": 363,
      "♫": 364,
      "抎": 365,
      "抯": 366,
      "抰": 367,
      "檛": 368,
      "瀽": 369,
      "炄": 370,
      "郀": 371,
      "鈥": 372,
      "": 373,
      "ﬁ": 374,
      "ﬂ": 375,
      "﻿": 376,
      "￡": 377,
      "￩": 378,
      "�": 379,
      "s</w>": 380,
      "e</w>": 381,
      "o</w>": 382,
      "r</w>": 383,
      "t</w>": 384,
      "v</w>": 385,
      "p</w>": 386,
      "y</w>": 387,
      "m</w>": 388,
      "k</w>": 389,
      "i</w>": 390,
      "g</w>": 391,
      "a</w>": 392,
      "n</w>": 393,
      "d</w>": 394,
      "3</w>": 395,
      "u</w>": 396,
      "c</w>": 397,
      "á</w>": 398,
      "l</w>": 399,
      "2</w>": 400,
      "6</w>": 401,
      "h</w>": 402,
      "x</w>": 403,
      "w</w>": 404,
      "ã</w>": 405,
      "z</w>": 406,
      "f</w>": 407,
      "ú</w>": 408,
      "é</w>": 409,
      "b</w>": 410,
      "?</w>": 411,
      "1</w>": 412,
      "j</w>": 413,
      "ö</w>": 414,
      "º</w>": 415,
      "ï</w>": 416,
      "5</w>": 417,
      "8</w>": 418,
      "9</w>": 419,
      "4</w>": 420,
      ",</w>": 421,
      "q</w>": 422,
      ".</w>": 423,
      "ó</w>": 424,
      "-</w>": 425,
      "â</w>": 426,
      "0</w>": 427,
      "í</w>": 428,
      "è</w>": 429,
      "ê</w>": 430,
      "у</w>": 431,
      "ü</w>": 432,
      "´</w>": 433,
      "\"</w>": 434,
      "7</w>": 435,
      "е</w>": 436,
      "'</w>": 437,
      "™</w>": 438,
      "ô</w>": 439,
      "ª</w>": 440,
      "₤</w>": 441,
      "æ</w>": 442,
      "ă</w>": 443,
      "E</w>": 444,
      "š</w>": 445,
      "ù</w>": 446,
      "$</w>": 447,
      "õ</w>": 448,
      "ò</w>": 449,
      "{</w>": 450,
      "!</w>": 451,
      "ç</w>": 452,
      "ٹ</w>": 453,
      "Ê</w>": 454,
      "ý</w>": 455,
      "(</w>": 456,
      "É</w>": 457,
      "ì</w>": 458,
      "�</w>": 459,
      "à</w>": 460,
      "/</w>": 461,
      "р</w>": 462,
      "‒</w>": 463,
      "‎</w>": 464,
      "ι</w>": 465,
      ";</w>": 466,
      "</w>": 467,
      "ο</w>": 468,
      "‬</w>": 469,
      "ë</w>": 470,
      "\\</w>": 471,
      "#</w>": 472,
      "</w>": 473,
      "¹</w>": 474,
      "œ</w>": 475,
      "]</w>": 476,
      "¤</w>": 477,
      "й</w>": 478,
      "î</w>": 479,
      "о</w>": 480,
      "~</w>": 481,
      "⅔</w>": 482,
      "Á</w>": 483,
      "=</w>": 484,
      "*</w>": 485,
      "№</w>": 486,
      "</w>": 487,
      "Ã</w>": 488,
      "€</w>": 489,
      "ę</w>": 490,
      "</w>": 491,
      "_</w>": 492,
      "ς</w>": 493,
      "È</w>": 494,
      "X</w>": 495,
      "ъ</w>": 496,
      ")</w>": 497,
      "|</w>": 498,
      "</w>": 499,
      "м</w>": 500,
      "̶</w>": 501,
      "Ý</w>": 502,
      "​</w>": 503,
      "ß</w>": 504,
      "%</w>": 505,
      "å</w>": 506,
      "`</w>": 507,
      "¯</w>": 508,
      ":</w>": 509,
      "¸</w>": 510,
      "г</w>": 511,
      "·</w>": 512,
      "υ</w>": 513,
      "ạ</w>": 514,
      "ű</w>": 515,
      "</w>": 516,
      "ñ</w>": 517,
      "б</w>": 518,
      "ÿ</w>": 519,
      "¶</w>": 520,
      "</w>": 521,
      "¨</w>": 522,
      "þ</w>": 523,
      "¬</w>": 524,
      "^</w>": 525,
      "ś</w>": 526,
      "®</w>": 527,
      "‐</w>": 528,
      "ä</w>": 529,
      "ů</w>": 530,
      "ī</w>": 531,
      "[</w>": 532,
      "</w>": 533,
      "ō</w>": 534,
      "</w>": 535,
      "û</w>": 536,
      "а</w>": 537,
      "}</w>": 538,
      "W</w>": 539,
      "♪</w>": 540,
      "¦</w>": 541,
      "Й</w>": 542,
      "‚</w>": 543,
      "Q</w>": 544,
      "H</w>": 545,
      "ب</w>": 546,
      "в</w>": 547,
      "Ó</w>": 548,
      "G</w>": 549,
      "D</w>": 550,
      "V</w>": 551,
      "郀</w>": 552,
      "–</w>": 553,
      "т</w>": 554,
      "</w>": 555,
      "±</w>": 556,
      "¡</w>": 557,
      "н</w>": 558,
      "‭</w>": 559,
      "£</w>": 560,
      "½</w>": 561,
      "י</w>": 562,
      "و</w>": 563,
      "I</w>": 564,
      "п</w>": 565,
      "σ</w>": 566,
      "ϊ</w>": 567,
      "°</w>": 568,
      "Ë</w>": 569,
      "©</w>": 570,
      "C</w>": 571,
      "●</w>": 572,
      "B</w>": 573,
      "ð</w>": 574,
      "¾</w>": 575,
      "抰</w>": 576,
      "</w>": 577,
      "³</w>": 578,
      "ρ</w>": 579,
      "Υ</w>": 580,
      "α</w>": 581,
      "</w>": 582,
      "抎</w>": 583,
      "S</w>": 584,
      "A</w>": 585,
      "²</w>": 586,
      "¿</w>": 587,
      "</w>": 588,
      "@</w>": 589,
      "ב</w>": 590,
      "с</w>": 591,
      "­</w>": 592,
      "T</w>": 593,
      "L</w>": 594,
      "В</w>": 595,
      "Ñ</w>": 596,
      "Z</w>": 597,
      "•</w>": 598,
      "ڑ</w>": 599,
      "є</w>": 600,
      "ø</w>": 601,
      "م</w>": 602,
      "﻿</w>": 603,
      "Â</w>": 604,
      "Ä</w>": 605,
      "O</w>": 606,
      "ό</w>": 607,
      "</w>": 608,
      "♫</w>": 609,
      "ė</w>": 610,
      "</w>": 611,
      "—</w>": 612,
      "+</w>": 613,
      "µ</w>": 614,
      "х</w>": 615,
      "¢</w>": 616,
      "K</w>": 617,
      "ž</w>": 618,
      "</w>": 619,
      "￡</w>": 620,
      "À</w>": 621,
      "</w>": 622,
      "</w>": 623,
      "†</w>": 624,
      "΄</w>": 625,
      "N</w>": 626,
      "ē</w>": 627,
      "</w>": 628,
      "§</w>": 629,
      "檛</w>": 630,
      "ي</w>": 631,
      "</w>": 632,
      "¼</w>": 633,
      "Ï</w>": 634,
      "‪</w>": 635,
      "δ</w>": 636,
      "Í</w>": 637,
      "ı</w>": 638,
      "U</w>": 639,
      "</w>": 640,
      "─</w>": 641,
      "M</w>": 642,
      "―</w>": 643,
      "ή</w>": 644,
      "Y</w>": 645,
      "J</w>": 646,
      "抯</w>": 647,
      "Ç</w>": 648,
      "</w>": 649,
      "</w>": 650,
      "F</w>": 651,
      "κ</w>": 652,
      "ć</w>": 653,
      "Ў</w>": 654,
      "ﬂ</w>": 655,
      "Ô</w>": 656,
      "≥</w>": 657,
      "ź</w>": 658,
      "ь</w>": 659,
      "P</w>": 660,
      "Α</w>": 661,
      "ő</w>": 662,
      "</w>": 663,
      "¥</w>": 664,
      "Ω</w>": 665,
      "‰</w>": 666,
      "ـ</w>": 667,
      "R</w>": 668,
      "￩</w>": 669,
      "Μ</w>": 670,
      "ى</w>": 671,
      "th": 672,
      "in": 673,
      "an": 674,
      "er": 675,
      "ar": 676,
      "qu": 677,
      "ou</w>": 678,
      "es": 679,
      "en": 680,
      "co": 681,
      "er</w>": 682,
      "to</w>": 683,
      "ão</w>": 684,
      "ou": 685,
      "el": 686,
      "do</w>": 687,
      "as</w>": 688,
      "or": 689,
      "al": 690,
      "you</w>": 691,
      "de</w>": 692,
      "que</w>": 693,
      "os</w>": 694,
      "the</w>": 695,
      "is</w>": 696,
      "is": 697,
      "me</w>": 698,
      "ar</w>": 699,
      "re": 700,
      "ha": 701,
      "or</w>": 702,
      "on": 703,
      "em</w>": 704,
      "oc": 705,
      "ing</w>": 706,
      "es</w>": 707,
      "est": 708,
      "se</w>": 709,
      "on</w>": 710,
      "it": 711,
      "ve</w>": 712,
      "no": 713,
      "ca": 714,
      "ma": 715,
      "st": 716,
      "se": 717,
      "ri": 718,
      "di": 719,
      "ocê</w>": 720,
      "não</w>": 721,
      "ra": 722,
      "ti": 723,
      "de": 724,
      "par": 725,
      "da</w>": 726,
      "at</w>": 727,
      "am": 728,
      "in</w>": 729,
      "ro": 730,
      "me": 731,
      "it</w>": 732,
      "il": 733,
      "te</w>": 734,
      "he</w>": 735,
      "ed</w>": 736,
      "ch": 737,
      "..": 738,
      "li": 739,
      "so</w>": 740,
      "um</w>": 741,
      "sa": 742,
      "ma</w>": 743,
      "...</w>": 744,
      "le": 745,
      "re</w>": 746,
      "po": 747,
      "você</w>": 748,
      "and</w>": 749,
      "ere</w>": 750,
      "gu": 751,
      "of</w>": 752,
      "en</w>": 753,
      "eu</w>": 754,
      "ia</w>": 755,
      "su": 756,
      "con": 757,
      "go": 758,
      "as": 759,
      "that</w>": 760,
      "ho": 761,
      "ic": 762,
      "ac": 763,
      "so": 764,
      "para</w>": 765,
      "le</w>": 766,
      "at": 767,
      "ir": 768,
      "un": 769,
      "im</w>": 770,
      "be</w>": 771,
      "be": 772,
      "to": 773,
      "ke</w>": 774,
      "our</w>": 775,
      "us": 776,
      "lo": 777,
      "hat</w>": 778,
      "gh": 779,
      "com": 780,
      "da": 781,
      "tr": 782,
      "te": 783,
      "uma</w>": 784,
      "go</w>": 785,
      "for</w>": 786,
      "ho</w>": 787,
      "You</w>": 788,
      "com</w>": 789,
      "he": 790,
      "ld</w>": 791,
      "fa": 792,
      "pe": 793,
      "bo": 794,
      "ver": 795,
      "ando</w>": 796,
      "out</w>": 797,
      "vi": 798,
      "ght</w>": 799,
      "ta": 800,
      "ha</w>": 801,
      "ver</w>": 802,
      "et</w>": 803,
      "now</w>": 804,
      "mu": 805,
      "ne": 806,
      "have</w>": 807,
      "pr": 808,
      "no</w>": 809,
      "here</w>": 810,
      "my</w>": 811,
      "per": 812,
      "ele</w>": 813,
      "ut</w>": 814,
      "ur": 815,
      "do": 816,
      "this</w>": 817,
      "pa": 818,
      "your</w>": 819,
      "ll</w>": 820,
      "ent": 821,
      "ell</w>": 822,
      "ab": 823,
      "an</w>": 824,
      "al</w>": 825,
      "min": 826,
      "está</w>": 827,
      "one</w>": 828,
      "ta</w>": 829,
      "ter</w>": 830,
      "we</w>": 831,
      "Não</w>": 832,
      "mp": 833,
      "na</w>": 834,
      "ve": 835,
      "ce</w>": 836,
      "ith</w>": 837,
      "ag": 838,
      "mos</w>": 839,
      "ly</w>": 840,
      "isso</w>": 841,
      "was</w>": 842,
      "si": 843,
      "all</w>": 844,
      "Eu</w>": 845,
      "ci": 846,
      "us</w>": 847,
      "am</w>": 848,
      "with</w>": 849,
      "sa</w>": 850,
      "ust</w>": 851,
      "mo": 852,
      "por</w>": 853,
      "don</w>": 854,
      "for": 855,
      "Você</w>": 856,
      "are</w>": 857,
      "ol": 858,
      "not</w>": 859,
      "mor": 860,
      "ill</w>": 861,
      "ey</w>": 862,
      "can</w>": 863,
      "ente</w>": 864,
      "amos</w>": 865,
      "ito</w>": 866,
      "la": 867,
      "wa": 868,
      "what</w>": 869,
      "know</w>": 870,
      "aqu": 871,
      "nd</w>": 872,
      "ela</w>": 873,
      "thing</w>": 874,
      "pro": 875,
      "ir</w>": 876,
      "wan": 877,
      "ther</w>": 878,
      "ora</w>": 879,
      "ul": 880,
      "car": 881,
      "fe": 882,
      "va</w>": 883,
      "ad": 884,
      "mas</w>": 885,
      "zer</w>": 886,
      "pen": 887,
      "mais</w>": 888,
      "get</w>": 889,
      "fo": 890,
      "pre": 891,
      "like</w>": 892,
      "ter": 893,
      "wh": 894,
      "ex": 895,
      "thin": 896,
      "ten": 897,
      "man": 898,
      "sh": 899,
      "him</w>": 900,
      "his</w>": 901,
      "her</w>": 902,
      "va": 903,
      "It</w>": 904,
      "ran": 905,
      "dos</w>": 906,
      "fi": 907,
      "des": 908,
      "tra": 909,
      "men": 910,
      "Qu": 911,
      "como</w>": 912,
      "mb": 913,
      "ch</w>": 914,
      "aqui</w>": 915,
      "tem</w>": 916,
      "just</w>": 917,
      "dis": 918,
      "ém</w>": 919,
      "mo</w>": 920,
      "seu</w>": 921,
      "sen": 922,
      "fic": 923,
      "na": 924,
      "about</w>": 925,
      "lu": 926,
      "co</w>": 927,
      "mar": 928,
      "up</w>": 929,
      "The</w>": 930,
      "man</w>": 931,
      "der": 932,
      "quer": 933,
      "Est": 934,
      "And</w>": 935,
      "tu": 936,
      "wor": 937,
      "ould</w>": 938,
      "ça</w>": 939,
      "ei</w>": 940,
      "muito</w>": 941,
      "ix": 942,
      "sua</w>": 943,
      "ra</w>": 944,
      "We</w>": 945,
      "there</w>": 946,
      "got</w>": 947,
      "jo": 948,
      "ru": 949,
      "but</w>": 950,
      "sso</w>": 951,
      "la</w>": 952,
      "ca</w>": 953,
      "will</w>": 954,
      "gi": 955,
      "dn</w>": 956,
      "ção</w>": 957,
      "want</w>": 958,
      "id</w>": 959,
      "meu</w>": 960,
      "vai</w>": 961,
      "king</w>": 962,
      "od</w>": 963,
      "res": 964,
      "they</w>": 965,
      "ado</w>": 966,
      "fu": 967,
      "bem</w>": 968,
      "He</w>": 969,
      "dy</w>": 970,
      "ite</w>": 971,
      "ok</w>": 972,
      "ack</w>": 973,
      "think</w>": 974,
      "fal": 975,
      "ys</w>": 976,
      "ni": 977,
      "ts</w>": 978,
      "ds</w>": 979,
      "der</w>": 980,
      "\".</w>": 981,
      "right</w>": 982,
      "gar</w>": 983,
      "way</w>": 984,
      "tão</w>": 985,
      "wn</w>": 986,
      "cor": 987,
      "st</w>": 988,
      "if</w>": 989,
      "pl": 990,
      "ser": 991,
      "cu": 992,
      "iro</w>": 993,
      "Mas</w>": 994,
      "cer": 995,
      "she</w>": 996,
      "che": 997,
      "tar</w>": 998,
      "cois": 999,
      "por": 1000,
      "see</w>": 1001,
      "ser</w>": 1002,
      "ad</w>": 1003,
      "ge</w>": 1004,
      "ass": 1005,
      "ry</w>": 1006,
      "some": 1007,
      "hor</w>": 1008,
      "ro</w>": 1009,
      "Well</w>": 1010,
      "fin": 1011,
      "how</w>": 1012,
      "But</w>": 1013,
      "time</w>": 1014,
      "rom</w>": 1015,
      "Ele</w>": 1016,
      "ach": 1017,
      "tal": 1018,
      "minha</w>": 1019,
      "ava</w>": 1020,
      "foi</w>": 1021,
      "Co": 1022,
      "mes": 1023,
      "pode</w>": 1024,
      "mon": 1025,
      "vez</w>": 1026,
      "from</w>": 1027,
      "cis": 1028,
      "mi": 1029,
      "ow</w>": 1030,
      "lo</w>": 1031,
      "ce": 1032,
      "has</w>": 1033,
      "gar": 1034,
      "fazer</w>": 1035,
      "Oh</w>": 1036,
      "pi": 1037,
      "come</w>": 1038,
      "of": 1039,
      "dade</w>": 1040,
      "ju": 1041,
      "el</w>": 1042,
      "dar</w>": 1043,
      "eles</w>": 1044,
      "op": 1045,
      "ess</w>": 1046,
      "ga</w>": 1047,
      "th</w>": 1048,
      "algu": 1049,
      "vol": 1050,
      "quer</w>": 1051,
      "What</w>": 1052,
      "fe</w>": 1053,
      "we": 1054,
      "lea": 1055,
      "esse</w>": 1056,
      "vo</w>": 1057,
      "cha": 1058,
      "ent</w>": 1059,
      "ks</w>": 1060,
      "ós</w>": 1061,
      "ês</w>": 1062,
      "vou</w>": 1063,
      "That</w>": 1064,
      "tin": 1065,
      "ge": 1066,
      "endo</w>": 1067,
      "back</w>": 1068,
      "ong</w>": 1069,
      "cou": 1070,
      "mis": 1071,
      "tes</w>": 1072,
      "them</w>": 1073,
      "take</w>": 1074,
      "nos</w>": 1075,
      "du": 1076,
      "esta</w>": 1077,
      "very</w>": 1078,
      "ev": 1079,
      "sei</w>": 1080,
      "any": 1081,
      "são</w>": 1082,
      "segu": 1083,
      "day</w>": 1084,
      "bre</w>": 1085,
      "ard</w>": 1086,
      "been</w>": 1087,
      "pri": 1088,
      "eli": 1089,
      "had</w>": 1090,
      "Se</w>": 1091,
      "ao</w>": 1092,
      "itt": 1093,
      "did</w>": 1094,
      "ba": 1095,
      "ga": 1096,
      "mel": 1097,
      "temp": 1098,
      "das</w>": 1099,
      "br": 1100,
      "outr": 1101,
      "good</w>": 1102,
      "disse</w>": 1103,
      "Wh": 1104,
      "by</w>": 1105,
      "real": 1106,
      "agora</w>": 1107,
      "pres": 1108,
      "deix": 1109,
      "tudo</w>": 1110,
      "era</w>": 1111,
      "were</w>": 1112,
      "ja</w>": 1113,
      "hey</w>": 1114,
      "gh</w>": 1115,
      "use</w>": 1116,
      "ast</w>": 1117,
      "ted</w>": 1118,
      "more</w>": 1119,
      "Bem</w>": 1120,
      "En": 1121,
      "aria</w>": 1122,
      "tt": 1123,
      "tion</w>": 1124,
      "só</w>": 1125,
      "tan": 1126,
      "tell</w>": 1127,
      "col": 1128,
      "going</w>": 1129,
      "quando</w>": 1130,
      "hap": 1131,
      "gs</w>": 1132,
      "fil": 1133,
      "gra": 1134,
      "sin": 1135,
      "would</w>": 1136,
      "ay</w>": 1137,
      "when</w>": 1138,
      "dizer</w>": 1139,
      "mim</w>": 1140,
      "bu": 1141,
      "bri": 1142,
      "pe</w>": 1143,
      "pes": 1144,
      "bal": 1145,
      "didn</w>": 1146,
      "could</w>": 1147,
      "who</w>": 1148,
      "estava</w>": 1149,
      "gon": 1150,
      "son</w>": 1151,
      "sobre</w>": 1152,
      "sel": 1153,
      "tos</w>": 1154,
      "amb": 1155,
      "No</w>": 1156,
      "cre": 1157,
      "fri": 1158,
      "estou</w>": 1159,
      "never</w>": 1160,
      "fer": 1161,
      "io</w>": 1162,
      "est</w>": 1163,
      "este</w>": 1164,
      "unca</w>": 1165,
      "ira</w>": 1166,
      "say</w>": 1167,
      "ound</w>": 1168,
      "tenho</w>": 1169,
      "precis": 1170,
      "coisa</w>": 1171,
      "lá</w>": 1172,
      "They</w>": 1173,
      "les</w>": 1174,
      "let</w>": 1175,
      "lhe</w>": 1176,
      "ess": 1177,
      "some</w>": 1178,
      "tter</w>": 1179,
      "dia</w>": 1180,
      "ye": 1181,
      "If</w>": 1182,
      "ace</w>": 1183,
      "can": 1184,
      "bi": 1185,
      "inda</w>": 1186,
      "que": 1187,
      "vamos</w>": 1188,
      "igo</w>": 1189,
      "av": 1190,
      "too</w>": 1191,
      "ah</w>": 1192,
      "Por</w>": 1193,
      "ço</w>": 1194,
      "tur": 1195,
      "This</w>": 1196,
      "af": 1197,
      "hor": 1198,
      "gonna</w>": 1199,
      "nada</w>": 1200,
      "cul": 1201,
      "ck</w>": 1202,
      "lar": 1203,
      "cia</w>": 1204,
      "sabe</w>": 1205,
      "ying</w>": 1206,
      "where</w>": 1207,
      "emos</w>": 1208,
      "tempo</w>": 1209,
      "ers</w>": 1210,
      "há</w>": 1211,
      "ittle</w>": 1212,
      "im": 1213,
      "sr</w>": 1214,
      "ke": 1215,
      "ine</w>": 1216,
      "mr</w>": 1217,
      "body</w>": 1218,
      "other</w>": 1219,
      "ap": 1220,
      "De": 1221,
      "cal": 1222,
      "ked</w>": 1223,
      "ought</w>": 1224,
      "tor</w>": 1225,
      "Es": 1226,
      "little</w>": 1227,
      "mã": 1228,
      "quero</w>": 1229,
      "pu": 1230,
      "make</w>": 1231,
      "our": 1232,
      "pos": 1233,
      "ist": 1234,
      "noite</w>": 1235,
      "Th": 1236,
      "casa</w>": 1237,
      "ita</w>": 1238,
      "She</w>": 1239,
      "din": 1240,
      "ough</w>": 1241,
      "gre": 1242,
      "cri": 1243,
      "ep</w>": 1244,
      "elo</w>": 1245,
      "dan": 1246,
      "sed</w>": 1247,
      "pare": 1248,
      "imp": 1249,
      "já</w>": 1250,
      "something</w>": 1251,
      "nic": 1252,
      "nós</w>": 1253,
      "sab": 1254,
      "bar": 1255,
      "only</w>": 1256,
      "id": 1257,
      "tw": 1258,
      "any</w>": 1259,
      "cause</w>": 1260,
      "sou</w>": 1261,
      "estão</w>": 1262,
      "ain</w>": 1263,
      "ven": 1264,
      "hel": 1265,
      "indo</w>": 1266,
      "melhor</w>": 1267,
      "pai</w>": 1268,
      "vel</w>": 1269,
      "well</w>": 1270,
      "onde</w>": 1271,
      "mil": 1272,
      "rio</w>": 1273,
      "hom": 1274,
      "hu": 1275,
      "sor": 1276,
      "00</w>": 1277,
      "down</w>": 1278,
      "Po": 1279,
      "je": 1280,
      "nunca</w>": 1281,
      "end</w>": 1282,
      "ambém</w>": 1283,
      "chan": 1284,
      "Então</w>": 1285,
      "wi": 1286,
      "said</w>": 1287,
      "essa</w>": 1288,
      "pesso": 1289,
      "why</w>": 1290,
      "esper": 1291,
      "prob": 1292,
      "give</w>": 1293,
      "pou": 1294,
      "até</w>": 1295,
      "Ela</w>": 1296,
      "mesmo</w>": 1297,
      "tor": 1298,
      "tri": 1299,
      "vida</w>": 1300,
      "minu": 1301,
      "over</w>": 1302,
      "look</w>": 1303,
      "ocês</w>": 1304,
      "fav": 1305,
      "ble</w>": 1306,
      "vo": 1307,
      "tar": 1308,
      "very": 1309,
      "esti": 1310,
      "posso</w>": 1311,
      "mpre</w>": 1312,
      "cer</w>": 1313,
      "ria</w>": 1314,
      "led</w>": 1315,
      "homem</w>": 1316,
      "ese</w>": 1317,
      "must</w>": 1318,
      "off</w>": 1319,
      ".\".</w>": 1320,
      "So</w>": 1321,
      "should</w>": 1322,
      "quem</w>": 1323,
      "new</w>": 1324,
      "Now</w>": 1325,
      "anto</w>": 1326,
      "ada</w>": 1327,
      "trabal": 1328,
      "spe": 1329,
      "ber": 1330,
      "There</w>": 1331,
      "Sim</w>": 1332,
      "assim</w>": 1333,
      "mente</w>": 1334,
      "cap": 1335,
      "au": 1336,
      "ty</w>": 1337,
      "contr": 1338,
      "sim</w>": 1339,
      "também</w>": 1340,
      "har": 1341,
      "ople</w>": 1342,
      "ante</w>": 1343,
      "inha</w>": 1344,
      "gost": 1345,
      "car</w>": 1346,
      "mer": 1347,
      "ling</w>": 1348,
      "algo</w>": 1349,
      "guém</w>": 1350,
      "pra</w>": 1351,
      "gran": 1352,
      "ficar</w>": 1353,
      "om</w>": 1354,
      "ig": 1355,
      "wo": 1356,
      "need</w>": 1357,
      "vis": 1358,
      "ões</w>": 1359,
      "todos</w>": 1360,
      "self</w>": 1361,
      "eve</w>": 1362,
      "antes</w>": 1363,
      "much</w>": 1364,
      "fir": 1365,
      "ving</w>": 1366,
      "ever</w>": 1367,
      "love</w>": 1368,
      "then</w>": 1369,
      "ele": 1370,
      "conhe": 1371,
      "anos</w>": 1372,
      "gen": 1373,
      "conte": 1374,
      "bom</w>": 1375,
      "impor": 1376,
      "vel": 1377,
      "into</w>": 1378,
      "faz": 1379,
      "the": 1380,
      "really</w>": 1381,
      "fam": 1382,
      "than</w>": 1383,
      "two</w>": 1384,
      "tas</w>": 1385,
      "night</w>": 1386,
      "aju": 1387,
      "people</w>": 1388,
      "pla": 1389,
      "mul": 1390,
      "ainda</w>": 1391,
      "ger</w>": 1392,
      "Ach": 1393,
      "fore</w>": 1394,
      "po</w>": 1395,
      "sal": 1396,
      "loo": 1397,
      "stu": 1398,
      "poder": 1399,
      "falar</w>": 1400,
      "ct</w>": 1401,
      "pas": 1402,
      "han": 1403,
      "sho": 1404,
      "sempre</w>": 1405,
      "Why</w>": 1406,
      "Ma": 1407,
      "ons</w>": 1408,
      "mun": 1409,
      "mber</w>": 1410,
      "ous</w>": 1411,
      "senhor</w>": 1412,
      "ars</w>": 1413,
      "come": 1414,
      "ind</w>": 1415,
      "ways</w>": 1416,
      "gan": 1417,
      "heiro</w>": 1418,
      "cont": 1419,
      "favor</w>": 1420,
      "How</w>": 1421,
      "fr": 1422,
      "hou": 1423,
      "ves</w>": 1424,
      "mãe</w>": 1425,
      "ning</w>": 1426,
      "Ag": 1427,
      "Vamos</w>": 1428,
      "den": 1429,
      "aconte": 1430,
      "nos": 1431,
      "ban": 1432,
      "hos</w>": 1433,
      "Al": 1434,
      "acho</w>": 1435,
      "ybe</w>": 1436,
      "val": 1437,
      "better</w>": 1438,
      "za</w>": 1439,
      "every": 1440,
      "life</w>": 1441,
      "oun": 1442,
      "pouco</w>": 1443,
      "still</w>": 1444,
      "Como</w>": 1445,
      "dre": 1446,
      "ido</w>": 1447,
      "ding</w>": 1448,
      "ot</w>": 1449,
      "before</w>": 1450,
      "won</w>": 1451,
      "bre": 1452,
      "sure</w>": 1453,
      "Agora</w>": 1454,
      "star": 1455,
      "pois</w>": 1456,
      "ree</w>": 1457,
      "seus</w>": 1458,
      "coisas</w>": 1459,
      "Par": 1460,
      "even</w>": 1461,
      "hi": 1462,
      "bro": 1463,
      "deve</w>": 1464,
      "cab": 1465,
      "lease</w>": 1466,
      "gir": 1467,
      "old</w>": 1468,
      "sp": 1469,
      "rá": 1470,
      "ft</w>": 1471,
      "men</w>": 1472,
      "Don</w>": 1473,
      "vocês</w>": 1474,
      "dele</w>": 1475,
      "lugar</w>": 1476,
      "ish</w>": 1477,
      "gun": 1478,
      "então</w>": 1479,
      "lon": 1480,
      "again</w>": 1481,
      "On": 1482,
      "penas</w>": 1483,
      "ting</w>": 1484,
      "lev": 1485,
      "ight</w>": 1486,
      "hora</w>": 1487,
      "ina</w>": 1488,
      "Isso</w>": 1489,
      "first</w>": 1490,
      "My</w>": 1491,
      "pon": 1492,
      "talk</w>": 1493,
      "zes</w>": 1494,
      "estar</w>": 1495,
      "ck": 1496,
      "inguém</w>": 1497,
      "ny</w>": 1498,
      "ose</w>": 1499,
      "plan": 1500,
      "mean</w>": 1501,
      "ven</w>": 1502,
      "isto</w>": 1503,
      "thought</w>": 1504,
      "cr": 1505,
      "gue</w>": 1506,
      "ls</w>": 1507,
      "told</w>": 1508,
      "always</w>": 1509,
      "sem</w>": 1510,
      "Um</w>": 1511,
      "cara</w>": 1512,
      "quanto</w>": 1513,
      "sar</w>": 1514,
      "sto": 1515,
      "ment</w>": 1516,
      "hã</w>": 1517,
      "ceu</w>": 1518,
      "her": 1519,
      "wr": 1520,
      "last</w>": 1521,
      "rar</w>": 1522,
      "ws</w>": 1523,
      "ento</w>": 1524,
      "proble": 1525,
      "anything</w>": 1526,
      "oul": 1527,
      "gado</w>": 1528,
      "ful</w>": 1529,
      "certo</w>": 1530,
      "emb": 1531,
      "away</w>": 1532,
      "ida</w>": 1533,
      "garo": 1534,
      "ên": 1535,
      "Eles</w>": 1536,
      "find</w>": 1537,
      "porque</w>": 1538,
      "help</w>": 1539,
      "long</w>": 1540,
      "ará</w>": 1541,
      "Lo": 1542,
      "alguém</w>": 1543,
      "yes</w>": 1544,
      "work</w>": 1545,
      "mes</w>": 1546,
      "ocu": 1547,
      "tinha</w>": 1548,
      "Do</w>": 1549,
      "temos</w>": 1550,
      "these</w>": 1551,
      "call</w>": 1552,
      "dois</w>": 1553,
      "place</w>": 1554,
      "sto</w>": 1555,
      "ity</w>": 1556,
      "je</w>": 1557,
      "dire": 1558,
      "bra": 1559,
      "row</w>": 1560,
      "To": 1561,
      "ick</w>": 1562,
      "ton": 1563,
      "prime": 1564,
      "Quer": 1565,
      "red</w>": 1566,
      "tent": 1567,
      "home</w>": 1568,
      "things</w>": 1569,
      "har</w>": 1570,
      "ved</w>": 1571,
      "mar</w>": 1572,
      "ms</w>": 1573,
      "ant</w>": 1574,
      "verdade</w>": 1575,
      "ice</w>": 1576,
      "dr": 1577,
      "hon": 1578,
      "Estou</w>": 1579,
      "char": 1580,
      "cho": 1581,
      "Está</w>": 1582,
      "name</w>": 1583,
      "vi</w>": 1584,
      "tru": 1585,
      "dinheiro</w>": 1586,
      "ouldn</w>": 1587,
      "dor": 1588,
      "Que</w>": 1589,
      "iti": 1590,
      "sir</w>": 1591,
      "read": 1592,
      "pa</w>": 1593,
      "So": 1594,
      "father</w>": 1595,
      "bl": 1596,
      "Vou</w>": 1597,
      "amente</w>": 1598,
      "san": 1599,
      "wat": 1600,
      "todo</w>": 1601,
      "kay</w>": 1602,
      "comp": 1603,
      "put</w>": 1604,
      "pal": 1605,
      "comigo</w>": 1606,
      "dif": 1607,
      "fran": 1608,
      "tre": 1609,
      "sur": 1610,
      "mag": 1611,
      "Ye": 1612,
      "cl": 1613,
      "rou": 1614,
      "vem</w>": 1615,
      "those</w>": 1616,
      "nothing</w>": 1617,
      "cur": 1618,
      "Acho</w>": 1619,
      "demos</w>": 1620,
      "pelo</w>": 1621,
      "Tal": 1622,
      "ton</w>": 1623,
      "money</w>": 1624,
      "Yeah</w>": 1625,
      "bus": 1626,
      "ol</w>": 1627,
      "apenas</w>": 1628,
      "friend</w>": 1629,
      "cra": 1630,
      "try</w>": 1631,
      "mal": 1632,
      "fun": 1633,
      "Se": 1634,
      "years</w>": 1635,
      "dar": 1636,
      "jo</w>": 1637,
      "qui</w>": 1638,
      "nome</w>": 1639,
      "lor": 1640,
      "leave</w>": 1641,
      "fora</w>": 1642,
      "novo</w>": 1643,
      "after</w>": 1644,
      "ação</w>": 1645,
      "doing</w>": 1646,
      "inho</w>": 1647,
      "wal": 1648,
      "mat": 1649,
      "mundo</w>": 1650,
      "mão</w>": 1651,
      "pessoas</w>": 1652,
      "ph": 1653,
      "All</w>": 1654,
      "oh</w>": 1655,
      "happen": 1656,
      "fez</w>": 1657,
      "beli": 1658,
      "Be": 1659,
      "because</w>": 1660,
      "age</w>": 1661,
      "Su": 1662,
      "around</w>": 1663,
      "esn</w>": 1664,
      "disso</w>": 1665,
      "pp": 1666,
      "Talvez</w>": 1667,
      "encontr": 1668,
      "Ten": 1669,
      "happ": 1670,
      "Quando</w>": 1671,
      "ie</w>": 1672,
      "outro</w>": 1673,
      "ob": 1674,
      "ide": 1675,
      "grande</w>": 1676,
      "consegu": 1677,
      "please</w>": 1678,
      "deu</w>": 1679,
      "tir</w>": 1680,
      "ris": 1681,
      "kes</w>": 1682,
      "keep</w>": 1683,
      "acha</w>": 1684,
      "jun": 1685,
      "poderia</w>": 1686,
      "deus</w>": 1687,
      "house</w>": 1688,
      "side</w>": 1689,
      "ate</w>": 1690,
      "As</w>": 1691,
      "ível</w>": 1692,
      "ded</w>": 1693,
      "inter": 1694,
      "kil": 1695,
      "member</w>": 1696,
      "tting</w>": 1697,
      "faz</w>": 1698,
      "Let</w>": 1699,
      "dor</w>": 1700,
      "Yes</w>": 1701,
      "Hey</w>": 1702,
      "alguma</w>": 1703,
      "was": 1704,
      "parece</w>": 1705,
      "ste": 1706,
      "ner</w>": 1707,
      "ças</w>": 1708,
      "pass": 1709,
      "ak</w>": 1710,
      "Sa": 1711,
      "ing": 1712,
      "ready</w>": 1713,
      "iz": 1714,
      "room</w>": 1715,
      "stand</w>": 1716,
      "amento</w>": 1717,
      "mento</w>": 1718,
      "nem</w>": 1719,
      "queria</w>": 1720,
      "doesn</w>": 1721,
      "depois</w>": 1722,
      "clar": 1723,
      "came</w>": 1724,
      "Só</w>": 1725,
      "lemb": 1726,
      "saber</w>": 1727,
      "their</w>": 1728,
      "pra": 1729,
      "mal</w>": 1730,
      "hoje</w>": 1731,
      "mulher</w>": 1732,
      "vir</w>": 1733,
      "sig": 1734,
      "ach</w>": 1735,
      "lie</w>": 1736,
      "cos</w>": 1737,
      "ns</w>": 1738,
      "your": 1739,
      "ninguém</w>": 1740,
      "pró": 1741,
      "rei</w>": 1742,
      ":.</w>": 1743,
      "wanted</w>": 1744,
      "cen": 1745,
      "clo": 1746,
      "doc": 1747,
      "made</w>": 1748,
      "ise</w>": 1749,
      "acre": 1750,
      "low</w>": 1751,
      "lan": 1752,
      "il</w>": 1753,
      "bat": 1754,
      "left</w>": 1755,
      "seja</w>": 1756,
      "tive</w>": 1757,
      "suas</w>": 1758,
      "wer</w>": 1759,
      "isn</w>": 1760,
      "ica</w>": 1761,
      "When</w>": 1762,
      "ive</w>": 1763,
      "ano</w>": 1764,
      "ff</w>": 1765,
      "arei</w>": 1766,
      "pergun": 1767,
      "Your</w>": 1768,
      "aram</w>": 1769,
      "nor": 1770,
      "mother</w>": 1771,
      "Os</w>": 1772,
      "trabalho</w>": 1773,
      "cour": 1774,
      "ned</w>": 1775,
      "ler</w>": 1776,
      "amigo</w>": 1777,
      "lot</w>": 1778,
      "feel</w>": 1779,
      "coun": 1780,
      "estamos</w>": 1781,
      "pol": 1782,
      "ally</w>": 1783,
      "dest": 1784,
      "tain</w>": 1785,
      "cas": 1786,
      "tal</w>": 1787,
      "outra</w>": 1788,
      "guy</w>": 1789,
      "big</w>": 1790,
      "Por": 1791,
      "girl</w>": 1792,
      "via</w>": 1793,
      "chil": 1794,
      "believe</w>": 1795,
      "itar</w>": 1796,
      "dever": 1797,
      "gou</w>": 1798,
      "boa</w>": 1799,
      "íci": 1800,
      "gr": 1801,
      "enh": 1802,
      "Then</w>": 1803,
      "dem</w>": 1804,
      "another</w>": 1805,
      "ece</w>": 1806,
      "bor": 1807,
      "ger": 1808,
      "gum</w>": 1809,
      "cle": 1810,
      "wee": 1811,
      "rel": 1812,
      "under": 1813,
      "til</w>": 1814,
      "son": 1815,
      "jan": 1816,
      "dur": 1817,
      "enten": 1818,
      "bon": 1819,
      "ência</w>": 1820,
      "head</w>": 1821,
      "ile</w>": 1822,
      "Nós</w>": 1823,
      "Di": 1824,
      "show</w>": 1825,
      "fazendo</w>": 1826,
      "começ": 1827,
      "trou": 1828,
      "great</w>": 1829,
      "sol": 1830,
      "stay</w>": 1831,
      "kind</w>": 1832,
      "dela</w>": 1833,
      "importan": 1834,
      "Go": 1835,
      "quis": 1836,
      "aman": 1837,
      "ins</w>": 1838,
      "Look</w>": 1839,
      "Tenho</w>": 1840,
      "ário</w>": 1841,
      "ock</w>": 1842,
      "boy</w>": 1843,
      "ps</w>": 1844,
      "Just</w>": 1845,
      "die</w>": 1846,
      "será</w>": 1847,
      "ne</w>": 1848,
      "pedi": 1849,
      "tro</w>": 1850,
      "dr</w>": 1851,
      "lou": 1852,
      "sta": 1853,
      "might</w>": 1854,
      "bur": 1855,
      "kill</w>": 1856,
      "qui": 1857,
      "war": 1858,
      "pela</w>": 1859,
      "does</w>": 1860,
      "quar": 1861,
      "hear</w>": 1862,
      "des</w>": 1863,
      "iu</w>": 1864,
      "sorry</w>": 1865,
      "rough</w>": 1866,
      "uh</w>": 1867,
      "bab": 1868,
      "feli": 1869,
      "ss</w>": 1870,
      "nu": 1871,
      "ley</w>": 1872,
      "kno": 1873,
      "proc": 1874,
      "Re": 1875,
      "sair</w>": 1876,
      "dado</w>": 1877,
      "xi": 1878,
      "joh": 1879,
      "acab": 1880,
      "cial</w>": 1881,
      "mind</w>": 1882,
      "menos</w>": 1883,
      "ans": 1884,
      "precisa</w>": 1885,
      "sse</w>": 1886,
      "filho</w>": 1887,
      "elas</w>": 1888,
      "uni": 1889,
      "who": 1890,
      "may</w>": 1891,
      "Meu</w>": 1892,
      "itu": 1893,
      "lti": 1894,
      "meus</w>": 1895,
      "most</w>": 1896,
      "chance</w>": 1897,
      "nosso</w>": 1898,
      "Fo": 1899,
      "wouldn</w>": 1900,
      "lia</w>": 1901,
      "world</w>": 1902,
      "remember</w>": 1903,
      "fica</w>": 1904,
      "liv": 1905,
      "own</w>": 1906,
      "voltar</w>": 1907,
      "viu</w>": 1908,
      "No": 1909,
      "vão</w>": 1910,
      "cabe": 1911,
      "entr": 1912,
      "tel": 1913,
      "ence</w>": 1914,
      "shi": 1915,
      "ino</w>": 1916,
      "rado</w>": 1917,
      "woman</w>": 1918,
      "algum</w>": 1919,
      "ank</w>": 1920,
      "dio</w>": 1921,
      "same</w>": 1922,
      "qual": 1923,
      "últi": 1924,
      "Porque</w>": 1925,
      "ily</w>": 1926,
      "toda</w>": 1927,
      "Maybe</w>": 1928,
      "Come</w>": 1929,
      "lat": 1930,
      "wil": 1931,
      "miss</w>": 1932,
      "sis": 1933,
      "ask</w>": 1934,
      "my": 1935,
      "sado</w>": 1936,
      "else</w>": 1937,
      "care</w>": 1938,
      "volta</w>": 1939,
      "In</w>": 1940,
      "tinu": 1941,
      "sos</w>": 1942,
      "..</w>": 1943,
      "Con": 1944,
      "saw</w>": 1945,
      "pat": 1946,
      "vezes</w>": 1947,
      "esque": 1948,
      "ses</w>": 1949,
      "real</w>": 1950,
      "coming</w>": 1951,
      "teza</w>": 1952,
      "with": 1953,
      "itos</w>": 1954,
      "rs</w>": 1955,
      "sta</w>": 1956,
      "talvez</w>": 1957,
      "tta</w>": 1958,
      "happened</w>": 1959,
      "ans</w>": 1960,
      "bad</w>": 1961,
      "through</w>": 1962,
      "done</w>": 1963,
      "being</w>": 1964,
      "quen": 1965,
      "nenh": 1966,
      "three</w>": 1967,
      "sk": 1968,
      "Pre": 1969,
      "aquele</w>": 1970,
      "stop</w>": 1971,
      "di</w>": 1972,
      "ear": 1973,
      "diz</w>": 1974,
      "times</w>": 1975,
      "ções</w>": 1976,
      "tenha</w>": 1977,
      "sou": 1978,
      "ati": 1979,
      "preocu": 1980,
      "ais</w>": 1981,
      "Tem</w>": 1982,
      "esp": 1983,
      "tipo</w>": 1984,
      "ink</w>": 1985,
      "everything</w>": 1986,
      "emp": 1987,
      "sup": 1988,
      "eri": 1989,
      "problema</w>": 1990,
      "poli": 1991,
      "preciso</w>": 1992,
      "god</w>": 1993,
      "cin": 1994,
      "ried</w>": 1995,
      "fac": 1996,
      "An": 1997,
      "exp": 1998,
      "tty</w>": 1999,
      "vê</w>": 2000,
      "dou": 2001,
      "diz": 2002,
      "ai</w>": 2003,
      "Quero</w>": 2004,
      "los</w>": 2005,
      "podemos</w>": 2006,
      "dá</w>": 2007,
      "pt</w>": 2008,
      "art</w>": 2009,
      "eu": 2010,
      "rece": 2011,
      "nice</w>": 2012,
      "nossa</w>": 2013,
      "ster</w>": 2014,
      "entes</w>": 2015,
      "enough</w>": 2016,
      "crian": 2017,
      "Uma</w>": 2018,
      "10</w>": 2019,
      "inc": 2020,
      "every</w>": 2021,
      "dro": 2022,
      "Is</w>": 2023,
      "Foi</w>": 2024,
      "able</w>": 2025,
      "isten</w>": 2026,
      "brigado</w>": 2027,
      "udo</w>": 2028,
      "amor</w>": 2029,
      "getting</w>": 2030,
      "deveria</w>": 2031,
      "live</w>": 2032,
      "Ah</w>": 2033,
      "Ou": 2034,
      "ory</w>": 2035,
      "cy</w>": 2036,
      "carro</w>": 2037,
      "today</w>": 2038,
      "days</w>": 2039,
      "someone</w>": 2040,
      "000</w>": 2041,
      "ents</w>": 2042,
      "bel": 2043,
      "its</w>": 2044,
      "wasn</w>": 2045,
      "aí</w>": 2046,
      "str": 2047,
      "sas</w>": 2048,
      "tado</w>": 2049,
      "pic": 2050,
      "feito</w>": 2051,
      "sle": 2052,
      "três</w>": 2053,
      "ase</w>": 2054,
      "neg": 2055,
      "dias</w>": 2056,
      "hist": 2057,
      "ham</w>": 2058,
      "ados</w>": 2059,
      "morrow</w>": 2060,
      "fici": 2061,
      "fre": 2062,
      "frien": 2063,
      "tou</w>": 2064,
      "mé": 2065,
      "went</w>": 2066,
      "wanna</w>": 2067,
      "paz</w>": 2068,
      "deixar</w>": 2069,
      "pequen": 2070,
      "many</w>": 2071,
      "horas</w>": 2072,
      "maybe</w>": 2073,
      "manhã</w>": 2074,
      "certeza</w>": 2075,
      "realmente</w>": 2076,
      "ória</w>": 2077,
      "best</w>": 2078,
      "wrong</w>": 2079,
      "dead</w>": 2080,
      "found</w>": 2081,
      "camin": 2082,
      "Sabe</w>": 2083,
      "sion</w>": 2084,
      "gg": 2085,
      "wife</w>": 2086,
      "cidade</w>": 2087,
      "don": 2088,
      "dri": 2089,
      "cora": 2090,
      "únic": 2091,
      "qualquer</w>": 2092,
      "iness</w>": 2093,
      "feliz</w>": 2094,
      "int</w>": 2095,
      "ja": 2096,
      "heard</w>": 2097,
      "Did</w>": 2098,
      "land</w>": 2099,
      "tanto</w>": 2100,
      "continu": 2101,
      "okay</w>": 2102,
      "Este</w>": 2103,
      "morr": 2104,
      "lis": 2105,
      "eral</w>": 2106,
      "Pe": 2107,
      "ável</w>": 2108,
      "aconteceu</w>": 2109,
      "tonight</w>": 2110,
      "cada</w>": 2111,
      "ken</w>": 2112,
      "lado</w>": 2113,
      "acred": 2114,
      "dito</w>": 2115,
      "assu": 2116,
      "Des": 2117,
      "íamos</w>": 2118,
      "vesse</w>": 2119,
      "Tudo</w>": 2120,
      "mens</w>": 2121,
      "amig": 2122,
      "nas</w>": 2123,
      "ador</w>": 2124,
      "sabia</w>": 2125,
      "primeiro</w>": 2126,
      "eja</w>": 2127,
      "tele": 2128,
      "wait</w>": 2129,
      "ary</w>": 2130,
      "turn</w>": 2131,
      "far": 2132,
      "sha": 2133,
      "rás</w>": 2134,
      "iting</w>": 2135,
      "hur": 2136,
      "Há</w>": 2137,
      "diga</w>": 2138,
      "idade</w>": 2139,
      "atrás</w>": 2140,
      "parte</w>": 2141,
      "seen</w>": 2142,
      "ram</w>": 2143,
      "pren": 2144,
      "looking</w>": 2145,
      "ki": 2146,
      "coloc": 2147,
      "haven</w>": 2148,
      "seman": 2149,
      "sing</w>": 2150,
      "hal": 2151,
      "dou</w>": 2152,
      "fosse</w>": 2153,
      "see": 2154,
      "understand</w>": 2155,
      "sra</w>": 2156,
      "xt</w>": 2157,
      "Para</w>": 2158,
      "ath</w>": 2159,
      "fol": 2160,
      "trying</w>": 2161,
      "gether</w>": 2162,
      "ker</w>": 2163,
      "killed</w>": 2164,
      "course</w>": 2165,
      "alone</w>": 2166,
      "beb": 2167,
      "eram</w>": 2168,
      "yeah</w>": 2169,
      "guys</w>": 2170,
      "êm</w>": 2171,
      "dra": 2172,
      "cel": 2173,
      "together</w>": 2174,
      "Já</w>": 2175,
      "without</w>": 2176,
      "ic</w>": 2177,
      "guar": 2178,
      "deci": 2179,
      "wants</w>": 2180,
      "itão</w>": 2181,
      "wing</w>": 2182,
      "next</w>": 2183,
      "Me</w>": 2184,
      "vemos</w>": 2185,
      "fess": 2186,
      "chu": 2187,
      "-.</w>": 2188,
      "procur": 2189,
      "ago</w>": 2190,
      "fel": 2191,
      "ture</w>": 2192,
      "atu": 2193,
      "Are</w>": 2194,
      "homens</w>": 2195,
      "onel</w>": 2196,
      "aquela</w>": 2197,
      "ich</w>": 2198,
      "morning</w>": 2199,
      "Some": 2200,
      "guess</w>": 2201,
      "Ei</w>": 2202,
      "vos</w>": 2203,
      "soz": 2204,
      "tarde</w>": 2205,
      "daqui</w>": 2206,
      "Mr</w>": 2207,
      "mit": 2208,
      "used</w>": 2209,
      "Not</w>": 2210,
      "chi": 2211,
      "knew</w>": 2212,
      "tomorrow</w>": 2213,
      "yourself</w>": 2214,
      "doctor</w>": 2215,
      "Quem</w>": 2216,
      "amanhã</w>": 2217,
      "Pode</w>": 2218,
      "cio</w>": 2219,
      "eng": 2220,
      "sar": 2221,
      "nam": 2222,
      "mrs</w>": 2223,
      "myself</w>": 2224,
      "cli": 2225,
      "baby</w>": 2226,
      "ior</w>": 2227,
      "agem</w>": 2228,
      "fl": 2229,
      "pegar</w>": 2230,
      "famí": 2231,
      "gem</w>": 2232,
      "huh</w>": 2233,
      "talking</w>": 2234,
      "gostaria</w>": 2235,
      "took</w>": 2236,
      "contro": 2237,
      "iam</w>": 2238,
      "ugh": 2239,
      "coul": 2240,
      "ings</w>": 2241,
      "face</w>": 2242,
      "happy</w>": 2243,
      "cui": 2244,
      "cabeça</w>": 2245,
      "gotta</w>": 2246,
      "tei</w>": 2247,
      "Because</w>": 2248,
      "hope</w>": 2249,
      "while</w>": 2250,
      "Can</w>": 2251,
      "family</w>": 2252,
      "ation</w>": 2253,
      "play</w>": 2254,
      "imag": 2255,
      "vir": 2256,
      "caso</w>": 2257,
      "ital</w>": 2258,
      "usa</w>": 2259,
      "job</w>": 2260,
      "ed": 2261,
      "ion</w>": 2262,
      "few</w>": 2263,
      "pris": 2264,
      "ack": 2265,
      "whole</w>": 2266,
      "friends</w>": 2267,
      "couldn</w>": 2268,
      "termin": 2269,
      "oso</w>": 2270,
      "band</w>": 2271,
      "amigos</w>": 2272,
      "hun": 2273,
      "duas</w>": 2274,
      "ico</w>": 2275,
      "says</w>": 2276,
      "às</w>": 2277,
      "gente</w>": 2278,
      "called</w>": 2279,
      "em": 2280,
      "sub": 2281,
      "itas</w>": 2282,
      "ye</w>": 2283,
      "ang": 2284,
      "youn": 2285,
      "cal</w>": 2286,
      "pido</w>": 2287,
      "brother</w>": 2288,
      "claro</w>": 2289,
      "qual</w>": 2290,
      "res</w>": 2291,
      "idi": 2292,
      "late</w>": 2293,
      "fra": 2294,
      "medo</w>": 2295,
      "loc": 2296,
      "20</w>": 2297,
      "tt</w>": 2298,
      "vá</w>": 2299,
      "offic": 2300,
      "consi": 2301,
      "falando</w>": 2302,
      "business</w>": 2303,
      "seria</w>": 2304,
      "prote": 2305,
      "gosto</w>": 2306,
      "ze</w>": 2307,
      "ixo</w>": 2308,
      "deixe</w>": 2309,
      "ajudar</w>": 2310,
      "garota</w>": 2311,
      "família</w>": 2312,
      "per</w>": 2313,
      "querida</w>": 2314,
      "Per": 2315,
      "such</w>": 2316,
      "Where</w>": 2317,
      "tro": 2318,
      "ass</w>": 2319,
      "alguns</w>": 2320,
      "ícia</w>": 2321,
      "quarto</w>": 2322,
      "momento</w>": 2323,
      "Who</w>": 2324,
      "Seu</w>": 2325,
      "bring</w>": 2326,
      "vil": 2327,
      "start</w>": 2328,
      "sm": 2329,
      "pretty</w>": 2330,
      "atra": 2331,
      "caval": 2332,
      "maj": 2333,
      "ale": 2334,
      "ours</w>": 2335,
      "dam": 2336,
      "Ex": 2337,
      "blo": 2338,
      "outros</w>": 2339,
      "yet</w>": 2340,
      "oca</w>": 2341,
      "embora</w>": 2342,
      "case</w>": 2343,
      "hus": 2344,
      "raid</w>": 2345,
      "questi": 2346,
      "irmão</w>": 2347,
      "Com</w>": 2348,
      "ple</w>": 2349,
      "pul": 2350,
      "Esta</w>": 2351,
      "deles</w>": 2352,
      "frente</w>": 2353,
      "Li": 2354,
      "cado</w>": 2355,
      "town</w>": 2356,
      "entre</w>": 2357,
      "esses</w>": 2358,
      "parar</w>": 2359,
      "less</w>": 2360,
      "ave</w>": 2361,
      "las</w>": 2362,
      "levar</w>": 2363,
      "lin": 2364,
      "Temos</w>": 2365,
      "má": 2366,
      "Parece</w>": 2367,
      "jeito</w>": 2368,
      "gua</w>": 2369,
      "scho": 2370,
      "Nunca</w>": 2371,
      "tel</w>": 2372,
      "mer</w>": 2373,
      "suppo": 2374,
      "dê</w>": 2375,
      "sy": 2376,
      "poss": 2377,
      "rest</w>": 2378,
      "win": 2379,
      "bit</w>": 2380,
      "inv": 2381,
      "cro": 2382,
      "set</w>": 2383,
      "rada</w>": 2384,
      "afraid</w>": 2385,
      "ish": 2386,
      "minutos</w>": 2387,
      "once</w>": 2388,
      "ore</w>": 2389,
      "fessor</w>": 2390,
      "ista</w>": 2391,
      "quiser</w>": 2392,
      "quê</w>": 2393,
      "matar</w>": 2394,
      "den</w>": 2395,
      "minutes</w>": 2396,
      "part</w>": 2397,
      "teria</w>": 2398,
      "until</w>": 2399,
      "tly</w>": 2400,
      "Precis": 2401,
      "ani": 2402,
      "ros</w>": 2403,
      "var</w>": 2404,
      "cion": 2405,
      "beau": 2406,
      "chegar</w>": 2407,
      "bed</w>": 2408,
      "velho</w>": 2409,
      "pensar</w>": 2410,
      "soon</w>": 2411,
      "posa</w>": 2412,
      "Quer</w>": 2413,
      "guer": 2414,
      "teve</w>": 2415,
      "secre": 2416,
      "chama": 2417,
      "têm</w>": 2418,
      "entar</w>": 2419,
      "tido</w>": 2420,
      "already</w>": 2421,
      "ân": 2422,
      "Mu": 2423,
      "essas</w>": 2424,
      "pens": 2425,
      "hard</w>": 2426,
      "segun": 2427,
      "lha</w>": 2428,
      "hand</w>": 2429,
      "year</w>": 2430,
      "secon": 2431,
      "pron": 2432,
      "fan": 2433,
      "idea</w>": 2434,
      "gone</w>": 2435,
      "ason</w>": 2436,
      "primeira</w>": 2437,
      "bil": 2438,
      "porta</w>": 2439,
      "gave</w>": 2440,
      "ín": 2441,
      "One</w>": 2442,
      "leg": 2443,
      "Em</w>": 2444,
      "clu": 2445,
      "marido</w>": 2446,
      "bast": 2447,
      "capitão</w>": 2448,
      "husband</w>": 2449,
      "sil": 2450,
      "gan</w>": 2451,
      "desse</w>": 2452,
      "faça</w>": 2453,
      "young</w>": 2454,
      "vindo</w>": 2455,
      "ório</w>": 2456,
      "Deix": 2457,
      "próxi": 2458,
      "john</w>": 2459,
      "acor": 2460,
      "aci": 2461,
      "school</w>": 2462,
      "sam</w>": 2463,
      "ction</w>": 2464,
      "mãos</w>": 2465,
      "todas</w>": 2466,
      "palav": 2467,
      "run</w>": 2468,
      "Jo": 2469,
      "Pen": 2470,
      "dge</w>": 2471,
      "perto</w>": 2472,
      "pessoa</w>": 2473,
      "For</w>": 2474,
      "esposa</w>": 2475,
      "meet</w>": 2476,
      "nenhum</w>": 2477,
      "port</w>": 2478,
      "contra": 2479,
      "difer": 2480,
      "word</w>": 2481,
      "ff": 2482,
      "door</w>": 2483,
      "hosp": 2484,
      "raz": 2485,
      "vic": 2486,
      "ores</w>": 2487,
      "vin": 2488,
      "dentro</w>": 2489,
      "dad</w>": 2490,
      "encontrar</w>": 2491,
      "contra</w>": 2492,
      "sinto</w>": 2493,
      "eas": 2494,
      "ura</w>": 2495,
      "Na</w>": 2496,
      "cle</w>": 2497,
      "tentando</w>": 2498,
      "anyone</w>": 2499,
      "eira</w>": 2500,
      "Esse</w>": 2501,
      "knows</w>": 2502,
      "difíci": 2503,
      "culpe</w>": 2504,
      "ner": 2505,
      "captain</w>": 2506,
      "Aqui</w>": 2507,
      "desco": 2508,
      "Sou</w>": 2509,
      "De</w>": 2510,
      "thers</w>": 2511,
      "ás</w>": 2512,
      "sido</w>": 2513,
      "caminho</w>": 2514,
      "hol": 2515,
      "exis": 2516,
      "Onde</w>": 2517,
      "matter</w>": 2518,
      "asse</w>": 2519,
      "fine</w>": 2520,
      "ras</w>": 2521,
      "estran": 2522,
      "escol": 2523,
      "ping</w>": 2524,
      "lost</w>": 2525,
      "wish</w>": 2526,
      "cru": 2527,
      "ated</w>": 2528,
      "ters</w>": 2529,
      "lady</w>": 2530,
      "won": 2531,
      "pay</w>": 2532,
      "differ": 2533,
      "final</w>": 2534,
      "trouble</w>": 2535,
      "ward</w>": 2536,
      "simp": 2537,
      "move</w>": 2538,
      "juntos</w>": 2539,
      "change</w>": 2540,
      "própri": 2541,
      "dres": 2542,
      "light</w>": 2543,
      "ci</w>": 2544,
      "Uh</w>": 2545,
      "nov": 2546,
      "od": 2547,
      "since</w>": 2548,
      "peri": 2549,
      "cla": 2550,
      "podem</w>": 2551,
      "entrar</w>": 2552,
      "far</w>": 2553,
      "Ser": 2554,
      "ely</w>": 2555,
      "nova</w>": 2556,
      "30</w>": 2557,
      "Fa": 2558,
      "heart</w>": 2559,
      "tch</w>": 2560,
      "ddy</w>": 2561,
      "ace": 2562,
      "swe": 2563,
      "cil</w>": 2564,
      "mic": 2565,
      "med</w>": 2566,
      "bun": 2567,
      "médi": 2568,
      "oper": 2569,
      "reg": 2570,
      "ba</w>": 2571,
      "hospital</w>": 2572,
      "demais</w>": 2573,
      "lem</w>": 2574,
      "♪.</w>": 2575,
      "ali": 2576,
      "Okay</w>": 2577,
      "Vocês</w>": 2578,
      "ouvir</w>": 2579,
      "minute</w>": 2580,
      "morte</w>": 2581,
      "ak": 2582,
      "esco": 2583,
      "stre": 2584,
      "del": 2585,
      "mir</w>": 2586,
      "death</w>": 2587,
      "50</w>": 2588,
      "dando</w>": 2589,
      "compr": 2590,
      "gada</w>": 2591,
      "mine</w>": 2592,
      "negó": 2593,
      "importa</w>": 2594,
      "idio": 2595,
      "ces</w>": 2596,
      "errado</w>": 2597,
      "both</w>": 2598,
      "ej": 2599,
      "ness</w>": 2600,
      "forget</w>": 2601,
      "flo": 2602,
      "mur": 2603,
      "least</w>": 2604,
      "tando</w>": 2605,
      "óti": 2606,
      "apo": 2607,
      "história</w>": 2608,
      "pensei</w>": 2609,
      "Diga</w>": 2610,
      "len": 2611,
      "respe": 2612,
      "professor</w>": 2613,
      "Do": 2614,
      "bli": 2615,
      "meio</w>": 2616,
      "Tell</w>": 2617,
      "ship</w>": 2618,
      "ther": 2619,
      "bar</w>": 2620,
      "ren": 2621,
      "contar</w>": 2622,
      "ana</w>": 2623,
      "usar</w>": 2624,
      "kid</w>": 2625,
      "Sr</w>": 2626,
      "bran": 2627,
      "forma</w>": 2628,
      "mesma</w>": 2629,
      "married</w>": 2630,
      "telef": 2631,
      "ama": 2632,
      "spen": 2633,
      "waiting</w>": 2634,
      "ain": 2635,
      "filha</w>": 2636,
      "ition</w>": 2637,
      "Sen": 2638,
      "ment": 2639,
      "out": 2640,
      "most": 2641,
      "lar</w>": 2642,
      "olhos</w>": 2643,
      "key</w>": 2644,
      "polícia</w>": 2645,
      "orge</w>": 2646,
      "gosta</w>": 2647,
      "Esper": 2648,
      "tou": 2649,
      "up": 2650,
      "Vai</w>": 2651,
      "shall</w>": 2652,
      "assa": 2653,
      "mus": 2654,
      "fui</w>": 2655,
      "sé": 2656,
      "thank</w>": 2657,
      "Posso</w>": 2658,
      "general</w>": 2659,
      "fron": 2660,
      "difícil</w>": 2661,
      "dear</w>": 2662,
      "water</w>": 2663,
      "desde</w>": 2664,
      "ither</w>": 2665,
      "aren</w>": 2666,
      "drink</w>": 2667,
      "gal": 2668,
      "aos</w>": 2669,
      "expe": 2670,
      "phone</w>": 2671,
      "importante</w>": 2672,
      "veio</w>": 2673,
      "viver</w>": 2674,
      "open</w>": 2675,
      "nie</w>": 2676,
      "algumas</w>": 2677,
      "stan": 2678,
      "escre": 2679,
      "cima</w>": 2680,
      "Estamos</w>": 2681,
      "sleep</w>": 2682,
      "To</w>": 2683,
      "problem</w>": 2684,
      "zy</w>": 2685,
      "pé": 2686,
      "eat</w>": 2687,
      "Sua</w>": 2688,
      "passar</w>": 2689,
      "eyes</w>": 2690,
      "semana</w>": 2691,
      "dam</w>": 2692,
      "Bo": 2693,
      "Here</w>": 2694,
      "erto</w>": 2695,
      "dren</w>": 2696,
      "fá": 2697,
      "sorte</w>": 2698,
      "Get</w>": 2699,
      "nee": 2700,
      "hotel</w>": 2701,
      "ney</w>": 2702,
      "yed</w>": 2703,
      "ult</w>": 2704,
      "xe</w>": 2705,
      "fique</w>": 2706,
      "senhora</w>": 2707,
      "under</w>": 2708,
      "morrer</w>": 2709,
      "ya</w>": 2710,
      "minhas</w>": 2711,
      "hours</w>": 2712,
      "toc": 2713,
      "Essa</w>": 2714,
      "crianças</w>": 2715,
      "conver": 2716,
      "Ainda</w>": 2717,
      "comes</w>": 2718,
      "ús": 2719,
      "obrigado</w>": 2720,
      "hold</w>": 2721,
      "morto</w>": 2722,
      "somebody</w>": 2723,
      "quase</w>": 2724,
      "água</w>": 2725,
      "num</w>": 2726,
      "última</w>": 2727,
      "anks</w>": 2728,
      "police</w>": 2729,
      "hell</w>": 2730,
      "van": 2731,
      "bo</w>": 2732,
      "ici": 2733,
      "def": 2734,
      "longe</w>": 2735,
      "again": 2736,
      "promis": 2737,
      "iss</w>": 2738,
      "problemas</w>": 2739,
      "atro</w>": 2740,
      "against</w>": 2741,
      "oci": 2742,
      "rápido</w>": 2743,
      "cky</w>": 2744,
      "gas</w>": 2745,
      "rta</w>": 2746,
      "ens</w>": 2747,
      "esperar</w>": 2748,
      "foram</w>": 2749,
      "uns</w>": 2750,
      "Mar": 2751,
      "nisso</w>": 2752,
      "looks</w>": 2753,
      "five</w>": 2754,
      "fiz</w>": 2755,
      "fé</w>": 2756,
      "ten</w>": 2757,
      "thinking</w>": 2758,
      "worry</w>": 2759,
      "lear": 2760,
      "ral</w>": 2761,
      "logo</w>": 2762,
      "wer": 2763,
      "sco": 2764,
      "important</w>": 2765,
      "coração</w>": 2766,
      "having</w>": 2767,
      "çar</w>": 2768,
      "espe": 2769,
      "daugh": 2770,
      "children</w>": 2771,
      "city</w>": 2772,
      "listen</w>": 2773,
      "quei</w>": 2774,
      "bert</w>": 2775,
      "esperando</w>": 2776,
      "taking</w>": 2777,
      "hes</w>": 2778,
      "Minha</w>": 2779,
      "parti": 2780,
      "ged</w>": 2781,
      "par</w>": 2782,
      "hands</w>": 2783,
      "speak</w>": 2784,
      "pan": 2785,
      "gando</w>": 2786,
      "ating</w>": 2787,
      "camp": 2788,
      "hando</w>": 2789,
      "cido</w>": 2790,
      "ama</w>": 2791,
      "confi": 2792,
      "adi": 2793,
      "tiful</w>": 2794,
      "later</w>": 2795,
      "hit</w>": 2796,
      "\"?</w>": 2797,
      "pare</w>": 2798,
      "ies</w>": 2799,
      "escu": 2800,
      "guei</w>": 2801,
      "dei</w>": 2802,
      "dizendo</w>": 2803,
      "Ho": 2804,
      "ake</w>": 2805,
      "diver": 2806,
      "act</w>": 2807,
      "abri": 2808,
      "makes</w>": 2809,
      "mp</w>": 2810,
      "Fi": 2811,
      "começar</w>": 2812,
      "ontem</w>": 2813,
      "guerra</w>": 2814,
      "pedir</w>": 2815,
      "hores</w>": 2816,
      "asked</w>": 2817,
      "terr": 2818,
      "child</w>": 2819,
      "tirar</w>": 2820,
      "úmer": 2821,
      "corre": 2822,
      "part": 2823,
      "spo": 2824,
      "arma</w>": 2825,
      "'.</w>": 2826,
      "fight</w>": 2827,
      "gets</w>": 2828,
      "ef</w>": 2829,
      "hael</w>": 2830,
      "ste</w>": 2831,
      "read</w>": 2832,
      "ul</w>": 2833,
      "gent": 2834,
      "happen</w>": 2835,
      "ben": 2836,
      "idente</w>": 2837,
      "terra</w>": 2838,
      "half</w>": 2839,
      "gun</w>": 2840,
      "Car": 2841,
      "wed</w>": 2842,
      "mã</w>": 2843,
      "war</w>": 2844,
      "human": 2845,
      "ist</w>": 2846,
      "respon": 2847,
      "stuff</w>": 2848,
      "pas</w>": 2849,
      "ali</w>": 2850,
      "beautiful</w>": 2851,
      "cas</w>": 2852,
      "infor": 2853,
      "feel": 2854,
      "dle</w>": 2855,
      "Ninguém</w>": 2856,
      "enquanto</w>": 2857,
      "conhece</w>": 2858,
      "daughter</w>": 2859,
      "As": 2860,
      "fer</w>": 2861,
      "avi": 2862,
      "ias</w>": 2863,
      "ths</w>": 2864,
      "till</w>": 2865,
      "tin</w>": 2866,
      "tentar</w>": 2867,
      "ajuda</w>": 2868,
      "truth</w>": 2869,
      "jogo</w>": 2870,
      "única</w>": 2871,
      "also</w>": 2872,
      "line</w>": 2873,
      "cted</w>": 2874,
      "week</w>": 2875,
      "stra": 2876,
      "each</w>": 2877,
      "haps</w>": 2878,
      "sible</w>": 2879,
      "desta</w>": 2880,
      "ped</w>": 2881,
      "conta</w>": 2882,
      "culpa</w>": 2883,
      "--</w>": 2884,
      "saying</w>": 2885,
      "somos</w>": 2886,
      "medi": 2887,
      "aremos</w>": 2888,
      "cé": 2889,
      "escola</w>": 2890,
      "At</w>": 2891,
      "aten": 2892,
      "sada</w>": 2893,
      "att": 2894,
      "amer": 2895,
      "torn": 2896,
      "possível</w>": 2897,
      "star</w>": 2898,
      "ird</w>": 2899,
      "ky</w>": 2900,
      "gover": 2901,
      "cem</w>": 2902,
      "hurt</w>": 2903,
      "chefe</w>": 2904,
      "gor": 2905,
      "tually</w>": 2906,
      "ef": 2907,
      "tivesse</w>": 2908,
      "thy</w>": 2909,
      "sister</w>": 2910,
      "signi": 2911,
      "tun": 2912,
      "tic</w>": 2913,
      "ador": 2914,
      "ilo</w>": 2915,
      "gia</w>": 2916,
      "númer": 2917,
      "chor": 2918,
      "Every": 2919,
      "ders</w>": 2920,
      "ber</w>": 2921,
      "papai</w>": 2922,
      "vejo</w>": 2923,
      "moment</w>": 2924,
      "rest": 2925,
      "Aqu": 2926,
      "second</w>": 2927,
      "four</w>": 2928,
      "fim</w>": 2929,
      "watch</w>": 2930,
      "eta</w>": 2931,
      "garoto</w>": 2932,
      "ini": 2933,
      "Todos</w>": 2934,
      "avam</w>": 2935,
      "dido</w>": 2936,
      "apren": 2937,
      "close</w>": 2938,
      "number</w>": 2939,
      "story</w>": 2940,
      "?\".</w>": 2941,
      "len</w>": 2942,
      "figu": 2943,
      "jantar</w>": 2944,
      "vendo</w>": 2945,
      "died</w>": 2946,
      "als</w>": 2947,
      "party</w>": 2948,
      "heres</w>": 2949,
      "fire</w>": 2950,
      "anymore</w>": 2951,
      "descobri": 2952,
      "shot</w>": 2953,
      "novamente</w>": 2954,
      "Ok</w>": 2955,
      "razão</w>": 2956,
      "irá</w>": 2957,
      "jovem</w>": 2958,
      "esa</w>": 2959,
      "major</w>": 2960,
      "Clar": 2961,
      "quite</w>": 2962,
      "Isto</w>": 2963,
      "srta</w>": 2964,
      "brought</w>": 2965,
      "comer</w>": 2966,
      "tomar</w>": 2967,
      "ko": 2968,
      "point</w>": 2969,
      "which</w>": 2970,
      "veja</w>": 2971,
      "send</w>": 2972,
      "Have</w>": 2973,
      "wel": 2974,
      "pensando</w>": 2975,
      "pel": 2976,
      "fiz": 2977,
      "stru": 2978,
      "mús": 2979,
      "hour</w>": 2980,
      "adas</w>": 2981,
      "19": 2982,
      "irmã</w>": 2983,
      "agra": 2984,
      "dormir</w>": 2985,
      "Ou</w>": 2986,
      "apa": 2987,
      "poder</w>": 2988,
      "kids</w>": 2989,
      "causa</w>": 2990,
      "different</w>": 2991,
      "Olha</w>": 2992,
      "pin": 2993,
      "crit": 2994,
      "ited</w>": 2995,
      "devo</w>": 2996,
      "Bom</w>": 2997,
      "Please</w>": 2998,
      "tried</w>": 2999,
      "conf": 3000,
      "game</w>": 3001,
      "neste</w>": 3002,
      "tivo</w>": 3003,
      "Deve</w>": 3004,
      "itch</w>": 3005,
      "15</w>": 3006,
      "iria</w>": 3007,
      "almente</w>": 3008,
      "comple": 3009,
      "aw": 3010,
      "jack</w>": 3011,
      "anybody</w>": 3012,
      "--.</w>": 3013,
      "Le": 3014,
      "test": 3015,
      "éia</w>": 3016,
      "met</w>": 3017,
      "san</w>": 3018,
      "corr": 3019,
      "deal</w>": 3020,
      "mon</w>": 3021,
      "Alguém</w>": 3022,
      "tte</w>": 3023,
      "mc": 3024,
      "In": 3025,
      "bul": 3026,
      "cut</w>": 3027,
      "pado</w>": 3028,
      "ficou</w>": 3029,
      "goes</w>": 3030,
      "oks</w>": 3031,
      "jor": 3032,
      "boys</w>": 3033,
      "cks</w>": 3034,
      "ween</w>": 3035,
      "pil": 3036,
      "sn</w>": 3037,
      "cept</w>": 3038,
      "reason</w>": 3039,
      "ctor</w>": 3040,
      "joe</w>": 3041,
      "hind</w>": 3042,
      "posto</w>": 3043,
      "rus": 3044,
      "tá": 3045,
      "cus": 3046,
      "irs</w>": 3047,
      "tura</w>": 3048,
      "easy</w>": 3049,
      "gos</w>": 3050,
      "actly</w>": 3051,
      "trabalhar</w>": 3052,
      "Qual</w>": 3053,
      "pped</w>": 3054,
      "break</w>": 3055,
      "dão</w>": 3056,
      "xo</w>": 3057,
      "rias</w>": 3058,
      "mulheres</w>": 3059,
      "check</w>": 3060,
      "ssin": 3061,
      "true</w>": 3062,
      "cama</w>": 3063,
      "cking</w>": 3064,
      "scar": 3065,
      "var": 3066,
      "front</w>": 3067,
      "ly": 3068,
      "george</w>": 3069,
      "prin": 3070,
      "fast</w>": 3071,
      "Dis": 3072,
      "terá</w>": 3073,
      "perfe": 3074,
      "corpo</w>": 3075,
      "ghts</w>": 3076,
      "pensa</w>": 3077,
      "vido</w>": 3078,
      "az": 3079,
      "yours</w>": 3080,
      "cham": 3081,
      "hen": 3082,
      "ones</w>": 3083,
      "dessa</w>": 3084,
      "amo</w>": 3085,
      "deixou</w>": 3086,
      "situ": 3087,
      "cade": 3088,
      "arran": 3089,
      "vil</w>": 3090,
      "yor": 3091,
      "person</w>": 3092,
      "sit</w>": 3093,
      "destru": 3094,
      "crazy</w>": 3095,
      "cess": 3096,
      "gla": 3097,
      "iros</w>": 3098,
      "ficiente</w>": 3099,
      "tom</w>": 3100,
      "cinco</w>": 3101,
      "girls</w>": 3102,
      "either</w>": 3103,
      "yer</w>": 3104,
      "anti": 3105,
      "Pro": 3106,
      "sent": 3107,
      "idiota</w>": 3108,
      "gin": 3109,
      "mom</w>": 3110,
      "possa</w>": 3111,
      "sozinho</w>": 3112,
      "matou</w>": 3113,
      "Take</w>": 3114,
      "atamente</w>": 3115,
      "morre": 3116,
      "office</w>": 3117,
      "íti": 3118,
      "havia</w>": 3119,
      "behind</w>": 3120,
      "escon": 3121,
      "everybody</w>": 3122,
      "ching</w>": 3123,
      "ka</w>": 3124,
      "answer</w>": 3125,
      "café</w>": 3126,
      "question</w>": 3127,
      "digo</w>": 3128,
      "bet": 3129,
      "mmy</w>": 3130,
      "john": 3131,
      "buy</w>": 3132,
      "dó": 3133,
      "pequeno</w>": 3134,
      "apare": 3135,
      "flor": 3136,
      "ames</w>": 3137,
      "walk</w>": 3138,
      "fácil</w>": 3139,
      "blood</w>": 3140,
      "run": 3141,
      "dol": 3142,
      "pun": 3143,
      "Go</w>": 3144,
      "gro": 3145,
      "casamento</w>": 3146,
      "devia</w>": 3147,
      "damn</w>": 3148,
      "dante</w>": 3149,
      "women</w>": 3150,
      "alive</w>": 3151,
      "dinner</w>": 3152,
      "Era</w>": 3153,
      "explo": 3154,
      "trans": 3155,
      "bemos</w>": 3156,
      "médico</w>": 3157,
      "bi</w>": 3158,
      "podia</w>": 3159,
      "liber": 3160,
      "minuto</w>": 3161,
      "assassin": 3162,
      "ade</w>": 3163,
      "Deixe</w>": 3164,
      "inside</w>": 3165,
      "entre": 3166,
      "ous": 3167,
      "ball</w>": 3168,
      "indi": 3169,
      "tir": 3170,
      "pagar</w>": 3171,
      "means</w>": 3172,
      "making</w>": 3173,
      "roc": 3174,
      "lose</w>": 3175,
      "ced</w>": 3176,
      "consigo</w>": 3177,
      "gri": 3178,
      "fiel": 3179,
      "paris</w>": 3180,
      "almost</w>": 3181,
      "Claro</w>": 3182,
      "si</w>": 3183,
      "Listen</w>": 3184,
      "power</w>": 3185,
      "started</w>": 3186,
      "couple</w>": 3187,
      "bastante</w>": 3188,
      "decis": 3189,
      "daqu": 3190,
      "cau": 3191,
      "exactly</w>": 3192,
      "top</w>": 3193,
      "His</w>": 3194,
      "osa</w>": 3195,
      "cir": 3196,
      "legal</w>": 3197,
      "brin": 3198,
      "Good</w>": 3199,
      "Muito</w>": 3200,
      "ko</w>": 3201,
      "natu": 3202,
      "número</w>": 3203,
      "gl": 3204,
      "estu": 3205,
      "cuse</w>": 3206,
      "everyone</w>": 3207,
      "stran": 3208,
      "dies</w>": 3209,
      "Olhe</w>": 3210,
      "white</w>": 3211,
      "sent</w>": 3212,
      "fle": 3213,
      "envi": 3214,
      "Or</w>": 3215,
      "presa</w>": 3216,
      "buil": 3217,
      "ches</w>": 3218,
      "lembra</w>": 3219,
      "york</w>": 3220,
      "book</w>": 3221,
      "Depois</w>": 3222,
      "suficiente</w>": 3223,
      "teu</w>": 3224,
      "along</w>": 3225,
      "jer": 3226,
      "acabou</w>": 3227,
      "festa</w>": 3228,
      "tade</w>": 3229,
      "Estava</w>": 3230,
      "criança</w>": 3231,
      "pis": 3232,
      "charlie</w>": 3233,
      "cá</w>": 3234,
      "ér": 3235,
      "hate": 3236,
      "numa</w>": 3237,
      "ty": 3238,
      "costu": 3239,
      "bby</w>": 3240,
      "quatro</w>": 3241,
      "tran": 3242,
      "pessoal</w>": 3243,
      "ços</w>": 3244,
      "meses</w>": 3245,
      "pais</w>": 3246,
      "seems</w>": 3247,
      "ford</w>": 3248,
      "telling</w>": 3249,
      "ata</w>": 3250,
      "muita</w>": 3251,
      "hate</w>": 3252,
      "sangue</w>": 3253,
      "venha</w>": 3254,
      "Obrigado</w>": 3255,
      "perder</w>": 3256,
      "cent": 3257,
      "limp": 3258,
      "querido</w>": 3259,
      "ire</w>": 3260,
      "ideia</w>": 3261,
      "ors</w>": 3262,
      "working</w>": 3263,
      "Ven": 3264,
      "gir</w>": 3265,
      "lun": 3266,
      "ouvi</w>": 3267,
      "procurando</w>": 3268,
      "shit</w>": 3269,
      "telefone</w>": 3270,
      "hatever</w>": 3271,
      "sh</w>": 3272,
      "gol": 3273,
      "escrit": 3274,
      "At": 3275,
      "bla": 3276,
      "direito</w>": 3277,
      "Sei</w>": 3278,
      "ces": 3279,
      "exatamente</w>": 3280,
      "movi": 3281,
      "ti</w>": 3282,
      "nobody</w>": 3283,
      "compan": 3284,
      "maneira</w>": 3285,
      "rob": 3286,
      "Will</w>": 3287,
      "country</w>": 3288,
      "Would</w>": 3289,
      "lion</w>": 3290,
      "months</w>": 3291,
      "ery</w>": 3292,
      "nas": 3293,
      "engan": 3294,
      "With</w>": 3295,
      "Espero</w>": 3296,
      "querem</w>": 3297,
      "che</w>": 3298,
      "taken</w>": 3299,
      "gentle": 3300,
      "ams</w>": 3301,
      "lord</w>": 3302,
      "tam</w>": 3303,
      "high</w>": 3304,
      "idéia</w>": 3305,
      "único</w>": 3306,
      "12</w>": 3307,
      "ring</w>": 3308,
      "dent</w>": 3309,
      "dal": 3310,
      "tra</w>": 3311,
      "ges</w>": 3312,
      "morreu</w>": 3313,
      "possible</w>": 3314,
      "free</w>": 3315,
      "baixo</w>": 3316,
      "Thank</w>": 3317,
      "palavra</w>": 3318,
      "between</w>": 3319,
      "though</w>": 3320,
      "expli": 3321,
      "prome": 3322,
      "nossos</w>": 3323,
      "sente</w>": 3324,
      "Lemb": 3325,
      "música</w>": 3326,
      "just": 3327,
      "sul": 3328,
      "sala</w>": 3329,
      "diab": 3330,
      "nesta</w>": 3331,
      "six</w>": 3332,
      "full</w>": 3333,
      "filhos</w>": 3334,
      "recor": 3335,
      "ined</w>": 3336,
      "arri": 3337,
      "acontecer</w>": 3338,
      "frank</w>": 3339,
      "forte</w>": 3340,
      "tia</w>": 3341,
      "Certo</w>": 3342,
      "nal</w>": 3343,
      "deli": 3344,
      "dress</w>": 3345,
      "vice</w>": 3346,
      "muitas</w>": 3347,
      "worth</w>": 3348,
      "clear</w>": 3349,
      "mary</w>": 3350,
      "casar</w>": 3351,
      "significa</w>": 3352,
      "wers</w>": 3353,
      "Of</w>": 3354,
      "pó": 3355,
      "acredito</w>": 3356,
      "chegou</w>": 3357,
      "bei": 3358,
      "ast": 3359,
      "ensin": 3360,
      "dete": 3361,
      "sentir</w>": 3362,
      "aring</w>": 3363,
      "fun</w>": 3364,
      "viol": 3365,
      "bebê</w>": 3366,
      "save</w>": 3367,
      "trouxe</w>": 3368,
      "Cap": 3369,
      "order</w>": 3370,
      "ance</w>": 3371,
      "ph</w>": 3372,
      "seri": 3373,
      "funcion": 3374,
      "esteja</w>": 3375,
      "shouldn</w>": 3376,
      "doutor</w>": 3377,
      "muitos</w>": 3378,
      "ging</w>": 3379,
      "chr": 3380,
      "estes</w>": 3381,
      "maior</w>": 3382,
      "preocupe</w>": 3383,
      "dog</w>": 3384,
      "hão</w>": 3385,
      "ished</w>": 3386,
      "bra</w>": 3387,
      "michael</w>": 3388,
      "ena</w>": 3389,
      "dance</w>": 3390,
      "tio</w>": 3391,
      "street</w>": 3392,
      "hou</w>": 3393,
      "pick</w>": 3394,
      "sendo</w>": 3395,
      "pid</w>": 3396,
      "terri": 3397,
      "win</w>": 3398,
      "cost": 3399,
      "black</w>": 3400,
      "mou": 3401,
      "tê</w>": 3402,
      "ttle</w>": 3403,
      "dez</w>": 3404,
      "sy</w>": 3405,
      "perce": 3406,
      "nenhuma</w>": 3407,
      "mamãe</w>": 3408,
      "bol": 3409,
      "licen": 3410,
      "tenant</w>": 3411,
      "Desculpe</w>": 3412,
      "bru": 3413,
      "conheço</w>": 3414,
      "Tra": 3415,
      "fala</w>": 3416,
      "conseguir</w>": 3417,
      "rem</w>": 3418,
      "him": 3419,
      "quis</w>": 3420,
      "namor": 3421,
      "seis</w>": 3422,
      "inte": 3423,
      "ched</w>": 3424,
      "others</w>": 3425,
      "nat": 3426,
      "lin</w>": 3427,
      "pá": 3428,
      "ona</w>": 3429,
      "super": 3430,
      "Af": 3431,
      "estranho</w>": 3432,
      "Me": 3433,
      "prepar": 3434,
      "dre</w>": 3435,
      "Ro": 3436,
      "chamar</w>": 3437,
      "ounds</w>": 3438,
      "ili": 3439,
      "scre": 3440,
      "ença</w>": 3441,
      "suppose</w>": 3442,
      "suspe": 3443,
      "These</w>": 3444,
      "cast": 3445,
      "missão</w>": 3446,
      "outside</w>": 3447,
      "honey</w>": 3448,
      "nele</w>": 3449,
      "negócio</w>": 3450,
      "avis": 3451,
      "\",</w>": 3452,
      "not": 3453,
      "deser": 3454,
      "ato</w>": 3455,
      "pur": 3456,
      "tire</w>": 3457,
      "çado</w>": 3458,
      "eutenant</w>": 3459,
      "lares</w>": 3460,
      "ates</w>": 3461,
      "sun": 3462,
      "eg": 3463,
      "lives</w>": 3464,
      "100</w>": 3465,
      "pena</w>": 3466,
      "mb</w>": 3467,
      "sw": 3468,
      "Pelo</w>": 3469,
      "convi": 3470,
      "plain</w>": 3471,
      "...": 3472,
      "living</w>": 3473,
      "coman": 3474,
      "Gost": 3475,
      "blu": 3476,
      "supposed</w>": 3477,
      "ejo</w>": 3478,
      "pper</w>": 3479,
      "tá</w>": 3480,
      "kin</w>": 3481,
      "glad</w>": 3482,
      "nio</w>": 3483,
      "tie</w>": 3484,
      "company</w>": 3485,
      "yl": 3486,
      "destro": 3487,
      "pergunta</w>": 3488,
      "deixa</w>": 3489,
      "vivo</w>": 3490,
      "iga</w>": 3491,
      "Até</w>": 3492,
      "menti": 3493,
      "posta</w>": 3494,
      "longer</w>": 3495,
      "espa": 3496,
      "seem</w>": 3497,
      "spi": 3498,
      "vas</w>": 3499,
      "mas": 3500,
      "cti": 3501,
      "Poder": 3502,
      "Mo": 3503,
      "inten": 3504,
      "cof": 3505,
      "dra</w>": 3506,
      "post": 3507,
      "crime</w>": 3508,
      "Nem</w>": 3509,
      "field</w>": 3510,
      "Che": 3511,
      "faria</w>": 3512,
      "ávamos</w>": 3513,
      "voc": 3514,
      "diferente</w>": 3515,
      "stupid</w>": 3516,
      "ka": 3517,
      "cha</w>": 3518,
      "deste</w>": 3519,
      "himself</w>": 3520,
      "hada</w>": 3521,
      "ofer": 3522,
      "inar</w>": 3523,
      "cendo</w>": 3524,
      "sense</w>": 3525,
      "Veja</w>": 3526,
      "São</w>": 3527,
      "davi": 3528,
      "outras</w>": 3529,
      "count</w>": 3530,
      "ming</w>": 3531,
      "mm</w>": 3532,
      "pronto</w>": 3533,
      "ester": 3534,
      "gul": 3535,
      "Ter": 3536,
      "estavam</w>": 3537,
      "comida</w>": 3538,
      "iz</w>": 3539,
      "dados</w>": 3540,
      "After</w>": 3541,
      "inst": 3542,
      "Fal": 3543,
      "mudar</w>": 3544,
      "Preciso</w>": 3545,
      "stri": 3546,
      "Sempre</w>": 3547,
      "inspe": 3548,
      "ligar</w>": 3549,
      "dame</w>": 3550,
      "caix": 3551,
      "special</w>": 3552,
      "Apenas</w>": 3553,
      "Give</w>": 3554,
      "resol": 3555,
      "ótimo</w>": 3556,
      "estará</w>": 3557,
      "dendo</w>": 3558,
      "bet</w>": 3559,
      "preci": 3560,
      "Like</w>": 3561,
      "pô": 3562,
      "orden": 3563,
      "és</w>": 3564,
      "filme</w>": 3565,
      "colocar</w>": 3566,
      "mostrar</w>": 3567,
      "necess": 3568,
      "hamos</w>": 3569,
      "espero</w>": 3570,
      "saí": 3571,
      "ouro</w>": 3572,
      "ança</w>": 3573,
      "dir</w>": 3574,
      "news</w>": 3575,
      "gru": 3576,
      "nia</w>": 3577,
      "ator</w>": 3578,
      "leaving</w>": 3579,
      "gio</w>": 3580,
      "acreditar</w>": 3581,
      "bill</w>": 3582,
      "durante</w>": 3583,
      "care": 3584,
      "normal</w>": 3585,
      "ket</w>": 3586,
      "even": 3587,
      "resto</w>": 3588,
      "road</w>": 3589,
      "ington</w>": 3590,
      "food</w>": 3591,
      "table</w>": 3592,
      "pequena</w>": 3593,
      "excel": 3594,
      "cedo</w>": 3595,
      "arru": 3596,
      "mesa</w>": 3597,
      "progra": 3598,
      "noti": 3599,
      "ficial</w>": 3600,
      "comprar</w>": 3601,
      "realiz": 3602,
      "Dr</w>": 3603,
      "cuidar</w>": 3604,
      "lau": 3605,
      "touch</w>": 3606,
      "mid": 3607,
      "estiver</w>": 3608,
      "dly</w>": 3609,
      "esca": 3610,
      "Only</w>": 3611,
      "sick</w>": 3612,
      "dólares</w>": 3613,
      "especial</w>": 3614,
      "mil</w>": 3615,
      "tendo</w>": 3616,
      "coronel</w>": 3617,
      "jar</w>": 3618,
      "darling</w>": 3619,
      "jogar</w>": 3620,
      "uncle</w>": 3621,
      "board</w>": 3622,
      "rather</w>": 3623,
      "escritório</w>": 3624,
      "tamente</w>": 3625,
      "descobrir</w>": 3626,
      "Pensei</w>": 3627,
      "mee": 3628,
      "nar": 3629,
      "appe": 3630,
      "soci": 3631,
      "culo</w>": 3632,
      "hair</w>": 3633,
      "conta": 3634,
      "olhar</w>": 3635,
      "Assim</w>": 3636,
      "wood</w>": 3637,
      "Any": 3638,
      "vie": 3639,
      "See</w>": 3640,
      "ruim</w>": 3641,
      "govern": 3642,
      "adm": 3643,
      "equi": 3644,
      "paí": 3645,
      "força</w>": 3646,
      "trust</w>": 3647,
      "heav": 3648,
      "Even</w>": 3649,
      "earth</w>": 3650,
      "ouviu</w>": 3651,
      "actually</w>": 3652,
      "rich": 3653,
      "cannot</w>": 3654,
      "gy</w>": 3655,
      "último</w>": 3656,
      "takes</w>": 3657,
      "dow</w>": 3658,
      "apro": 3659,
      "passado</w>": 3660,
      "tv</w>": 3661,
      "eiro</w>": 3662,
      "produ": 3663,
      "drive</w>": 3664,
      "próxima</w>": 3665,
      "cuidado</w>": 3666,
      "sai": 3667,
      "princ": 3668,
      "ki</w>": 3669,
      "faço</w>": 3670,
      "born</w>": 3671,
      "rios</w>": 3672,
      "esteve</w>": 3673,
      "poor</w>": 3674,
      "querer</w>": 3675,
      "ata": 3676,
      "ides</w>": 3677,
      "shor": 3678,
      "Vá</w>": 3679,
      "anyway</w>": 3680,
      "write</w>": 3681,
      "Our</w>": 3682,
      "david</w>": 3683,
      "are": 3684,
      "precisamos</w>": 3685,
      "vista</w>": 3686,
      "livro</w>": 3687,
      "louco</w>": 3688,
      "lucky</w>": 3689,
      "boca</w>": 3690,
      "certa</w>": 3691,
      "vesti": 3692,
      "sell</w>": 3693,
      "hein</w>": 3694,
      "Man": 3695,
      "estado</w>": 3696,
      "running</w>": 3697,
      "ii</w>": 3698,
      "vag": 3699,
      "parents</w>": 3700,
      "return</w>": 3701,
      "colonel</w>": 3702,
      "fica": 3703,
      "learn</w>": 3704,
      "ór": 3705,
      "arão</w>": 3706,
      "carta</w>": 3707,
      "sagem</w>": 3708,
      "nosco</w>": 3709,
      "dream</w>": 3710,
      "noc": 3711,
      "continuar</w>": 3712,
      "music</w>": 3713,
      "aixo</w>": 3714,
      "levá</w>": 3715,
      "machu": 3716,
      "enta</w>": 3717,
      "americ": 3718,
      "paul</w>": 3719,
      "fur": 3720,
      "senti": 3721,
      "vio</w>": 3722,
      "carre": 3723,
      "plan</w>": 3724,
      "chin": 3725,
      "Un": 3726,
      "dir": 3727,
      "shoot</w>": 3728,
      "ponto</w>": 3729,
      "turned</w>": 3730,
      "sign</w>": 3731,
      "jack": 3732,
      "rela": 3733,
      "diri": 3734,
      "sério</w>": 3735,
      "devemos</w>": 3736,
      "estú": 3737,
      "coz": 3738,
      "favor": 3739,
      "posi": 3740,
      "Acha</w>": 3741,
      "bir": 3742,
      "hot</w>": 3743,
      "visto</w>": 3744,
      "arem</w>": 3745,
      "kee": 3746,
      "happens</w>": 3747,
      "pazes</w>": 3748,
      "ctive</w>": 3749,
      "human</w>": 3750,
      "segundo</w>": 3751,
      "bs</w>": 3752,
      "fee</w>": 3753,
      "sage</w>": 3754,
      "needs</w>": 3755,
      "trás</w>": 3756,
      "defen": 3757,
      "rapaz</w>": 3758,
      "air</w>": 3759,
      "jur": 3760,
      "itting</w>": 3761,
      "bye</w>": 3762,
      "falou</w>": 3763,
      "cold</w>": 3764,
      "inas</w>": 3765,
      "sse": 3766,
      "she": 3767,
      "thanks</w>": 3768,
      "usu": 3769,
      "div": 3770,
      "catch</w>": 3771,
      "luz</w>": 3772,
      "veis</w>": 3773,
      "control</w>": 3774,
      "marry</w>": 3775,
      "servi": 3776,
      "roub": 3777,
      "acabar</w>": 3778,
      "become</w>": 3779,
      "mission</w>": 3780,
      "Sinto</w>": 3781,
      "Sh": 3782,
      "conosco</w>": 3783,
      "expect</w>": 3784,
      "igu": 3785,
      "país</w>": 3786,
      "tenente</w>": 3787,
      "estas</w>": 3788,
      "known</w>": 3789,
      "ur</w>": 3790,
      "assun": 3791,
      "chris": 3792,
      "Gostaria</w>": 3793,
      "rep": 3794,
      "mado</w>": 3795,
      "pior</w>": 3796,
      "feeling</w>": 3797,
      "stairs</w>": 3798,
      "ane</w>": 3799,
      "promise</w>": 3800,
      "picture</w>": 3801,
      "achar</w>": 3802,
      "horse</w>": 3803,
      "espera</w>": 3804,
      "caras</w>": 3805,
      "chegar": 3806,
      "ray</w>": 3807,
      "words</w>": 3808,
      "sozinha</w>": 3809,
      "Disse</w>": 3810,
      "ross</w>": 3811,
      "small</w>": 3812,
      "empre": 3813,
      "casa": 3814,
      "ick": 3815,
      "ância</w>": 3816,
      "escap": 3817,
      "Nada</w>": 3818,
      "squ": 3819,
      "bus</w>": 3820,
      "van</w>": 3821,
      "cho</w>": 3822,
      "stop": 3823,
      "immy</w>": 3824,
      "té": 3825,
      "Quanto</w>": 3826,
      "fres": 3827,
      "evening</w>": 3828,
      "law</w>": 3829,
      "harry</w>": 3830,
      "#.</w>": 3831,
      "wonder": 3832,
      "smo": 3833,
      "dan</w>": 3834,
      "sort</w>": 3835,
      "master</w>": 3836,
      "dem": 3837,
      "playing</w>": 3838,
      "ssa</w>": 3839,
      "brigada</w>": 3840,
      "nave</w>": 3841,
      "wear</w>": 3842,
      "safe</w>": 3843,
      "weeks</w>": 3844,
      "aking</w>": 3845,
      "iste</w>": 3846,
      "incom": 3847,
      "cam": 3848,
      "encont": 3849,
      "mex": 3850,
      "paci": 3851,
      "val</w>": 3852,
      "enter": 3853,
      "ben</w>": 3854,
      "hões</w>": 3855,
      "cios</w>": 3856,
      "mike</w>": 3857,
      "fico</w>": 3858,
      "semanas</w>": 3859,
      "tico</w>": 3860,
      "wonder</w>": 3861,
      "daddy</w>": 3862,
      "paper</w>": 3863,
      "ahead</w>": 3864,
      "ganhar</w>": 3865,
      "manter</w>": 3866,
      "gento</w>": 3867,
      "yle</w>": 3868,
      "sex": 3869,
      "jul": 3870,
      "sound</w>": 3871,
      "fact</w>": 3872,
      "ites</w>": 3873,
      "sabem</w>": 3874,
      "cres": 3875,
      "sli": 3876,
      "sob</w>": 3877,
      "fogo</w>": 3878,
      "olhe</w>": 3879,
      "hil": 3880,
      "solu": 3881,
      "voltar": 3882,
      "!\".</w>": 3883,
      "boat</w>": 3884,
      "pé</w>": 3885,
      "Podemos</w>": 3886,
      "leve</w>": 3887,
      "pus": 3888,
      "lhes</w>": 3889,
      "nessa</w>": 3890,
      "pati": 3891,
      "iva</w>": 3892,
      "alto</w>": 3893,
      "pping</w>": 3894,
      "fucking</w>": 3895,
      "head": 3896,
      "tten</w>": 3897,
      "pers</w>": 3898,
      "gie</w>": 3899,
      "cked</w>": 3900,
      "ula</w>": 3901,
      "ride</w>": 3902,
      "verá</w>": 3903,
      "funny</w>": 3904,
      "sabemos</w>": 3905,
      "tho": 3906,
      "nossas</w>": 3907,
      "amar": 3908,
      "veu</w>": 3909,
      "precisar</w>": 3910,
      "dig": 3911,
      "onal</w>": 3912,
      "devem</w>": 3913,
      "hose</w>": 3914,
      "mol": 3915,
      "conhecer</w>": 3916,
      "Ge": 3917,
      "bonita</w>": 3918,
      "loved</w>": 3919,
      "gers</w>": 3920,
      "ár": 3921,
      "elle</w>": 3922,
      "Ar": 3923,
      "presente</w>": 3924,
      "drin": 3925,
      "saiu</w>": 3926,
      "letter</w>": 3927,
      "Some</w>": 3928,
      "cavalo</w>": 3929,
      "linda</w>": 3930,
      "pediu</w>": 3931,
      "sito</w>": 3932,
      "comandante</w>": 3933,
      "Venha</w>": 3934,
      "Estão</w>": 3935,
      "eye</w>": 3936,
      "fair</w>": 3937,
      "bas": 3938,
      "conseguiu</w>": 3939,
      "vim</w>": 3940,
      "luck</w>": 3941,
      "horr": 3942,
      "wash": 3943,
      "weren</w>": 3944,
      "mentos</w>": 3945,
      "rança</w>": 3946,
      "secret</w>": 3947,
      "preso</w>": 3948,
      "acordo</w>": 3949,
      "past</w>": 3950,
      "comman": 3951,
      "armos</w>": 3952,
      "dom</w>": 3953,
      "licença</w>": 3954,
      "les": 3955,
      "looked</w>": 3956,
      "domin": 3957,
      "bomb": 3958,
      "advo": 3959,
      "hei</w>": 3960,
      "Será</w>": 3961,
      "rua</w>": 3962,
      "tes": 3963,
      "andar</w>": 3964,
      "chama</w>": 3965,
      "iras</w>": 3966,
      "entender</w>": 3967,
      "partir</w>": 3968,
      "prazer</w>": 3969,
      "próprio</w>": 3970,
      "elly</w>": 3971,
      "barco</w>": 3972,
      "rosto</w>": 3973,
      "cute</w>": 3974,
      "tis": 3975,
      "roman": 3976,
      "viagem</w>": 3977,
      "exc": 3978,
      "velha</w>": 3979,
      "colle": 3980,
      "posição</w>": 3981,
      "dding</w>": 3982,
      "respeito</w>": 3983,
      "Fu": 3984,
      "modo</w>": 3985,
      "jar": 3986,
      "bebi": 3987,
      "train</w>": 3988,
      "cher</w>": 3989,
      "ene": 3990,
      "Perhaps</w>": 3991,
      "person": 3992,
      "esus</w>": 3993,
      "tired</w>": 3994,
      "bril": 3995,
      "ian</w>": 3996,
      "armas</w>": 3997,
      "pal</w>": 3998,
      "au</w>": 3999,
      "beat</w>": 4000,
      "Hel": 4001,
      "good": 4002,
      "prisão</w>": 4003,
      "ide</w>": 4004,
      "estra": 4005,
      "trazer</w>": 4006,
      "For": 4007,
      "ener": 4008,
      "ajudá</w>": 4009,
      "Mais</w>": 4010,
      "ãe</w>": 4011,
      "tas": 4012,
      "million</w>": 4013,
      "consegue</w>": 4014,
      "chamado</w>": 4015,
      "over": 4016,
      "além</w>": 4017,
      "40</w>": 4018,
      "By</w>": 4019,
      "ição</w>": 4020,
      "memb": 4021,
      "nesse</w>": 4022,
      "date</w>": 4023,
      "sch": 4024,
      "Sor": 4025,
      "Wa": 4026,
      "lieutenant</w>": 4027,
      "bobby</w>": 4028,
      "Cor": 4029,
      "whatever</w>": 4030,
      "mark</w>": 4031,
      "fall</w>": 4032,
      "mor</w>": 4033,
      "tha</w>": 4034,
      "emer": 4035,
      "deira</w>": 4036,
      "johnny</w>": 4037,
      "perguntar</w>": 4038,
      "esterday</w>": 4039,
      "estre</w>": 4040,
      "colo": 4041,
      "cabelo</w>": 4042,
      "entendo</w>": 4043,
      "mai": 4044,
      "enjo": 4045,
      "depen": 4046,
      "unt</w>": 4047,
      "coffee</w>": 4048,
      "achei</w>": 4049,
      "meeting</w>": 4050,
      "lembro</w>": 4051,
      "fa</w>": 4052,
      "gil": 4053,
      "tain": 4054,
      "feet</w>": 4055,
      "presidente</w>": 4056,
      "strong</w>": 4057,
      "fazem</w>": 4058,
      "ston</w>": 4059,
      "obje": 4060,
      "test</w>": 4061,
      "geant</w>": 4062,
      "encontro</w>": 4063,
      "ran</w>": 4064,
      "turo</w>": 4065,
      "fortun": 4066,
      "acu": 4067,
      "thes</w>": 4068,
      "sol</w>": 4069,
      "zo</w>": 4070,
      "deixá</w>": 4071,
      "começou</w>": 4072,
      "ramos</w>": 4073,
      "boo": 4074,
      "ats</w>": 4075,
      "west</w>": 4076,
      "clean</w>": 4077,
      "abe": 4078,
      "thinks</w>": 4079,
      "prise</w>": 4080,
      "tica</w>": 4081,
      "perfect</w>": 4082,
      "pho": 4083,
      "hasn</w>": 4084,
      "asking</w>": 4085,
      "esides</w>": 4086,
      "pel</w>": 4087,
      "engra": 4088,
      "publi": 4089,
      "merda</w>": 4090,
      "pag": 4091,
      "estivesse</w>": 4092,
      "ri</w>": 4093,
      "plac": 4094,
      "Sab": 4095,
      "comm": 4096,
      "Sem</w>": 4097,
      "falta</w>": 4098,
      "acontece</w>": 4099,
      "ode": 4100,
      "próximo</w>": 4101,
      "jim</w>": 4102,
      "cing</w>": 4103,
      "umas</w>": 4104,
      "plano</w>": 4105,
      "jen": 4106,
      "palavras</w>": 4107,
      "whe": 4108,
      "memor": 4109,
      "espere</w>": 4110,
      "peter</w>": 4111,
      "Nobody</w>": 4112,
      "Gu": 4113,
      "Nothing</w>": 4114,
      "consel": 4115,
      "apaix": 4116,
      "meia</w>": 4117,
      "ício</w>": 4118,
      "hi</w>": 4119,
      "houve</w>": 4120,
      "ren</w>": 4121,
      "flu": 4122,
      "calling</w>": 4123,
      "bob</w>": 4124,
      "amiga</w>": 4125,
      "law": 4126,
      "li</w>": 4127,
      "evi": 4128,
      "lei</w>": 4129,
      "conversar</w>": 4130,
      "fish</w>": 4131,
      "pegou</w>": 4132,
      "ís": 4133,
      "cigar": 4134,
      "hy": 4135,
      "desculpe</w>": 4136,
      "conven": 4137,
      "explain</w>": 4138,
      "somewhere</w>": 4139,
      "reuni": 4140,
      "selves</w>": 4141,
      "form</w>": 4142,
      "kiss</w>": 4143,
      "aban": 4144,
      "preten": 4145,
      "fool</w>": 4146,
      "questão</w>": 4147,
      "Joh": 4148,
      "menina</w>": 4149,
      "bis": 4150,
      ".\"</w>": 4151,
      "rul": 4152,
      "entos</w>": 4153,
      "livre</w>": 4154,
      "smith</w>": 4155,
      "estaria</w>": 4156,
      "felt</w>": 4157,
      "deiro</w>": 4158,
      "controle</w>": 4159,
      "segre": 4160,
      "figh": 4161,
      "alma</w>": 4162,
      "clothes</w>": 4163,
      "resposta</w>": 4164,
      "queremos</w>": 4165,
      "grand": 4166,
      "quad": 4167,
      "hado</w>": 4168,
      "ficando</w>": 4169,
      "ial</w>": 4170,
      "inimi": 4171,
      "report</w>": 4172,
      "mate</w>": 4173,
      "bro</w>": 4174,
      "ining</w>": 4175,
      "seguro</w>": 4176,
      "base</w>": 4177,
      "vale</w>": 4178,
      "worked</w>": 4179,
      "yo": 4180,
      "pass</w>": 4181,
      "officer</w>": 4182,
      "Ouça</w>": 4183,
      "questions</w>": 4184,
      "dizem</w>": 4185,
      "irr": 4186,
      "informa": 4187,
      "serve</w>": 4188,
      "On</w>": 4189,
      "Tw": 4190,
      "piece</w>": 4191,
      "inhos</w>": 4192,
      "ow": 4193,
      "có": 4194,
      "willi": 4195,
      "istas</w>": 4196,
      "existe</w>": 4197,
      "ident</w>": 4198,
      "dí": 4199,
      "rapazes</w>": 4200,
      "franc": 4201,
      "plea": 4202,
      "follow</w>": 4203,
      "terminar</w>": 4204,
      "maria</w>": 4205,
      "trem</w>": 4206,
      "linha</w>": 4207,
      "vado</w>": 4208,
      "Could</w>": 4209,
      "sci": 4210,
      "future</w>": 4211,
      "mistake</w>": 4212,
      "apres": 4213,
      "sometimes</w>": 4214,
      "pressão</w>": 4215,
      "Lu": 4216,
      "strange</w>": 4217,
      "chief</w>": 4218,
      "quebr": 4219,
      "scared</w>": 4220,
      "ordem</w>": 4221,
      "boss</w>": 4222,
      "cole": 4223,
      "Poderia</w>": 4224,
      "gentlemen</w>": 4225,
      "pere</w>": 4226,
      "olho</w>": 4227,
      "Achei</w>": 4228,
      "gin</w>": 4229,
      "garotas</w>": 4230,
      "senhores</w>": 4231,
      "court</w>": 4232,
      "pressa</w>": 4233,
      "lead": 4234,
      "guns</w>": 4235,
      "olhada</w>": 4236,
      "giving</w>": 4237,
      "Those</w>": 4238,
      "apaixon": 4239,
      "peg": 4240,
      "enda</w>": 4241,
      "steve</w>": 4242,
      "cover</w>": 4243,
      "reli": 4244,
      "given</w>": 4245,
      "assis": 4246,
      "Mes": 4247,
      "11</w>": 4248,
      "vam</w>": 4249,
      "câ": 4250,
      "cito</w>": 4251,
      "billy</w>": 4252,
      "povo</w>": 4253,
      "Todo</w>": 4254,
      "throw</w>": 4255,
      "vely</w>": 4256,
      "club</w>": 4257,
      "haver</w>": 4258,
      "els</w>": 4259,
      "stor": 4260,
      "atten": 4261,
      "cident</w>": 4262,
      "Cu": 4263,
      "riage</w>": 4264,
      "sau": 4265,
      "menino</w>": 4266,
      "sla": 4267,
      "çam</w>": 4268,
      "concer": 4269,
      "igh": 4270,
      "mouth</w>": 4271,
      "ponho</w>": 4272,
      "hia</w>": 4273,
      "max</w>": 4274,
      "seram</w>": 4275,
      "negócios</w>": 4276,
      "von": 4277,
      "campo</w>": 4278,
      "thre": 4279,
      "sweet</w>": 4280,
      "dru": 4281,
      "present</w>": 4282,
      "proje": 4283,
      "futuro</w>": 4284,
      "blue</w>": 4285,
      "abor": 4286,
      "fazê</w>": 4287,
      "pain</w>": 4288,
      "terrible</w>": 4289,
      "changed</w>": 4290,
      "Vol": 4291,
      "verda": 4292,
      "gold</w>": 4293,
      "Pri": 4294,
      "discus": 4295,
      "tada</w>": 4296,
      "aqueles</w>": 4297,
      "cover": 4298,
      "perigo": 4299,
      "shut</w>": 4300,
      "moun": 4301,
      "bado</w>": 4302,
      "bonito</w>": 4303,
      "passou</w>": 4304,
      "ron": 4305,
      "worse</w>": 4306,
      "fault</w>": 4307,
      "sam": 4308,
      "xa</w>": 4309,
      "noon</w>": 4310,
      "pose</w>": 4311,
      "hole</w>": 4312,
      "station</w>": 4313,
      "mad</w>": 4314,
      "sky</w>": 4315,
      "infer": 4316,
      "pro</w>": 4317,
      "sum": 4318,
      "animal</w>": 4319,
      "high": 4320,
      "Right</w>": 4321,
      "Também</w>": 4322,
      "cts</w>": 4323,
      "drop</w>": 4324,
      "after": 4325,
      "tiver</w>": 4326,
      "troc": 4327,
      "pain": 4328,
      "local</w>": 4329,
      "tions</w>": 4330,
      "finish</w>": 4331,
      "kin": 4332,
      "tainly</w>": 4333,
      "própria</w>": 4334,
      "puta": 4335,
      "thro": 4336,
      "padre</w>": 4337,
      "roupas</w>": 4338,
      "Ac": 4339,
      "caught</w>": 4340,
      "exam": 4341,
      "voltou</w>": 4342,
      "sinal</w>": 4343,
      "banco</w>": 4344,
      "army</w>": 4345,
      "vidas</w>": 4346,
      "sie</w>": 4347,
      "god": 4348,
      "month</w>": 4349,
      "serious</w>": 4350,
      "contou</w>": 4351,
      "Além</w>": 4352,
      "ken": 4353,
      "natal</w>": 4354,
      "rich</w>": 4355,
      "pósito</w>": 4356,
      "Pa": 4357,
      "cent</w>": 4358,
      "wit": 4359,
      "Espere</w>": 4360,
      "pelos</w>": 4361,
      "henry</w>": 4362,
      "envol": 4363,
      "finished</w>": 4364,
      "almo": 4365,
      "ously</w>": 4366,
      "assunto</w>": 4367,
      "apart": 4368,
      "near</w>": 4369,
      "exér": 4370,
      "quente</w>": 4371,
      "dark</w>": 4372,
      "chur": 4373,
      "sonho</w>": 4374,
      "segurança</w>": 4375,
      "madame</w>": 4376,
      "tros</w>": 4377,
      "enty</w>": 4378,
      "works</w>": 4379,
      "curso</w>": 4380,
      "ested</w>": 4381,
      "tom": 4382,
      "25</w>": 4383,
      "irst</w>": 4384,
      "itor</w>": 4385,
      "yesterday</w>": 4386,
      "simples</w>": 4387,
      "team</w>": 4388,
      "hang</w>": 4389,
      "levan": 4390,
      "remos</w>": 4391,
      "diabos</w>": 4392,
      "beber</w>": 4393,
      "ght": 4394,
      "fantas": 4395,
      "straight</w>": 4396,
      "estive</w>": 4397,
      "cão</w>": 4398,
      "anne</w>": 4399,
      "acredit": 4400,
      "fuck</w>": 4401,
      "dição</w>": 4402,
      "tua</w>": 4403,
      "rou</w>": 4404,
      "seguir</w>": 4405,
      "kept</w>": 4406,
      "ot": 4407,
      "plane</w>": 4408,
      "ils</w>": 4409,
      "perdeu</w>": 4410,
      "sey</w>": 4411,
      "weap": 4412,
      "entende</w>": 4413,
      "esqueça</w>": 4414,
      "atenção</w>": 4415,
      "avião</w>": 4416,
      "danger": 4417,
      "early</w>": 4418,
      "olha</w>": 4419,
      "encontra": 4420,
      "irei</w>": 4421,
      "attack</w>": 4422,
      "assassino</w>": 4423,
      "cou</w>": 4424,
      "soldi": 4425,
      "erro</w>": 4426,
      "gate</w>": 4427,
      "Aquele</w>": 4428,
      "Senhor</w>": 4429,
      "os": 4430,
      "vive</w>": 4431,
      "dança</w>": 4432,
      "lembrar</w>": 4433,
      "class</w>": 4434,
      "sargento</w>": 4435,
      "figure</w>": 4436,
      "eh</w>": 4437,
      "ble": 4438,
      "corri": 4439,
      "separ": 4440,
      "boas</w>": 4441,
      "dered</w>": 4442,
      "pada</w>": 4443,
      "doente</w>": 4444,
      "discu": 4445,
      "miles</w>": 4446,
      "situação</w>": 4447,
      "incomo": 4448,
      "wake</w>": 4449,
      "Wait</w>": 4450,
      "voz</w>": 4451,
      "ordens</w>": 4452,
      "Har": 4453,
      "eur</w>": 4454,
      "ecer</w>": 4455,
      "christ": 4456,
      "fale</w>": 4457,
      "president</w>": 4458,
      "salvar</w>": 4459,
      "Mesmo</w>": 4460,
      "gger</w>": 4461,
      "tony</w>": 4462,
      "rea</w>": 4463,
      "exército</w>": 4464,
      "Às</w>": 4465,
      "hand": 4466,
      "atrav": 4467,
      "majest": 4468,
      "acredita</w>": 4469,
      "dence</w>": 4470,
      "seeing</w>": 4471,
      "spend</w>": 4472,
      "ôni": 4473,
      "vis</w>": 4474,
      "gotten</w>": 4475,
      "rica</w>": 4476,
      "tocar</w>": 4477,
      "Thanks</w>": 4478,
      "position</w>": 4479,
      "prove</w>": 4480,
      "dades</w>": 4481,
      "wedding</w>": 4482,
      "orders</w>": 4483,
      "bank</w>": 4484,
      "gle</w>": 4485,
      "ques</w>": 4486,
      "perdo": 4487,
      "cool</w>": 4488,
      "pegue</w>": 4489,
      "ações</w>": 4490,
      "follo": 4491,
      "perguntas</w>": 4492,
      "pes</w>": 4493,
      "rid</w>": 4494,
      "perhaps</w>": 4495,
      "crimin": 4496,
      "agu": 4497,
      "atac": 4498,
      "force</w>": 4499,
      "total": 4500,
      "arti": 4501,
      "sea</w>": 4502,
      "shar": 4503,
      "abrir</w>": 4504,
      "air": 4505,
      "Ju": 4506,
      "stone</w>": 4507,
      "dú": 4508,
      "sun</w>": 4509,
      "Fran": 4510,
      "dow": 4511,
      "dangerous</w>": 4512,
      "exe": 4513,
      "box</w>": 4514,
      "han</w>": 4515,
      "sieur</w>": 4516,
      "state</w>": 4517,
      "500</w>": 4518,
      "recu": 4519,
      "stick</w>": 4520,
      "mi</w>": 4521,
      "ester</w>": 4522,
      "Remember</w>": 4523,
      "esquecer</w>": 4524,
      "Sorry</w>": 4525,
      "lunch</w>": 4526,
      "Acre": 4527,
      "mês</w>": 4528,
      "message</w>": 4529,
      "ceiro</w>": 4530,
      "Char": 4531,
      "ame": 4532,
      "advogado</w>": 4533,
      "cting</w>": 4534,
      "quan": 4535,
      "emprego</w>": 4536,
      "naquela</w>": 4537,
      "Say</w>": 4538,
      "gener": 4539,
      "vit": 4540,
      "Dê</w>": 4541,
      "edu": 4542,
      "talked</w>": 4543,
      "jam</w>": 4544,
      "lies</w>": 4545,
      "paid</w>": 4546,
      "guarda</w>": 4547,
      "peda": 4548,
      "ze": 4549,
      "serviço</w>": 4550,
      "ful": 4551,
      "lock</w>": 4552,
      "Ke": 4553,
      "levou</w>": 4554,
      "mortos</w>": 4555,
      "oud</w>": 4556,
      "rie</w>": 4557,
      "Cha": 4558,
      "assust": 4559,
      "companhia</w>": 4560,
      "acidente</w>": 4561,
      "saber": 4562,
      "ry": 4563,
      "heal": 4564,
      "vin</w>": 4565,
      "thor": 4566,
      "horita</w>": 4567,
      "tim</w>": 4568,
      "via": 4569,
      "bag": 4570,
      "terrível</w>": 4571,
      "arma": 4572,
      "orgul": 4573,
      "sen</w>": 4574,
      ".,</w>": 4575,
      "eddie</w>": 4576,
      "ema</w>": 4577,
      "ual</w>": 4578,
      "fly</w>": 4579,
      "Looks</w>": 4580,
      "pos</w>": 4581,
      "foto</w>": 4582,
      "montan": 4583,
      "peace</w>": 4584,
      "Every</w>": 4585,
      "bons</w>": 4586,
      "ond</w>": 4587,
      "fit</w>": 4588,
      "morar</w>": 4589,
      "Does</w>": 4590,
      "perten": 4591,
      "pudesse</w>": 4592,
      "aquilo</w>": 4593,
      "Ti": 4594,
      "Two</w>": 4595,
      "God</w>": 4596,
      "fru": 4597,
      "fren": 4598,
      "kar": 4599,
      "unk</w>": 4600,
      "sex</w>": 4601,
      "ku": 4602,
      "fato</w>": 4603,
      "leo</w>": 4604,
      "ficará</w>": 4605,
      "First</w>": 4606,
      "bought</w>": 4607,
      "motivo</w>": 4608,
      "surpresa</w>": 4609,
      "...?</w>": 4610,
      "procurar</w>": 4611,
      "úbli": 4612,
      "vá": 4613,
      "voice</w>": 4614,
      "árv": 4615,
      "park</w>": 4616,
      "regis": 4617,
      "jap": 4618,
      "art": 4619,
      "ios</w>": 4620,
      "lam": 4621,
      "atos</w>": 4622,
      "worried</w>": 4623,
      "descul": 4624,
      "caixa</w>": 4625,
      "daria</w>": 4626,
      "inoc": 4627,
      "rock</w>": 4628,
      "alha</w>": 4629,
      "cali": 4630,
      "usando</w>": 4631,
      "sted</w>": 4632,
      "vontade</w>": 4633,
      "new": 4634,
      "Dev": 4635,
      "zo": 4636,
      "lutar</w>": 4637,
      "experi": 4638,
      "race</w>": 4639,
      "itado</w>": 4640,
      "breve</w>": 4641,
      "bebida</w>": 4642,
      "abandon": 4643,
      "christmas</w>": 4644,
      "zinho</w>": 4645,
      "step</w>": 4646,
      "descan": 4647,
      "ssemos</w>": 4648,
      "ale</w>": 4649,
      "explicar</w>": 4650,
      "devol": 4651,
      "deram</w>": 4652,
      "cular</w>": 4653,
      "excuse</w>": 4654,
      "open": 4655,
      "saia</w>": 4656,
      "guil": 4657,
      "nel</w>": 4658,
      "decided</w>": 4659,
      "nervo": 4660,
      "monte</w>": 4661,
      "itude</w>": 4662,
      "estrada</w>": 4663,
      "cê</w>": 4664,
      "exce": 4665,
      "commander</w>": 4666,
      "ero": 4667,
      "seven</w>": 4668,
      "taram</w>": 4669,
      "cele": 4670,
      "inos</w>": 4671,
      "buscar</w>": 4672,
      "kie</w>": 4673,
      "capaz</w>": 4674,
      "ameri": 4675,
      "pés</w>": 4676,
      "itch": 4677,
      "pobre</w>": 4678,
      "using</w>": 4679,
      "slee": 4680,
      "vestido</w>": 4681,
      "loja</w>": 4682,
      "handle</w>": 4683,
      "fro": 4684,
      "melhores</w>": 4685,
      "soul</w>": 4686,
      "american</w>": 4687,
      "oria</w>": 4688,
      "tz</w>": 4689,
      "certainly</w>": 4690,
      "erife</w>": 4691,
      "tema</w>": 4692,
      "nica</w>": 4693,
      "agrade": 4694,
      "200</w>": 4695,
      "oficial</w>": 4696,
      "ably</w>": 4697,
      "mestre</w>": 4698,
      "gn": 4699,
      "charles</w>": 4700,
      "chi</w>": 4701,
      "atório</w>": 4702,
      "Ca": 4703,
      "From</w>": 4704,
      "swee": 4705,
      "quei": 4706,
      "Her</w>": 4707,
      "fred</w>": 4708,
      "smar": 4709,
      "imagin": 4710,
      "quiet</w>": 4711,
      "hurry</w>": 4712,
      "moon</w>": 4713,
      "chão</w>": 4714,
      "quina</w>": 4715,
      "lovely</w>": 4716,
      "embaixo</w>": 4717,
      "Conhe": 4718,
      "gel": 4719,
      "ris</w>": 4720,
      "pete</w>": 4721,
      "cabei</w>": 4722,
      "acer": 4723,
      "Something</w>": 4724,
      "ony</w>": 4725,
      "sava</w>": 4726,
      "sear": 4727,
      "doub": 4728,
      "jimmy</w>": 4729,
      "tente</w>": 4730,
      "loves</w>": 4731,
      "ilha</w>": 4732,
      "Algu": 4733,
      "vill": 4734,
      "lead</w>": 4735,
      "trip</w>": 4736,
      "richard</w>": 4737,
      "anna</w>": 4738,
      "veria</w>": 4739,
      "papel</w>": 4740,
      "olhando</w>": 4741,
      "main</w>": 4742,
      "princi": 4743,
      "milhões</w>": 4744,
      "gic</w>": 4745,
      "arm</w>": 4746,
      "choice</w>": 4747,
      "finally</w>": 4748,
      "escrever</w>": 4749,
      "roupa</w>": 4750,
      "blow</w>": 4751,
      "aprender</w>": 4752,
      "Vi": 4753,
      "ater</w>": 4754,
      "enti": 4755,
      "stopped</w>": 4756,
      "ek</w>": 4757,
      "Col": 4758,
      "volte</w>": 4759,
      "obvi": 4760,
      "vermel": 4761,
      "tentou</w>": 4762,
      "sergeant</w>": 4763,
      "vaz": 4764,
      "firo</w>": 4765,
      "song</w>": 4766,
      "lim": 4767,
      "marriage</w>": 4768,
      "Hav": 4769,
      "dev": 4770,
      "mei</w>": 4771,
      "nico</w>": 4772,
      "forgot</w>": 4773,
      "broke</w>": 4774,
      "diria</w>": 4775,
      "leva</w>": 4776,
      "grandes</w>": 4777,
      "quin": 4778,
      "conheci</w>": 4779,
      "sake</w>": 4780,
      "tava</w>": 4781,
      "fundo</w>": 4782,
      "fará</w>": 4783,
      "grupo</w>": 4784,
      "careful</w>": 4785,
      "culos</w>": 4786,
      "martin</w>": 4787,
      "bb": 4788,
      "suc": 4789,
      "james</w>": 4790,
      "puder</w>": 4791,
      "Sir</w>": 4792,
      "washington</w>": 4793,
      "rose</w>": 4794,
      "accident</w>": 4795,
      "pull</w>": 4796,
      "anda</w>": 4797,
      "tindo</w>": 4798,
      "matá</w>": 4799,
      "stem</w>": 4800,
      "roo": 4801,
      "traz": 4802,
      "sentido</w>": 4803,
      "coo": 4804,
      "rico</w>": 4805,
      "veri": 4806,
      "Queria</w>": 4807,
      "Put</w>": 4808,
      "Hoje</w>": 4809,
      "short</w>": 4810,
      "visit</w>": 4811,
      "bater</w>": 4812,
      "May</w>": 4813,
      "Devo</w>": 4814,
      "policial</w>": 4815,
      "dition</w>": 4816,
      "Mrs</w>": 4817,
      "fiquei</w>": 4818,
      "tle</w>": 4819,
      "peça</w>": 4820,
      "aber": 4821,
      "wall</w>": 4822,
      "aca": 4823,
      "céu</w>": 4824,
      "sue</w>": 4825,
      "fen": 4826,
      "cy": 4827,
      "fecha": 4828,
      "bag</w>": 4829,
      "cemos</w>": 4830,
      "Prime": 4831,
      "encontrou</w>": 4832,
      "Tr": 4833,
      "Fe": 4834,
      "execu": 4835,
      "thin</w>": 4836,
      "continue</w>": 4837,
      "round</w>": 4838,
      "conselho</w>": 4839,
      "Du": 4840,
      "ero</w>": 4841,
      "green</w>": 4842,
      "correr</w>": 4843,
      "naquele</w>": 4844,
      "24</w>": 4845,
      "quil": 4846,
      "esquer": 4847,
      "junto</w>": 4848,
      "moving</w>": 4849,
      "ataque</w>": 4850,
      "robert</w>": 4851,
      "fear</w>": 4852,
      "island</w>": 4853,
      "oner</w>": 4854,
      "sheri": 4855,
      "desses</w>": 4856,
      "euro": 4857,
      "imagine</w>": 4858,
      "sounds</w>": 4859,
      "forever</w>": 4860,
      "fizeram</w>": 4861,
      "tex": 4862,
      "press</w>": 4863,
      "ground</w>": 4864,
      "sete</w>": 4865,
      "lived</w>": 4866,
      "Deus</w>": 4867,
      "concor": 4868,
      "wise</w>": 4869,
      "stead</w>": 4870,
      "públi": 4871,
      "free": 4872,
      "mond</w>": 4873,
      "elho</w>": 4874,
      "rol": 4875,
      "mama</w>": 4876,
      "ícias</w>": 4877,
      "ald</w>": 4878,
      "cat</w>": 4879,
      "dessas</w>": 4880,
      "bitch</w>": 4881,
      "vate</w>": 4882,
      "wards</w>": 4883,
      "probably</w>": 4884,
      "vest": 4885,
      "dores</w>": 4886,
      "costas</w>": 4887,
      "admi": 4888,
      "space</w>": 4889,
      "teach": 4890,
      "mava</w>": 4891,
      "sobre": 4892,
      "mensagem</w>": 4893,
      "offer</w>": 4894,
      "fé": 4895,
      "reunião</w>": 4896,
      "Sometimes</w>": 4897,
      "laugh": 4898,
      "jam": 4899,
      "frio</w>": 4900,
      "desej": 4901,
      "encontrei</w>": 4902,
      "xi</w>": 4903,
      "lars</w>": 4904,
      "zz": 4905,
      "teach</w>": 4906,
      "vens</w>": 4907,
      "boy": 4908,
      "luta</w>": 4909,
      "escolha</w>": 4910,
      "floor</w>": 4911,
      "14</w>": 4912,
      "illi": 4913,
      "gostar</w>": 4914,
      "taria</w>": 4915,
      "Besides</w>": 4916,
      "Mi": 4917,
      "charge</w>": 4918,
      "meant</w>": 4919,
      "promised</w>": 4920,
      "cie</w>": 4921,
      "ash</w>": 4922,
      "window</w>": 4923,
      "judge</w>": 4924,
      "afternoon</w>": 4925,
      "passa</w>": 4926,
      "ement</w>": 4927,
      "propósito</w>": 4928,
      "tina</w>": 4929,
      "honra</w>": 4930,
      "sia</w>": 4931,
      "ladies</w>": 4932,
      "An</w>": 4933,
      "lee</w>": 4934,
      "simple</w>": 4935,
      "Bu": 4936,
      "orig": 4937,
      "inhas</w>": 4938,
      "duro</w>": 4939,
      "pac": 4940,
      "scen": 4941,
      "problems</w>": 4942,
      "sive</w>": 4943,
      "mandar</w>": 4944,
      "kid": 4945,
      "vy</w>": 4946,
      ",\"</w>": 4947,
      "ash": 4948,
      "service</w>": 4949,
      "lish</w>": 4950,
      "fic</w>": 4951,
      "del</w>": 4952,
      "building</w>": 4953,
      "porto</w>": 4954,
      "procu": 4955,
      "banho</w>": 4956,
      "Desde</w>": 4957,
      "falei</w>": 4958,
      "movie</w>": 4959,
      "chave</w>": 4960,
      "mitir</w>": 4961,
      "insis": 4962,
      "segredo</w>": 4963,
      "cker</w>": 4964,
      "....</w>": 4965,
      "cachor": 4966,
      "mile</w>": 4967,
      "Didn</w>": 4968,
      "fugir</w>": 4969,
      "nick</w>": 4970,
      "dável</w>": 4971,
      "extra</w>": 4972,
      "rick</w>": 4973,
      "view</w>": 4974,
      "xerife</w>": 4975,
      "ang</w>": 4976,
      "Fique</w>": 4977,
      "constru": 4978,
      "surprise</w>": 4979,
      "vous</w>": 4980,
      "sá": 4981,
      "sugg": 4982,
      "passada</w>": 4983,
      "eço</w>": 4984,
      "dente</w>": 4985,
      "rir</w>": 4986,
      "diffic": 4987,
      "Miss</w>": 4988,
      "fort</w>": 4989,
      "queen</w>": 4990,
      "church</w>": 4991,
      "hid": 4992,
      "cartas</w>": 4993,
      "trabalha</w>": 4994,
      "18</w>": 4995,
      "cair</w>": 4996,
      "horrível</w>": 4997,
      "iled</w>": 4998,
      "segunda</w>": 4999,
      "sai</w>": 5000,
      "poin": 5001,
      "honor</w>": 5002,
      "fighting</w>": 5003,
      "ham": 5004,
      "sal</w>": 5005,
      "thi": 5006,
      "Ch": 5007,
      "Ra": 5008,
      "pelas</w>": 5009,
      "opini": 5010,
      "jail</w>": 5011,
      "abeth</w>": 5012,
      "conv": 5013,
      "Someone</w>": 5014,
      "diam": 5015,
      "lá": 5016,
      "tribun": 5017,
      "saved</w>": 5018,
      "Boa</w>": 5019,
      "third</w>": 5020,
      "tough</w>": 5021,
      "pense</w>": 5022,
      "repor": 5023,
      "fech": 5024,
      "segundos</w>": 5025,
      "contato</w>": 5026,
      "mach": 5027,
      "teremos</w>": 5028,
      "ído</w>": 5029,
      "dançar</w>": 5030,
      "busy</w>": 5031,
      "ffer": 5032,
      "nela</w>": 5033,
      "watching</w>": 5034,
      "agente</w>": 5035,
      "fome</w>": 5036,
      "moved</w>": 5037,
      "exemp": 5038,
      "senhorita</w>": 5039,
      "Imag": 5040,
      "slo": 5041,
      "needed</w>": 5042,
      "cheio</w>": 5043,
      "escape</w>": 5044,
      "seconds</w>": 5045,
      "tree</w>": 5046,
      "motor": 5047,
      "tures</w>": 5048,
      "Which</w>": 5049,
      "branco</w>": 5050,
      "ager</w>": 5051,
      "resul": 5052,
      "Mor": 5053,
      "quick</w>": 5054,
      "dres</w>": 5055,
      "tornar</w>": 5056,
      "Never</w>": 5057,
      "Ao</w>": 5058,
      "só": 5059,
      "minis": 5060,
      "emun": 5061,
      "oney</w>": 5062,
      "planeta</w>": 5063,
      "foot</w>": 5064,
      "Primeiro</w>": 5065,
      "swear</w>": 5066,
      "phi": 5067,
      "certain</w>": 5068,
      "baix": 5069,
      "som</w>": 5070,
      "60</w>": 5071,
      "Isn</w>": 5072,
      "penso</w>": 5073,
      "personal</w>": 5074,
      "ple": 5075,
      "espaço</w>": 5076,
      "notícias</w>": 5077,
      "mandou</w>": 5078,
      "rito</w>": 5079,
      "disseram</w>": 5080,
      "innoc": 5081,
      "lí": 5082,
      "ines</w>": 5083,
      "monst": 5084,
      "navio</w>": 5085,
      "Faça</w>": 5086,
      "Everybody</w>": 5087,
      "situation</w>": 5088,
      "alu": 5089,
      "Nossa</w>": 5090,
      "papers</w>": 5091,
      "lua</w>": 5092,
      "custo": 5093,
      "wearing</w>": 5094,
      "sitting</w>": 5095,
      "welcome</w>": 5096,
      "missed</w>": 5097,
      "janela</w>": 5098,
      "atura</w>": 5099,
      "gação</w>": 5100,
      "killing</w>": 5101,
      "igre": 5102,
      "dying</w>": 5103,
      "doc</w>": 5104,
      "join</w>": 5105,
      "eight</w>": 5106,
      "obe": 5107,
      "afa": 5108,
      "tan</w>": 5109,
      "price</w>": 5110,
      "murder</w>": 5111,
      "aunt</w>": 5112,
      "realize</w>": 5113,
      "Sure</w>": 5114,
      "voce</w>": 5115,
      "angel</w>": 5116,
      "yu": 5117,
      "Mel": 5118,
      "spr": 5119,
      "estarei</w>": 5120,
      "engraçado</w>": 5121,
      "chega</w>": 5122,
      "após</w>": 5123,
      "area</w>": 5124,
      "zar</w>": 5125,
      "peix": 5126,
      "woo": 5127,
      "sul</w>": 5128,
      "saiba</w>": 5129,
      "Sin": 5130,
      "sentar</w>": 5131,
      "monsieur</w>": 5132,
      "village</w>": 5133,
      "lying</w>": 5134,
      "usão</w>": 5135,
      "system</w>": 5136,
      "ine": 5137,
      "ellen</w>": 5138,
      "mau</w>": 5139,
      "People</w>": 5140,
      "inferno</w>": 5141,
      "testemun": 5142,
      "área</w>": 5143,
      "perm": 5144,
      "ignor": 5145,
      ".'.</w>": 5146,
      "teira</w>": 5147,
      "repe": 5148,
      "ouvi": 5149,
      "metade</w>": 5150,
      "kets</w>": 5151,
      "curity</w>": 5152,
      "pir": 5153,
      "tu</w>": 5154,
      "prison</w>": 5155,
      "decide</w>": 5156,
      "except</w>": 5157,
      "estávamos</w>": 5158,
      "Excuse</w>": 5159,
      "edade</w>": 5160,
      "perigo</w>": 5161,
      "carry</w>": 5162,
      "Captain</w>": 5163,
      "liked</w>": 5164,
      "rec": 5165,
      "refu": 5166,
      "nor</w>": 5167,
      "nes</w>": 5168,
      "ners</w>": 5169,
      "bola</w>": 5170,
      "lista</w>": 5171,
      "difficult</w>": 5172,
      "fell</w>": 5173,
      "protect</w>": 5174,
      "mí": 5175,
      "ison</w>": 5176,
      "uses</w>": 5177,
      "falo</w>": 5178,
      "ép": 5179,
      "sobr": 5180,
      "mia</w>": 5181,
      "cation</w>": 5182,
      "giu</w>": 5183,
      "cura</w>": 5184,
      "oned</w>": 5185,
      "ciais</w>": 5186,
      "mindo</w>": 5187,
      "shir": 5188,
      "sistema</w>": 5189,
      "spent</w>": 5190,
      "chá</w>": 5191,
      "film</w>": 5192,
      "estação</w>": 5193,
      "decisão</w>": 5194,
      "cket</w>": 5195,
      "amar</w>": 5196,
      "perfeito</w>": 5197,
      "brea": 5198,
      "planet</w>": 5199,
      "bela</w>": 5200,
      "named</w>": 5201,
      "store</w>": 5202,
      "wol": 5203,
      "comb": 5204,
      "obser": 5205,
      "sud": 5206,
      "forgive</w>": 5207,
      "queira</w>": 5208,
      "hava</w>": 5209,
      "rever": 5210,
      "carne</w>": 5211,
      "Was</w>": 5212,
      "bear</w>": 5213,
      "evil</w>": 5214,
      "dura</w>": 5215,
      "hundre": 5216,
      "mir": 5217,
      "garra": 5218,
      "across</w>": 5219,
      "fix</w>": 5220,
      "smart</w>": 5221,
      "sof": 5222,
      "duz": 5223,
      "ounded</w>": 5224,
      "french</w>": 5225,
      "graça</w>": 5226,
      "Precisamos</w>": 5227,
      "Nos</w>": 5228,
      "arre": 5229,
      "tea</w>": 5230,
      "fla": 5231,
      "saindo</w>": 5232,
      "stitu": 5233,
      "jesus</w>": 5234,
      "...\".</w>": 5235,
      "dun": 5236,
      "cesso</w>": 5237,
      "ments</w>": 5238,
      "Somebody</w>": 5239,
      "Fui</w>": 5240,
      "yn</w>": 5241,
      "america</w>": 5242,
      "py</w>": 5243,
      "visão</w>": 5244,
      "incr": 5245,
      "radio</w>": 5246,
      "tiv": 5247,
      "likes</w>": 5248,
      "morta</w>": 5249,
      "hide</w>": 5250,
      "Querida</w>": 5251,
      "listen": 5252,
      "cous": 5253,
      "sacri": 5254,
      "comando</w>": 5255,
      "gas": 5256,
      "thur</w>": 5257,
      "vinho</w>": 5258,
      "çando</w>": 5259,
      "justi": 5260,
      "hall</w>": 5261,
      "traga</w>": 5262,
      "respect</w>": 5263,
      "poc": 5264,
      ";.</w>": 5265,
      "wine</w>": 5266,
      "tados</w>": 5267,
      "igreja</w>": 5268,
      "may": 5269,
      "shoo": 5270,
      ").</w>": 5271,
      "provar</w>": 5272,
      "ligou</w>": 5273,
      "broken</w>": 5274,
      "arly</w>": 5275,
      "planej": 5276,
      "natural</w>": 5277,
      "bie</w>": 5278,
      "break": 5279,
      "farei</w>": 5280,
      "Fic": 5281,
      "bê": 5282,
      "tiro</w>": 5283,
      "covered</w>": 5284,
      "finalmente</w>": 5285,
      "certamente</w>": 5286,
      "vers</w>": 5287,
      "ier</w>": 5288,
      "flores</w>": 5289,
      "destroy</w>": 5290,
      "parecer</w>": 5291,
      "grou": 5292,
      "hill</w>": 5293,
      "invol": 5294,
      "Enquanto</w>": 5295,
      "cerca</w>": 5296,
      "itten</w>": 5297,
      "pedi</w>": 5298,
      "Cer": 5299,
      "bac": 5300,
      "arm": 5301,
      "Antes</w>": 5302,
      "equipe</w>": 5303,
      "history</w>": 5304,
      "apolo": 5305,
      "gres": 5306,
      "jane</w>": 5307,
      "Nenh": 5308,
      "tí": 5309,
      "chic": 5310,
      "usto</w>": 5311,
      "sting</w>": 5312,
      "ras": 5313,
      "wind</w>": 5314,
      "mater": 5315,
      "public</w>": 5316,
      "Actually</w>": 5317,
      "radi": 5318,
      "John</w>": 5319,
      "tamos</w>": 5320,
      "practi": 5321,
      "toma": 5322,
      "ries</w>": 5323,
      "vul": 5324,
      "card</w>": 5325,
      "river</w>": 5326,
      "dindo</w>": 5327,
      "cozinha</w>": 5328,
      "cuid": 5329,
      "honest</w>": 5330,
      "aceit": 5331,
      "cross</w>": 5332,
      "hello</w>": 5333,
      "esperava</w>": 5334,
      "sheriff</w>": 5335,
      "vender</w>": 5336,
      "16</w>": 5337,
      "security</w>": 5338,
      "cago</w>": 5339,
      "english</w>": 5340,
      "rote</w>": 5341,
      "interested</w>": 5342,
      "parecia</w>": 5343,
      "tó": 5344,
      "triste</w>": 5345,
      "lawyer</w>": 5346,
      "bird</w>": 5347,
      "down": 5348,
      "brown</w>": 5349,
      "dollars</w>": 5350,
      "víti": 5351,
      "prova</w>": 5352,
      "espí": 5353,
      "repente</w>": 5354,
      "Ab": 5355,
      "obrigada</w>": 5356,
      "south</w>": 5357,
      "gat": 5358,
      "humano</w>": 5359,
      "organ": 5360,
      "Keep</w>": 5361,
      "ler": 5362,
      "terei</w>": 5363,
      "desejo</w>": 5364,
      "arrived</w>": 5365,
      "preço</w>": 5366,
      "inteiro</w>": 5367,
      "ics</w>": 5368,
      "proud</w>": 5369,
      "anywhere</w>": 5370,
      "odi": 5371,
      "larry</w>": 5372,
      "útil</w>": 5373,
      "guard</w>": 5374,
      "ue</w>": 5375,
      "buddy</w>": 5376,
      "centa": 5377,
      "fool": 5378,
      "enemy</w>": 5379,
      "Seus</w>": 5380,
      "ária</w>": 5381,
      "prefer": 5382,
      "usual</w>": 5383,
      "tic": 5384,
      "Fin": 5385,
      "grand</w>": 5386,
      "bell</w>": 5387,
      "atirar</w>": 5388,
      "osos</w>": 5389,
      "mora</w>": 5390,
      "dani": 5391,
      "begin": 5392,
      "tribunal</w>": 5393,
      "rádio</w>": 5394,
      "direto</w>": 5395,
      "ig</w>": 5396,
      "gamos</w>": 5397,
      "volu": 5398,
      "sequer</w>": 5399,
      "ests</w>": 5400,
      "entu": 5401,
      "mess</w>": 5402,
      "aix": 5403,
      "marav": 5404,
      "attention</w>": 5405,
      "gy": 5406,
      "rying</w>": 5407,
      "accept</w>": 5408,
      "continua</w>": 5409,
      "fas": 5410,
      "books</w>": 5411,
      "picked</w>": 5412,
      "kni": 5413,
      "aliz": 5414,
      "bordo</w>": 5415,
      "espan": 5416,
      "gê": 5417,
      "fis": 5418,
      "insul": 5419,
      "icí": 5420,
      "humor</w>": 5421,
      "Mat": 5422,
      "funeral</w>": 5423,
      "Come": 5424,
      "pleasure</w>": 5425,
      "fotos</w>": 5426,
      "doce</w>": 5427,
      "preocupar</w>": 5428,
      "let": 5429,
      "aur": 5430,
      "kins</w>": 5431,
      "back": 5432,
      "soube</w>": 5433,
      "hem</w>": 5434,
      "clube</w>": 5435,
      "daquele</w>": 5436,
      "vey</w>": 5437,
      "banheiro</w>": 5438,
      "fo</w>": 5439,
      "diu</w>": 5440,
      "exemplo</w>": 5441,
      "glass</w>": 5442,
      "sty</w>": 5443,
      "london</w>": 5444,
      "perigoso</w>": 5445,
      "fli": 5446,
      "ella</w>": 5447,
      "inclu": 5448,
      "particular</w>": 5449,
      "ço": 5450,
      "agre": 5451,
      "record</w>": 5452,
      "direita</w>": 5453,
      "staying</w>": 5454,
      "compre": 5455,
      "13</w>": 5456,
      "ewing</w>": 5457,
      "esso</w>": 5458,
      "wrote</w>": 5459,
      "ano": 5460,
      "desis": 5461,
      "17</w>": 5462,
      "Rece": 5463,
      "cor</w>": 5464,
      "ache</w>": 5465,
      "coragem</w>": 5466,
      "togra": 5467,
      "surpris": 5468,
      "consegui</w>": 5469,
      "adeus</w>": 5470,
      "owe</w>": 5471,
      "verão</w>": 5472,
      "programa</w>": 5473,
      "haw": 5474,
      "ficaria</w>": 5475,
      "spl": 5476,
      "inging</w>": 5477,
      "receb": 5478,
      "jornal</w>": 5479,
      "et": 5480,
      "wonderful</w>": 5481,
      "ung</w>": 5482,
      "chegando</w>": 5483,
      "duty</w>": 5484,
      "kelly</w>": 5485,
      "aleg": 5486,
      "ssi": 5487,
      "ses": 5488,
      "standing</w>": 5489,
      "dry</w>": 5490,
      "nose</w>": 5491,
      "heaven</w>": 5492,
      "bura": 5493,
      "shop</w>": 5494,
      "Capitão</w>": 5495,
      "Pu": 5496,
      "passe": 5497,
      "suit</w>": 5498,
      "veram</w>": 5499,
      "serão</w>": 5500,
      "Elas</w>": 5501,
      "kis": 5502,
      "garam</w>": 5503,
      "shoes</w>": 5504,
      "opinião</w>": 5505,
      "pular</w>": 5506,
      "brain</w>": 5507,
      "univer": 5508,
      "chicago</w>": 5509,
      "gência</w>": 5510,
      "hadn</w>": 5511,
      "gares</w>": 5512,
      "oito</w>": 5513,
      "rainha</w>": 5514,
      "diferença</w>": 5515,
      "enjoy</w>": 5516,
      "ouvindo</w>": 5517,
      "Quan": 5518,
      "santa</w>": 5519,
      "ville</w>": 5520,
      "ji</w>": 5521,
      "poderá</w>": 5522,
      "necessário</w>": 5523,
      "during</w>": 5524,
      "burn</w>": 5525,
      "decision</w>": 5526,
      "pilo": 5527,
      "mem": 5528,
      "credi": 5529,
      "destino</w>": 5530,
      "cavalos</w>": 5531,
      "hear": 5532,
      "preocupado</w>": 5533,
      "esquerda</w>": 5534,
      "bad": 5535,
      "gives</w>": 5536,
      "ado": 5537,
      "sti": 5538,
      "cisco</w>": 5539,
      "chame</w>": 5540,
      "chamada</w>": 5541,
      "Tinha</w>": 5542,
      "dirty</w>": 5543,
      "Mic": 5544,
      "action</w>": 5545,
      "tory</w>": 5546,
      "sexo</w>": 5547,
      "brit": 5548,
      "ingl": 5549,
      "dida</w>": 5550,
      "alcan": 5551,
      "amea": 5552,
      "contact</w>": 5553,
      "hoso</w>": 5554,
      "beginning</w>": 5555,
      "zabeth</w>": 5556,
      "itali": 5557,
      "Hello</w>": 5558,
      "vanta": 5559,
      "pensou</w>": 5560,
      "cry</w>": 5561,
      "tempos</w>": 5562,
      "list</w>": 5563,
      "calls</w>": 5564,
      "Algo</w>": 5565,
      "emo": 5566,
      "Sam</w>": 5567,
      "amé": 5568,
      "devil</w>": 5569,
      "patient</w>": 5570,
      "roll</w>": 5571,
      "agent</w>": 5572,
      "bridge</w>": 5573,
      "machine</w>": 5574,
      "sna": 5575,
      "achou</w>": 5576,
      "energia</w>": 5577,
      "ori": 5578,
      "aceitar</w>": 5579,
      "época</w>": 5580,
      "arms</w>": 5581,
      "north</w>": 5582,
      "ene</w>": 5583,
      "grave</w>": 5584,
      "dita</w>": 5585,
      "soub": 5586,
      "innocent</w>": 5587,
      "jerry</w>": 5588,
      "sensa": 5589,
      "tors</w>": 5590,
      "abo": 5591,
      "reco": 5592,
      "reach</w>": 5593,
      "tis</w>": 5594,
      "lay</w>": 5595,
      "ério</w>": 5596,
      "dro</w>": 5597,
      "ares</w>": 5598,
      "tant</w>": 5599,
      "drunk</w>": 5600,
      "bottle</w>": 5601,
      "lt</w>": 5602,
      "annie</w>": 5603,
      "divi": 5604,
      "satis": 5605,
      "reser": 5606,
      "pier": 5607,
      "partner</w>": 5608,
      "incrível</w>": 5609,
      "ender": 5610,
      "droga</w>": 5611,
      "metros</w>": 5612,
      "patos</w>": 5613,
      "rão</w>": 5614,
      "blame</w>": 5615,
      "lindo</w>": 5616,
      "felizes</w>": 5617,
      "private</w>": 5618,
      "learned</w>": 5619,
      "puta</w>": 5620,
      "conser": 5621,
      "receber</w>": 5622,
      "verdadeiro</w>": 5623,
      "pedido</w>": 5624,
      "cias</w>": 5625,
      "].</w>": 5626,
      "vov": 5627,
      "Everyone</w>": 5628,
      "viva</w>": 5629,
      "agree</w>": 5630,
      "zing</w>": 5631,
      "zen</w>": 5632,
      "serei</w>": 5633,
      "porte</w>": 5634,
      "asses</w>": 5635,
      "cére": 5636,
      "rá</w>": 5637,
      "usou</w>": 5638,
      "rab": 5639,
      "feder": 5640,
      "disto</w>": 5641,
      "ap</w>": 5642,
      "entire</w>": 5643,
      "Com": 5644,
      "dreams</w>": 5645,
      "mel</w>": 5646,
      "evidence</w>": 5647,
      "Ne": 5648,
      "começa</w>": 5649,
      "entrou</w>": 5650,
      "fon": 5651,
      "diante</w>": 5652,
      "juiz</w>": 5653,
      "clock</w>": 5654,
      "irão</w>": 5655,
      "passo</w>": 5656,
      "aparecer</w>": 5657,
      "Since</w>": 5658,
      "ara</w>": 5659,
      "bate</w>": 5660,
      "brinc": 5661,
      "itive</w>": 5662,
      "passa": 5663,
      "cousin</w>": 5664,
      "camis": 5665,
      "perdi</w>": 5666,
      "direção</w>": 5667,
      "ster": 5668,
      "stage</w>": 5669,
      "flowers</w>": 5670,
      "nan": 5671,
      "wea": 5672,
      "believ": 5673,
      "jamais</w>": 5674,
      "vac": 5675,
      "Esses</w>": 5676,
      "gras</w>": 5677,
      "máquina</w>": 5678,
      "Sra</w>": 5679,
      "alright</w>": 5680,
      "unless</w>": 5681,
      "killer</w>": 5682,
      "empr": 5683,
      "íveis</w>": 5684,
      "bol</w>": 5685,
      "vergon": 5686,
      "origin": 5687,
      "começando</w>": 5688,
      "cops</w>": 5689,
      "Any</w>": 5690,
      "dney</w>": 5691,
      "tam": 5692,
      "address</w>": 5693,
      "inimigo</w>": 5694,
      "precisava</w>": 5695,
      "londres</w>": 5696,
      "dada</w>": 5697,
      "bot": 5698,
      "danny</w>": 5699,
      "pira": 5700,
      "longo</w>": 5701,
      "doubt</w>": 5702,
      "tommy</w>": 5703,
      "danger</w>": 5704,
      "resolver</w>": 5705,
      "tiva</w>": 5706,
      "má</w>": 5707,
      "beach</w>": 5708,
      "Escute</w>": 5709,
      "cachorro</w>": 5710,
      "erem</w>": 5711,
      "sucesso</w>": 5712,
      "delas</w>": 5713,
      "yel": 5714,
      "goodbye</w>": 5715,
      "glor": 5716,
      "olá</w>": 5717,
      "Everything</w>": 5718,
      "yo</w>": 5719,
      "til": 5720,
      "angry</w>": 5721,
      "thou": 5722,
      "fix": 5723,
      "Mãe</w>": 5724,
      "arris": 5725,
      "livros</w>": 5726,
      "iter</w>": 5727,
      "Lembra</w>": 5728,
      "cran": 5729,
      "eter": 5730,
      "ficado</w>": 5731,
      "francisco</w>": 5732,
      "guem</w>": 5733,
      "visit": 5734,
      "Aposto</w>": 5735,
      "Somos</w>": 5736,
      "command</w>": 5737,
      "aded</w>": 5738,
      "promo": 5739,
      "cost</w>": 5740,
      "curi": 5741,
      "upset</w>": 5742,
      "soldado</w>": 5743,
      "trabalhando</w>": 5744,
      "smell</w>": 5745,
      "Seria</w>": 5746,
      "difference</w>": 5747,
      "principal</w>": 5748,
      "idos</w>": 5749,
      "lugares</w>": 5750,
      "cep": 5751,
      "ajude</w>": 5752,
      "allo": 5753,
      "total</w>": 5754,
      "ign</w>": 5755,
      "loy": 5756,
      "mudou</w>": 5757,
      "cerveja</w>": 5758,
      "chamou</w>": 5759,
      "arro": 5760,
      "mencion": 5761,
      "brincar</w>": 5762,
      "damos</w>": 5763,
      "grow</w>": 5764,
      "recom": 5765,
      "ush</w>": 5766,
      "sonhos</w>": 5767,
      "recuper": 5768,
      "aler": 5769,
      "plans</w>": 5770,
      "Be</w>": 5771,
      "kitch": 5772,
      "mbo</w>": 5773,
      "andre": 5774,
      "grace</w>": 5775,
      "reas": 5776,
      "mage</w>": 5777,
      "beer</w>": 5778,
      "remo": 5779,
      "gens</w>": 5780,
      "malu": 5781,
      "inspector</w>": 5782,
      "belon": 5783,
      "Lev": 5784,
      "con</w>": 5785,
      "carter</w>": 5786,
      "planos</w>": 5787,
      "tton</w>": 5788,
      "anim": 5789,
      "ligue</w>": 5790,
      "fellow</w>": 5791,
      "gentil</w>": 5792,
      "Pegue</w>": 5793,
      "senti</w>": 5794,
      "ami</w>": 5795,
      "livrar</w>": 5796,
      "gentleman</w>": 5797,
      "Papai</w>": 5798,
      "sleeping</w>": 5799,
      "Stop</w>": 5800,
      "teste</w>": 5801,
      "ladr": 5802,
      "dormindo</w>": 5803,
      "elev": 5804,
      "dare</w>": 5805,
      "none</w>": 5806,
      "cliente</w>": 5807,
      "fere</w>": 5808,
      "maldito</w>": 5809,
      "quie": 5810,
      "docu": 5811,
      "meninas</w>": 5812,
      "norte</w>": 5813,
      "através</w>": 5814,
      "gindo</w>": 5815,
      "milit": 5816,
      "estúpido</w>": 5817,
      "rit</w>": 5818,
      "subir</w>": 5819,
      "namorado</w>": 5820,
      "brincando</w>": 5821,
      "william</w>": 5822,
      "pôr</w>": 5823,
      "religi": 5824,
      "dios</w>": 5825,
      "moça</w>": 5826,
      "chel</w>": 5827,
      "hung": 5828,
      "escur": 5829,
      "neck</w>": 5830,
      "silly</w>": 5831,
      "nervous</w>": 5832,
      "ron</w>": 5833,
      "esto</w>": 5834,
      "bloo": 5835,
      "phan": 5836,
      "jud": 5837,
      "divertido</w>": 5838,
      "plenty</w>": 5839,
      "ói</w>": 5840,
      "instead</w>": 5841,
      "regi": 5842,
      "precisam</w>": 5843,
      "Esque": 5844,
      "aning</w>": 5845,
      "iliar</w>": 5846,
      "aper": 5847,
      "darei</w>": 5848,
      "folks</w>": 5849,
      "yard</w>": 5850,
      "ggy</w>": 5851,
      "lots</w>": 5852,
      "appreci": 5853,
      "Ru": 5854,
      "illy</w>": 5855,
      "somb": 5856,
      "inteira</w>": 5857,
      "horses</w>": 5858,
      "apareceu</w>": 5859,
      "público</w>": 5860,
      "cérebro</w>": 5861,
      "blan": 5862,
      "almoço</w>": 5863,
      "aling</w>": 5864,
      "bother</w>": 5865,
      "tine</w>": 5866,
      "Ba": 5867,
      "roger</w>": 5868,
      "stuck</w>": 5869,
      "cadeira</w>": 5870,
      "reló": 5871,
      "non</w>": 5872,
      "camar": 5873,
      "medic": 5874,
      "scene</w>": 5875,
      "Pai</w>": 5876,
      "teiro</w>": 5877,
      "fied</w>": 5878,
      "cação</w>": 5879,
      "cris": 5880,
      "involved</w>": 5881,
      "treat</w>": 5882,
      "funciona</w>": 5883,
      "file</w>": 5884,
      "tau": 5885,
      "barul": 5886,
      "tivemos</w>": 5887,
      "laugh</w>": 5888,
      "ets</w>": 5889,
      "ette</w>": 5890,
      "nel": 5891,
      "truck</w>": 5892,
      "ady</w>": 5893,
      "comum</w>": 5894,
      "deixei</w>": 5895,
      "upstairs</w>": 5896,
      "johnson</w>": 5897,
      "but": 5898,
      "divor": 5899,
      "vei</w>": 5900,
      "Gra": 5901,
      "cess</w>": 5902,
      "tanta</w>": 5903,
      "Think</w>": 5904,
      "gi</w>": 5905,
      "kir": 5906,
      "fomos</w>": 5907,
      "cipe</w>": 5908,
      "Ora</w>": 5909,
      "tú": 5910,
      "lixo</w>": 5911,
      "Mam": 5912,
      "champ": 5913,
      "cantar</w>": 5914,
      "defin": 5915,
      "sens": 5916,
      "steal</w>": 5917,
      "relatório</w>": 5918,
      "Man</w>": 5919,
      "dressed</w>": 5920,
      "políti": 5921,
      "tail</w>": 5922,
      "Devemos</w>": 5923,
      "Meus</w>": 5924,
      "evis": 5925,
      "acontecendo</w>": 5926,
      "Continu": 5927,
      "Leve</w>": 5928,
      "Colo": 5929,
      "often</w>": 5930,
      "ótima</w>": 5931,
      "costumava</w>": 5932,
      "group</w>": 5933,
      "apar": 5934,
      "mando</w>": 5935,
      "walking</w>": 5936,
      "kitchen</w>": 5937,
      "calma</w>": 5938,
      "starting</w>": 5939,
      "chal": 5940,
      "bras</w>": 5941,
      "velhos</w>": 5942,
      "totalmente</w>": 5943,
      "Faz</w>": 5944,
      "cerá</w>": 5945,
      "tigo</w>": 5946,
      "contrário</w>": 5947,
      "missing</w>": 5948,
      "Je": 5949,
      "cansado</w>": 5950,
      "fizer</w>": 5951,
      "summer</w>": 5952,
      "américa</w>": 5953,
      "çada</w>": 5954,
      "warm</w>": 5955,
      "Very</w>": 5956,
      "dará</w>": 5957,
      "chapé": 5958,
      "cober": 5959,
      "ila</w>": 5960,
      "ski</w>": 5961,
      "Vejo</w>": 5962,
      "Te</w>": 5963,
      "fy</w>": 5964,
      "tress</w>": 5965,
      "escapar</w>": 5966,
      "Dois</w>": 5967,
      "leaves</w>": 5968,
      "fizemos</w>": 5969,
      "órias</w>": 5970,
      "declar": 5971,
      "aming</w>": 5972,
      "jog": 5973,
      "pictures</w>": 5974,
      "spot</w>": 5975,
      "pude</w>": 5976,
      "vento</w>": 5977,
      "breakfast</w>": 5978,
      "Amanhã</w>": 5979,
      "Mon": 5980,
      "reading</w>": 5981,
      "idiot</w>": 5982,
      "fazia</w>": 5983,
      "louca</w>": 5984,
      "Ste": 5985,
      "Pois</w>": 5986,
      "vada</w>": 5987,
      "impossível</w>": 5988,
      "diferentes</w>": 5989,
      "nariz</w>": 5990,
      "errada</w>": 5991,
      "Once</w>": 5992,
      "yne</w>": 5993,
      "erry</w>": 5994,
      "cí": 5995,
      "tional</w>": 5996,
      "bit": 5997,
      "magic</w>": 5998,
      "lembre</w>": 5999,
      "odeio</w>": 6000,
      "governo</w>": 6001,
      "ius</w>": 6002,
      "pesco": 6003,
      "Olá</w>": 6004,
      "stico</w>": 6005,
      "bara</w>": 6006,
      "caro</w>": 6007,
      "braço</w>": 6008,
      "entendeu</w>": 6009,
      "leep</w>": 6010,
      "Pare</w>": 6011,
      "bele": 6012,
      "mostr": 6013,
      "cei</w>": 6014,
      "Sta": 6015,
      "rage</w>": 6016,
      "sapatos</w>": 6017,
      "desculpas</w>": 6018,
      "300</w>": 6019,
      "rin": 6020,
      "tinham</w>": 6021,
      "justo</w>": 6022,
      "exer": 6023,
      "dentes</w>": 6024,
      "kn": 6025,
      "closed</w>": 6026,
      "Make</w>": 6027,
      "azul</w>": 6028,
      "liberdade</w>": 6029,
      "Three</w>": 6030,
      "julg": 6031,
      "uldade</w>": 6032,
      "hungry</w>": 6033,
      "caiu</w>": 6034,
      "shu": 6035,
      "memory</w>": 6036,
      "férias</w>": 6037,
      "ature</w>": 6038,
      "tornou</w>": 6039,
      "perman": 6040,
      "animais</w>": 6041,
      "murder": 6042,
      "tirou</w>": 6043,
      "inte</w>": 6044,
      "perdido</w>": 6045,
      "diretor</w>": 6046,
      "prince</w>": 6047,
      "Melhor</w>": 6048,
      "cus</w>": 6049,
      "bed": 6050,
      "scra": 6051,
      "dá": 6052,
      "fat</w>": 6053,
      "ez</w>": 6054,
      "adam</w>": 6055,
      "fully</w>": 6056,
      "bow": 6057,
      "cheiro</w>": 6058,
      "grit": 6059,
      "admit</w>": 6060,
      "ete</w>": 6061,
      "cida</w>": 6062,
      "assin": 6063,
      "gay</w>": 6064,
      "eating</w>": 6065,
      "stat": 6066,
      "stron": 6067,
      "80</w>": 6068,
      "adora</w>": 6069,
      "awful</w>": 6070,
      "pedaço</w>": 6071,
      "telefon": 6072,
      "taste</w>": 6073,
      "discutir</w>": 6074,
      "ex</w>": 6075,
      "Before</w>": 6076,
      "televis": 6077,
      "oce": 6078,
      "ties</w>": 6079,
      "absolu": 6080,
      "jovens</w>": 6081,
      "visita</w>": 6082,
      "figured</w>": 6083,
      "central</w>": 6084,
      "afi": 6085,
      "dick</w>": 6086,
      "roubar</w>": 6087,
      "flight</w>": 6088,
      "espi": 6089,
      "colate</w>": 6090,
      "rice</w>": 6091,
      "written</w>": 6092,
      "cop</w>": 6093,
      "nature</w>": 6094,
      "45</w>": 6095,
      "Nosso</w>": 6096,
      "gico</w>": 6097,
      "nur": 6098,
      "ouve</w>": 6099,
      "brothers</w>": 6100,
      "árvore</w>": 6101,
      "agradável</w>": 6102,
      "espírito</w>": 6103,
      "dim</w>": 6104,
      "cena</w>": 6105,
      "ônibus</w>": 6106,
      "Michael</w>": 6107,
      "quit</w>": 6108,
      "locked</w>": 6109,
      "holding</w>": 6110,
      "igual</w>": 6111,
      "boyfriend</w>": 6112,
      "jour": 6113,
      "çou</w>": 6114,
      "negro</w>": 6115,
      "driving</w>": 6116,
      "ill": 6117,
      "sight</w>": 6118,
      "mention</w>": 6119,
      "soubesse</w>": 6120,
      "cando</w>": 6121,
      "Tive</w>": 6122,
      "aula</w>": 6123,
      "toque</w>": 6124,
      "ith": 6125,
      "sarah</w>": 6126,
      "ficam</w>": 6127,
      "hundred</w>": 6128,
      "base": 6129,
      "recei": 6130,
      "trein": 6131,
      "colocou</w>": 6132,
      "tit": 6133,
      "helped</w>": 6134,
      "notice</w>": 6135,
      "rif": 6136,
      "espé": 6137,
      "consider": 6138,
      "joey</w>": 6139,
      "texas</w>": 6140,
      "bly</w>": 6141,
      "parecem</w>": 6142,
      "namorada</w>": 6143,
      "pescoço</w>": 6144,
      "played</w>": 6145,
      "ouça</w>": 6146,
      "detective</w>": 6147,
      "tador</w>": 6148,
      "gato</w>": 6149,
      "famous</w>": 6150,
      "isa</w>": 6151,
      "lidar</w>": 6152,
      "middle</w>": 6153,
      "favorite</w>": 6154,
      "garrafa</w>": 6155,
      "sever": 6156,
      "pronta</w>": 6157,
      "confiar</w>": 6158,
      "enfer": 6159,
      "noites</w>": 6160,
      "virá</w>": 6161,
      "material</w>": 6162,
      "conte</w>": 6163,
      "pele</w>": 6164,
      "coat</w>": 6165,
      "legs</w>": 6166,
      "shel": 6167,
      "nine</w>": 6168,
      "ages</w>": 6169,
      "cust": 6170,
      "flying</w>": 6171,
      "soldados</w>": 6172,
      "destruir</w>": 6173,
      "roy</w>": 6174,
      "forme</w>": 6175,
      "fresh</w>": 6176,
      "aged</w>": 6177,
      "acaba</w>": 6178,
      "crow": 6179,
      "justiça</w>": 6180,
      "type</w>": 6181,
      "inocente</w>": 6182,
      "deep</w>": 6183,
      "contigo</w>": 6184,
      "gift</w>": 6185,
      "ddie</w>": 6186,
      "arra": 6187,
      "empty</w>": 6188,
      "erra</w>": 6189,
      "argu": 6190,
      "twice</w>": 6191,
      "mou</w>": 6192,
      "ength</w>": 6193,
      "proteger</w>": 6194,
      "government</w>": 6195,
      "enor": 6196,
      "arrest</w>": 6197,
      "trata</w>": 6198,
      "jake</w>": 6199,
      "guilty</w>": 6200,
      "cadeia</w>": 6201,
      "risk</w>": 6202,
      "gante</w>": 6203,
      "battle</w>": 6204,
      "interes": 6205,
      "aquelas</w>": 6206,
      "whis": 6207,
      "ope</w>": 6208,
      "fia</w>": 6209,
      "ickly</w>": 6210,
      "Ob": 6211,
      "east</w>": 6212,
      "conhecê</w>": 6213,
      "Toda</w>": 6214,
      "tely</w>": 6215,
      "inglês</w>": 6216,
      "Gre": 6217,
      "arthur</w>": 6218,
      "sad</w>": 6219,
      "belong</w>": 6220,
      "spirit</w>": 6221,
      "roubou</w>": 6222,
      "Whatever</w>": 6223,
      "phe": 6224,
      "rele": 6225,
      "tenham</w>": 6226,
      "appreciate</w>": 6227,
      "gging</w>": 6228,
      "He": 6229,
      "ai": 6230,
      "inspetor</w>": 6231,
      "pernas</w>": 6232,
      "Lá</w>": 6233,
      "últimos</w>": 6234,
      "attac": 6235,
      "hante</w>": 6236,
      "mada</w>": 6237,
      "passed</w>": 6238,
      "paciente</w>": 6239,
      "ame</w>": 6240,
      "stole</w>": 6241,
      "herself</w>": 6242,
      "taught</w>": 6243,
      "dy": 6244,
      "neu": 6245,
      "forward</w>": 6246,
      "prepare</w>": 6247,
      "double</w>": 6248,
      "cate</w>": 6249,
      "ousand</w>": 6250,
      "didos</w>": 6251,
      "maravil": 6252,
      "ulas</w>": 6253,
      "irmãos</w>": 6254,
      "Aquela</w>": 6255,
      "correndo</w>": 6256,
      "cheia</w>": 6257,
      "keys</w>": 6258,
      "belo</w>": 6259,
      "cabo</w>": 6260,
      "lice</w>": 6261,
      "pair</w>": 6262,
      "speaking</w>": 6263,
      "tells</w>": 6264,
      "ví": 6265,
      "surprised</w>": 6266,
      "confu": 6267,
      "social</w>": 6268,
      "lit": 6269,
      "ised</w>": 6270,
      "apan": 6271,
      "restaur": 6272,
      "dele": 6273,
      "jon": 6274,
      "must": 6275,
      "pida</w>": 6276,
      "Cada</w>": 6277,
      "thousand</w>": 6278,
      "bolo</w>": 6279,
      "cinema</w>": 6280,
      "lação</w>": 6281,
      "mble</w>": 6282,
      "começo</w>": 6283,
      "girl": 6284,
      "ál": 6285,
      "deo</w>": 6286,
      "tirá</w>": 6287,
      "ss": 6288,
      "chocolate</w>": 6289,
      "stood</w>": 6290,
      "sário</w>": 6291,
      "begin</w>": 6292,
      "chate": 6293,
      "chair</w>": 6294,
      "denly</w>": 6295,
      "teacher</w>": 6296,
      "rando</w>": 6297,
      "reza</w>": 6298,
      "mira": 6299,
      "creio</w>": 6300,
      "names</w>": 6301,
      "relógio</w>": 6302,
      "Dad</w>": 6303,
      "raise</w>": 6304,
      "alex</w>": 6305,
      "andy</w>": 6306,
      "single</w>": 6307,
      "Mamãe</w>": 6308,
      "detal": 6309,
      "lier</w>": 6310,
      "papa</w>": 6311,
      "endereço</w>": 6312,
      "confir": 6313,
      "pedra</w>": 6314,
      "cliff</w>": 6315,
      "leg</w>": 6316,
      "centro</w>": 6317,
      "Diz": 6318,
      "hat": 6319,
      "lisa</w>": 6320,
      "places</w>": 6321,
      "faith</w>": 6322,
      "seemed</w>": 6323,
      "search</w>": 6324,
      "wild</w>": 6325,
      "peguei</w>": 6326,
      "eric</w>": 6327,
      "ok": 6328,
      "rent</w>": 6329,
      "dd": 6330,
      "grá": 6331,
      "cavalheiro</w>": 6332,
      "lucy</w>": 6333,
      "ples</w>": 6334,
      "interest</w>": 6335,
      "cure</w>": 6336,
      "offer": 6337,
      "estranha</w>": 6338,
      "rules</w>": 6339,
      "worst</w>": 6340,
      "daram</w>": 6341,
      "escute</w>": 6342,
      "senten": 6343,
      "putting</w>": 6344,
      "appro": 6345,
      "sons</w>": 6346,
      "encan": 6347,
      "Lamento</w>": 6348,
      "upon</w>": 6349,
      "nervoso</w>": 6350,
      "within</w>": 6351,
      "gged</w>": 6352,
      "procura</w>": 6353,
      "pão</w>": 6354,
      "vam": 6355,
      "regras</w>": 6356,
      "autor": 6357,
      "saída</w>": 6358,
      "beij": 6359,
      "beleza</w>": 6360,
      "soldier</w>": 6361,
      "juli": 6362,
      "alis": 6363,
      "feels</w>": 6364,
      "eth</w>": 6365,
      "mac": 6366,
      "rain</w>": 6367,
      "tivos</w>": 6368,
      "bastard</w>": 6369,
      "Aí</w>": 6370,
      "net</w>": 6371,
      "slow</w>": 6372,
      "pedindo</w>": 6373,
      "Lembre</w>": 6374,
      "seat</w>": 6375,
      "corte</w>": 6376,
      "bath": 6377,
      "gen</w>": 6378,
      "regu": 6379,
      "estr": 6380,
      "importo</w>": 6381,
      "ylor</w>": 6382,
      "phon": 6383,
      "ssar": 6384,
      "derson</w>": 6385,
      "impossible</w>": 6386,
      "dora</w>": 6387,
      "night": 6388,
      "jas</w>": 6389,
      "parede</w>": 6390,
      "donna</w>": 6391,
      "bomba</w>": 6392,
      "icídio</w>": 6393,
      "ys": 6394,
      "susan</w>": 6395,
      "rin</w>": 6396,
      "conne": 6397,
      "esconder</w>": 6398,
      "conversa</w>": 6399,
      "quebra": 6400,
      "gly</w>": 6401,
      "jor</w>": 6402,
      "opin": 6403,
      "felic": 6404,
      "original</w>": 6405,
      "prefer</w>": 6406,
      "fazemos</w>": 6407,
      "lín": 6408,
      "cash</w>": 6409,
      "cruel</w>": 6410,
      "coloque</w>": 6411,
      "\"...</w>": 6412,
      "ihe</w>": 6413,
      "piano</w>": 6414,
      "drag": 6415,
      "americano</w>": 6416,
      "mos": 6417,
      "dancing</w>": 6418,
      "complete</w>": 6419,
      "iremos</w>": 6420,
      "tape</w>": 6421,
      "gica</w>": 6422,
      "dava</w>": 6423,
      "waste</w>": 6424,
      "invent": 6425,
      "smoke</w>": 6426,
      "10": 6427,
      "Sar": 6428,
      "saco</w>": 6429,
      "jeal": 6430,
      "keeps</w>": 6431,
      "Better</w>": 6432,
      "vação</w>": 6433,
      "itty</w>": 6434,
      "gho": 6435,
      "tul": 6436,
      "Precisa</w>": 6437,
      "longa</w>": 6438,
      "jones</w>": 6439,
      "oil</w>": 6440,
      "lights</w>": 6441,
      "pega</w>": 6442,
      "joke</w>": 6443,
      "weird</w>": 6444,
      "black": 6445,
      "unidade</w>": 6446,
      "justice</w>": 6447,
      "girlfriend</w>": 6448,
      "pop</w>": 6449,
      "mister</w>": 6450,
      "diabo</w>": 6451,
      "vergonha</w>": 6452,
      "ski": 6453,
      "knife</w>": 6454,
      "chapéu</w>": 6455,
      "Got</w>": 6456,
      "rit": 6457,
      "reputa": 6458,
      "thomas</w>": 6459,
      "escuro</w>": 6460,
      "Comp": 6461,
      "humil": 6462,
      "About</w>": 6463,
      "Dou": 6464,
      "data</w>": 6465,
      "milk</w>": 6466,
      "trick</w>": 6467,
      "expected</w>": 6468,
      "Honey</w>": 6469,
      "eria</w>": 6470,
      "mortal</w>": 6471,
      "tentei</w>": 6472,
      "Essas</w>": 6473,
      "icide</w>": 6474,
      "scott</w>": 6475,
      "iles</w>": 6476,
      "escreveu</w>": 6477,
      "juro</w>": 6478,
      "sche": 6479,
      "imaginar</w>": 6480,
      "meninos</w>": 6481,
      "destroyed</w>": 6482,
      "venen": 6483,
      "hed</w>": 6484,
      "choose</w>": 6485,
      "beauty</w>": 6486,
      "buraco</w>": 6487,
      "Bar": 6488,
      "está": 6489,
      "escolher</w>": 6490,
      "ônia</w>": 6491,
      "arqui": 6492,
      "princesa</w>": 6493,
      "parou</w>": 6494,
      "adores</w>": 6495,
      "ome</w>": 6496,
      "whit": 6497,
      "study</w>": 6498,
      "daquela</w>": 6499,
      "ac</w>": 6500,
      "dé": 6501,
      "elizabeth</w>": 6502,
      "batalha</w>": 6503,
      "sofr": 6504,
      "kl": 6505,
      "hmm</w>": 6506,
      "dever</w>": 6507,
      "ponha</w>": 6508,
      "pássar": 6509,
      "kick</w>": 6510,
      "pie": 6511,
      "Sabia</w>": 6512,
      "barulho</w>": 6513,
      "share</w>": 6514,
      "ocupado</w>": 6515,
      "chicken</w>": 6516,
      "advice</w>": 6517,
      "cules</w>": 6518,
      "Anyway</w>": 6519,
      "identi": 6520,
      "bel</w>": 6521,
      "compu": 6522,
      "George</w>": 6523,
      "pegá</w>": 6524,
      "ambul": 6525,
      "pertence</w>": 6526,
      "cup</w>": 6527,
      "ilu": 6528,
      "ffy</w>": 6529,
      "mães</w>": 6530,
      "miser": 6531,
      "ônio</w>": 6532,
      "haverá</w>": 6533,
      "conden": 6534,
      "alde": 6535,
      "rot</w>": 6536,
      "bigger</w>": 6537,
      "writing</w>": 6538,
      "tre</w>": 6539,
      "familiar</w>": 6540,
      "rados</w>": 6541,
      "bolsa</w>": 6542,
      "Cui": 6543,
      "weapon</w>": 6544,
      "sold</w>": 6545,
      "leader</w>": 6546,
      "asleep</w>": 6547,
      "somente</w>": 6548,
      "melhor": 6549,
      "detetive</w>": 6550,
      "Gen": 6551,
      "casado</w>": 6552,
      "crito</w>": 6553,
      "exceto</w>": 6554,
      "princess</w>": 6555,
      "casaco</w>": 6556,
      "Alguma</w>": 6557,
      "opinion</w>": 6558,
      "vera</w>": 6559,
      "abra": 6560,
      "ato": 6561,
      "jose": 6562,
      "plu": 6563,
      "pista</w>": 6564,
      "ann</w>": 6565,
      "tais</w>": 6566,
      "evitar</w>": 6567,
      "julgamento</w>": 6568,
      "jackson</w>": 6569,
      "Cre": 6570,
      "descer</w>": 6571,
      "ourselves</w>": 6572,
      "keeping</w>": 6573,
      "sujeito</w>": 6574,
      "permissão</w>": 6575,
      "usually</w>": 6576,
      "shooting</w>": 6577,
      "smile</w>": 6578,
      "grama</w>": 6579,
      "calm</w>": 6580,
      "apartment</w>": 6581,
      "letters</w>": 6582,
      "yton</w>": 6583,
      "prefiro</w>": 6584,
      "great": 6585,
      "hardly</w>": 6586,
      "dúvida</w>": 6587,
      "ofen": 6588,
      "signed</w>": 6589,
      "necessary</w>": 6590,
      "apologi": 6591,
      "agar": 6592,
      "forgotten</w>": 6593,
      "Bob": 6594,
      "ech</w>": 6595,
      "yers</w>": 6596,
      "soli": 6597,
      "mich": 6598,
      "ponte</w>": 6599,
      "operation</w>": 6600,
      "ofere": 6601,
      "note</w>": 6602,
      "discuss</w>": 6603,
      "Obrigada</w>": 6604,
      "timo</w>": 6605,
      "ligação</w>": 6606,
      "preparar</w>": 6607,
      "responder</w>": 6608,
      "elos</w>": 6609,
      "ouvido</w>": 6610,
      "praia</w>": 6611,
      "Cara</w>": 6612,
      "therine</w>": 6613,
      "attra": 6614,
      "cere": 6615,
      "ffer</w>": 6616,
      "drinking</w>": 6617,
      "bucks</w>": 6618,
      "Ouvi</w>": 6619,
      "Boy</w>": 6620,
      "spoke</w>": 6621,
      "mountain</w>": 6622,
      "Havia</w>": 6623,
      "quickly</w>": 6624,
      "êncio</w>": 6625,
      "gency</w>": 6626,
      "gam</w>": 6627,
      "assist": 6628,
      "conheceu</w>": 6629,
      "notícia</w>": 6630,
      "atin": 6631,
      "memória</w>": 6632,
      "conce": 6633,
      "tered</w>": 6634,
      "cortar</w>": 6635,
      "tee</w>": 6636,
      "match</w>": 6637,
      "operação</w>": 6638,
      "alex": 6639,
      "sentindo</w>": 6640,
      "cozin": 6641,
      "apartamento</w>": 6642,
      "jean</w>": 6643,
      "esqueci</w>": 6644,
      "allow</w>": 6645,
      "neigh": 6646,
      "cancel": 6647,
      "ínhamos</w>": 6648,
      "monstro</w>": 6649,
      "saú": 6650,
      "afe": 6651,
      "ared</w>": 6652,
      "rosa</w>": 6653,
      "ishing</w>": 6654,
      "possamos</w>": 6655,
      "further</w>": 6656,
      "líder</w>": 6657,
      "alta</w>": 6658,
      "Qual": 6659,
      "gido</w>": 6660,
      "risco</w>": 6661,
      "peixe</w>": 6662,
      "zu": 6663,
      "travel": 6664,
      "Alguns</w>": 6665,
      "Seja</w>": 6666,
      "jú": 6667,
      "parado</w>": 6668,
      "aonde</w>": 6669,
      "rance</w>": 6670,
      "escolh": 6671,
      "prín": 6672,
      "afinal</w>": 6673,
      "tolo</w>": 6674,
      "garotos</w>": 6675,
      "acabei</w>": 6676,
      "classe</w>": 6677,
      "pen</w>": 6678,
      "esqueceu</w>": 6679,
      "Vão</w>": 6680,
      "limpar</w>": 6681,
      "berg</w>": 6682,
      "entregar</w>": 6683,
      "kra": 6684,
      "mann</w>": 6685,
      "mail</w>": 6686,
      "fortune</w>": 6687,
      "monster</w>": 6688,
      "bunch</w>": 6689,
      "wag": 6690,
      "tains</w>": 6691,
      "ganha</w>": 6692,
      "matt</w>": 6693,
      "expul": 6694,
      "essem</w>": 6695,
      "Cuidado</w>": 6696,
      "milhão</w>": 6697,
      "Todas</w>": 6698,
      "pants</w>": 6699,
      "Trabal": 6700,
      "Wel": 6701,
      "post</w>": 6702,
      "Nenhum</w>": 6703,
      "passando</w>": 6704,
      "listening</w>": 6705,
      "ion": 6706,
      "distan": 6707,
      "corrida</w>": 6708,
      "frigh": 6709,
      "tarei</w>": 6710,
      "skin</w>": 6711,
      "Dar": 6712,
      "leite</w>": 6713,
      "bomb</w>": 6714,
      "Gar": 6715,
      "ich": 6716,
      "dest</w>": 6717,
      "vando</w>": 6718,
      "acal": 6719,
      "jump</w>": 6720,
      "fechar</w>": 6721,
      "plo": 6722,
      "liga</w>": 6723,
      "trial</w>": 6724,
      "majestade</w>": 6725,
      "bêbado</w>": 6726,
      "Doc": 6727,
      "aven": 6728,
      "blind</w>": 6729,
      "tiu</w>": 6730,
      ",...</w>": 6731,
      "acham</w>": 6732,
      "Três</w>": 6733,
      "Ano": 6734,
      "ariam</w>": 6735,
      "relax": 6736,
      "quebrar</w>": 6737,
      "poderíamos</w>": 6738,
      "Pr": 6739,
      "empresa</w>": 6740,
      "levantar</w>": 6741,
      "acompan": 6742,
      "gni": 6743,
      "lição</w>": 6744,
      "commun": 6745,
      "strength</w>": 6746,
      "sel</w>": 6747,
      "morgan</w>": 6748,
      "clus": 6749,
      "chorar</w>": 6750,
      "phy</w>": 6751,
      "ox": 6752,
      "Tomorrow</w>": 6753,
      "walter</w>": 6754,
      "maioria</w>": 6755,
      "noiva</w>": 6756,
      "beijo</w>": 6757,
      "caminhão</w>": 6758,
      "weapons</w>": 6759,
      "roy": 6760,
      "dave</w>": 6761,
      "braços</w>": 6762,
      "lied</w>": 6763,
      "adul": 6764,
      "college</w>": 6765,
      "ãos</w>": 6766,
      "pré": 6767,
      "desper": 6768,
      "evin</w>": 6769,
      "lake</w>": 6770,
      "sentado</w>": 6771,
      "deserve</w>": 6772,
      "entrada</w>": 6773,
      "harm</w>": 6774,
      "uro</w>": 6775,
      "cards</w>": 6776,
      "mio</w>": 6777,
      "aco</w>": 6778,
      "itted</w>": 6779,
      "Jack</w>": 6780,
      "taman": 6781,
      "zero</w>": 6782,
      "china</w>": 6783,
      "france</w>": 6784,
      "majesty</w>": 6785,
      "Qualquer</w>": 6786,
      "dul": 6787,
      "account</w>": 6788,
      "desculpa</w>": 6789,
      "apresentar</w>": 6790,
      "nomes</w>": 6791,
      "garet</w>": 6792,
      "german</w>": 6793,
      "myst": 6794,
      "tância</w>": 6795,
      "due</w>": 6796,
      "stayed</w>": 6797,
      "chamam</w>": 6798,
      "foc": 6799,
      "hero</w>": 6800,
      "refer": 6801,
      "merece</w>": 6802,
      "faremos</w>": 6803,
      "22</w>": 6804,
      "perna</w>": 6805,
      "manda</w>": 6806,
      "computer</w>": 6807,
      "ji": 6808,
      "Estes</w>": 6809,
      "garden</w>": 6810,
      "therwise</w>": 6811,
      "anta</w>": 6812,
      "noi": 6813,
      "cados</w>": 6814,
      "ceira</w>": 6815,
      "21</w>": 6816,
      "mers</w>": 6817,
      "oeste</w>": 6818,
      "copo</w>": 6819,
      "faca</w>": 6820,
      "língua</w>": 6821,
      "uso</w>": 6822,
      "nove</w>": 6823,
      "vimos</w>": 6824,
      "turning</w>": 6825,
      "kel": 6826,
      "track</w>": 6827,
      "crying</w>": 6828,
      "Charlie</w>": 6829,
      "chris</w>": 6830,
      "cake</w>": 6831,
      "zi": 6832,
      "bot</w>": 6833,
      "suponho</w>": 6834,
      "seguinte</w>": 6835,
      "dizia</w>": 6836,
      "grant</w>": 6837,
      "lent</w>": 6838,
      "pux": 6839,
      "Must</w>": 6840,
      "óleo</w>": 6841,
      "arte</w>": 6842,
      "bastar": 6843,
      "intro": 6844,
      "ession</w>": 6845,
      "Still</w>": 6846,
      "',</w>": 6847,
      "obri": 6848,
      "von</w>": 6849,
      "primo</w>": 6850,
      "Deveria</w>": 6851,
      "emergência</w>": 6852,
      "mac</w>": 6853,
      "queim": 6854,
      "iling</w>": 6855,
      "derru": 6856,
      "hero": 6857,
      "pack</w>": 6858,
      "satur": 6859,
      "mina</w>": 6860,
      "direi</w>": 6861,
      "arrumar</w>": 6862,
      "unci": 6863,
      "gelo</w>": 6864,
      "ions</w>": 6865,
      "andando</w>": 6866,
      "computa": 6867,
      "laun": 6868,
      "athan</w>": 6869,
      "El": 6870,
      "common</w>": 6871,
      "bala</w>": 6872,
      "push</w>": 6873,
      "witness</w>": 6874,
      "meter</w>": 6875,
      "week": 6876,
      "bury</w>": 6877,
      "disser</w>": 6878,
      "clark</w>": 6879,
      "superior</w>": 6880,
      "vermelho</w>": 6881,
      "rand": 6882,
      "bone": 6883,
      "faculdade</w>": 6884,
      "Another</w>": 6885,
      "miu</w>": 6886,
      "crew</w>": 6887,
      "walked</w>": 6888,
      "funcionar</w>": 6889,
      "Today</w>": 6890,
      "driver</w>": 6891,
      "organiz": 6892,
      "filmes</w>": 6893,
      "audi": 6894,
      "geor": 6895,
      "decidir</w>": 6896,
      "dil": 6897,
      "espécie</w>": 6898,
      "pego</w>": 6899,
      "ensinar</w>": 6900,
      "The": 6901,
      "cook</w>": 6902,
      "became</w>": 6903,
      "amava</w>": 6904,
      "corner</w>": 6905,
      "espada</w>": 6906,
      "news": 6907,
      "power": 6908,
      "desen": 6909,
      "piada</w>": 6910,
      "rate</w>": 6911,
      "losing</w>": 6912,
      "culpado</w>": 6913,
      "louis</w>": 6914,
      "contrato</w>": 6915,
      "imos</w>": 6916,
      "mata</w>": 6917,
      "ridí": 6918,
      "dirigir</w>": 6919,
      "celebra": 6920,
      "ola</w>": 6921,
      "rison</w>": 6922,
      "existem</w>": 6923,
      "hit": 6924,
      "ral": 6925,
      "aten</w>": 6926,
      "príncipe</w>": 6927,
      "instru": 6928,
      "gostava</w>": 6929,
      "showed</w>": 6930,
      "zed</w>": 6931,
      "defe": 6932,
      "medical</w>": 6933,
      "stal": 6934,
      "tira</w>": 6935,
      "Frank</w>": 6936,
      "18": 6937,
      "rindo</w>": 6938,
      "atri": 6939,
      "dal</w>": 6940,
      "mped</w>": 6941,
      "male</w>": 6942,
      "defesa</w>": 6943,
      "soc": 6944,
      "visitar</w>": 6945,
      "ject</w>": 6946,
      "draw</w>": 6947,
      "sunday</w>": 6948,
      "Te": 6949,
      "wever</w>": 6950,
      "pagne</w>": 6951,
      "Try</w>": 6952,
      "las": 6953,
      "parceiro</w>": 6954,
      "turns</w>": 6955,
      "vítima</w>": 6956,
      "né</w>": 6957,
      "derro": 6958,
      "silver</w>": 6959,
      "Ver": 6960,
      "vieram</w>": 6961,
      "facil": 6962,
      "deed</w>": 6963,
      "suffer": 6964,
      "heavy</w>": 6965,
      "rom": 6966,
      "ambos</w>": 6967,
      "Mom</w>": 6968,
      "taylor</w>": 6969,
      "angeles</w>": 6970,
      "territ": 6971,
      "camera</w>": 6972,
      "computador</w>": 6973,
      "arrest": 6974,
      "requ": 6975,
      "acting</w>": 6976,
      "míni": 6977,
      "oper</w>": 6978,
      "ejam</w>": 6979,
      "Last</w>": 6980,
      "anel</w>": 6981,
      "condu": 6982,
      "tti</w>": 6983,
      "esperança</w>": 6984,
      "willing</w>": 6985,
      "irmos</w>": 6986,
      "barri": 6987,
      "jardim</w>": 6988,
      "Coloque</w>": 6989,
      "Welcome</w>": 6990,
      "animals</w>": 6991,
      "maca": 6992,
      "afford</w>": 6993,
      "traz</w>": 6994,
      "estrel": 6995,
      "una</w>": 6996,
      "tome</w>": 6997,
      "helping</w>": 6998,
      "recogni": 6999,
      "non": 7000,
      "cam</w>": 7001,
      "mem</w>": 7002,
      "pan</w>": 7003,
      "speed</w>": 7004,
      "wash</w>": 7005,
      "soldiers</w>": 7006,
      "anci": 7007,
      "conhecia</w>": 7008,
      "frica</w>": 7009,
      "mbers</w>": 7010,
      "ferido</w>": 7011,
      "chances</w>": 7012,
      "acostu": 7013,
      "oli": 7014,
      "fór": 7015,
      "compli": 7016,
      "saúde</w>": 7017,
      "ventu": 7018,
      "stic</w>": 7019,
      "pression</w>": 7020,
      "máxi": 7021,
      "sword</w>": 7022,
      "essed</w>": 7023,
      "leta</w>": 7024,
      "colocá</w>": 7025,
      "viaj": 7026,
      "agradecer</w>": 7027,
      "depressa</w>": 7028,
      "tery</w>": 7029,
      "theart</w>": 7030,
      "england</w>": 7031,
      "milag": 7032,
      "sand": 7033,
      "anjo</w>": 7034,
      "ganhou</w>": 7035,
      "support</w>": 7036,
      "voar</w>": 7037,
      "lan</w>": 7038,
      "tora</w>": 7039,
      "dogs</w>": 7040,
      "bido</w>": 7041,
      "cell</w>": 7042,
      "Suponho</w>": 7043,
      "escra": 7044,
      "mido</w>": 7045,
      "tary</w>": 7046,
      "jealous</w>": 7047,
      "acordar</w>": 7048,
      "lywood</w>": 7049,
      "mera</w>": 7050,
      "condition</w>": 7051,
      "laterra</w>": 7052,
      "empur": 7053,
      "effe": 7054,
      "science</w>": 7055,
      "gins</w>": 7056,
      "fair": 7057,
      "branca</w>": 7058,
      "lets</w>": 7059,
      "goddamn</w>": 7060,
      "allowed</w>": 7061,
      "bles</w>": 7062,
      "moder": 7063,
      "interessa</w>": 7064,
      "kic": 7065,
      "fired</w>": 7066,
      "Querido</w>": 7067,
      "frança</w>": 7068,
      "divertir</w>": 7069,
      "ego</w>": 7070,
      "Ol": 7071,
      "horri": 7072,
      "herói</w>": 7073,
      "terminou</w>": 7074,
      "comprou</w>": 7075,
      "build</w>": 7076,
      "quantos</w>": 7077,
      "holi": 7078,
      "estrela</w>": 7079,
      "zar": 7080,
      "cheguei</w>": 7081,
      "pio</w>": 7082,
      "poun": 7083,
      "Davi": 7084,
      "ix</w>": 7085,
      "tight</w>": 7086,
      "teeth</w>": 7087,
      "foot": 7088,
      "deseja</w>": 7089,
      "pago</w>": 7090,
      "bud</w>": 7091,
      "Major</w>": 7092,
      "Algum</w>": 7093,
      "machucar</w>": 7094,
      "max": 7095,
      "mies</w>": 7096,
      "bath</w>": 7097,
      "Digo</w>": 7098,
      "use": 7099,
      "top": 7100,
      "cump": 7101,
      "invited</w>": 7102,
      "floresta</w>": 7103,
      "cirur": 7104,
      "influ": 7105,
      "ala</w>": 7106,
      "happening</w>": 7107,
      "interesse</w>": 7108,
      "phil</w>": 7109,
      "aul</w>": 7110,
      "deveríamos</w>": 7111,
      "ansi": 7112,
      "fill</w>": 7113,
      "jason</w>": 7114,
      "pregn": 7115,
      "cheque</w>": 7116,
      "Stay</w>": 7117,
      "mony</w>": 7118,
      "Afinal</w>": 7119,
      "fif": 7120,
      "tempor": 7121,
      "Professor</w>": 7122,
      "above</w>": 7123,
      "oi</w>": 7124,
      "ities</w>": 7125,
      "Aren</w>": 7126,
      "aero": 7127,
      "information</w>": 7128,
      "ander</w>": 7129,
      "ela": 7130,
      "daí</w>": 7131,
      "perdendo</w>": 7132,
      "abaixo</w>": 7133,
      "acima</w>": 7134,
      "castle</w>": 7135,
      "emergency</w>": 7136,
      "Joe</w>": 7137,
      "bloody</w>": 7138,
      "nis</w>": 7139,
      "verde</w>": 7140,
      "buck</w>": 7141,
      "avan": 7142,
      "silêncio</w>": 7143,
      "Vo": 7144,
      "sl": 7145,
      "elimin": 7146,
      "mily</w>": 7147,
      "inglaterra</w>": 7148,
      "kers</w>": 7149,
      "int": 7150,
      "matei</w>": 7151,
      "caria</w>": 7152,
      "bri</w>": 7153,
      "popular</w>": 7154,
      "easier</w>": 7155,
      "excelente</w>": 7156,
      "yn": 7157,
      "shi</w>": 7158,
      "servir</w>": 7159,
      "shirt</w>": 7160,
      "Hi</w>": 7161,
      "trocar</w>": 7162,
      "descansar</w>": 7163,
      "cole</w>": 7164,
      "hood</w>": 7165,
      "montanha</w>": 7166,
      "preen": 7167,
      "Leave</w>": 7168,
      "lis</w>": 7169,
      "pool</w>": 7170,
      "asi": 7171,
      "cartw": 7172,
      "mesmos</w>": 7173,
      "35</w>": 7174,
      "Jesus</w>": 7175,
      "Pes": 7176,
      "motor</w>": 7177,
      "ered</w>": 7178,
      "stars</w>": 7179,
      "tação</w>": 7180,
      "essar</w>": 7181,
      "brilhante</w>": 7182,
      "Acred": 7183,
      "chas</w>": 7184,
      "frey</w>": 7185,
      "aks</w>": 7186,
      "inici": 7187,
      "domingo</w>": 7188,
      "hank</w>": 7189,
      "simon</w>": 7190,
      "táxi</w>": 7191,
      "wilson</w>": 7192,
      "expecting</w>": 7193,
      "mago</w>": 7194,
      "doença</w>": 7195,
      "acade": 7196,
      "following</w>": 7197,
      "õe</w>": 7198,
      "médio</w>": 7199,
      "prontos</w>": 7200,
      "Wat": 7201,
      "redor</w>": 7202,
      "feita</w>": 7203,
      "coma</w>": 7204,
      "General</w>": 7205,
      "19</w>": 7206,
      "pie</w>": 7207,
      "cles</w>": 7208,
      "zan": 7209,
      "victim</w>": 7210,
      "eses</w>": 7211,
      "ops</w>": 7212,
      "deixado</w>": 7213,
      "mirante</w>": 7214,
      "gostei</w>": 7215,
      "Bobby</w>": 7216,
      "apart</w>": 7217,
      "ious</w>": 7218,
      "meat</w>": 7219,
      "pesar</w>": 7220,
      "roma</w>": 7221,
      "apon": 7222,
      "yond</w>": 7223,
      "Da</w>": 7224,
      "ães</w>": 7225,
      "refle": 7226,
      "levando</w>": 7227,
      "solit": 7228,
      "David</w>": 7229,
      "shap": 7230,
      "relax</w>": 7231,
      "tamanho</w>": 7232,
      "ption</w>": 7233,
      "chamando</w>": 7234,
      "bec": 7235,
      "peço</w>": 7236,
      "herr</w>": 7237,
      "whether</w>": 7238,
      "debaixo</w>": 7239,
      "loucura</w>": 7240,
      "othy</w>": 7241,
      "ear</w>": 7242,
      "ticket</w>": 7243,
      "nais</w>": 7244,
      "acredite</w>": 7245,
      "cruz": 7246,
      "orgulho</w>": 7247,
      "practice</w>": 7248,
      "fita</w>": 7249,
      "teen</w>": 7250,
      "bob": 7251,
      "acabar": 7252,
      "belongs</w>": 7253,
      "Ad": 7254,
      "fbi</w>": 7255,
      "bringing</w>": 7256,
      "matthe": 7257,
      "ister</w>": 7258,
      "uras</w>": 7259,
      "vince</w>": 7260,
      "delici": 7261,
      "murderer</w>": 7262,
      "Dro": 7263,
      "jac": 7264,
      "jesse</w>": 7265,
      "novos</w>": 7266,
      "helen</w>": 7267,
      "bunda</w>": 7268,
      "humanos</w>": 7269,
      "oferta</w>": 7270,
      "raiva</w>": 7271,
      "dedi": 7272,
      "tails</w>": 7273,
      "virar</w>": 7274,
      "suspect</w>": 7275,
      "desafi": 7276,
      "mara</w>": 7277,
      "ations</w>": 7278,
      "champagne</w>": 7279,
      "Should</w>": 7280,
      "acaso</w>": 7281,
      "mam</w>": 7282,
      "ridi": 7283,
      "knock</w>": 7284,
      "mach</w>": 7285,
      "sier</w>": 7286,
      "size</w>": 7287,
      "quão</w>": 7288,
      "bic": 7289,
      "rel</w>": 7290,
      "ram": 7291,
      "hollywood</w>": 7292,
      "bathroom</w>": 7293,
      "hearing</w>": 7294,
      "waited</w>": 7295,
      "torna</w>": 7296,
      "ath": 7297,
      "covar": 7298,
      "tida</w>": 7299,
      "Dizem</w>": 7300,
      "olo": 7301,
      "provas</w>": 7302,
      "prometo</w>": 7303,
      "dono</w>": 7304,
      "christ</w>": 7305,
      "nelson</w>": 7306,
      "ey": 7307,
      "ray": 7308,
      "gui": 7309,
      "mantê</w>": 7310,
      "itivo</w>": 7311,
      "bal</w>": 7312,
      "perfu": 7313,
      "cartão</w>": 7314,
      "hiding</w>": 7315,
      "distri": 7316,
      "lines</w>": 7317,
      "desistir</w>": 7318,
      "moc": 7319,
      "teatro</w>": 7320,
      "senhoras</w>": 7321,
      "promes": 7322,
      "singing</w>": 7323,
      "held</w>": 7324,
      "health</w>": 7325,
      "Dur": 7326,
      "ppy</w>": 7327,
      "ety</w>": 7328,
      "sin</w>": 7329,
      "zza</w>": 7330,
      "ceram</w>": 7331,
      "deixando</w>": 7332,
      "dropped</w>": 7333,
      "desig": 7334,
      "Devia</w>": 7335,
      "viram</w>": 7336,
      "valor</w>": 7337,
      "telephone</w>": 7338,
      "verificar</w>": 7339,
      "aldeia</w>": 7340,
      "mad": 7341,
      "rule</w>": 7342,
      "calças</w>": 7343,
      "victor</w>": 7344,
      "military</w>": 7345,
      "enfr": 7346,
      "pet": 7347,
      "limit": 7348,
      "bilhe": 7349,
      "francês</w>": 7350,
      "ade": 7351,
      "consul": 7352,
      "steph": 7353,
      "weekend</w>": 7354,
      "among</w>": 7355,
      "bos": 7356,
      "williams</w>": 7357,
      "inver": 7358,
      "ismo</w>": 7359,
      "tian</w>": 7360,
      "Encont": 7361,
      "corredor</w>": 7362,
      "nearly</w>": 7363,
      "sim": 7364,
      "gain</w>": 7365,
      "nasceu</w>": 7366,
      "felicidade</w>": 7367,
      "deb": 7368,
      "saturday</w>": 7369,
      "pensava</w>": 7370,
      "quisesse</w>": 7371,
      "reach": 7372,
      "slept</w>": 7373,
      "Shall</w>": 7374,
      "Has</w>": 7375,
      "drogas</w>": 7376,
      "Bring</w>": 7377,
      "Who": 7378,
      "enviar</w>": 7379,
      "strike</w>": 7380,
      "'?</w>": 7381,
      "passe</w>": 7382,
      "busca</w>": 7383,
      "suggest</w>": 7384,
      "amed</w>": 7385,
      "rome</w>": 7386,
      "dumb</w>": 7387,
      "fábri": 7388,
      "prometeu</w>": 7389,
      "jogando</w>": 7390,
      "lesson</w>": 7391,
      "porra</w>": 7392,
      "várias</w>": 7393,
      "testemunha</w>": 7394,
      "greatest</w>": 7395,
      "abra</w>": 7396,
      "gaz": 7397,
      "clau": 7398,
      "mau": 7399,
      "settle</w>": 7400,
      "heads</w>": 7401,
      "alan</w>": 7402,
      "maldita</w>": 7403,
      "jury</w>": 7404,
      "bottom</w>": 7405,
      "priest</w>": 7406,
      "segura</w>": 7407,
      "ec": 7408,
      "nights</w>": 7409,
      "concerned</w>": 7410,
      "hanging</w>": 7411,
      "stein</w>": 7412,
      "rar": 7413,
      "enter</w>": 7414,
      "resis": 7415,
      "natureza</w>": 7416,
      "Imagine</w>": 7417,
      "ased</w>": 7418,
      "rev": 7419,
      "dows</w>": 7420,
      "minds</w>": 7421,
      "knoc": 7422,
      "gang</w>": 7423,
      "ugly</w>": 7424,
      "fore": 7425,
      "everywhere</w>": 7426,
      "clientes</w>": 7427,
      "gel</w>": 7428,
      "cartwright</w>": 7429,
      "ideas</w>": 7430,
      "Gosto</w>": 7431,
      "super</w>": 7432,
      "anha</w>": 7433,
      "escrito</w>": 7434,
      "camp</w>": 7435,
      "box": 7436,
      "courage</w>": 7437,
      "ordered</w>": 7438,
      "eless</w>": 7439,
      "parker</w>": 7440,
      "shows</w>": 7441,
      "example</w>": 7442,
      "madam</w>": 7443,
      "esperto</w>": 7444,
      "Dam": 7445,
      "level</w>": 7446,
      "suddenly</w>": 7447,
      "code</w>": 7448,
      "sexual</w>": 7449,
      "lover</w>": 7450,
      "bron": 7451,
      "conhecemos</w>": 7452,
      "betra": 7453,
      "paying</w>": 7454,
      "goin</w>": 7455,
      "russi": 7456,
      "agir</w>": 7457,
      "terceiro</w>": 7458,
      "spir": 7459,
      "gamb": 7460,
      "gus</w>": 7461,
      "mbro</w>": 7462,
      "cream</w>": 7463,
      "Fico</w>": 7464,
      "prov": 7465,
      "progres": 7466,
      "shed</w>": 7467,
      "corda</w>": 7468,
      "pressure</w>": 7469,
      "antigo</w>": 7470,
      "ems</w>": 7471,
      "pede</w>": 7472,
      "sher": 7473,
      "permission</w>": 7474,
      "passei</w>": 7475,
      "un</w>": 7476,
      "nega": 7477,
      "gostou</w>": 7478,
      "pontos</w>": 7479,
      "stolen</w>": 7480,
      "pisto": 7481,
      "ricky</w>": 7482,
      "realidade</w>": 7483,
      "descobriu</w>": 7484,
      "Doctor</w>": 7485,
      "Pas": 7486,
      "sug": 7487,
      "atas</w>": 7488,
      "portar</w>": 7489,
      "chuva</w>": 7490,
      "rant</w>": 7491,
      "idiotas</w>": 7492,
      "eco": 7493,
      "illa</w>": 7494,
      "ext</w>": 7495,
      "duce</w>": 7496,
      "stories</w>": 7497,
      "ladrão</w>": 7498,
      "sooner</w>": 7499,
      "ultz</w>": 7500,
      "mans</w>": 7501,
      "laughing</w>": 7502,
      "ctly</w>": 7503,
      "lamento</w>": 7504,
      "Next</w>": 7505,
      "brian</w>": 7506,
      "julie</w>": 7507,
      "iny</w>": 7508,
      "howard</w>": 7509,
      "speci": 7510,
      "vêm</w>": 7511,
      "ffin</w>": 7512,
      "Acabei</w>": 7513,
      "gados</w>": 7514,
      "contas</w>": 7515,
      "proof</w>": 7516,
      "tent</w>": 7517,
      "Consegu": 7518,
      "noticed</w>": 7519,
      "\"!</w>": 7520,
      "tores</w>": 7521,
      "confiança</w>": 7522,
      "opened</w>": 7523,
      "fat": 7524,
      "ere": 7525,
      "alice</w>": 7526,
      "pet</w>": 7527,
      "travel</w>": 7528,
      "wondering</w>": 7529,
      "insu": 7530,
      "esfor": 7531,
      "alvo</w>": 7532,
      "culous</w>": 7533,
      "ôo</w>": 7534,
      "older</w>": 7535,
      "sí": 7536,
      "ários</w>": 7537,
      "revolu": 7538,
      "dant</w>": 7539,
      "crane</w>": 7540,
      "mustn</w>": 7541,
      "bloc": 7542,
      "Pergun": 7543,
      "games</w>": 7544,
      "dec": 7545,
      "laura</w>": 7546,
      "signal</w>": 7547,
      "freedom</w>": 7548,
      "romp": 7549,
      "carros</w>": 7550,
      "marie</w>": 7551,
      "tará</w>": 7552,
      "Fiquei</w>": 7553,
      "threw</w>": 7554,
      "Lar": 7555,
      "nin": 7556,
      "ônica</w>": 7557,
      "horrible</w>": 7558,
      "hop</w>": 7559,
      "mental</w>": 7560,
      "lonely</w>": 7561,
      "Father</w>": 7562,
      "spring</w>": 7563,
      "rober": 7564,
      "birth": 7565,
      "radas</w>": 7566,
      "preto</w>": 7567,
      "trea": 7568,
      "dama</w>": 7569,
      "jornais</w>": 7570,
      "followed</w>": 7571,
      "medicine</w>": 7572,
      "segurar</w>": 7573,
      "perguntou</w>": 7574,
      "carreira</w>": 7575,
      "pocket</w>": 7576,
      "bay</w>": 7577,
      "truque</w>": 7578,
      "pray</w>": 7579,
      "guel</w>": 7580,
      "guest</w>": 7581,
      "pegar": 7582,
      "luzes</w>": 7583,
      "loose</w>": 7584,
      "ads</w>": 7585,
      "estaremos</w>": 7586,
      "ury</w>": 7587,
      "Ale": 7588,
      "Paul</w>": 7589,
      "km</w>": 7590,
      "rememb": 7591,
      "poucos</w>": 7592,
      "doors</w>": 7593,
      "menor</w>": 7594,
      "briga</w>": 7595,
      "gordon</w>": 7596,
      "Oi</w>": 7597,
      "Quase</w>": 7598,
      "carga</w>": 7599,
      "limpo</w>": 7600,
      "checked</w>": 7601,
      "bravo</w>": 7602,
      "irmã": 7603,
      "pergunto</w>": 7604,
      "ee</w>": 7605,
      "início</w>": 7606,
      "beyond</w>": 7607,
      "miss": 7608,
      "regular</w>": 7609,
      "cobri": 7610,
      "cording</w>": 7611,
      "entra</w>": 7612,
      "gina</w>": 7613,
      "pia</w>": 7614,
      "ends</w>": 7615,
      "amante</w>": 7616,
      "neither</w>": 7617,
      "Pesso": 7618,
      "sejam</w>": 7619,
      "dedos</w>": 7620,
      "deria</w>": 7621,
      "Suas</w>": 7622,
      "estrelas</w>": 7623,
      "Pon": 7624,
      "vor": 7625,
      "shoul": 7626,
      "pesquis": 7627,
      "happiness</w>": 7628,
      "passeio</w>": 7629,
      "fit": 7630,
      "pear": 7631,
      "large</w>": 7632,
      "gostam</w>": 7633,
      "ãs</w>": 7634,
      "troca</w>": 7635,
      "pulled</w>": 7636,
      "médicos</w>": 7637,
      "excit": 7638,
      "cat": 7639,
      "implor": 7640,
      "acabado</w>": 7641,
      "kne": 7642,
      "ni</w>": 7643,
      "sável</w>": 7644,
      "yan": 7645,
      "closer</w>": 7646,
      "jenny</w>": 7647,
      "credit</w>": 7648,
      "Mary</w>": 7649,
      "riam</w>": 7650,
      "pizza</w>": 7651,
      "salvou</w>": 7652,
      "castelo</w>": 7653,
      "contract</w>": 7654,
      "explodir</w>": 7655,
      "energy</w>": 7656,
      "bigg": 7657,
      "dale</w>": 7658,
      "imagem</w>": 7659,
      "pregnant</w>": 7660,
      "bando</w>": 7661,
      "senso</w>": 7662,
      "chamo</w>": 7663,
      "jeff</w>": 7664,
      "bolso</w>": 7665,
      "Volte</w>": 7666,
      "Hold</w>": 7667,
      "dley</w>": 7668,
      "issão</w>": 7669,
      "señ": 7670,
      "câmera</w>": 7671,
      "insan": 7672,
      "page</w>": 7673,
      "vision</w>": 7674,
      "built</w>": 7675,
      "Sig": 7676,
      "viam</w>": 7677,
      "pli": 7678,
      "exi": 7679,
      "seguindo</w>": 7680,
      "eding</w>": 7681,
      "Creio</w>": 7682,
      "elhos</w>": 7683,
      "passagem</w>": 7684,
      "prepared</w>": 7685,
      "postos</w>": 7686,
      "tech": 7687,
      "avo": 7688,
      "whose</w>": 7689,
      "earlier</w>": 7690,
      "client</w>": 7691,
      "awa</w>": 7692,
      "bullet</w>": 7693,
      "movies</w>": 7694,
      "sees</w>": 7695,
      "joy</w>": 7696,
      "tomou</w>": 7697,
      "itself</w>": 7698,
      "hoo": 7699,
      "heat</w>": 7700,
      "glasses</w>": 7701,
      "pobre": 7702,
      "bor</w>": 7703,
      "kate</w>": 7704,
      "pam</w>": 7705,
      "itual</w>": 7706,
      "enviou</w>": 7707,
      "sábado</w>": 7708,
      "envel": 7709,
      "calor</w>": 7710,
      "romance</w>": 7711,
      "hoping</w>": 7712,
      "versário</w>": 7713,
      "Fiz</w>": 7714,
      "square</w>": 7715,
      "detalhes</w>": 7716,
      "yin</w>": 7717,
      "inven": 7718,
      "cue</w>": 7719,
      "vencer</w>": 7720,
      "them": 7721,
      "langu": 7722,
      "90</w>": 7723,
      "io": 7724,
      "suicide</w>": 7725,
      "23</w>": 7726,
      "sando</w>": 7727,
      "mula</w>": 7728,
      "noise</w>": 7729,
      "market</w>": 7730,
      "tens</w>": 7731,
      "comece</w>": 7732,
      "weather</w>": 7733,
      "?\"</w>": 7734,
      "Aconte": 7735,
      "king": 7736,
      "starts</w>": 7737,
      "unidos</w>": 7738,
      "center</w>": 7739,
      "acusa": 7740,
      "sino</w>": 7741,
      "lab": 7742,
      "Tente</w>": 7743,
      "moral</w>": 7744,
      "Max</w>": 7745,
      "clin": 7746,
      "ease</w>": 7747,
      "sters</w>": 7748,
      "buried</w>": 7749,
      "apologize</w>": 7750,
      "Her": 7751,
      "Lor": 7752,
      "virgin": 7753,
      "joseph</w>": 7754,
      "themselves</w>": 7755,
      "paga</w>": 7756,
      "graças</w>": 7757,
      "Sobre</w>": 7758,
      "99</w>": 7759,
      "rador</w>": 7760,
      "vigi": 7761,
      "mudança</w>": 7762,
      "lance</w>": 7763,
      "quebrou</w>": 7764,
      "vestir</w>": 7765,
      "gênio</w>": 7766,
      "augu": 7767,
      "conhecido</w>": 7768,
      "mago": 7769,
      "career</w>": 7770,
      "Acab": 7771,
      "nes": 7772,
      "estilo</w>": 7773,
      "Doesn</w>": 7774,
      "Mother</w>": 7775,
      "mont</w>": 7776,
      "grav": 7777,
      "uniforme</w>": 7778,
      "Voc": 7779,
      "ób": 7780,
      "dedo</w>": 7781,
      "viz": 7782,
      "demorar</w>": 7783,
      "load</w>": 7784,
      "novas</w>": 7785,
      "purpose</w>": 7786,
      "John": 7787,
      "entendi</w>": 7788,
      "exist</w>": 7789,
      "Harry</w>": 7790,
      "ências</w>": 7791,
      "preocupada</w>": 7792,
      "Except</w>": 7793,
      "costa</w>": 7794,
      "stin": 7795,
      "aca</w>": 7796,
      "powerful</w>": 7797,
      "usá</w>": 7798,
      "tured</w>": 7799,
      "embar": 7800,
      "Colonel</w>": 7801,
      "grab</w>": 7802,
      "indian</w>": 7803,
      "aboard</w>": 7804,
      "lins</w>": 7805,
      "ordin": 7806,
      "miller</w>": 7807,
      "stomach</w>": 7808,
      "arrested</w>": 7809,
      "poderiam</w>": 7810,
      "matters</w>": 7811,
      "dd</w>": 7812,
      "spre": 7813,
      "peito</w>": 7814,
      "acontecido</w>": 7815,
      "encontramos</w>": 7816,
      "caç": 7817,
      "porco</w>": 7818,
      "fábrica</w>": 7819,
      "parque</w>": 7820,
      "juntar</w>": 7821,
      "bateu</w>": 7822,
      "consider</w>": 7823,
      "isse</w>": 7824,
      "burns</w>": 7825,
      "daniel</w>": 7826,
      "para": 7827,
      "Alright</w>": 7828,
      "craw": 7829,
      "gritar</w>": 7830,
      "perfeita</w>": 7831,
      "70</w>": 7832,
      "responsável</w>": 7833,
      "trato</w>": 7834,
      "cré": 7835,
      "armário</w>": 7836,
      "Tur": 7837,
      "states</w>": 7838,
      "padr": 7839,
      "heading</w>": 7840,
      "obviously</w>": 7841,
      "sensação</w>": 7842,
      "prê": 7843,
      "prestes</w>": 7844,
      "grate": 7845,
      "criar</w>": 7846,
      "substitu": 7847,
      "alim": 7848,
      "beg</w>": 7849,
      "expl": 7850,
      "trees</w>": 7851,
      "pilot</w>": 7852,
      "20": 7853,
      "bobo</w>": 7854,
      "author": 7855,
      "policiais</w>": 7856,
      "apaixonado</w>": 7857,
      "alar": 7858,
      "desk</w>": 7859,
      "block</w>": 7860,
      "knowing</w>": 7861,
      "ghty</w>": 7862,
      "chinese</w>": 7863,
      "prédio</w>": 7864,
      "biggest</w>": 7865,
      "dents</w>": 7866,
      "More</w>": 7867,
      "asant</w>": 7868,
      "manager</w>": 7869,
      "ída</w>": 7870,
      "política</w>": 7871,
      "kong</w>": 7872,
      "nad": 7873,
      "tínhamos</w>": 7874,
      "wre": 7875,
      "amy</w>": 7876,
      "cars</w>": 7877,
      "director</w>": 7878,
      "Lieutenant</w>": 7879,
      "boc": 7880,
      "canção</w>": 7881,
      "chaves</w>": 7882,
      "confusão</w>": 7883,
      "ajudou</w>": 7884,
      "bull": 7885,
      "descri": 7886,
      "county</w>": 7887,
      "bio</w>": 7888,
      "pensado</w>": 7889,
      "tened</w>": 7890,
      "adoro</w>": 7891,
      "storm</w>": 7892,
      "pieces</w>": 7893,
      "grateful</w>": 7894,
      "wra": 7895,
      "fornia</w>": 7896,
      "appear</w>": 7897,
      "several</w>": 7898,
      "cated</w>": 7899,
      "poi": 7900,
      "possu": 7901,
      "mercado</w>": 7902,
      "split</w>": 7903,
      "aeroporto</w>": 7904,
      "psy": 7905,
      "ists</w>": 7906,
      "fos": 7907,
      "fugiu</w>": 7908,
      "ceis</w>": 7909,
      "charac": 7910,
      "farm</w>": 7911,
      "Their</w>": 7912,
      "enfor": 7913,
      "Podem</w>": 7914,
      "sign": 7915,
      "tings</w>": 7916,
      "grown</w>": 7917,
      "ctions</w>": 7918,
      "motorista</w>": 7919,
      "Men": 7920,
      "letting</w>": 7921,
      "trase": 7922,
      "finger</w>": 7923,
      "pôde</w>": 7924,
      "sts</w>": 7925,
      "rude</w>": 7926,
      "Dan": 7927,
      "Res": 7928,
      "anhe</w>": 7929,
      "bread</w>": 7930,
      "honesto</w>": 7931,
      "adorável</w>": 7932,
      "Acredito</w>": 7933,
      "piloto</w>": 7934,
      "secretary</w>": 7935,
      "enorme</w>": 7936,
      "terão</w>": 7937,
      "birthday</w>": 7938,
      "rava</w>": 7939,
      "holmes</w>": 7940,
      "desert</w>": 7941,
      "baile</w>": 7942,
      "gal</w>": 7943,
      "remain</w>": 7944,
      "carl</w>": 7945,
      "vacation</w>": 7946,
      "portas</w>": 7947,
      "ridiculous</w>": 7948,
      "eiras</w>": 7949,
      "mação</w>": 7950,
      "amo": 7951,
      "assistente</w>": 7952,
      "400</w>": 7953,
      "ves": 7954,
      "pig</w>": 7955,
      "vote</w>": 7956,
      "hares</w>": 7957,
      "sono</w>": 7958,
      "adies</w>": 7959,
      "atacar</w>": 7960,
      "cansada</w>": 7961,
      "Pres": 7962,
      "lace</w>": 7963,
      "demor": 7964,
      "disgu": 7965,
      "avisar</w>": 7966,
      "paint</w>": 7967,
      "voltando</w>": 7968,
      "balls</w>": 7969,
      "downstairs</w>": 7970,
      "bedroom</w>": 7971,
      "ghost</w>": 7972,
      "ovos</w>": 7973,
      "preocupa</w>": 7974,
      "odeia</w>": 7975,
      "tém</w>": 7976,
      "weak</w>": 7977,
      "Too</w>": 7978,
      "stic": 7979,
      "too": 7980,
      "brave</w>": 7981,
      "Realmente</w>": 7982,
      "whom</w>": 7983,
      "fantá": 7984,
      "bright</w>": 7985,
      "cient": 7986,
      "aberta</w>": 7987,
      "jos</w>": 7988,
      "quinho</w>": 7989,
      "returned</w>": 7990,
      "comun": 7991,
      "affe": 7992,
      "imper": 7993,
      "lane</w>": 7994,
      "Prome": 7995,
      "rifle</w>": 7996,
      "nível</w>": 7997,
      "esh</w>": 7998,
      "combin": 7999,
      "bes</w>": 8000,
      "spar": 8001,
      "famoso</w>": 8002,
      "ylan</w>": 8003,
      "montanhas</w>": 8004,
      "Ir": 8005,
      "japon": 8006,
      "Call</w>": 8007,
      "matado</w>": 8008,
      "suspen": 8009,
      "shame</w>": 8010,
      "sweetheart</w>": 8011,
      "lon</w>": 8012,
      "Until</w>": 8013,
      "quest": 8014,
      "fazenda</w>": 8015,
      "Logo</w>": 8016,
      "Were</w>": 8017,
      "enever</w>": 8018,
      "mere": 8019,
      "histórias</w>": 8020,
      "success</w>": 8021,
      "enferme": 8022,
      "Jim</w>": 8023,
      "vie</w>": 8024,
      "brings</w>": 8025,
      "pesad": 8026,
      "ishes</w>": 8027,
      "Traga</w>": 8028,
      "assistir</w>": 8029,
      "airport</w>": 8030,
      "pounds</w>": 8031,
      "gent</w>": 8032,
      "clara</w>": 8033,
      "isol": 8034,
      "united</w>": 8035,
      "toma</w>": 8036,
      "circu": 8037,
      "hing</w>": 8038,
      "roof</w>": 8039,
      "holy</w>": 8040,
      "inimigos</w>": 8041,
      "Emb": 8042,
      "ique</w>": 8043,
      "shopping</w>": 8044,
      "recebeu</w>": 8045,
      "gab": 8046,
      "paix": 8047,
      "Vi</w>": 8048,
      "tidão</w>": 8049,
      "rup": 8050,
      "uniform</w>": 8051,
      "irrit": 8052,
      "criminal</w>": 8053,
      "ddle</w>": 8054,
      "pot</w>": 8055,
      "boston</w>": 8056,
      "viet": 8057,
      "woods</w>": 8058,
      "tland</w>": 8059,
      "powers</w>": 8060,
      "tratar</w>": 8061,
      "amantha</w>": 8062,
      "morrendo</w>": 8063,
      "seriously</w>": 8064,
      "zz</w>": 8065,
      "geral</w>": 8066,
      "vagar</w>": 8067,
      "tickets</w>": 8068,
      "Tire</w>": 8069,
      "lago</w>": 8070,
      "cel</w>": 8071,
      "Segu": 8072,
      "fortuna</w>": 8073,
      "ódio</w>": 8074,
      "rebel": 8075,
      "impedir</w>": 8076,
      "camisa</w>": 8077,
      "Ladies</w>": 8078,
      "Wor": 8079,
      "past": 8080,
      "shake</w>": 8081,
      "guerre": 8082,
      "scan": 8083,
      "anal": 8084,
      "trap</w>": 8085,
      "ensinou</w>": 8086,
      "tras</w>": 8087,
      "entou</w>": 8088,
      "barbara</w>": 8089,
      "mentioned</w>": 8090,
      "Vim</w>": 8091,
      "aríamos</w>": 8092,
      "warn</w>": 8093,
      "ships</w>": 8094,
      "paco": 8095,
      "peso</w>": 8096,
      "Always</w>": 8097,
      "hunt</w>": 8098,
      "pretend</w>": 8099,
      "Nor": 8100,
      "dent": 8101,
      "With": 8102,
      "morre</w>": 8103,
      "mber": 8104,
      "Estas</w>": 8105,
      "wa</w>": 8106,
      "colu": 8107,
      "bene": 8108,
      "Anything</w>": 8109,
      "Cin": 8110,
      "qü": 8111,
      "infe": 8112,
      "lavar</w>": 8113,
      "carol": 8114,
      "arranjar</w>": 8115,
      "estarão</w>": 8116,
      "vermos</w>": 8117,
      "milhas</w>": 8118,
      "chamá</w>": 8119,
      "interessado</w>": 8120,
      "regre": 8121,
      "chest</w>": 8122,
      "margaret</w>": 8123,
      "respir": 8124,
      "projeto</w>": 8125,
      "árvores</w>": 8126,
      "mayor</w>": 8127,
      "zi</w>": 8128,
      "albert</w>": 8129,
      "dições</w>": 8130,
      "querendo</w>": 8131,
      "Pare": 8132,
      "phili": 8133,
      "accu": 8134,
      "europa</w>": 8135,
      "smel": 8136,
      "Entre</w>": 8137,
      "records</w>": 8138,
      "samu": 8139,
      "Certamente</w>": 8140,
      "*.</w>": 8141,
      "plant</w>": 8142,
      "quantas</w>": 8143,
      "Ha": 8144,
      "kat": 8145,
      "lio</w>": 8146,
      "cros": 8147,
      "máximo</w>": 8148,
      "Hen": 8149,
      "ears</w>": 8150,
      "tinho</w>": 8151,
      "sally</w>": 8152,
      "winter</w>": 8153,
      "Mike</w>": 8154,
      "altura</w>": 8155,
      "garan": 8156,
      "excellent</w>": 8157,
      "Cal": 8158,
      "revel": 8159,
      "deck</w>": 8160,
      "teca</w>": 8161,
      "entanto</w>": 8162,
      "capit": 8163,
      "eggs</w>": 8164,
      "Algumas</w>": 8165,
      "Wal": 8166,
      "magaz": 8167,
      "vegas</w>": 8168,
      "feed</w>": 8169,
      "terior</w>": 8170,
      "mentira</w>": 8171,
      "quais</w>": 8172,
      "distur": 8173,
      "planning</w>": 8174,
      "lows</w>": 8175,
      "fiquem</w>": 8176,
      "bour": 8177,
      "emily</w>": 8178,
      "wen": 8179,
      "fire": 8180,
      "brar</w>": 8181,
      "campe": 8182,
      "quieto</w>": 8183,
      "Steve</w>": 8184,
      "aparece</w>": 8185,
      "mix": 8186,
      "expen": 8187,
      "santo</w>": 8188,
      "sujo</w>": 8189,
      "alemães</w>": 8190,
      "humana</w>": 8191,
      "intend</w>": 8192,
      "Unless</w>": 8193,
      "Pi": 8194,
      "dship</w>": 8195,
      "onto</w>": 8196,
      "estô": 8197,
      "correu</w>": 8198,
      "california</w>": 8199,
      "color</w>": 8200,
      "program</w>": 8201,
      "admitir</w>": 8202,
      "elec": 8203,
      "crap</w>": 8204,
      "postas</w>": 8205,
      "toca</w>": 8206,
      "almirante</w>": 8207,
      "amiz": 8208,
      "pay": 8209,
      "Estávamos</w>": 8210,
      "gary</w>": 8211,
      "subject</w>": 8212,
      "scri": 8213,
      "distra": 8214,
      "distância</w>": 8215,
      "naked</w>": 8216,
      "duke</w>": 8217,
      "dock</w>": 8218,
      "willie</w>": 8219,
      "prender</w>": 8220,
      "bbs</w>": 8221,
      "mapa</w>": 8222,
      "iley</w>": 8223,
      "tantas</w>": 8224,
      "alun": 8225,
      "dish</w>": 8226,
      "apost": 8227,
      "painting</w>": 8228,
      "Without</w>": 8229,
      "martha</w>": 8230,
      "breath</w>": 8231,
      "inf": 8232,
      "drinks</w>": 8233,
      "código</w>": 8234,
      "Spe": 8235,
      "mason</w>": 8236,
      "liar</w>": 8237,
      "badly</w>": 8238,
      "fixed</w>": 8239,
      "nurse</w>": 8240,
      "mighty</w>": 8241,
      "offen": 8242,
      "lotte</w>": 8243,
      "admiral</w>": 8244,
      "ical</w>": 8245,
      "deserto</w>": 8246,
      "touched</w>": 8247,
      "áveis</w>": 8248,
      "lift</w>": 8249,
      "completo</w>": 8250,
      "host": 8251,
      "mari": 8252,
      "fingers</w>": 8253,
      "embaix": 8254,
      "reasons</w>": 8255,
      "Dor": 8256,
      "ático</w>": 8257,
      "stica</w>": 8258,
      "sett": 8259,
      "mani": 8260,
      "trade</w>": 8261,
      "temple</w>": 8262,
      "amazing</w>": 8263,
      "kyle</w>": 8264,
      "ânico</w>": 8265,
      "din</w>": 8266,
      "friendly</w>": 8267,
      "morrer": 8268,
      "hunter</w>": 8269,
      "handsome</w>": 8270,
      "believed</w>": 8271,
      "noel</w>": 8272,
      "sagra": 8273,
      "lew": 8274,
      "fan</w>": 8275,
      "mod": 8276,
      "honor": 8277,
      "iar</w>": 8278,
      "mit</w>": 8279,
      "mommy</w>": 8280,
      "movimento</w>": 8281,
      "pera</w>": 8282,
      "mie</w>": 8283,
      "cale</w>": 8284,
      "itions</w>": 8285,
      "tour</w>": 8286,
      "reje": 8287,
      "extre": 8288,
      "target</w>": 8289,
      "oferecer</w>": 8290,
      "Or": 8291,
      "nesses</w>": 8292,
      "cola</w>": 8293,
      "ckin</w>": 8294,
      "equip": 8295,
      "grandma</w>": 8296,
      "aposto</w>": 8297,
      "riding</w>": 8298,
      "vas": 8299,
      "militar</w>": 8300,
      "salvo</w>": 8301,
      "itical</w>": 8302,
      "totally</w>": 8303,
      "vitória</w>": 8304,
      "Chi": 8305,
      "maggie</w>": 8306,
      "excited</w>": 8307,
      "rooms</w>": 8308,
      "mirr": 8309,
      "pot": 8310,
      "veloc": 8311,
      "depende</w>": 8312,
      "drugs</w>": 8313,
      "lap": 8314,
      "baker</w>": 8315,
      "degre": 8316,
      "Watch</w>": 8317,
      "guia</w>": 8318,
      "crescer</w>": 8319,
      "termos</w>": 8320,
      "planned</w>": 8321,
      "Ap": 8322,
      "ligh": 8323,
      "mala</w>": 8324,
      "land": 8325,
      "pequenos</w>": 8326,
      "golden</w>": 8327,
      "encontrado</w>": 8328,
      "devolver</w>": 8329,
      "bum</w>": 8330,
      "xico</w>": 8331,
      "çamos</w>": 8332,
      "Estive</w>": 8333,
      "chase</w>": 8334,
      "pin</w>": 8335,
      "moe": 8336,
      "impressão</w>": 8337,
      "guardar</w>": 8338,
      "Senhoras</w>": 8339,
      "stance</w>": 8340,
      "cow": 8341,
      "tiveram</w>": 8342,
      "dece": 8343,
      "tear</w>": 8344,
      "aust": 8345,
      "midnight</w>": 8346,
      "casal</w>": 8347,
      "challen": 8348,
      "outta</w>": 8349,
      "mood</w>": 8350,
      "presença</w>": 8351,
      "tenta</w>": 8352,
      "staf": 8353,
      "dee": 8354,
      "aprove": 8355,
      "recuperar</w>": 8356,
      "civil</w>": 8357,
      "malas</w>": 8358,
      "deveriam</w>": 8359,
      "troux": 8360,
      "sir": 8361,
      "mantenha</w>": 8362,
      "ruas</w>": 8363,
      "tongue</w>": 8364,
      "divorce</w>": 8365,
      "fu</w>": 8366,
      "Sal": 8367,
      "saint</w>": 8368,
      "quete</w>": 8369,
      "Voce</w>": 8370,
      "estômago</w>": 8371,
      "su</w>": 8372,
      "began</w>": 8373,
      "headed</w>": 8374,
      "frank": 8375,
      "trazê</w>": 8376,
      "econo": 8377,
      "êem</w>": 8378,
      "alter": 8379,
      "vivos</w>": 8380,
      "grade</w>": 8381,
      "dras</w>": 8382,
      "Existe</w>": 8383,
      "kim</w>": 8384,
      "sno": 8385,
      "alho</w>": 8386,
      "estados</w>": 8387,
      "milli": 8388,
      "Bro": 8389,
      "parada</w>": 8390,
      "verem</w>": 8391,
      "pertur": 8392,
      "doin</w>": 8393,
      "ferir</w>": 8394,
      "contente</w>": 8395,
      "experiência</w>": 8396,
      "óculos</w>": 8397,
      "tério</w>": 8398,
      "Quantas</w>": 8399,
      "ii": 8400,
      "hosa</w>": 8401,
      "gradu": 8402,
      "bite</w>": 8403,
      "op</w>": 8404,
      "amba</w>": 8405,
      "taref": 8406,
      "presos</w>": 8407,
      "bios</w>": 8408,
      "grana</w>": 8409,
      "Ton": 8410,
      "spare</w>": 8411,
      "ini</w>": 8412,
      "ering</w>": 8413,
      "home": 8414,
      "bow</w>": 8415,
      "prefeito</w>": 8416,
      "selling</w>": 8417,
      "pulação</w>": 8418,
      "decent</w>": 8419,
      "acen": 8420,
      "marca</w>": 8421,
      "sacrific": 8422,
      "kevin</w>": 8423,
      "rema": 8424,
      "susp": 8425,
      "ciú": 8426,
      "beijar</w>": 8427,
      "viajar</w>": 8428,
      "alty</w>": 8429,
      "chegaram</w>": 8430,
      "vários</w>": 8431,
      "Ador": 8432,
      "Sou": 8433,
      "you": 8434,
      "pato</w>": 8435,
      "philli": 8436,
      "sym": 8437,
      "europe</w>": 8438,
      "Obvi": 8439,
      "estade</w>": 8440,
      "raio</w>": 8441,
      "comprei</w>": 8442,
      "rer</w>": 8443,
      "ligo</w>": 8444,
      "comer": 8445,
      "Pense</w>": 8446,
      "lers</w>": 8447,
      "timos</w>": 8448,
      "toler": 8449,
      "pensam</w>": 8450,
      "student</w>": 8451,
      "golpe</w>": 8452,
      "damage</w>": 8453,
      "encontre</w>": 8454,
      "cego</w>": 8455,
      "shower</w>": 8456,
      "furi": 8457,
      "possi": 8458,
      "Ontem</w>": 8459,
      "égio</w>": 8460,
      "bride</w>": 8461,
      "impro": 8462,
      "cun": 8463,
      "fought</w>": 8464,
      "repres": 8465,
      "weight</w>": 8466,
      "sobreviver</w>": 8467,
      "remind</w>": 8468,
      "style</w>": 8469,
      "sending</w>": 8470,
      "crimes</w>": 8471,
      "riso</w>": 8472,
      "enganar</w>": 8473,
      "royal</w>": 8474,
      "Pass": 8475,
      "inci": 8476,
      "alco": 8477,
      "Wil": 8478,
      "map</w>": 8479,
      "vier</w>": 8480,
      "language</w>": 8481,
      "Want</w>": 8482,
      "Peter</w>": 8483,
      "Pela</w>": 8484,
      "witch</w>": 8485,
      "hol</w>": 8486,
      "ku</w>": 8487,
      "magn": 8488,
      "yellow</w>": 8489,
      "Wo": 8490,
      "bes": 8491,
      "mato</w>": 8492,
      "polit": 8493,
      "governor</w>": 8494,
      "nota</w>": 8495,
      "web": 8496,
      "spell</w>": 8497,
      "palace</w>": 8498,
      "encar": 8499,
      "abun": 8500,
      "feri": 8501,
      "barry</w>": 8502,
      "gança</w>": 8503,
      "attacked</w>": 8504,
      "ax": 8505,
      "inútil</w>": 8506,
      "devagar</w>": 8507,
      "Diz</w>": 8508,
      "invite</w>": 8509,
      "americanos</w>": 8510,
      "aniversário</w>": 8511,
      "stranger</w>": 8512,
      "escal": 8513,
      "momentos</w>": 8514,
      "carro": 8515,
      "aster</w>": 8516,
      "cân": 8517,
      "zas</w>": 8518,
      "metal</w>": 8519,
      "arrive</w>": 8520,
      "penny</w>": 8521,
      "plat": 8522,
      "moto</w>": 8523,
      "hong</w>": 8524,
      "reven": 8525,
      "national</w>": 8526,
      "canal</w>": 8527,
      "Conheço</w>": 8528,
      "Star": 8529,
      "wet</w>": 8530,
      "criatura</w>": 8531,
      "answers</w>": 8532,
      "ligado</w>": 8533,
      "bodies</w>": 8534,
      "ruins</w>": 8535,
      "bou": 8536,
      "best": 8537,
      "snow</w>": 8538,
      "perdemos</w>": 8539,
      "gast": 8540,
      "Mal": 8541,
      "vôo</w>": 8542,
      "suicídio</w>": 8543,
      "pert</w>": 8544,
      "sidade</w>": 8545,
      "wayne</w>": 8546,
      "speech</w>": 8547,
      "palha": 8548,
      "durar</w>": 8549,
      "há": 8550,
      "sma": 8551,
      "rat</w>": 8552,
      "lido</w>": 8553,
      "amanda</w>": 8554,
      "informação</w>": 8555,
      "Finalmente</w>": 8556,
      "champanhe</w>": 8557,
      "maluco</w>": 8558,
      "scare</w>": 8559,
      "óis</w>": 8560,
      "torno</w>": 8561,
      "junior</w>": 8562,
      "cães</w>": 8563,
      "leste</w>": 8564,
      "arch": 8565,
      "tebol</w>": 8566,
      "Aju": 8567,
      "vagem</w>": 8568,
      "ruin</w>": 8569,
      "suspeito</w>": 8570,
      "runs</w>": 8571,
      "atlan": 8572,
      "absur": 8573,
      "clean": 8574,
      "instante</w>": 8575,
      "recognize</w>": 8576,
      "shape</w>": 8577,
      "prêmio</w>": 8578,
      "saio</w>": 8579,
      "jogou</w>": 8580,
      "rush</w>": 8581,
      "Coronel</w>": 8582,
      "aç": 8583,
      "atre": 8584,
      "terson</w>": 8585,
      "Tom</w>": 8586,
      "cab</w>": 8587,
      "suffer</w>": 8588,
      "nuts</w>": 8589,
      "aware</w>": 8590,
      "obede": 8591,
      "deva</w>": 8592,
      "civil": 8593,
      "casou</w>": 8594,
      "partido</w>": 8595,
      "fate</w>": 8596,
      "clay</w>": 8597,
      "cida": 8598,
[...]
