{
  "version": "1.0",
  "truncation": null,
  "padding": null,
  "added_tokens": [
    {
      "id": 0,
      "content": "<PAD>",
      "single_word": false,
      "lstrip": false,
      "rstrip": false,
      "normalized": false,
      "special": true
    },
    {
      "id": 1,
      "content": "<UNK>",
      "single_word": false,
      "lstrip": false,
      "rstrip": false,
      "normalized": false,
      "special": true
    },
    {
      "id": 2,
      "content": "<CLS>",
      "single_word": false,
      "lstrip": false,
      "rstrip": false,
      "normalized": false,
      "special": true
    },
    {
      "id": 3,
      "content": "<SEP>",
      "single_word": false,
      "lstrip": false,
      "rstrip": false,
      "normalized": false,
      "special": true
    },
    {
      "id": 4,
      "content": "<MASK>",
      "single_word": false,
      "lstrip": false,
      "rstrip": false,
      "normalized": false,
      "special": true
    },
    {
      "id": 5,
      "content": "<BOS>",
      "single_word": false,
      "lstrip": false,
      "rstrip": false,
      "normalized": false,
      "special": true
    },
    {
      "id": 6,
      "content": "<EOS>",
      "single_word": false,
      "lstrip": false,
      "rstrip": false,
      "normalized": false,
      "special": true
    }
  ],
  "normalizer": null,
  "pre_tokenizer": {
    "type": "Whitespace"
  },
  "post_processor": {
    "type": "TemplateProcessing",
    "single": [
      {
        "SpecialToken": {
          "id": "<BOS>",
          "type_id": 0
        }
      },
      {
        "Sequence": {
          "id": "A",
          "type_id": 0
        }
      },
      {
        "SpecialToken": {
          "id": "<EOS>",
          "type_id": 0
        }
      }
    ],
    "pair": [
      {
        "SpecialToken": {
          "id": "<BOS>",
          "type_id": 0
        }
      },
      {
        "Sequence": {
          "id": "A",
          "type_id": 0
        }
      },
      {
        "SpecialToken": {
          "id": "<SEP>",
          "type_id": 0
        }
      },
      {
        "Sequence": {
          "id": "B",
          "type_id": 1
        }
      },
      {
        "SpecialToken": {
          "id": "<EOS>",
          "type_id": 1
        }
      }
    ],
    "special_tokens": {
      "<BOS>": {
        "id": "<BOS>",
        "ids": [
          5
        ],
        "tokens": [
          "<BOS>"
        ]
      },
      "<EOS>": {
        "id": "<EOS>",
        "ids": [
          6
        ],
        "tokens": [
          "<EOS>"
        ]
      },
      "<SEP>": {
        "id": "<SEP>",
        "ids": [
          3
        ],
        "tokens": [
          "<SEP>"
        ]
      }
    }
  },
  "decoder": {
    "type": "WordPiece",
    "prefix": "##",
    "cleanup": true
  },
  "model": {
    "type": "BPE",
    "dropout": null,
    "unk_token": "<UNK>",
    "continuing_subword_prefix": null,
    "end_of_word_suffix": null,
    "fuse_unk": false,
    "byte_fallback": false,
    "ignore_merges": false,
    "vocab": {
      "<PAD>": 0,
      "<UNK>": 1,
      "<CLS>": 2,
      "<SEP>": 3,
      "<MASK>": 4,
      "<BOS>": 5,
      "<EOS>": 6,
      "!": 7,
      "\"": 8,
      "#": 9,
      "$": 10,
      "%": 11,
      "'": 12,
      "(": 13,
      ")": 14,
      "*": 15,
      "+": 16,
      ",": 17,
      "-": 18,
      ".": 19,
      "/": 20,
      "0": 21,
      "1": 22,
      "2": 23,
      "3": 24,
      "4": 25,
      "5": 26,
      "6": 27,
      "7": 28,
      "8": 29,
      "9": 30,
      ":": 31,
      ";": 32,
      "=": 33,
      "?": 34,
      "@": 35,
      "A": 36,
      "B": 37,
      "C": 38,
      "D": 39,
      "E": 40,
      "F": 41,
      "G": 42,
      "H": 43,
      "I": 44,
      "J": 45,
      "K": 46,
      "L": 47,
      "M": 48,
      "N": 49,
      "O": 50,
      "P": 51,
      "Q": 52,
      "R": 53,
      "S": 54,
      "T": 55,
      "U": 56,
      "V": 57,
      "W": 58,
      "X": 59,
      "Y": 60,
      "Z": 61,
      "[": 62,
      "\\": 63,
      "]": 64,
      "^": 65,
      "_": 66,
      "`": 67,
      "a": 68,
      "b": 69,
      "c": 70,
      "d": 71,
      "e": 72,
      "f": 73,
      "g": 74,
      "h": 75,
      "i": 76,
      "j": 77,
      "k": 78,
      "l": 79,
      "m": 80,
      "n": 81,
      "o": 82,
      "p": 83,
      "q": 84,
      "r": 85,
      "s": 86,
      "t": 87,
      "u": 88,
      "v": 89,
      "w": 90,
      "x": 91,
      "y": 92,
      "z": 93,
      "{": 94,
      "|": 95,
      "}": 96,
      "~": 97,
      "": 98,
      "": 99,
      "": 100,
      "": 101,
      "": 102,
      "": 103,
      "": 104,
      "": 105,
      "": 106,
      "": 107,
      "": 108,
      "": 109,
      "": 110,
      "": 111,
      "": 112,
      "": 113,
      "": 114,
      "": 115,
      "¡": 116,
      "¢": 117,
      "£": 118,
      "¤": 119,
      "¥": 120,
      "¦": 121,
      "§": 122,
      "¨": 123,
      "©": 124,
      "ª": 125,
      "¬": 126,
      "­": 127,
      "®": 128,
      "¯": 129,
      "°": 130,
      "±": 131,
      "²": 132,
      "³": 133,
      "´": 134,
      "µ": 135,
      "¶": 136,
      "·": 137,
      "¹": 138,
      "º": 139,
      "¼": 140,
      "½": 141,
      "¾": 142,
      "¿": 143,
      "À": 144,
      "Á": 145,
      "Â": 146,
      "Ã": 147,
      "È": 148,
      "É": 149,
      "Ê": 150,
      "Í": 151,
      "Ï": 152,
      "Ñ": 153,
      "Ò": 154,
      "Ó": 155,
      "Ô": 156,
      "Ö": 157,
      "×": 158,
      "Ú": 159,
      "Ý": 160,
      "ß": 161,
      "à": 162,
      "á": 163,
      "â": 164,
      "ã": 165,
      "ä": 166,
      "å": 167,
      "æ": 168,
      "ç": 169,
      "è": 170,
      "é": 171,
      "ê": 172,
      "ë": 173,
      "ì": 174,
      "í": 175,
      "î": 176,
      "ï": 177,
      "ð": 178,
      "ñ": 179,
      "ò": 180,
      "ó": 181,
      "ô": 182,
      "õ": 183,
      "ö": 184,
      "÷": 185,
      "ø": 186,
      "ù": 187,
      "ú": 188,
      "û": 189,
      "ü": 190,
      "ý": 191,
      "þ": 192,
      "ÿ": 193,
      "ă": 194,
      "ć": 195,
      "č": 196,
      "ď": 197,
      "Đ": 198,
      "đ": 199,
      "ě": 200,
      "ī": 201,
      "İ": 202,
      "ı": 203,
      "ł": 204,
      "ń": 205,
      "ő": 206,
      "œ": 207,
      "ş": 208,
      "š": 209,
      "ť": 210,
      "ũ": 211,
      "ź": 212,
      "ž": 213,
      "ơ": 214,
      "ư": 215,
      "ǻ": 216,
      "˜": 217,
      "̥": 218,
      "̶": 219,
      "΄": 220,
      "Ώ": 221,
      "Α": 222,
      "Η": 223,
      "Ν": 224,
      "Τ": 225,
      "Υ": 226,
      "ή": 227,
      "β": 228,
      "ε": 229,
      "η": 230,
      "κ": 231,
      "μ": 232,
      "ν": 233,
      "ο": 234,
      "π": 235,
      "ρ": 236,
      "τ": 237,
      "υ": 238,
      "А": 239,
      "В": 240,
      "О": 241,
      "Т": 242,
      "а": 243,
      "в": 244,
      "е": 245,
      "з": 246,
      "и": 247,
      "й": 248,
      "м": 249,
      "н": 250,
      "о": 251,
      "п": 252,
      "р": 253,
      "с": 254,
      "т": 255,
      "у": 256,
      "х": 257,
      "є": 258,
      "ل": 259,
      "م": 260,
      "و": 261,
      "ى": 262,
      "ڑ": 263,
      "ạ": 264,
      "ả": 265,
      "ấ": 266,
      "ầ": 267,
      "ậ": 268,
      "ắ": 269,
      "ặ": 270,
      "ẽ": 271,
      "ế": 272,
      "ề": 273,
      "ể": 274,
      "ễ": 275,
      "ệ": 276,
      "ỉ": 277,
      "ị": 278,
      "ọ": 279,
      "ỏ": 280,
      "ố": 281,
      "ồ": 282,
      "ổ": 283,
      "ộ": 284,
      "ớ": 285,
      "ờ": 286,
      "ở": 287,
      "ỡ": 288,
      "ợ": 289,
      "ủ": 290,
      "ứ": 291,
      "ữ": 292,
      "ự": 293,
      "​": 294,
      "‎": 295,
      "‐": 296,
      "‒": 297,
      "–": 298,
      "—": 299,
      "―": 300,
      "‚": 301,
      "•": 302,
      "‫": 303,
      "‬": 304,
      "‭": 305,
      "‰": 306,
      "€": 307,
      "™": 308,
      "─": 309,
      "★": 310,
      "☆": 311,
      "♪": 312,
      "♫": 313,
      "嫕": 314,
      "炄": 315,
      "ﬁ": 316,
      "ﬂ": 317,
      "﻿": 318,
      "￡": 319,
      "�": 320,
      "th": 321,
      "er": 322,
      "an": 323,
      "in": 324,
      "es": 325,
      "ar": 326,
      "en": 327,
      "ou": 328,
      "as": 329,
      "or": 330,
      "to": 331,
      "de": 332,
      "on": 333,
      "qu": 334,
      "..": 335,
      "os": 336,
      "is": 337,
      "the": 338,
      "al": 339,
      "at": 340,
      "do": 341,
      "re": 342,
      "se": 343,
      "que": 344,
      "om": 345,
      "te": 346,
      "le": 347,
      "am": 348,
      "ing": 349,
      "and": 350,
      "um": 351,
      "ão": 352,
      "...": 353,
      "it": 354,
      "da": 355,
      "you": 356,
      "ve": 357,
      "of": 358,
      "ic": 359,
      "me": 360,
      "be": 361,
      "tr": 362,
      "he": 363,
      "com": 364,
      "no": 365,
      "ir": 366,
      "ha": 367,
      "ac": 368,
      "em": 369,
      "par": 370,
      "pr": 371,
      "est": 372,
      "il": 373,
      "ia": 374,
      "im": 375,
      "ent": 376,
      "so": 377,
      "el": 378,
      "us": 379,
      "oc": 380,
      "ho": 381,
      "ver": 382,
      "ed": 383,
      "for": 384,
      "that": 385,
      "un": 386,
      "ig": 387,
      "con": 388,
      "ma": 389,
      "po": 390,
      "ta": 391,
      "di": 392,
      "ter": 393,
      "para": 394,
      "sa": 395,
      "ur": 396,
      "ol": 397,
      "ut": 398,
      "li": 399,
      "por": 400,
      "wh": 401,
      "não": 402,
      "ca": 403,
      "su": 404,
      "ch": 405,
      "go": 406,
      "ere": 407,
      "uma": 408,
      "ocê": 409,
      "ad": 410,
      "pe": 411,
      "lo": 412,
      "ando": 413,
      "ra": 414,
      "ri": 415,
      "st": 416,
      "ce": 417,
      "na": 418,
      "per": 419,
      "você": 420,
      "all": 421,
      "ti": 422,
      "ke": 423,
      "ab": 424,
      "we": 425,
      "ul": 426,
      "vi": 427,
      "ld": 428,
      "ge": 429,
      "eu": 430,
      "ith": 431,
      "va": 432,
      "ci": 433,
      "ne": 434,
      "ente": 435,
      "co": 436,
      "out": 437,
      "was": 438,
      "with": 439,
      "ro": 440,
      "des": 441,
      "ant": 442,
      "der": 443,
      "la": 444,
      "fe": 445,
      "mas": 446,
      "gu": 447,
      "one": 448,
      "ion": 449,
      "ht": 450,
      "ag": 451,
      "ex": 452,
      "fr": 453,
      "ly": 454,
      "ome": 455,
      "now": 456,
      "my": 457,
      "dos": 458,
      "ould": 459,
      "your": 460,
      "fa": 461,
      "ess": 462,
      "this": 463,
      "have": 464,
      "but": 465,
      "pa": 466,
      "if": 467,
      "tem": 468,
      "pro": 469,
      "ser": 470,
      "ill": 471,
      "ele": 472,
      "man": 473,
      "ção": 474,
      "car": 475,
      "mo": 476,
      "pre": 477,
      "id": 478,
      "his": 479,
      "ight": 480,
      "her": 481,
      "ther": 482,
      "bo": 483,
      "min": 484,
      "can": 485,
      "pos": 486,
      "pen": 487,
      "ll": 488,
      "our": 489,
      "ass": 490,
      "pl": 491,
      "are": 492,
      "como": 493,
      "nd": 494,
      "mor": 495,
      "esta": 496,
      "ust": 497,
      "thing": 498,
      "ito": 499,
      "know": 500,
      "nos": 501,
      "br": 502,
      "dis": 503,
      "mu": 504,
      "up": 505,
      "some": 506,
      "gr": 507,
      "ay": 508,
      "mos": 509,
      "mais": 510,
      "use": 511,
      "not": 512,
      "amos": 513,
      "they": 514,
      "ado": 515,
      "ven": 516,
      "cor": 517,
      "zer": 518,
      "cer": 519,
      "si": 520,
      "dade": 521,
      "ela": 522,
      "cas": 523,
      "sua": 524,
      "mar": 525,
      "tra": 526,
      "gar": 527,
      "quer": 528,
      "seu": 529,
      "fic": 530,
      "ten": 531,
      "fo": 532,
      "ber": 533,
      "wor": 534,
      "ple": 535,
      "from": 536,
      "hor": 537,
      "get": 538,
      "who": 539,
      "lu": 540,
      "ate": 541,
      "ted": 542,
      "king": 543,
      "ento": 544,
      "res": 545,
      "very": 546,
      "like": 547,
      "ça": 548,
      "oug": 549,
      "bre": 550,
      "just": 551,
      "está": 552,
      "ack": 553,
      "qui": 554,
      "das": 555,
      "has": 556,
      "vo": 557,
      "way": 558,
      "wn": 559,
      "when": 560,
      "jo": 561,
      "there": 562,
      "ica": 563,
      "by": 564,
      "sh": 565,
      "will": 566,
      "tu": 567,
      "quando": 568,
      "tar": 569,
      "what": 570,
      "pes": 571,
      "col": 572,
      "tor": 573,
      "about": 574,
      "would": 575,
      "iz": 576,
      "cause": 577,
      "ind": 578,
      "vel": 579,
      "cr": 580,
      "him": 581,
      "had": 582,
      "ém": 583,
      "she": 584,
      "here": 585,
      "The": 586,
      "ix": 587,
      "don": 588,
      "ok": 589,
      "ell": 590,
      "che": 591,
      "come": 592,
      "har": 593,
      "any": 594,
      "end": 595,
      "isso": 596,
      "tro": 597,
      "ation": 598,
      "ao": 599,
      "esse": 600,
      "ora": 601,
      "ear": 602,
      "et": 603,
      "tal": 604,
      "tin": 605,
      "day": 606,
      "pode": 607,
      "vez": 608,
      "fer": 609,
      "cia": 610,
      "io": 611,
      "tos": 612,
      "ally": 613,
      "ble": 614,
      "ast": 615,
      "mes": 616,
      "ist": 617,
      "ões": 618,
      "ame": 619,
      "od": 620,
      "iro": 621,
      "ante": 622,
      "how": 623,
      "cl": 624,
      "ound": 625,
      "were": 626,
      "time": 627,
      "ace": 628,
      "foi": 629,
      "sem": 630,
      "ink": 631,
      "son": 632,
      "muito": 633,
      "ós": 634,
      "ira": 635,
      "cre": 636,
      "pres": 637,
      "mente": 638,
      "vol": 639,
      "endo": 640,
      "ain": 641,
      "And": 642,
      "ap": 643,
      "ive": 644,
      "era": 645,
      "ong": 646,
      "porque": 647,
      "dar": 648,
      "00": 649,
      "cois": 650,
      "into": 651,
      "je": 652,
      "tim": 653,
      "could": 654,
      "them": 655,
      "because": 656,
      "sobre": 657,
      "pesso": 658,
      "alg": 659,
      "ts": 660,
      "meu": 661,
      "men": 662,
      "been": 663,
      "du": 664,
      "af": 665,
      "minha": 666,
      "ough": 667,
      "ity": 668,
      "hos": 669,
      "ite": 670,
      "ans": 671,
      "other": 672,
      "anto": 673,
      "their": 674,
      "pel": 675,
      "You": 676,
      "tur": 677,
      "aqui": 678,
      "anos": 679,
      "ous": 680,
      "bl": 681,
      "every": 682,
      "ine": 683,
      "ich": 684,
      "eles": 685,
      "ja": 686,
      "red": 687,
      "got": 688,
      "think": 689,
      "fazer": 690,
      "fil": 691,
      "then": 692,
      "sel": 693,
      "Eu": 694,
      "mon": 695,
      "este": 696,
      "ople": 697,
      "part": 698,
      "ose": 699,
      "ting": 700,
      "Se": 701,
      "estava": 702,
      "see": 703,
      "hom": 704,
      "dia": 705,
      "people": 706,
      "back": 707,
      "str": 708,
      "tão": 709,
      "dr": 710,
      "fal": 711,
      "want": 712,
      "vis": 713,
      "amente": 714,
      "fi": 715,
      "did": 716,
      "rio": 717,
      "say": 718,
      "led": 719,
      "cis": 720,
      "ên": 721,
      "pri": 722,
      "mil": 723,
      "ico": 724,
      "ens": 725,
      "até": 726,
      "les": 727,
      "dy": 728,
      "então": 729,
      "ação": 730,
      "ard": 731,
      "lit": 732,
      "tle": 733,
      "ice": 734,
      "são": 735,
      "real": 736,
      "vida": 737,
      "ment": 738,
      "mat": 739,
      "ped": 740,
      "new": 741,
      "cam": 742,
      "year": 743,
      "ga": 744,
      "contr": 745,
      "port": 746,
      "ach": 747,
      "more": 748,
      "vai": 749,
      "poder": 750,
      "ers": 751,
      "over": 752,
      "cri": 753,
      "ido": 754,
      "oun": 755,
      "\".": 756,
      "pois": 757,
      "antes": 758,
      "cu": 759,
      "idade": 760,
      "bar": 761,
      "wo": 762,
      "ning": 763,
      "ins": 764,
      "ving": 765,
      "todos": 766,
      "den": 767,
      "ck": 768,
      "ju": 769,
      "pu": 770,
      "gre": 771,
      "tell": 772,
      "seus": 773,
      "bem": 774,
      "só": 775,
      "ang": 776,
      "ct": 777,
      "pare": 778,
      "where": 779,
      "ves": 780,
      "which": 781,
      "mun": 782,
      "ick": 783,
      "ance": 784,
      "than": 785,
      "tion": 786,
      "ada": 787,
      "ados": 788,
      "right": 789,
      "only": 790,
      "Qu": 791,
      "ese": 792,
      "fin": 793,
      "segu": 794,
      "fore": 795,
      "igo": 796,
      "ded": 797,
      "going": 798,
      "No": 799,
      "inter": 800,
      "ton": 801,
      "nós": 802,
      "tudo": 803,
      "fir": 804,
      "indo": 805,
      "ba": 806,
      "bu": 807,
      "sent": 808,
      "pra": 809,
      "try": 810,
      "qual": 811,
      "sei": 812,
      "ie": 813,
      "mis": 814,
      "ço": 815,
      "gon": 816,
      "hap": 817,
      "make": 818,
      "mel": 819,
      "low": 820,
      "dizer": 821,
      "take": 822,
      "ep": 823,
      "hum": 824,
      "faz": 825,
      "ign": 826,
      "gra": 827,
      "amento": 828,
      "tent": 829,
      "pas": 830,
      "ug": 831,
      "life": 832,
      "val": 833,
      "pessoas": 834,
      "fam": 835,
      "down": 836,
      "deix": 837,
      "may": 838,
      "plan": 839,
      "sen": 840,
      "ina": 841,
      "ty": 842,
      "ip": 843,
      "cal": 844,
      "mer": 845,
      "bro": 846,
      "ita": 847,
      "ções": 848,
      "Mas": 849,
      "little": 850,
      "But": 851,
      "cul": 852,
      "ies": 853,
      "há": 854,
      "abal": 855,
      "estar": 856,
      "It": 857,
      "gun": 858,
      "even": 859,
      "tempo": 860,
      "pol": 861,
      "tre": 862,
      "sou": 863,
      "agora": 864,
      "trabal": 865,
      "via": 866,
      "ior": 867,
      "off": 868,
      "cur": 869,
      "Wh": 870,
      "art": 871,
      "let": 872,
      "ase": 873,
      "ida": 874,
      "amb": 875,
      "casa": 876,
      "act": 877,
      "onde": 878,
      "If": 879,
      "ys": 880,
      "self": 881,
      "ure": 882,
      "ria": 883,
      "mesmo": 884,
      "gonna": 885,
      "ência": 886,
      "sim": 887,
      "essa": 888,
      "quanto": 889,
      "precis": 890,
      "ob": 891,
      "aque": 892,
      "Não": 893,
      "ought": 894,
      "ry": 895,
      "coisa": 896,
      "lie": 897,
      "disse": 898,
      "cho": 899,
      "ph": 900,
      "ano": 901,
      "tas": 902,
      "body": 903,
      "var": 904,
      "mã": 905,
      "ile": 906,
      "after": 907,
      "hou": 908,
      "ial": 909,
      "mal": 910,
      "sabe": 911,
      "pon": 912,
      "years": 913,
      "pelo": 914,
      "ful": 915,
      "two": 916,
      "ger": 917,
      "pass": 918,
      "vou": 919,
      "mul": 920,
      "before": 921,
      "Você": 922,
      "work": 923,
      "these": 924,
      "gen": 925,
      "Well": 926,
      "something": 927,
      "ater": 928,
      "bet": 929,
      "ide": 930,
      "sal": 931,
      "world": 932,
      "sta": 933,
      "We": 934,
      "depois": 935,
      "estão": 936,
      "sp": 937,
      "aram": 938,
      "fri": 939,
      "uni": 940,
      "first": 941,
      "long": 942,
      "ree": 943,
      "ish": 944,
      "homem": 945,
      "mundo": 946,
      "noite": 947,
      "look": 948,
      "vir": 949,
      "find": 950,
      "ved": 951,
      "gan": 952,
      "algo": 953,
      "pens": 954,
      "again": 955,
      "emos": 956,
      "mom": 957,
      "night": 958,
      "good": 959,
      "din": 960,
      "under": 961,
      "dire": 962,
      "los": 963,
      "gos": 964,
      "melhor": 965,
      "nas": 966,
      "lá": 967,
      "dor": 968,
      "diz": 969,
      "tru": 970,
      "suas": 971,
      "sol": 972,
      "put": 973,
      "tinha": 974,
      "av": 975,
      "hel": 976,
      "En": 977,
      "itar": 978,
      "its": 979,
      "ás": 980,
      "ança": 981,
      "esper": 982,
      "thr": 983,
      "entre": 984,
      "well": 985,
      "guém": 986,
      "ador": 987,
      "sto": 988,
      "prime": 989,
      "cos": 990,
      "sur": 991,
      "mim": 992,
      "never": 993,
      "ande": 994,
      "ated": 995,
      "fun": 996,
      "bra": 997,
      "onte": 998,
      "estou": 999,
      "pela": 1000,
      "ence": 1001,
      "pró": 1002,
      "old": 1003,
      "ficar": 1004,
      "ru": 1005,
      "entes": 1006,
      "pla": 1007,
      "most": 1008,
      "coun": 1009,
      "alguém": 1010,
      "really": 1011,
      "nor": 1012,
      "cap": 1013,
      "mem": 1014,
      "ding": 1015,
      "unca": 1016,
      "pal": 1017,
      "lig": 1018,
      "todo": 1019,
      "za": 1020,
      "coisas": 1021,
      "ks": 1022,
      "friend": 1023,
      "able": 1024,
      "algum": 1025,
      "ever": 1026,
      "gi": 1027,
      "cham": 1028,
      "should": 1029,
      "ds": 1030,
      "those": 1031,
      "dur": 1032,
      "ças": 1033,
      "ais": 1034,
      "cial": 1035,
      "inha": 1036,
      "through": 1037,
      "conhe": 1038,
      "nada": 1039,
      "land": 1040,
      "já": 1041,
      "said": 1042,
      "He": 1043,
      "vocês": 1044,
      "lhe": 1045,
      "need": 1046,
      "pou": 1047,
      "ros": 1048,
      "deve": 1049,
      "far": 1050,
      "encontr": 1051,
      "iu": 1052,
      "nunca": 1053,
      "dio": 1054,
      "lugar": 1055,
      "ste": 1056,
      "tenho": 1057,
      "row": 1058,
      "iam": 1059,
      "Th": 1060,
      "ces": 1061,
      "mulher": 1062,
      "assim": 1063,
      "dif": 1064,
      "sin": 1065,
      "grande": 1066,
      "So": 1067,
      "star": 1068,
      "ainda": 1069,
      "uns": 1070,
      "being": 1071,
      "ban": 1072,
      "much": 1073,
      "gue": 1074,
      "didn": 1075,
      "fl": 1076,
      "turn": 1077,
      "spe": 1078,
      "itu": 1079,
      "pai": 1080,
      "wa": 1081,
      "ire": 1082,
      "around": 1083,
      "proc": 1084,
      "forma": 1085,
      "side": 1086,
      "tri": 1087,
      "last": 1088,
      "cent": 1089,
      "ris": 1090,
      "mr": 1091,
      "cle": 1092,
      "proble": 1093,
      "ps": 1094,
      "tain": 1095,
      "ível": 1096,
      "penas": 1097,
      "wan": 1098,
      "bom": 1099,
      "own": 1100,
      "lar": 1101,
      "consegu": 1102,
      "fel": 1103,
      "tes": 1104,
      "verdade": 1105,
      "aconte": 1106,
      "ês": 1107,
      "things": 1108,
      "give": 1109,
      "sempre": 1110,
      "ambém": 1111,
      "vamos": 1112,
      "wer": 1113,
      "war": 1114,
      "sor": 1115,
      "stand": 1116,
      "made": 1117,
      "bus": 1118,
      "heiro": 1119,
      "sub": 1120,
      "num": 1121,
      "qualquer": 1122,
      "outr": 1123,
      "show": 1124,
      "quem": 1125,
      "feel": 1126,
      "pul": 1127,
      "wom": 1128,
      "dele": 1129,
      "char": 1130,
      "mit": 1131,
      "med": 1132,
      "ner": 1133,
      "ak": 1134,
      "gir": 1135,
      "jun": 1136,
      "ents": 1137,
      "In": 1138,
      "imento": 1139,
      "til": 1140,
      "ima": 1141,
      "does": 1142,
      "entr": 1143,
      "import": 1144,
      "loc": 1145,
      "inho": 1146,
      "adas": 1147,
      "love": 1148,
      "ical": 1149,
      "As": 1150,
      "hand": 1151,
      "might": 1152,
      "fu": 1153,
      "atr": 1154,
      "Quando": 1155,
      "apenas": 1156,
      "ário": 1157,
      "--": 1158,
      "ked": 1159,
      "vesse": 1160,
      "vor": 1161,
      "também": 1162,
      "ân": 1163,
      "acho": 1164,
      "bur": 1165,
      "sr": 1166,
      "ati": 1167,
      "ama": 1168,
      "thought": 1169,
      "lef": 1170,
      "form": 1171,
      "place": 1172,
      "aju": 1173,
      "igh": 1174,
      "great": 1175,
      "nosso": 1176,
      "pan": 1177,
      "sho": 1178,
      "outro": 1179,
      "vil": 1180,
      "read": 1181,
      "vos": 1182,
      "vam": 1183,
      "ún": 1184,
      "won": 1185,
      "belie": 1186,
      "ily": 1187,
      "ino": 1188,
      "dois": 1189,
      "ways": 1190,
      "still": 1191,
      "contra": 1192,
      "Bem": 1193,
      "amer": 1194,
      "home": 1195,
      "pt": 1196,
      "contin": 1197,
      "person": 1198,
      "ise": 1199,
      "house": 1200,
      ".\".": 1201,
      "mean": 1202,
      "girl": 1203,
      "bi": 1204,
      "Ele": 1205,
      "leg": 1206,
      "tive": 1207,
      "came": 1208,
      "ction": 1209,
      "head": 1210,
      "toda": 1211,
      "poderia": 1212,
      "trans": 1213,
      "quero": 1214,
      "ath": 1215,
      "less": 1216,
      "big": 1217,
      "imag": 1218,
      "sure": 1219,
      "bat": 1220,
      "san": 1221,
      "cada": 1222,
      "De": 1223,
      "Now": 1224,
      "bor": 1225,
      "sign": 1226,
      "Por": 1227,
      "las": 1228,
      "quis": 1229,
      "senhor": 1230,
      "Então": 1231,
      "too": 1232,
      "és": 1233,
      "stu": 1234,
      "oney": 1235,
      "why": 1236,
      "call": 1237,
      "away": 1238,
      "deci": 1239,
      "au": 1240,
      "começ": 1241,
      "wal": 1242,
      "nat": 1243,
      "talvez": 1244,
      "lon": 1245,
      "ham": 1246,
      "uro": 1247,
      "hon": 1248,
      "inc": 1249,
      "keep": 1250,
      "mand": 1251,
      "told": 1252,
      "ating": 1253,
      "noss": 1254,
      "press": 1255,
      "arr": 1256,
      "rece": 1257,
      "ís": 1258,
      "lea": 1259,
      "int": 1260,
      "ital": 1261,
      "asse": 1262,
      "úl": 1263,
      "nossa": 1264,
      "inv": 1265,
      "ceu": 1266,
      "ura": 1267,
      "found": 1268,
      "escol": 1269,
      "vers": 1270,
      "coloc": 1271,
      "kind": 1272,
      "When": 1273,
      "estr": 1274,
      "bab": 1275,
      "tir": 1276,
      "gover": 1277,
      "igos": 1278,
      "continu": 1279,
      "fora": 1280,
      "ória": 1281,
      "member": 1282,
      "prof": 1283,
      "pouco": 1284,
      "chil": 1285,
      "kes": 1286,
      "help": 1287,
      "últim": 1288,
      "garo": 1289,
      "ista": 1290,
      "cara": 1291,
      "Com": 1292,
      "erra": 1293,
      "rou": 1294,
      "saber": 1295,
      "dinheiro": 1296,
      "ition": 1297,
      "lem": 1298,
      "ável": 1299,
      "cio": 1300,
      "must": 1301,
      "esti": 1302,
      "op": 1303,
      "father": 1304,
      "quen": 1305,
      "todas": 1306,
      "ender": 1307,
      "desco": 1308,
      "uh": 1309,
      "cour": 1310,
      "room": 1311,
      "hã": 1312,
      "fos": 1313,
      "miss": 1314,
      "passa": 1315,
      "same": 1316,
      "bil": 1317,
      "ual": 1318,
      "someone": 1319,
      "bal": 1320,
      "vem": 1321,
      "while": 1322,
      "ana": 1323,
      "always": 1324,
      "cess": 1325,
      "dir": 1326,
      "gem": 1327,
      "iga": 1328,
      "19": 1329,
      "clar": 1330,
      "ons": 1331,
      "ios": 1332,
      "wee": 1333,
      "happen": 1334,
      "mãe": 1335,
      "lot": 1336,
      "cut": 1337,
      "cabe": 1338,
      "terr": 1339,
      "trabalho": 1340,
      "anything": 1341,
      "temos": 1342,
      "reg": 1343,
      "nem": 1344,
      "eng": 1345,
      "maior": 1346,
      "kill": 1347,
      "lia": 1348,
      "money": 1349,
      "went": 1350,
      "espe": 1351,
      "ff": 1352,
      "times": 1353,
      "inte": 1354,
      "aria": 1355,
      "used": 1356,
      "seja": 1357,
      "xt": 1358,
      "fac": 1359,
      "play": 1360,
      "Est": 1361,
      "enquanto": 1362,
      "wr": 1363,
      "ava": 1364,
      "stor": 1365,
      "iros": 1366,
      "poss": 1367,
      "posso": 1368,
      "outra": 1369,
      "wanted": 1370,
      "many": 1371,
      "prote": 1372,
      "ny": 1373,
      "deus": 1374,
      "pris": 1375,
      "parte": 1376,
      "comple": 1377,
      "menos": 1378,
      "cil": 1379,
      "icos": 1380,
      "esp": 1381,
      "000": 1382,
      "fez": 1383,
      "offic": 1384,
      "sup": 1385,
      "another": 1386,
      "pequen": 1387,
      "ah": 1388,
      "ange": 1389,
      "feito": 1390,
      "ey": 1391,
      "tan": 1392,
      "porta": 1393,
      "bas": 1394,
      "vezes": 1395,
      "sex": 1396,
      "kid": 1397,
      "tom": 1398,
      "ken": 1399,
      "ias": 1400,
      "three": 1401,
      "hist": 1402,
      "aut": 1403,
      "meus": 1404,
      "cha": 1405,
      "ced": 1406,
      "ness": 1407,
      "nam": 1408,
      "tou": 1409,
      "ição": 1410,
      "def": 1411,
      "novo": 1412,
      "bol": 1413,
      "until": 1414,
      "final": 1415,
      "left": 1416,
      "ident": 1417,
      "hoje": 1418,
      "foram": 1419,
      "cou": 1420,
      "stru": 1421,
      "terra": 1422,
      "seria": 1423,
      "eral": 1424,
      "americ": 1425,
      "wi": 1426,
      "dem": 1427,
      "dela": 1428,
      "cidade": 1429,
      "hard": 1430,
      "rel": 1431,
      "iste": 1432,
      "paz": 1433,
      "chance": 1434,
      "vic": 1435,
      "guy": 1436,
      "next": 1437,
      "cy": 1438,
      "lim": 1439,
      "hed": 1440,
      "alguma": 1441,
      "volta": 1442,
      "gas": 1443,
      "tipo": 1444,
      "êm": 1445,
      "10": 1446,
      "lado": 1447,
      "band": 1448,
      "without": 1449,
      "everything": 1450,
      "isto": 1451,
      "cen": 1452,
      "prom": 1453,
      "cus": 1454,
      "falar": 1455,
      "cra": 1456,
      "neg": 1457,
      "ores": 1458,
      "set": 1459,
      "ters": 1460,
      "dever": 1461,
      "ín": 1462,
      "woman": 1463,
      "maybe": 1464,
      "vas": 1465,
      "atch": 1466,
      "deu": 1467,
      "super": 1468,
      "seman": 1469,
      "seg": 1470,
      "They": 1471,
      "ward": 1472,
      "ship": 1473,
      "mur": 1474,
      "será": 1475,
      "famí": 1476,
      "alguns": 1477,
      "momento": 1478,
      "believe": 1479,
      "bri": 1480,
      "god": 1481,
      "mother": 1482,
      "ary": 1483,
      "hour": 1484,
      "lin": 1485,
      "mé": 1486,
      "lor": 1487,
      "exper": 1488,
      "bit": 1489,
      "dro": 1490,
      "ock": 1491,
      "better": 1492,
      "aos": 1493,
      "acab": 1494,
      "run": 1495,
      "fran": 1496,
      "trying": 1497,
      "liv": 1498,
      "dias": 1499,
      "present": 1500,
      "caus": 1501,
      "sus": 1502,
      "ér": 1503,
      "realmente": 1504,
      "uém": 1505,
      "abe": 1506,
      "termin": 1507,
      "queria": 1508,
      "som": 1509,
      "expl": 1510,
      "enough": 1511,
      "hal": 1512,
      "mão": 1513,
      "since": 1514,
      "family": 1515,
      "rom": 1516,
      "possi": 1517,
      "sab": 1518,
      "nothing": 1519,
      "outros": 1520,
      "scho": 1521,
      "Ag": 1522,
      "cin": 1523,
      "secre": 1524,
      "íamos": 1525,
      "ári": 1526,
      "ious": 1527,
      "face": 1528,
      "gether": 1529,
      "ates": 1530,
      "This": 1531,
      "dan": 1532,
      "às": 1533,
      "blo": 1534,
      "care": 1535,
      "gg": 1536,
      "together": 1537,
      "few": 1538,
      "atra": 1539,
      "quar": 1540,
      "eram": 1541,
      "homens": 1542,
      "ween": 1543,
      "pessoa": 1544,
      "oper": 1545,
      "acred": 1546,
      "light": 1547,
      "test": 1548,
      "nen": 1549,
      "death": 1550,
      "cons": 1551,
      "days": 1552,
      "pergun": 1553,
      "against": 1554,
      "conf": 1555,
      "high": 1556,
      "jor": 1557,
      "sider": 1558,
      "torn": 1559,
      "fosse": 1560,
      "Agora": 1561,
      "jam": 1562,
      "polí": 1563,
      "ms": 1564,
      "doesn": 1565,
      "pag": 1566,
      "ely": 1567,
      "ling": 1568,
      "itas": 1569,
      "ason": 1570,
      "power": 1571,
      "morte": 1572,
      "whole": 1573,
      "sk": 1574,
      "20": 1575,
      "school": 1576,
      "To": 1577,
      "voltar": 1578,
      "youn": 1579,
      "assass": 1580,
      "ninguém": 1581,
      "also": 1582,
      "Em": 1583,
      "nome": 1584,
      "ago": 1585,
      "três": 1586,
      "gia": 1587,
      "bon": 1588,
      "doing": 1589,
      "cido": 1590,
      "dou": 1591,
      "fol": 1592,
      "parece": 1593,
      "plane": 1594,
      "ata": 1595,
      "família": 1596,
      "vão": 1597,
      "best": 1598,
      "atrás": 1599,
      "produ": 1600,
      "ei": 1601,
      "emp": 1602,
      "estamos": 1603,
      "encontrar": 1604,
      "iente": 1605,
      "imos": 1606,
      "ctor": 1607,
      "ings": 1608,
      "nova": 1609,
      "human": 1610,
      "filho": 1611,
      "cond": 1612,
      "certo": 1613,
      "ned": 1614,
      "took": 1615,
      "quest": 1616,
      "ot": 1617,
      "caso": 1618,
      "gal": 1619,
      "ions": 1620,
      "Os": 1621,
      "van": 1622,
      "ific": 1623,
      "sm": 1624,
      "sido": 1625,
      "gua": 1626,
      "acha": 1627,
      "buil": 1628,
      "teria": 1629,
      "primeiro": 1630,
      "pic": 1631,
      "between": 1632,
      "minu": 1633,
      "each": 1634,
      "There": 1635,
      "duas": 1636,
      "deixar": 1637,
      "conta": 1638,
      "ali": 1639,
      "law": 1640,
      "ping": 1641,
      "case": 1642,
      "consider": 1643,
      "gy": 1644,
      "ras": 1645,
      "ôn": 1646,
      "próx": 1647,
      "oking": 1648,
      "lan": 1649,
      "ready": 1650,
      "anim": 1651,
      "sing": 1652,
      "order": 1653,
      "dra": 1654,
      "dri": 1655,
      "grand": 1656,
      "ley": 1657,
      "pi": 1658,
      "stop": 1659,
      "called": 1660,
      "arei": 1661,
      "ev": 1662,
      "hear": 1663,
      "hun": 1664,
      "podem": 1665,
      "difer": 1666,
      "ular": 1667,
      "remember": 1668,
      "ator": 1669,
      "today": 1670,
      "tanto": 1671,
      "hn": 1672,
      "respe": 1673,
      "tivesse": 1674,
      "carro": 1675,
      "cover": 1676,
      "ório": 1677,
      "isten": 1678,
      "once": 1679,
      "young": 1680,
      "primeira": 1681,
      "wife": 1682,
      "história": 1683,
      "ef": 1684,
      "live": 1685,
      "própr": 1686,
      "ler": 1687,
      "esses": 1688,
      "month": 1689,
      "ugh": 1690,
      "getting": 1691,
      "desse": 1692,
      "progr": 1693,
      "murder": 1694,
      "fut": 1695,
      "differ": 1696,
      "hora": 1697,
      "talk": 1698,
      "acor": 1699,
      "trou": 1700,
      "mag": 1701,
      "ben": 1702,
      "vin": 1703,
      "sair": 1704,
      "mane": 1705,
      "favor": 1706,
      "baix": 1707,
      "That": 1708,
      "ale": 1709,
      "havia": 1710,
      "rer": 1711,
      "py": 1712,
      "realiz": 1713,
      "sed": 1714,
      "name": 1715,
      "fazendo": 1716,
      "cru": 1717,
      "imin": 1718,
      "chegar": 1719,
      "meio": 1720,
      "knew": 1721,
      "else": 1722,
      "saw": 1723,
      "publ": 1724,
      "horas": 1725,
      "country": 1726,
      "stre": 1727,
      "bed": 1728,
      "control": 1729,
      "boy": 1730,
      "tenha": 1731,
      "cted": 1732,
      "anças": 1733,
      "fron": 1734,
      "mind": 1735,
      "pac": 1736,
      "aman": 1737,
      "prin": 1738,
      "looking": 1739,
      "city": 1740,
      "istas": 1741,
      "nossos": 1742,
      "icas": 1743,
      "tado": 1744,
      "earth": 1745,
      "lad": 1746,
      "rest": 1747,
      "algumas": 1748,
      "coming": 1749,
      "att": 1750,
      "ture": 1751,
      "desde": 1752,
      "age": 1753,
      "wait": 1754,
      "levar": 1755,
      "air": 1756,
      "numa": 1757,
      "wouldn": 1758,
      "cient": 1759,
      "frente": 1760,
      "liber": 1761,
      "Um": 1762,
      "dead": 1763,
      "compr": 1764,
      "having": 1765,
      "water": 1766,
      "oca": 1767,
      "tel": 1768,
      "iness": 1769,
      "durante": 1770,
      "cli": 1771,
      "lou": 1772,
      "job": 1773,
      "town": 1774,
      "país": 1775,
      "guerra": 1776,
      "dam": 1777,
      "ara": 1778,
      "sul": 1779,
      "cion": 1780,
      "understand": 1781,
      "manhã": 1782,
      "tamente": 1783,
      "hold": 1784,
      "veis": 1785,
      "aquele": 1786,
      "inking": 1787,
      "pensar": 1788,
      "bad": 1789,
      "passar": 1790,
      "kil": 1791,
      "50": 1792,
      "Es": 1793,
      "bun": 1794,
      "hes": 1795,
      "open": 1796,
      "deles": 1797,
      "cé": 1798,
      "such": 1799,
      "mir": 1800,
      "clu": 1801,
      "sé": 1802,
      "meet": 1803,
      "cabeça": 1804,
      "wil": 1805,
      "ze": 1806,
      "dentro": 1807,
      "sit": 1808,
      "podemos": 1809,
      "Al": 1810,
      "ket": 1811,
      "têm": 1812,
      "die": 1813,
      "Lo": 1814,
      "apare": 1815,
      "done": 1816,
      "friends": 1817,
      "corpo": 1818,
      "destru": 1819,
      "morning": 1820,
      "tentando": 1821,
      "30": 1822,
      "segun": 1823,
      "elas": 1824,
      "hosp": 1825,
      "fig": 1826,
      "evi": 1827,
      "fact": 1828,
      "hando": 1829,
      "única": 1830,
      "lev": 1831,
      "clear": 1832,
      "Be": 1833,
      "though": 1834,
      "point": 1835,
      "taria": 1836,
      "dá": 1837,
      "ian": 1838,
      "perce": 1839,
      "lion": 1840,
      "bring": 1841,
      "amor": 1842,
      "imo": 1843,
      "john": 1844,
      "stay": 1845,
      "week": 1846,
      "cont": 1847,
      "ask": 1848,
      "dre": 1849,
      "dad": 1850,
      "tually": 1851,
      "seem": 1852,
      "tica": 1853,
      "heart": 1854,
      "sac": 1855,
      "feliz": 1856,
      "respon": 1857,
      "free": 1858,
      "agem": 1859,
      "ples": 1860,
      "ult": 1861,
      "comigo": 1862,
      "univer": 1863,
      "segur": 1864,
      "idente": 1865,
      "disso": 1866,
      "local": 1867,
      "leave": 1868,
      "arma": 1869,
      "ations": 1870,
      "má": 1871,
      "teza": 1872,
      "cem": 1873,
      "mus": 1874,
      "gin": 1875,
      "fort": 1876,
      "equi": 1877,
      "myself": 1878,
      "sun": 1879,
      "Oh": 1880,
      "amigos": 1881,
      "ocu": 1882,
      "ços": 1883,
      "ví": 1884,
      "rus": 1885,
      "lead": 1886,
      "ilo": 1887,
      "She": 1888,
      "ença": 1889,
      "viol": 1890,
      "half": 1891,
      "pay": 1892,
      "comes": 1893,
      "ór": 1894,
      "prova": 1895,
      "descobr": 1896,
      "blood": 1897,
      "Como": 1898,
      "eah": 1899,
      "als": 1900,
      "dest": 1901,
      "move": 1902,
      "inst": 1903,
      "espos": 1904,
      "sha": 1905,
      "Quer": 1906,
      "procur": 1907,
      "compan": 1908,
      "public": 1909,
      "reason": 1910,
      "iria": 1911,
      "dren": 1912,
      "hospital": 1913,
      "pegar": 1914,
      "vie": 1915,
      "nu": 1916,
      "later": 1917,
      "teve": 1918,
      "raz": 1919,
      "ifica": 1920,
      "pend": 1921,
      "boa": 1922,
      "ener": 1923,
      "rá": 1924,
      "dizendo": 1925,
      "certeza": 1926,
      "sat": 1927,
      "gou": 1928,
      "dito": 1929,
      "viver": 1930,
      "My": 1931,
      "guar": 1932,
      "del": 1933,
      "hões": 1934,
      "ações": 1935,
      "ram": 1936,
      "amigo": 1937,
      "matter": 1938,
      "appe": 1939,
      "black": 1940,
      "mic": 1941,
      "four": 1942,
      "comp": 1943,
      "estavam": 1944,
      "happened": 1945,
      "govern": 1946,
      "both": 1947,
      "ional": 1948,
      "rela": 1949,
      "dies": 1950,
      "essas": 1951,
      "couldn": 1952,
      "mãos": 1953,
      "Sabe": 1954,
      "crianças": 1955,
      "gent": 1956,
      "oso": 1957,
      "ried": 1958,
      "ajudar": 1959,
      "children": 1960,
      "front": 1961,
      "água": 1962,
      "brother": 1963,
      "fim": 1964,
      "hus": 1965,
      "situ": 1966,
      "Ela": 1967,
      "start": 1968,
      "fight": 1969,
      "fiz": 1970,
      "hours": 1971,
      "mesma": 1972,
      "On": 1973,
      "semana": 1974,
      "constru": 1975,
      "win": 1976,
      "esque": 1977,
      "What": 1978,
      "hit": 1979,
      "For": 1980,
      "killed": 1981,
      "Look": 1982,
      "vido": 1983,
      "bora": 1984,
      "possível": 1985,
      "estu": 1986,
      "sil": 1987,
      "hi": 1988,
      "itor": 1989,
      "difí": 1990,
      "line": 1991,
      "ários": 1992,
      "police": 1993,
      "ará": 1994,
      "sof": 1995,
      "recor": 1996,
      "wit": 1997,
      "certain": 1998,
      "cias": 1999,
      "\",": 2000,
      "watch": 2001,
      "book": 2002,
      "cel": 2003,
      "important": 2004,
      "precisa": 2005,
      "cir": 2006,
      "ni": 2007,
      "sendo": 2008,
      "bos": 2009,
      "fato": 2010,
      "especial": 2011,
      "necess": 2012,
      "course": 2013,
      "wasn": 2014,
      "experi": 2015,
      "different": 2016,
      "vê": 2017,
      "vés": 2018,
      "cum": 2019,
      "neste": 2020,
      "making": 2021,
      "seen": 2022,
      "esposa": 2023,
      "actually": 2024,
      "cla": 2025,
      "dom": 2026,
      "says": 2027,
      "cie": 2028,
      "ars": 2029,
      "perto": 2030,
      ":.": 2031,
      "guys": 2032,
      "apart": 2033,
      "conseguir": 2034,
      "saying": 2035,
      "wonder": 2036,
      "deveria": 2037,
      "business": 2038,
      "door": 2039,
      "partic": 2040,
      "number": 2041,
      "ses": 2042,
      "possa": 2043,
      "thinking": 2044,
      "inar": 2045,
      "crime": 2046,
      "bir": 2047,
      "perfe": 2048,
      "antar": 2049,
      "ones": 2050,
      "Na": 2051,
      "entrar": 2052,
      "importante": 2053,
      "parar": 2054,
      "fall": 2055,
      "ren": 2056,
      "ran": 2057,
      "means": 2058,
      "çar": 2059,
      "ball": 2060,
      "yourself": 2061,
      "fiel": 2062,
      "outras": 2063,
      "aquela": 2064,
      "base": 2065,
      "lear": 2066,
      "ker": 2067,
      "pais": 2068,
      "deal": 2069,
      "iras": 2070,
      "husband": 2071,
      "gado": 2072,
      "sabia": 2073,
      "tory": 2074,
      "fur": 2075,
      "possible": 2076,
      "polícia": 2077,
      "All": 2078,
      "hind": 2079,
      "ús": 2080,
      "abr": 2081,
      "exce": 2082,
      "coração": 2083,
      "main": 2084,
      "street": 2085,
      "jan": 2086,
      "probab": 2087,
      "atro": 2088,
      "beaut": 2089,
      "beb": 2090,
      "planet": 2091,
      "aten": 2092,
      "quase": 2093,
      "inform": 2094,
      "naque": 2095,
      "pur": 2096,
      "started": 2097,
      "antas": 2098,
      "caminho": 2099,
      "fre": 2100,
      "sar": 2101,
      "irá": 2102,
      "mostr": 2103,
      "estado": 2104,
      "iar": 2105,
      "estran": 2106,
      "yor": 2107,
      "profess": 2108,
      "tura": 2109,
      "Uma": 2110,
      "ref": 2111,
      "meses": 2112,
      "contro": 2113,
      "Eles": 2114,
      "wood": 2115,
      "cat": 2116,
      "gave": 2117,
      "dge": 2118,
      "icial": 2119,
      "Sim": 2120,
      "tico": 2121,
      "child": 2122,
      "usar": 2123,
      "pensa": 2124,
      "mid": 2125,
      "gru": 2126,
      "crit": 2127,
      "state": 2128,
      "bran": 2129,
      "entar": 2130,
      "olhos": 2131,
      "small": 2132,
      "jeito": 2133,
      "ney": 2134,
      "soon": 2135,
      "problema": 2136,
      "fica": 2137,
      "hope": 2138,
      "tiver": 2139,
      "change": 2140,
      "months": 2141,
      "rei": 2142,
      "ister": 2143,
      "moment": 2144,
      "15": 2145,
      "dent": 2146,
      "dese": 2147,
      "corre": 2148,
      "working": 2149,
      "suspe": 2150,
      "escre": 2151,
      "empre": 2152,
      "força": 2153,
      "sufic": 2154,
      "ists": 2155,
      "escola": 2156,
      "marido": 2157,
      "heard": 2158,
      "inf": 2159,
      "viu": 2160,
      "probably": 2161,
      "estiver": 2162,
      "bul": 2163,
      "decis": 2164,
      "obje": 2165,
      "ância": 2166,
      "preciso": 2167,
      "esca": 2168,
      "aí": 2169,
      "york": 2170,
      "idea": 2171,
      "top": 2172,
      "descobrir": 2173,
      "sle": 2174,
      "dado": 2175,
      "atever": 2176,
      "palav": 2177,
      "unidade": 2178,
      "ughter": 2179,
      "pain": 2180,
      "story": 2181,
      "apr": 2182,
      "ges": 2183,
      "velmente": 2184,
      "general": 2185,
      "tido": 2186,
      "nú": 2187,
      "known": 2188,
      "five": 2189,
      "along": 2190,
      "himself": 2191,
      "causa": 2192,
      "difícil": 2193,
      "jus": 2194,
      "fire": 2195,
      "nossas": 2196,
      "garota": 2197,
      "ash": 2198,
      "ester": 2199,
      "eas": 2200,
      "pie": 2201,
      "sy": 2202,
      "nenhum": 2203,
      "bel": 2204,
      "minhas": 2205,
      "itos": 2206,
      "inclu": 2207,
      "envol": 2208,
      "exp": 2209,
      "selves": 2210,
      "sob": 2211,
      "become": 2212,
      "caval": 2213,
      "whe": 2214,
      "send": 2215,
      "return": 2216,
      "estes": 2217,
      "jul": 2218,
      "baixo": 2219,
      "gets": 2220,
      "ither": 2221,
      "plac": 2222,
      "luz": 2223,
      "anyone": 2224,
      "gente": 2225,
      "len": 2226,
      "anger": 2227,
      "wear": 2228,
      "women": 2229,
      "living": 2230,
      "ants": 2231,
      "full": 2232,
      "gostaria": 2233,
      "juntos": 2234,
      "ster": 2235,
      "tty": 2236,
      "tarde": 2237,
      "behind": 2238,
      "pelos": 2239,
      "militar": 2240,
      "At": 2241,
      "elo": 2242,
      "everyone": 2243,
      "méd": 2244,
      "kids": 2245,
      "Ho": 2246,
      "talking": 2247,
      "maneira": 2248,
      "pped": 2249,
      "pick": 2250,
      "lives": 2251,
      "serv": 2252,
      "somebody": 2253,
      "mulheres": 2254,
      "filha": 2255,
      "significa": 2256,
      "vendo": 2257,
      "corr": 2258,
      "posed": 2259,
      "quei": 2260,
      "ike": 2261,
      "icar": 2262,
      "normal": 2263,
      "sangue": 2264,
      "mach": 2265,
      "12": 2266,
      "wrong": 2267,
      "dream": 2268,
      "tirar": 2269,
      "oce": 2270,
      "rep": 2271,
      "ilha": 2272,
      "quiser": 2273,
      "taking": 2274,
      "ined": 2275,
      "follow": 2276,
      "eyes": 2277,
      "informa": 2278,
      "ystem": 2279,
      "asked": 2280,
      "cendo": 2281,
      "already": 2282,
      "última": 2283,
      "deser": 2284,
      "utes": 2285,
      "white": 2286,
      "comb": 2287,
      "conven": 2288,
      "sum": 2289,
      "quarto": 2290,
      "prove": 2291,
      "office": 2292,
      "brar": 2293,
      "past": 2294,
      "taken": 2295,
      "capaz": 2296,
      "wants": 2297,
      "começar": 2298,
      "enter": 2299,
      "hu": 2300,
      "ground": 2301,
      "Porque": 2302,
      "claro": 2303,
      "rad": 2304,
      "desta": 2305,
      "second": 2306,
      "culo": 2307,
      "tentar": 2308,
      "truth": 2309,
      "system": 2310,
      "após": 2311,
      "ross": 2312,
      "fé": 2313,
      "suficiente": 2314,
      "ying": 2315,
      "organ": 2316,
      "proje": 2317,
      "dence": 2318,
      "happy": 2319,
      "idos": 2320,
      "pensei": 2321,
      "jar": 2322,
      "wed": 2323,
      "whatever": 2324,
      "lost": 2325,
      "pé": 2326,
      "tei": 2327,
      "aco": 2328,
      "muitos": 2329,
      "acordo": 2330,
      "allow": 2331,
      "fui": 2332,
      "yet": 2333,
      "dist": 2334,
      "aconteceu": 2335,
      "colocar": 2336,
      "ann": 2337,
      "Para": 2338,
      "ural": 2339,
      "secret": 2340,
      "met": 2341,
      "preocu": 2342,
      "Po": 2343,
      "jur": 2344,
      "sos": 2345,
      "cado": 2346,
      "break": 2347,
      "nal": 2348,
      "shall": 2349,
      "cios": 2350,
      "jovem": 2351,
      "inside": 2352,
      "team": 2353,
      "achar": 2354,
      "dido": 2355,
      "tomar": 2356,
      "pat": 2357,
      "tonight": 2358,
      "hands": 2359,
      "tros": 2360,
      "pedir": 2361,
      "siste": 2362,
      "esso": 2363,
      "couple": 2364,
      "company": 2365,
      "embora": 2366,
      "dete": 2367,
      "hol": 2368,
      "18": 2369,
      "deste": 2370,
      "exact": 2371,
      "jack": 2372,
      "attack": 2373,
      "Ok": 2374,
      "ade": 2375,
      "importa": 2376,
      ",...": 2377,
      "daque": 2378,
      "euro": 2379,
      "fed": 2380,
      "indi": 2381,
      "dig": 2382,
      "problemas": 2383,
      "dando": 2384,
      "pun": 2385,
      "six": 2386,
      "rac": 2387,
      "stuff": 2388,
      "ício": 2389,
      "arch": 2390,
      "iss": 2391,
      "Nós": 2392,
      "total": 2393,
      "simples": 2394,
      "Because": 2395,
      "além": 2396,
      "iti": 2397,
      "class": 2398,
      "único": 2399,
      "han": 2400,
      "vidas": 2401,
      "matar": 2402,
      "númer": 2403,
      "ics": 2404,
      "apo": 2405,
      "orig": 2406,
      "razão": 2407,
      "pir": 2408,
      "medi": 2409,
      "espa": 2410,
      "daughter": 2411,
      "bot": 2412,
      "makes": 2413,
      "Esta": 2414,
      "medo": 2415,
      "ue": 2416,
      "brig": 2417,
      "paper": 2418,
      "word": 2419,
      "given": 2420,
      "ched": 2421,
      "entire": 2422,
      "government": 2423,
      "thy": 2424,
      "colle": 2425,
      "hei": 2426,
      "negó": 2427,
      "isn": 2428,
      "filhos": 2429,
      "writ": 2430,
      "estre": 2431,
      "hotel": 2432,
      "legal": 2433,
      "morrow": 2434,
      "podia": 2435,
      "rob": 2436,
      "baby": 2437,
      "irmão": 2438,
      "listen": 2439,
      "governo": 2440,
      "contar": 2441,
      "sai": 2442,
      "million": 2443,
      "Is": 2444,
      "vent": 2445,
      "inten": 2446,
      "destro": 2447,
      "ities": 2448,
      "doctor": 2449,
      "soz": 2450,
      "died": 2451,
      "100": 2452,
      "povo": 2453,
      "cima": 2454,
      "iful": 2455,
      "ws": 2456,
      "passado": 2457,
      "near": 2458,
      "reu": 2459,
      "pessoal": 2460,
      "phone": 2461,
      "gol": 2462,
      "mús": 2463,
      "minutos": 2464,
      "ques": 2465,
      "tomorrow": 2466,
      "atamente": 2467,
      "manter": 2468,
      "Estou": 2469,
      "trabalhar": 2470,
      "rar": 2471,
      "trat": 2472,
      "fing": 2473,
      "hing": 2474,
      "úbl": 2475,
      "cost": 2476,
      "sell": 2477,
      "muitas": 2478,
      "casamento": 2479,
      "sam": 2480,
      "estas": 2481,
      "Yeah": 2482,
      "spo": 2483,
      "minutes": 2484,
      "american": 2485,
      "nesta": 2486,
      "wish": 2487,
      "ore": 2488,
      "inste": 2489,
      "idades": 2490,
      "pretty": 2491,
      "fair": 2492,
      "pido": 2493,
      "crimin": 2494,
      "milhões": 2495,
      "expe": 2496,
      "cts": 2497,
      "logo": 2498,
      "abor": 2499,
      "rol": 2500,
      "gener": 2501,
      "velho": 2502,
      "lut": 2503,
      "sas": 2504,
      "acus": 2505,
      "através": 2506,
      "brit": 2507,
      "ied": 2508,
      "pensando": 2509,
      "mac": 2510,
      "alone": 2511,
      "amanhã": 2512,
      "ka": 2513,
      "ponto": 2514,
      "tivo": 2515,
      "least": 2516,
      "dle": 2517,
      "ficou": 2518,
      "presa": 2519,
      "escon": 2520,
      "gul": 2521,
      "sir": 2522,
      "dez": 2523,
      "pose": 2524,
      "culpa": 2525,
      "shot": 2526,
      "Ou": 2527,
      "flo": 2528,
      "popul": 2529,
      "resto": 2530,
      "true": 2531,
      "during": 2532,
      "beautiful": 2533,
      "action": 2534,
      "field": 2535,
      "arm": 2536,
      "segurança": 2537,
      "pus": 2538,
      "fá": 2539,
      "presidente": 2540,
      "cking": 2541,
      "telling": 2542,
      "gone": 2543,
      "shor": 2544,
      "spir": 2545,
      "net": 2546,
      "tade": 2547,
      "nation": 2548,
      "Mr": 2549,
      "vamente": 2550,
      "special": 2551,
      "nature": 2552,
      "court": 2553,
      "table": 2554,
      "goes": 2555,
      "close": 2556,
      "tried": 2557,
      "knows": 2558,
      "space": 2559,
      "ished": 2560,
      "stra": 2561,
      "wing": 2562,
      "ouvir": 2563,
      "clos": 2564,
      "appear": 2565,
      "iais": 2566,
      "acontecer": 2567,
      "idio": 2568,
      "exam": 2569,
      "imentos": 2570,
      "sleep": 2571,
      "ors": 2572,
      "mission": 2573,
      "pin": 2574,
      "walk": 2575,
      "zy": 2576,
      "gl": 2577,
      "oh": 2578,
      "fizer": 2579,
      "hur": 2580,
      "ende": 2581,
      "invest": 2582,
      "morrer": 2583,
      "ench": 2584,
      "falando": 2585,
      "gor": 2586,
      "Then": 2587,
      "dados": 2588,
      "avi": 2589,
      "anti": 2590,
      "cres": 2591,
      "próprio": 2592,
      "Há": 2593,
      "nesse": 2594,
      "pequeno": 2595,
      "temun": 2596,
      "key": 2597,
      "roc": 2598,
      "brought": 2599,
      "cade": 2600,
      "compu": 2601,
      "across": 2602,
      "ousand": 2603,
      "party": 2604,
      "ony": 2605,
      "force": 2606,
      "remo": 2607,
      "jap": 2608,
      "acre": 2609,
      "quatro": 2610,
      "filme": 2611,
      "sistema": 2612,
      "ctive": 2613,
      "ona": 2614,
      "quad": 2615,
      "estivesse": 2616,
      "check": 2617,
      "rock": 2618,
      "óri": 2619,
      "strong": 2620,
      "éia": 2621,
      "huma": 2622,
      "thor": 2623,
      "olhar": 2624,
      "resol": 2625,
      "testemun": 2626,
      "vest": 2627,
      "rea": 2628,
      "cida": 2629,
      "começou": 2630,
      "Do": 2631,
      "building": 2632,
      "comer": 2633,
      "food": 2634,
      "aqueles": 2635,
      "chur": 2636,
      "complete": 2637,
      "Só": 2638,
      "sala": 2639,
      "question": 2640,
      "ini": 2641,
      "exist": 2642,
      "wall": 2643,
      "posto": 2644,
      "adores": 2645,
      "evidence": 2646,
      "sentir": 2647,
      "Tal": 2648,
      "ford": 2649,
      "thousand": 2650,
      "bast": 2651,
      "moun": 2652,
      "flor": 2653,
      "Some": 2654,
      "news": 2655,
      "alem": 2656,
      "osa": 2657,
      "vive": 2658,
      "honor": 2659,
      "nice": 2660,
      "grou": 2661,
      "offer": 2662,
      "cros": 2663,
      "missão": 2664,
      "dó": 2665,
      "permit": 2666,
      "ize": 2667,
      "veio": 2668,
      "road": 2669,
      "ric": 2670,
      "ised": 2671,
      "ências": 2672,
      "inal": 2673,
      "olo": 2674,
      "sinto": 2675,
      "própria": 2676,
      "history": 2677,
      "terá": 2678,
      "posição": 2679,
      "tador": 2680,
      "jogo": 2681,
      "haver": 2682,
      "tendo": 2683,
      "game": 2684,
      "idas": 2685,
      "longe": 2686,
      "confi": 2687,
      "safe": 2688,
      "president": 2689,
      "dark": 2690,
      "emplo": 2691,
      "upon": 2692,
      "planeta": 2693,
      "instead": 2694,
      "iva": 2695,
      "interest": 2696,
      "wanna": 2697,
      "resul": 2698,
      "iment": 2699,
      "thre": 2700,
      "entos": 2701,
      "grandes": 2702,
      "Acho": 2703,
      "cell": 2704,
      "tele": 2705,
      "mudar": 2706,
      "prison": 2707,
      "perder": 2708,
      "ária": 2709,
      "escrit": 2710,
      "telef": 2711,
      "criança": 2712,
      "dic": 2713,
      "públ": 2714,
      "rem": 2715,
      "lady": 2716,
      "terror": 2717,
      "pequena": 2718,
      "Me": 2719,
      "nenhuma": 2720,
      "seems": 2721,
      "married": 2722,
      "40": 2723,
      "visão": 2724,
      "apresent": 2725,
      "envi": 2726,
      "decided": 2727,
      "tornar": 2728,
      "waiting": 2729,
      "exactly": 2730,
      "ures": 2731,
      "ged": 2732,
      "almost": 2733,
      "cimento": 2734,
      "outside": 2735,
      "pad": 2736,
      "gs": 2737,
      "depart": 2738,
      "haps": 2739,
      "inhos": 2740,
      "ats": 2741,
      "dessa": 2742,
      "assist": 2743,
      "Talvez": 2744,
      "parents": 2745,
      "trada": 2746,
      "cinco": 2747,
      "sound": 2748,
      "quite": 2749,
      "semanas": 2750,
      "tern": 2751,
      "natural": 2752,
      "weeks": 2753,
      "problem": 2754,
      "preci": 2755,
      "suc": 2756,
      "gando": 2757,
      "servi": 2758,
      "assum": 2759,
      "trem": 2760,
      "centr": 2761,
      "devo": 2762,
      "civil": 2763,
      "plic": 2764,
      "ught": 2765,
      "wel": 2766,
      "deixou": 2767,
      "south": 2768,
      "count": 2769,
      "girls": 2770,
      "covered": 2771,
      "grupo": 2772,
      "có": 2773,
      "scre": 2774,
      "ár": 2775,
      "spend": 2776,
      "admit": 2777,
      "ajuda": 2778,
      "fly": 2779,
      "pron": 2780,
      "tando": 2781,
      "guess": 2782,
      "200": 2783,
      "gam": 2784,
      "chang": 2785,
      "information": 2786,
      "Depois": 2787,
      "An": 2788,
      "haven": 2789,
      "direito": 2790,
      "ft": 2791,
      "morto": 2792,
      "sorry": 2793,
      "princi": 2794,
      "determin": 2795,
      "lei": 2796,
      "gn": 2797,
      "future": 2798,
      "clo": 2799,
      "plain": 2800,
      "hão": 2801,
      "seis": 2802,
      "ches": 2803,
      "bril": 2804,
      "felt": 2805,
      "lord": 2806,
      "west": 2807,
      "ído": 2808,
      "cito": 2809,
      "provavelmente": 2810,
      "ites": 2811,
      "either": 2812,
      "fug": 2813,
      "sra": 2814,
      "daqui": 2815,
      "exe": 2816,
      "sea": 2817,
      "fle": 2818,
      "pós": 2819,
      "destroy": 2820,
      "posta": 2821,
      "entender": 2822,
      "novamente": 2823,
      "tima": 2824,
      "takes": 2825,
      "dólar": 2826,
      "jer": 2827,
      "vens": 2828,
      "Con": 2829,
      "Des": 2830,
      "sort": 2831,
      "esperando": 2832,
      "pelas": 2833,
      "Your": 2834,
      "chu": 2835,
      "número": 2836,
      "chamado": 2837,
      "compe": 2838,
      "convers": 2839,
      "One": 2840,
      "funcion": 2841,
      "program": 2842,
      "bs": 2843,
      "dden": 2844,
      "pressão": 2845,
      "bastante": 2846,
      "cit": 2847,
      "iado": 2848,
      "leva": 2849,
      "fas": 2850,
      "With": 2851,
      "quil": 2852,
      "using": 2853,
      "visit": 2854,
      "mater": 2855,
      "ines": 2856,
      "memor": 2857,
      "major": 2858,
      "gentle": 2859,
      "11": 2860,
      "position": 2861,
      "enho": 2862,
      "vid": 2863,
      "exér": 2864,
      "miles": 2865,
      "pudesse": 2866,
      "solu": 2867,
      "caix": 2868,
      "buy": 2869,
      "bag": 2870,
      "izar": 2871,
      "assassina": 2872,
      "continuar": 2873,
      "modo": 2874,
      "everybody": 2875,
      "hell": 2876,
      "begin": 2877,
      "rap": 2878,
      "cele": 2879,
      "turned": 2880,
      "Af": 2881,
      "command": 2882,
      "inas": 2883,
      "sever": 2884,
      "semos": 2885,
      "ustr": 2886,
      "vista": 2887,
      "lat": 2888,
      "ring": 2889,
      "tam": 2890,
      "enda": 2891,
      "ismo": 2892,
      "jos": 2893,
      "mc": 2894,
      "acreditar": 2895,
      "ird": 2896,
      "exatamente": 2897,
      "trip": 2898,
      "segundo": 2899,
      "andon": 2900,
      "atac": 2901,
      "presente": 2902,
      "professor": 2903,
      "ane": 2904,
      "irmã": 2905,
      "carre": 2906,
      "mant": 2907,
      "aw": 2908,
      "suf": 2909,
      "ply": 2910,
      "relig": 2911,
      "After": 2912,
      "diga": 2913,
      "inim": 2914,
      "commit": 2915,
      "prepar": 2916,
      "explos": 2917,
      "Re": 2918,
      "trás": 2919,
      "mostrar": 2920,
      "mou": 2921,
      "amar": 2922,
      "cot": 2923,
      "campo": 2924,
      "perfect": 2925,
      "dut": 2926,
      "capit": 2927,
      "soci": 2928,
      "inos": 2929,
      "enem": 2930,
      "ativa": 2931,
      "church": 2932,
      "fra": 2933,
      "zo": 2934,
      "oi": 2935,
      "within": 2936,
      "ofere": 2937,
      "sometimes": 2938,
      "imagin": 2939,
      "resta": 2940,
      "temp": 2941,
      "errado": 2942,
      "bes": 2943,
      "chefe": 2944,
      "whether": 2945,
      "swe": 2946,
      "dirig": 2947,
      "victim": 2948,
      "lhes": 2949,
      "ontem": 2950,
      "gio": 2951,
      "chr": 2952,
      "grow": 2953,
      "diver": 2954,
      "digo": 2955,
      "frank": 2956,
      "Quero": 2957,
      "gri": 2958,
      "tic": 2959,
      "ena": 2960,
      "ouro": 2961,
      "prisão": 2962,
      "mrs": 2963,
      "trouble": 2964,
      "íveis": 2965,
      "arri": 2966,
      "train": 2967,
      "running": 2968,
      "ani": 2969,
      "mine": 2970,
      "supposed": 2971,
      "bert": 2972,
      "essed": 2973,
      "finally": 2974,
      "famil": 2975,
      "igre": 2976,
      "vio": 2977,
      "iram": 2978,
      "chris": 2979,
      "tinham": 2980,
      "rather": 2981,
      "figure": 2982,
      "forte": 2983,
      "xo": 2984,
      "looked": 2985,
      "prim": 2986,
      "paix": 2987,
      "joy": 2988,
      "hy": 2989,
      "island": 2990,
      "Sei": 2991,
      "wards": 2992,
      "cand": 2993,
      "tric": 2994,
      "board": 2995,
      "nave": 2996,
      "cente": 2997,
      "dred": 2998,
      "clus": 2999,
      "último": 3000,
      "pagar": 3001,
      "army": 3002,
      "onel": 3003,
      "others": 3004,
      "futuro": 3005,
      "avam": 3006,
      "vá": 3007,
      "commun": 3008,
      "conver": 3009,
      "chan": 3010,
      "hamos": 3011,
      "box": 3012,
      "ost": 3013,
      "esteja": 3014,
      "peace": 3015,
      "idéia": 3016,
      "dólares": 3017,
      "pesar": 3018,
      "arran": 3019,
      "vide": 3020,
      "tá": 3021,
      "exército": 3022,
      "pho": 3023,
      "throw": 3024,
      "equipe": 3025,
      "hot": 3026,
      "çado": 3027,
      "espaço": 3028,
      "particular": 3029,
      "lies": 3030,
      "tw": 3031,
      "umas": 3032,
      "acce": 3033,
      "ula": 3034,
      "árias": 3035,
      "cá": 3036,
      "dão": 3037,
      "raid": 3038,
      "hair": 3039,
      "emer": 3040,
      "rápido": 3041,
      "concer": 3042,
      "energia": 3043,
      "sense": 3044,
      "hea": 3045,
      "jes": 3046,
      "save": 3047,
      "bank": 3048,
      "personal": 3049,
      "consel": 3050,
      "bob": 3051,
      "hang": 3052,
      "fat": 3053,
      "az": 3054,
      "ky": 3055,
      "hael": 3056,
      "please": 3057,
      "ically": 3058,
      "hid": 3059,
      "middle": 3060,
      "enor": 3061,
      "round": 3062,
      "vision": 3063,
      "social": 3064,
      "respeito": 3065,
      "fortun": 3066,
      "ming": 3067,
      "words": 3068,
      "Nos": 3069,
      "querem": 3070,
      "vindo": 3071,
      "16": 3072,
      "pá": 3073,
      "conce": 3074,
      "Su": 3075,
      "lun": 3076,
      "sand": 3077,
      "alto": 3078,
      "aber": 3079,
      "ense": 3080,
      "born": 3081,
      "blu": 3082,
      "próxima": 3083,
      "ments": 3084,
      "okay": 3085,
      "fast": 3086,
      "cuid": 3087,
      "tv": 3088,
      "disser": 3089,
      "nar": 3090,
      "sudden": 3091,
      "loved": 3092,
      "rich": 3093,
      "diferente": 3094,
      "sitting": 3095,
      "câ": 3096,
      "pô": 3097,
      "ually": 3098,
      "próximo": 3099,
      "ko": 3100,
      "edu": 3101,
      "polit": 3102,
      "vious": 3103,
      "sw": 3104,
      "fico": 3105,
      "Isso": 3106,
      "Meu": 3107,
      "ution": 3108,
      "escritório": 3109,
      "explo": 3110,
      "lha": 3111,
      "ganhar": 3112,
      "comprar": 3113,
      "paris": 3114,
      "ased": 3115,
      "tex": 3116,
      "música": 3117,
      "ls": 3118,
      "late": 3119,
      "abandon": 3120,
      "gosta": 3121,
      "regis": 3122,
      "heal": 3123,
      "geor": 3124,
      "controle": 3125,
      "fear": 3126,
      "worth": 3127,
      "atic": 3128,
      "uras": 3129,
      "nee": 3130,
      "estranho": 3131,
      "music": 3132,
      "deep": 3133,
      "sugg": 3134,
      "bru": 3135,
      "comida": 3136,
      "polic": 3137,
      "spent": 3138,
      "subst": 3139,
      "cro": 3140,
      "hundred": 3141,
      "peda": 3142,
      "giving": 3143,
      "prome": 3144,
      "ump": 3145,
      "sabemos": 3146,
      "duz": 3147,
      "anda": 3148,
      "Okay": 3149,
      "inci": 3150,
      "rite": 3151,
      "guard": 3152,
      "advo": 3153,
      "weap": 3154,
      "últimos": 3155,
      "cole": 3156,
      "america": 3157,
      "culos": 3158,
      "justi": 3159,
      "von": 3160,
      "vul": 3161,
      "esa": 3162,
      "amentos": 3163,
      "terri": 3164,
      "mark": 3165,
      "amea": 3166,
      "looks": 3167,
      "ond": 3168,
      "park": 3169,
      "mad": 3170,
      "priv": 3171,
      "group": 3172,
      "unless": 3173,
      "armas": 3174,
      "realize": 3175,
      "descobri": 3176,
      "danger": 3177,
      "speak": 3178,
      "poor": 3179,
      "gosto": 3180,
      "states": 3181,
      "cording": 3182,
      "conhecer": 3183,
      "ii": 3184,
      "doll": 3185,
      "shit": 3186,
      "jantar": 3187,
      "declar": 3188,
      "ép": 3189,
      "reuni": 3190,
      "dress": 3191,
      "drink": 3192,
      "gada": 3193,
      "autor": 3194,
      "Foi": 3195,
      "alive": 3196,
      "situação": 3197,
      "hado": 3198,
      "formar": 3199,
      "clean": 3200,
      "eye": 3201,
      "drug": 3202,
      "invol": 3203,
      "tail": 3204,
      "brain": 3205,
      "ato": 3206,
      "esperar": 3207,
      "Tenho": 3208,
      "somos": 3209,
      "confir": 3210,
      "vit": 3211,
      "Tu": 3212,
      "lí": 3213,
      "scen": 3214,
      "inde": 3215,
      "motor": 3216,
      "finalmente": 3217,
      "bis": 3218,
      "horr": 3219,
      "estaria": 3220,
      "longer": 3221,
      "feeling": 3222,
      "visto": 3223,
      "pis": 3224,
      "cama": 3225,
      "roub": 3226,
      "pior": 3227,
      "pping": 3228,
      "dei": 3229,
      "Que": 3230,
      "saí": 3231,
      "redor": 3232,
      "tran": 3233,
      "preocupa": 3234,
      "demais": 3235,
      "boys": 3236,
      "devem": 3237,
      "aged": 3238,
      "caras": 3239,
      "festa": 3240,
      "trad": 3241,
      "imagine": 3242,
      "drive": 3243,
      "metros": 3244,
      "kept": 3245,
      "north": 3246,
      "tech": 3247,
      "secur": 3248,
      "indic": 3249,
      "extra": 3250,
      "preten": 3251,
      "answer": 3252,
      "abo": 3253,
      "christ": 3254,
      "alha": 3255,
      "atura": 3256,
      "atório": 3257,
      "ized": 3258,
      "apro": 3259,
      "acabar": 3260,
      "foot": 3261,
      "ai": 3262,
      "bly": 3263,
      "repor": 3264,
      "foto": 3265,
      "gold": 3266,
      "linha": 3267,
      "yes": 3268,
      "fine": 3269,
      "flow": 3270,
      "parecer": 3271,
      "view": 3272,
      "dres": 3273,
      "single": 3274,
      "mex": 3275,
      "spr": 3276,
      "film": 3277,
      "ns": 3278,
      "nia": 3279,
      "till": 3280,
      "monte": 3281,
      "mi": 3282,
      "vanta": 3283,
      "ative": 3284,
      "viet": 3285,
      "tribun": 3286,
      "themselves": 3287,
      "hill": 3288,
      "rua": 3289,
      "bill": 3290,
      "sister": 3291,
      "reach": 3292,
      "tron": 3293,
      "diam": 3294,
      "stat": 3295,
      "restaur": 3296,
      "teu": 3297,
      "proper": 3298,
      "agre": 3299,
      "area": 3300,
      "puder": 3301,
      "sacri": 3302,
      "aking": 3303,
      "isse": 3304,
      "jogar": 3305,
      "médico": 3306,
      "ataque": 3307,
      "washing": 3308,
      "feet": 3309,
      "sive": 3310,
      "Yes": 3311,
      "igreja": 3312,
      "Olha": 3313,
      "áveis": 3314,
      "norte": 3315,
      "companh": 3316,
      "bras": 3317,
      "piece": 3318,
      "patr": 3319,
      "diante": 3320,
      "morreu": 3321,
      "villa": 3322,
      "trac": 3323,
      "conne": 3324,
      "united": 3325,
      "fit": 3326,
      "Just": 3327,
      "Sen": 3328,
      "ory": 3329,
      "ism": 3330,
      "tados": 3331,
      "erei": 3332,
      "fogo": 3333,
      "eat": 3334,
      "design": 3335,
      "seguir": 3336,
      "Sr": 3337,
      "pati": 3338,
      "montan": 3339,
      "asure": 3340,
      "junto": 3341,
      "livro": 3342,
      "querer": 3343,
      "traz": 3344,
      "cannot": 3345,
      "ited": 3346,
      "jesus": 3347,
      "Every": 3348,
      "enta": 3349,
      "marav": 3350,
      "guei": 3351,
      "card": 3352,
      "ideia": 3353,
      "needs": 3354,
      "Tudo": 3355,
      ",\"": 3356,
      "fem": 3357,
      "lam": 3358,
      "diferentes": 3359,
      "fantas": 3360,
      "área": 3361,
      "represent": 3362,
      "existe": 3363,
      "muita": 3364,
      "procurando": 3365,
      "nessa": 3366,
      "captain": 3367,
      "trust": 3368,
      "dinner": 3369,
      "security": 3370,
      "prov": 3371,
      "hen": 3372,
      "perhaps": 3373,
      "afraid": 3374,
      "programa": 3375,
      "carry": 3376,
      "fazem": 3377,
      "passou": 3378,
      "certa": 3379,
      "hares": 3380,
      "receber": 3381,
      "25": 3382,
      "sens": 3383,
      "hero": 3384,
      "material": 3385,
      "60": 3386,
      "scar": 3387,
      "nobody": 3388,
      "learn": 3389,
      "palavras": 3390,
      "mam": 3391,
      "dizem": 3392,
      "matou": 3393,
      "ement": 3394,
      "assassinato": 3395,
      "ery": 3396,
      "quilo": 3397,
      "forget": 3398,
      "crazy": 3399,
      "emo": 3400,
      "iel": 3401,
      "criar": 3402,
      "olha": 3403,
      "europe": 3404,
      "oficial": 3405,
      "vivo": 3406,
      "cing": 3407,
      "agra": 3408,
      "Enquanto": 3409,
      "14": 3410,
      "atir": 3411,
      "salvar": 3412,
      "lic": 3413,
      "pression": 3414,
      "viagem": 3415,
      "fix": 3416,
      "bele": 3417,
      "concor": 3418,
      "playing": 3419,
      "sexual": 3420,
      "apar": 3421,
      "longo": 3422,
      "gens": 3423,
      "preso": 3424,
      "partir": 3425,
      "garoto": 3426,
      "maioria": 3427,
      "bebê": 3428,
      "Este": 3429,
      "obrig": 3430,
      "'.": 3431,
      "ature": 3432,
      "dios": 3433,
      "faça": 3434,
      "riage": 3435,
      "acredita": 3436,
      "econ": 3437,
      "rum": 3438,
      "omos": 3439,
      "andar": 3440,
      "vig": 3441,
      "diffic": 3442,
      "birth": 3443,
      "camin": 3444,
      "17": 3445,
      "sente": 3446,
      "centur": 3447,
      "capitão": 3448,
      "pit": 3449,
      "ouvi": 3450,
      "shar": 3451,
      "fully": 3452,
      "sla": 3453,
      "usando": 3454,
      "rid": 3455,
      "discus": 3456,
      "estará": 3457,
      "24": 3458,
      "May": 3459,
      "cerca": 3460,
      "whose": 3461,
      "cies": 3462,
      "bros": 3463,
      "michael": 3464,
      "wind": 3465,
      "liam": 3466,
      "centro": 3467,
      "docum": 3468,
      "recu": 3469,
      "levou": 3470,
      "parti": 3471,
      "estú": 3472,
      "moder": 3473,
      "seeing": 3474,
      "success": 3475,
      "suffer": 3476,
      "gest": 3477,
      "lose": 3478,
      "melhores": 3479,
      "Assim": 3480,
      "animal": 3481,
      "dú": 3482,
      "incre": 3483,
      "banco": 3484,
      "defend": 3485,
      "aparecer": 3486,
      "const": 3487,
      "guil": 3488,
      "anybody": 3489,
      "expect": 3490,
      "blow": 3491,
      "veja": 3492,
      "chegou": 3493,
      "ety": 3494,
      "Ex": 3495,
      "escur": 3496,
      "upid": 3497,
      "tiv": 3498,
      "cria": 3499,
      "fucking": 3500,
      "cting": 3501,
      "quê": 3502,
      "sue": 3503,
      "propri": 3504,
      "standing": 3505,
      "ticos": 3506,
      "troux": 3507,
      "naquela": 3508,
      "casar": 3509,
      "ief": 3510,
      "espero": 3511,
      "deli": 3512,
      "abil": 3513,
      "fácil": 3514,
      "promo": 3515,
      "Per": 3516,
      "irs": 3517,
      "short": 3518,
      "tention": 3519,
      "íri": 3520,
      "serious": 3521,
      "phil": 3522,
      "repente": 3523,
      "ging": 3524,
      "ordem": 3525,
      "search": 3526,
      "event": 3527,
      "medic": 3528,
      "assassino": 3529,
      "luck": 3530,
      "happens": 3531,
      "tribunal": 3532,
      "terior": 3533,
      "scient": 3534,
      "mesa": 3535,
      "cére": 3536,
      "cool": 3537,
      "milhares": 3538,
      "honest": 3539,
      "Pode": 3540,
      "sabem": 3541,
      "influ": 3542,
      "washington": 3543,
      "process": 3544,
      "seven": 3545,
      "travel": 3546,
      "treat": 3547,
      "profun": 3548,
      "ud": 3549,
      "fish": 3550,
      "ress": 3551,
      "officer": 3552,
      "livre": 3553,
      "central": 3554,
      "domin": 3555,
      "fundo": 3556,
      "receive": 3557,
      "suggest": 3558,
      "demon": 3559,
      "maj": 3560,
      "dear": 3561,
      "timo": 3562,
      "obser": 3563,
      "dit": 3564,
      "ption": 3565,
      "ãos": 3566,
      "moon": 3567,
      "estávamos": 3568,
      "ume": 3569,
      "cks": 3570,
      "windo": 3571,
      "german": 3572,
      "picture": 3573,
      "among": 3574,
      "energy": 3575,
      "pré": 3576,
      "tada": 3577,
      "dição": 3578,
      "sorte": 3579,
      "natal": 3580,
      "sick": 3581,
      "stupid": 3582,
      "write": 3583,
      "worked": 3584,
      "military": 3585,
      "espé": 3586,
      "naquele": 3587,
      "ron": 3588,
      "jud": 3589,
      "bilidade": 3590,
      "consci": 3591,
      "cruz": 3592,
      "época": 3593,
      "ured": 3594,
      "alcan": 3595,
      "station": 3596,
      "meeting": 3597,
      "questão": 3598,
      "aca": 3599,
      "mary": 3600,
      "tures": 3601,
      "george": 3602,
      "mol": 3603,
      "ested": 3604,
      "negócio": 3605,
      "maravil": 3606,
      "reve": 3607,
      "universo": 3608,
      "needed": 3609,
      "imes": 3610,
      "witness": 3611,
      "serão": 3612,
      "early": 3613,
      "Está": 3614,
      "except": 3615,
      "jim": 3616,
      "diu": 3617,
      "Pe": 3618,
      "universe": 3619,
      "dog": 3620,
      "érica": 3621,
      "satis": 3622,
      "author": 3623,
      "minute": 3624,
      "descri": 3625,
      "itude": 3626,
      "lembrar": 3627,
      "público": 3628,
      "soldi": 3629,
      "oport": 3630,
      "infer": 3631,
      "cold": 3632,
      "plano": 3633,
      "céu": 3634,
      "ier": 3635,
      "step": 3636,
      "ray": 3637,
      "marriage": 3638,
      "thinks": 3639,
      "phys": 3640,
      "evid": 3641,
      "blue": 3642,
      "straight": 3643,
      "cof": 3644,
      "espíri": 3645,
      "ander": 3646,
      "temper": 3647,
      "humano": 3648,
      "green": 3649,
      "segre": 3650,
      "ax": 3651,
      "ím": 3652,
      "quais": 3653,
      "coz": 3654,
      "palavra": 3655,
      "acredito": 3656,
      "became": 3657,
      "lived": 3658,
      "cup": 3659,
      "gig": 3660,
      "hole": 3661,
      "exis": 3662,
      "Cer": 3663,
      "remain": 3664,
      "estados": 3665,
      "rie": 3666,
      "acabou": 3667,
      "ioso": 3668,
      "club": 3669,
      "mist": 3670,
      "wers": 3671,
      "ensa": 3672,
      "bey": 3673,
      "bt": 3674,
      "sky": 3675,
      "quick": 3676,
      "ema": 3677,
      "assun": 3678,
      "continue": 3679,
      "13": 3680,
      "avis": 3681,
      "teor": 3682,
      "prefer": 3683,
      "provar": 3684,
      "record": 3685,
      "aum": 3686,
      "asking": 3687,
      "árvor": 3688,
      "evil": 3689,
      "yours": 3690,
      "cesso": 3691,
      "fla": 3692,
      "guer": 3693,
      "rosto": 3694,
      "serviço": 3695,
      "\"...": 3696,
      "reser": 3697,
      "report": 3698,
      "ocor": 3699,
      "pract": 3700,
      "rent": 3701,
      "extre": 3702,
      "carta": 3703,
      "curso": 3704,
      "bing": 3705,
      "situation": 3706,
      "respect": 3707,
      "nac": 3708,
      "thes": 3709,
      "aren": 3710,
      "alma": 3711,
      "trazer": 3712,
      "papel": 3713,
      "resist": 3714,
      "conselho": 3715,
      "chão": 3716,
      "cially": 3717,
      "simplesmente": 3718,
      "leo": 3719,
      "grad": 3720,
      "vice": 3721,
      "gotta": 3722,
      "soul": 3723,
      "companhia": 3724,
      "race": 3725,
      "orar": 3726,
      "unt": 3727,
      "conv": 3728,
      "river": 3729,
      "absolu": 3730,
      "porto": 3731,
      "Vou": 3732,
      "corri": 3733,
      "isa": 3734,
      "cérebro": 3735,
      "tação": 3736,
      "promise": 3737,
      "geral": 3738,
      "lembr": 3739,
      "atenção": 3740,
      "yer": 3741,
      "honra": 3742,
      "ero": 3743,
      "vejo": 3744,
      "tornou": 3745,
      "hurt": 3746,
      "tian": 3747,
      "difficult": 3748,
      "trabalhando": 3749,
      "mensa": 3750,
      "beat": 3751,
      "fres": 3752,
      "principal": 3753,
      "veu": 3754,
      "evol": 3755,
      "iled": 3756,
      "aba": 3757,
      "começa": 3758,
      "precisamos": 3759,
      "intelig": 3760,
      "fizeram": 3761,
      "lista": 3762,
      "américa": 3763,
      "unidos": 3764,
      "separ": 3765,
      "nolo": 3766,
      "elec": 3767,
      "original": 3768,
      "oportunidade": 3769,
      "master": 3770,
      "dormir": 3771,
      "icamente": 3772,
      "stick": 3773,
      "catch": 3774,
      "gay": 3775,
      "gum": 3776,
      "pés": 3777,
      "voz": 3778,
      "ligar": 3779,
      "Listen": 3780,
      "list": 3781,
      "conhecido": 3782,
      "animais": 3783,
      "contre": 3784,
      "yal": 3785,
      "enas": 3786,
      "effe": 3787,
      "watching": 3788,
      "recom": 3789,
      "vermel": 3790,
      "explain": 3791,
      "luta": 3792,
      "gentlemen": 3793,
      "glo": 3794,
      "bei": 3795,
      "charge": 3796,
      "hall": 3797,
      "inado": 3798,
      "david": 3799,
      "mov": 3800,
      "somewhere": 3801,
      "protect": 3802,
      "amp": 3803,
      "leaving": 3804,
      "telefone": 3805,
      "óg": 3806,
      "jovens": 3807,
      "rele": 3808,
      "track": 3809,
      "achei": 3810,
      "lions": 3811,
      "faith": 3812,
      "ilar": 3813,
      "rote": 3814,
      "mouth": 3815,
      "named": 3816,
      "imper": 3817,
      "lish": 3818,
      "endi": 3819,
      "stone": 3820,
      "gate": 3821,
      "hat": 3822,
      "jour": 3823,
      "embar": 3824,
      "ient": 3825,
      "service": 3826,
      "Maybe": 3827,
      "rapaz": 3828,
      "claim": 3829,
      "itself": 3830,
      "cuida": 3831,
      "ctions": 3832,
      "órias": 3833,
      "zz": 3834,
      "anal": 3835,
      "orgul": 3836,
      "irão": 3837,
      "brin": 3838,
      "thank": 3839,
      "acredit": 3840,
      "recuper": 3841,
      "meia": 3842,
      "olhando": 3843,
      "knowing": 3844,
      "strange": 3845,
      "perguntar": 3846,
      "enemy": 3847,
      "How": 3848,
      "julg": 3849,
      "ivo": 3850,
      "moral": 3851,
      "própri": 3852,
      "consegue": 3853,
      "log": 3854,
      "mortos": 3855,
      "escrever": 3856,
      "completely": 3857,
      "maravilhos": 3858,
      "comand": 3859,
      "perigos": 3860,
      "psy": 3861,
      "nuclear": 3862,
      "wat": 3863,
      "minis": 3864,
      "national": 3865,
      "flu": 3866,
      "noon": 3867,
      "itive": 3868,
      "comun": 3869,
      "forças": 3870,
      "nele": 3871,
      "killing": 3872,
      "By": 3873,
      "guarda": 3874,
      "torna": 3875,
      "inic": 3876,
      "icí": 3877,
      "ização": 3878,
      "sinal": 3879,
      "Ve": 3880,
      "rit": 3881,
      "Even": 3882,
      "fell": 3883,
      "nel": 3884,
      "xim": 3885,
      "assa": 3886,
      "cedo": 3887,
      "pena": 3888,
      "bud": 3889,
      "sentido": 3890,
      "cute": 3891,
      "battle": 3892,
      "consigo": 3893,
      "encontro": 3894,
      "descul": 3895,
      "frica": 3896,
      "signific": 3897,
      "mês": 3898,
      "questions": 3899,
      "avião": 3900,
      "inno": 3901,
      "wever": 3902,
      "problems": 3903,
      "transfer": 3904,
      "liberdade": 3905,
      "Any": 3906,
      "east": 3907,
      "join": 3908,
      "poin": 3909,
      "touch": 3910,
      "sozinho": 3911,
      "thousands": 3912,
      "hip": 3913,
      "yeah": 3914,
      "sexo": 3915,
      "experiência": 3916,
      "oud": 3917,
      "ciais": 3918,
      "gro": 3919,
      "mere": 3920,
      "arem": 3921,
      "ager": 3922,
      "lembra": 3923,
      "condition": 3924,
      "store": 3925,
      "cher": 3926,
      "pediu": 3927,
      "ounded": 3928,
      "Já": 3929,
      "motivo": 3930,
      "date": 3931,
      "conden": 3932,
      "willing": 3933,
      "dores": 3934,
      "500": 3935,
      "ength": 3936,
      "produz": 3937,
      "máqu": 3938,
      "experience": 3939,
      "km": 3940,
      "café": 3941,
      "sucesso": 3942,
      "easy": 3943,
      "reas": 3944,
      "caught": 3945,
      "econom": 3946,
      "devia": 3947,
      "Not": 3948,
      "somente": 3949,
      "vítima": 3950,
      "apaix": 3951,
      "beu": 3952,
      "evening": 3953,
      "labor": 3954,
      "desper": 3955,
      "metade": 3956,
      "acci": 3957,
      "garotas": 3958,
      "realized": 3959,
      "líder": 3960,
      "sli": 3961,
      "pobre": 3962,
      "tis": 3963,
      "refer": 3964,
      "messa": 3965,
      "third": 3966,
      "arte": 3967,
      "houve": 3968,
      "fí": 3969,
      "inoc": 3970,
      "level": 3971,
      "dades": 3972,
      "corpor": 3973,
      "prazer": 3974,
      "solar": 3975,
      "revol": 3976,
      "lua": 3977,
      "respons": 3978,
      "desses": 3979,
      "Vamos": 3980,
      "idiota": 3981,
      "advogado": 3982,
      "kin": 3983,
      "celebr": 3984,
      "comum": 3985,
      "notí": 3986,
      "lugares": 3987,
      "informações": 3988,
      "çam": 3989,
      "chin": 3990,
      "bla": 3991,
      "hate": 3992,
      "toma": 3993,
      "suit": 3994,
      "marry": 3995,
      "large": 3996,
      "acontece": 3997,
      "build": 3998,
      "exemplo": 3999,
      "vale": 4000,
      "informação": 4001,
      "jas": 4002,
      "ério": 4003,
      "ift": 4004,
      "socie": 4005,
      "proteger": 4006,
      "unity": 4007,
      "deixe": 4008,
      "relação": 4009,
      "apartamento": 4010,
      "learned": 4011,
      "cuidar": 4012,
      "pia": 4013,
      "tax": 4014,
      "adora": 4015,
      "velha": 4016,
      "superior": 4017,
      "smo": 4018,
      "?\".": 4019,
      "bater": 4020,
      "heiros": 4021,
      "colo": 4022,
      "faria": 4023,
      "namor": 4024,
      "esterday": 4025,
      "Uh": 4026,
      "tente": 4027,
      "ately": 4028,
      "damn": 4029,
      "pósito": 4030,
      "aceitar": 4031,
      "Ac": 4032,
      "discovered": 4033,
      "hadn": 4034,
      "thro": 4035,
      "radio": 4036,
      "vaz": 4037,
      "dê": 4038,
      "teach": 4039,
      "bear": 4040,
      "direção": 4041,
      "built": 4042,
      "elimin": 4043,
      "usa": 4044,
      "movie": 4045,
      "assem": 4046,
      "foc": 4047,
      "encontre": 4048,
      "camp": 4049,
      "senhores": 4050,
      "ached": 4051,
      "uten": 4052,
      "support": 4053,
      "investig": 4054,
      "sher": 4055,
      "dial": 4056,
      "boca": 4057,
      "sche": 4058,
      "vac": 4059,
      "defin": 4060,
      "rain": 4061,
      "letter": 4062,
      "abrir": 4063,
      "trial": 4064,
      "cab": 4065,
      "natureza": 4066,
      "quin": 4067,
      "empresa": 4068,
      "princ": 4069,
      "completamente": 4070,
      "suddenly": 4071,
      "Our": 4072,
      "afe": 4073,
      "dessas": 4074,
      "ledge": 4075,
      "senhora": 4076,
      "cabelo": 4077,
      "especially": 4078,
      "involved": 4079,
      "china": 4080,
      "guns": 4081,
      "crimes": 4082,
      "segunda": 4083,
      "scene": 4084,
      "agrade": 4085,
      "Mes": 4086,
      "nie": 4087,
      "saiu": 4088,
      "scot": 4089,
      "verão": 4090,
      "chief": 4091,
      "desaf": 4092,
      "totalmente": 4093,
      "conseguiu": 4094,
      "devemos": 4095,
      "fro": 4096,
      "atmos": 4097,
      "path": 4098,
      "penso": 4099,
      "lembro": 4100,
      "apareceu": 4101,
      "saiba": 4102,
      "apesar": 4103,
      "dance": 4104,
      "defesa": 4105,
      "aprender": 4106,
      ".\"": 4107,
      "enfr": 4108,
      "loja": 4109,
      "Why": 4110,
      "seguro": 4111,
      "francis": 4112,
      "cross": 4113,
      "bado": 4114,
      "várias": 4115,
      "ank": 4116,
      "estade": 4117,
      "shut": 4118,
      "These": 4119,
      "Minha": 4120,
      "viz": 4121,
      "soldados": 4122,
      "decide": 4123,
      "queim": 4124,
      "nisso": 4125,
      "mud": 4126,
      "precisar": 4127,
      "plant": 4128,
      "fique": 4129,
      "parecia": 4130,
      "batalha": 4131,
      "floor": 4132,
      "formed": 4133,
      "pull": 4134,
      "rão": 4135,
      "squ": 4136,
      "regr": 4137,
      "compre": 4138,
      "james": 4139,
      "kit": 4140,
      "vários": 4141,
      "repe": 4142,
      "pesquis": 4143,
      "ixo": 4144,
      "summer": 4145,
      "rever": 4146,
      "gotten": 4147,
      "costas": 4148,
      "drop": 4149,
      "terminar": 4150,
      "jornal": 4151,
      "zing": 4152,
      "uldade": 4153,
      "conheci": 4154,
      "acontecendo": 4155,
      "roupas": 4156,
      "queen": 4157,
      "boas": 4158,
      "chamar": 4159,
      "cliente": 4160,
      "apartment": 4161,
      "justiça": 4162,
      "held": 4163,
      "graph": 4164,
      "deixa": 4165,
      "diretor": 4166,
      "killer": 4167,
      "fia": 4168,
      "amo": 4169,
      "bow": 4170,
      "mention": 4171,
      "caixa": 4172,
      "express": 4173,
      "Mesmo": 4174,
      "ox": 4175,
      "acher": 4176,
      "seguinte": 4177,
      "coura": 4178,
      "ides": 4179,
      "çando": 4180,
      "instru": 4181,
      "unk": 4182,
      "create": 4183,
      "several": 4184,
      "Of": 4185,
      "osos": 4186,
      "joe": 4187,
      "sym": 4188,
      "wedding": 4189,
      "accept": 4190,
      "Pare": 4191,
      "eight": 4192,
      "sess": 4193,
      "igu": 4194,
      "vender": 4195,
      "obvious": 4196,
      "alien": 4197,
      "negócios": 4198,
      "Let": 4199,
      "ães": 4200,
      "incr": 4201,
      "arms": 4202,
      "Estamos": 4203,
      ".,": 4204,
      "eno": 4205,
      "parado": 4206,
      "magn": 4207,
      "americanos": 4208,
      "french": 4209,
      "sible": 4210,
      "chamada": 4211,
      "80": 4212,
      "boat": 4213,
      "gros": 4214,
      "stars": 4215,
      "emprego": 4216,
      "spirit": 4217,
      "began": 4218,
      "chall": 4219,
      "tee": 4220,
      "acidente": 4221,
      "humanos": 4222,
      "Todos": 4223,
      "vontade": 4224,
      "jen": 4225,
      "els": 4226,
      "auto": 4227,
      "cí": 4228,
      "slow": 4229,
      "esfor": 4230,
      "troc": 4231,
      "fiquei": 4232,
      "post": 4233,
      "execut": 4234,
      "espírito": 4235,
      "estrada": 4236,
      "myster": 4237,
      "destino": 4238,
      "gle": 4239,
      "itual": 4240,
      "esquecer": 4241,
      "further": 4242,
      "disseram": 4243,
      "hood": 4244,
      "unci": 4245,
      "permane": 4246,
      "tio": 4247,
      "cast": 4248,
      "inspe": 4249,
      "forever": 4250,
      "trabalha": 4251,
      "opport": 4252,
      "estive": 4253,
      "interessa": 4254,
      "powerful": 4255,
      "huge": 4256,
      "cando": 4257,
      "famos": 4258,
      "leve": 4259,
      "igual": 4260,
      "esperança": 4261,
      "color": 4262,
      "ruim": 4263,
      "nacional": 4264,
      "fan": 4265,
      "alter": 4266,
      "bath": 4267,
      "espera": 4268,
      "federal": 4269,
      "oil": 4270,
      "dying": 4271,
      "especialmente": 4272,
      "college": 4273,
      "private": 4274,
      "above": 4275,
      "ki": 4276,
      "ál": 4277,
      "recent": 4278,
      "amiga": 4279,
      "paid": 4280,
      "falta": 4281,
      "passed": 4282,
      "glor": 4283,
      "anymore": 4284,
      "direct": 4285,
      "fighting": 4286,
      "nic": 4287,
      "contato": 4288,
      "fuck": 4289,
      "common": 4290,
      "corte": 4291,
      "afternoon": 4292,
      "ord": 4293,
      "tual": 4294,
      "medical": 4295,
      "computador": 4296,
      "cac": 4297,
      "ians": 4298,
      "portar": 4299,
      "survi": 4300,
      "walking": 4301,
      "apaixon": 4302,
      "opportunity": 4303,
      "Seu": 4304,
      "bac": 4305,
      "parent": 4306,
      "Tem": 4307,
      "zen": 4308,
      "paul": 4309,
      "created": 4310,
      "shoo": 4311,
      "Dur": 4312,
      "aquilo": 4313,
      "none": 4314,
      "icle": 4315,
      "center": 4316,
      "cant": 4317,
      "dna": 4318,
      "kno": 4319,
      "ote": 4320,
      "equip": 4321,
      "tour": 4322,
      "amoun": 4323,
      "pray": 4324,
      "esteve": 4325,
      "dollars": 4326,
      "pack": 4327,
      "tun": 4328,
      "espan": 4329,
      "forces": 4330,
      "papai": 4331,
      "Hey": 4332,
      "department": 4333,
      "forced": 4334,
      "aus": 4335,
      "ified": 4336,
      "tempor": 4337,
      "entrou": 4338,
      "grave": 4339,
      "capital": 4340,
      "greatest": 4341,
      "sociedade": 4342,
      "neigh": 4343,
      "opini": 4344,
      "figured": 4345,
      "inimigo": 4346,
      "ils": 4347,
      "knowledge": 4348,
      "cali": 4349,
      "decisão": 4350,
      "wearing": 4351,
      "Sua": 4352,
      "window": 4353,
      "belong": 4354,
      "fazê": 4355,
      "places": 4356,
      "popular": 4357,
      "pil": 4358,
      "tree": 4359,
      "accident": 4360,
      "tocar": 4361,
      "garant": 4362,
      "photo": 4363,
      "wise": 4364,
      "encontra": 4365,
      "cooper": 4366,
      "audi": 4367,
      "julgamento": 4368,
      "gel": 4369,
      "rul": 4370,
      "delas": 4371,
      "vidade": 4372,
      "agente": 4373,
      "poderiam": 4374,
      "destruir": 4375,
      "cemos": 4376,
      "yesterday": 4377,
      "perten": 4378,
      "ulas": 4379,
      "moving": 4380,
      "enorme": 4381,
      "Temos": 4382,
      "japan": 4383,
      "besse": 4384,
      "gados": 4385,
      "acer": 4386,
      "skin": 4387,
      "kick": 4388,
      "desejo": 4389,
      "Ha": 4390,
      "Pre": 4391,
      "ince": 4392,
      "acy": 4393,
      "worry": 4394,
      "evitar": 4395,
      "wild": 4396,
      "beginning": 4397,
      "attention": 4398,
      "justice": 4399,
      "decidir": 4400,
      "contact": 4401,
      "laterra": 4402,
      "alta": 4403,
      "sete": 4404,
      "tró": 4405,
      "interess": 4406,
      "ativo": 4407,
      "cig": 4408,
      "beach": 4409,
      "div": 4410,
      "procurar": 4411,
      "jury": 4412,
      "estrelas": 4413,
      "lay": 4414,
      "william": 4415,
      "glass": 4416,
      "Aqui": 4417,
      "rome": 4418,
      "té": 4419,
      "ancient": 4420,
      "onto": 4421,
      "drogas": 4422,
      "mountain": 4423,
      "quente": 4424,
      "chi": 4425,
      "weren": 4426,
      "machine": 4427,
      "society": 4428,
      "moved": 4429,
      "selva": 4430,
      "série": 4431,
      "criminal": 4432,
      "isol": 4433,
      "inglaterra": 4434,
      "peg": 4435,
      "merda": 4436,
      "works": 4437,
      "century": 4438,
      "Mu": 4439,
      "dum": 4440,
      "sci": 4441,
      "cris": 4442,
      "steal": 4443,
      "richard": 4444,
      "avo": 4445,
      "fbi": 4446,
      "jú": 4447,
      "appro": 4448,
      "busca": 4449,
      "escolher": 4450,
      "perceber": 4451,
      "jando": 4452,
      "voice": 4453,
      "due": 4454,
      "simple": 4455,
      "lock": 4456,
      "sad": 4457,
      "barco": 4458,
      "clothes": 4459,
      "havi": 4460,
      "peter": 4461,
      "ceiro": 4462,
      "roubar": 4463,
      "announ": 4464,
      "ávamos": 4465,
      "horse": 4466,
      "policial": 4467,
      "putting": 4468,
      "facil": 4469,
      "bunch": 4470,
      "including": 4471,
      "inhas": 4472,
      "choc": 4473,
      "speed": 4474,
      "negro": 4475,
      "exceto": 4476,
      "lutar": 4477,
      "antic": 4478,
      "His": 4479,
      "ientes": 4480,
      "mess": 4481,
      "share": 4482,
      "encontrou": 4483,
      "inteiro": 4484,
      "appreci": 4485,
      "london": 4486,
      "passada": 4487,
      "wonderful": 4488,
      "ode": 4489,
      "gives": 4490,
      "holly": 4491,
      "terrible": 4492,
      "ione": 4493,
      "izado": 4494,
      "serem": 4495,
      "discut": 4496,
      "70": 4497,
      "rup": 4498,
      "teremos": 4499,
      "ties": 4500,
      "non": 4501,
      "ride": 4502,
      "processo": 4503,
      "animals": 4504,
      "ições": 4505,
      "mut": 4506,
      "mill": 4507,
      "reco": 4508,
      "itado": 4509,
      "confer": 4510,
      "poderá": 4511,
      "ather": 4512,
      "ticas": 4513,
      "linda": 4514,
      "rick": 4515,
      "eua": 4516,
      "fotos": 4517,
      "timas": 4518,
      "judge": 4519,
      "valor": 4520,
      "divi": 4521,
      "abri": 4522,
      "develo": 4523,
      "prise": 4524,
      "icação": 4525,
      "subje": 4526,
      "christmas": 4527,
      "absolute": 4528,
      "asso": 4529,
      "lier": 4530,
      "add": 4531,
      "morr": 4532,
      "tua": 4533,
      "descober": 4534,
      "Ao": 4535,
      "nes": 4536,
      "espal": 4537,
      "trag": 4538,
      "lying": 4539,
      "familiar": 4540,
      "atas": 4541,
      "dangerous": 4542,
      "exer": 4543,
      "fool": 4544,
      "broke": 4545,
      "believed": 4546,
      "invent": 4547,
      "invés": 4548,
      "doubt": 4549,
      "spot": 4550,
      "changed": 4551,
      "cn": 4552,
      "explicar": 4553,
      "reunião": 4554,
      "Lem": 4555,
      "depen": 4556,
      "atu": 4557,
      "acima": 4558,
      "sidade": 4559,
      "interested": 4560,
      "broken": 4561,
      "santa": 4562,
      "feitos": 4563,
      "Once": 4564,
      "brilh": 4565,
      "início": 4566,
      "gree": 4567,
      "fís": 4568,
      "meant": 4569,
      "torno": 4570,
      "gather": 4571,
      "terrível": 4572,
      "jac": 4573,
      "adul": 4574,
      "rapid": 4575,
      "beyond": 4576,
      "tiro": 4577,
      "ást": 4578,
      "comando": 4579,
      "lidar": 4580,
      "branco": 4581,
      "comandante": 4582,
      "Olhe": 4583,
      "zes": 4584,
      "ãe": 4585,
      "engan": 4586,
      "carne": 4587,
      "fala": 4588,
      "çou": 4589,
      "infe": 4590,
      "alex": 4591,
      "holy": 4592,
      "clim": 4593,
      "....": 4594,
      "according": 4595,
      "dific": 4596,
      "chen": 4597,
      "chick": 4598,
      "pers": 4599,
      "pread": 4600,
      "bles": 4601,
      "humana": 4602,
      "convinc": 4603,
      "ática": 4604,
      "porte": 4605,
      "kets": 4606,
      "ladies": 4607,
      "carreg": 4608,
      "versário": 4609,
      "Clar": 4610,
      "ução": 4611,
      "pot": 4612,
      "tells": 4613,
      "angeles": 4614,
      "charlie": 4615,
      "pergunta": 4616,
      "Certo": 4617,
      "olho": 4618,
      "cena": 4619,
      "século": 4620,
      "espécie": 4621,
      "yard": 4622,
      "quão": 4623,
      "morta": 4624,
      "conhece": 4625,
      "americano": 4626,
      "Since": 4627,
      "nom": 4628,
      "ourselves": 4629,
      "mesmos": 4630,
      "interior": 4631,
      "passe": 4632,
      "shows": 4633,
      "trouxe": 4634,
      "nick": 4635,
      "ól": 4636,
      "igas": 4637,
      "aquelas": 4638,
      "democ": 4639,
      "innocent": 4640,
      "Bom": 4641,
      "Ser": 4642,
      "cân": 4643,
      "agree": 4644,
      "fru": 4645,
      "martin": 4646,
      "chega": 4647,
      "missing": 4648,
      "client": 4649,
      "village": 4650,
      "bio": 4651,
      "condu": 4652,
      "serve": 4653,
      "stage": 4654,
      "maiores": 4655,
      "chap": 4656,
      "sonho": 4657,
      "england": 4658,
      "pele": 4659,
      "tie": 4660,
      "confess": 4661,
      "fill": 4662,
      "perí": 4663,
      "tivemos": 4664,
      "escape": 4665,
      "computer": 4666,
      "dida": 4667,
      "cair": 4668,
      "feed": 4669,
      "resear": 4670,
      "verdadeiro": 4671,
      "imaginar": 4672,
      "mandar": 4673,
      "duty": 4674,
      "sweet": 4675,
      "utenant": 4676,
      "wrote": 4677,
      "orden": 4678,
      "eração": 4679,
      "proprie": 4680,
      "Jo": 4681,
      "taman": 4682,
      "andy": 4683,
      "pros": 4684,
      "ends": 4685,
      "gostar": 4686,
      "custo": 4687,
      "dama": 4688,
      "íp": 4689,
      "menina": 4690,
      "famous": 4691,
      "entendo": 4692,
      "resposta": 4693,
      "bomb": 4694,
      "uso": 4695,
      "itando": 4696,
      "herself": 4697,
      "lembre": 4698,
      "notic": 4699,
      "bridge": 4700,
      "responsible": 4701,
      "costuma": 4702,
      "lab": 4703,
      "odo": 4704,
      "gry": 4705,
      "calls": 4706,
      "icídio": 4707,
      "queremos": 4708,
      "cheio": 4709,
      "Parece": 4710,
      "forward": 4711,
      "vado": 4712,
      "capac": 4713,
      "Era": 4714,
      "sey": 4715,
      "metal": 4716,
      "icago": 4717,
      "written": 4718,
      "tempos": 4719,
      "imagem": 4720,
      "londres": 4721,
      "kel": 4722,
      "forme": 4723,
      "fee": 4724,
      "correr": 4725,
      "ruas": 4726,
      "charles": 4727,
      "members": 4728,
      "jane": 4729,
      "ners": 4730,
      "filmes": 4731,
      "trein": 4732,
      "naz": 4733,
      "membros": 4734,
      "leader": 4735,
      "europa": 4736,
      "detal": 4737,
      "ests": 4738,
      "estação": 4739,
      "brown": 4740,
      "janela": 4741,
      "decision": 4742,
      "allowed": 4743,
      "cuse": 4744,
      "irst": 4745,
      "stal": 4746,
      "neck": 4747,
      "jail": 4748,
      "humil": 4749,
      "Estava": 4750,
      "british": 4751,
      "resolver": 4752,
      "sch": 4753,
      "intro": 4754,
      "soubesse": 4755,
      "tribu": 4756,
      "community": 4757,
      "sacrific": 4758,
      "Here": 4759,
      "crow": 4760,
      "spen": 4761,
      "bell": 4762,
      "tains": 4763,
      "mortal": 4764,
      "bone": 4765,
      "osco": 4766,
      "impr": 4767,
      "chicago": 4768,
      "mode": 4769,
      "bodies": 4770,
      "perguntas": 4771,
      "diferença": 4772,
      "wondering": 4773,
      "revel": 4774,
      "avan": 4775,
      "hoping": 4776,
      "mons": 4777,
      "account": 4778,
      "affe": 4779,
      "falou": 4780,
      "tentou": 4781,
      "buraco": 4782,
      "Veja": 4783,
      "enjoy": 4784,
      "seemed": 4785,
      "realidade": 4786,
      "coc": 4787,
      "activ": 4788,
      "fale": 4789,
      "calling": 4790,
      "bought": 4791,
      "towards": 4792,
      "cure": 4793,
      "construir": 4794,
      "sequ": 4795,
      "colocou": 4796,
      "responsável": 4797,
      "endeu": 4798,
      "crew": 4799,
      "benef": 4800,
      "teen": 4801,
      "acion": 4802,
      "iados": 4803,
      "nação": 4804,
      "consul": 4805,
      "perigo": 4806,
      "orada": 4807,
      "fazia": 4808,
      "irei": 4809,
      "vince": 4810,
      "cruel": 4811,
      "bum": 4812,
      "Un": 4813,
      "fomos": 4814,
      "heav": 4815,
      "cry": 4816,
      "ignor": 4817,
      "english": 4818,
      "vy": 4819,
      "engra": 4820,
      "tape": 4821,
      "vidu": 4822,
      "faço": 4823,
      "strength": 4824,
      "ênio": 4825,
      "wake": 4826,
      "ificar": 4827,
      "apos": 4828,
      "eter": 4829,
      "hide": 4830,
      "recus": 4831,
      "simply": 4832,
      "choice": 4833,
      "regular": 4834,
      "Antes": 4835,
      "smar": 4836,
      "exten": 4837,
      "individu": 4838,
      "ances": 4839,
      "acos": 4840,
      "stood": 4841,
      "showed": 4842,
      "spread": 4843,
      "charac": 4844,
      "esconder": 4845,
      "gur": 4846,
      "oeste": 4847,
      "convi": 4848,
      "type": 4849,
      "ville": 4850,
      "abaixo": 4851,
      "poc": 4852,
      "devido": 4853,
      "tempt": 4854,
      "talked": 4855,
      "precisam": 4856,
      "iosa": 4857,
      "soldiers": 4858,
      "assunto": 4859,
      "mike": 4860,
      "pilo": 4861,
      "match": 4862,
      "passo": 4863,
      "ended": 4864,
      "ify": 4865,
      "ficaria": 4866,
      "centenas": 4867,
      "opinião": 4868,
      "ião": 4869,
      "envia": 4870,
      "adam": 4871,
      "turning": 4872,
      "finish": 4873,
      "chair": 4874,
      "stopped": 4875,
      "song": 4876,
      "fellow": 4877,
      "--.": 4878,
      "departamento": 4879,
      "guilty": 4880,
      "data": 4881,
      "sion": 4882,
      "ye": 4883,
      "shouldn": 4884,
      "lands": 4885,
      "risk": 4886,
      "diria": 4887,
      "sabendo": 4888,
      "research": 4889,
      "Don": 4890,
      "gelo": 4891,
      "ib": 4892,
      "ya": 4893,
      "lik": 4894,
      "cop": 4895,
      "sentado": 4896,
      "deliver": 4897,
      "esquer": 4898,
      "stairs": 4899,
      "based": 4900,
      "refle": 4901,
      "driving": 4902,
      "carreira": 4903,
      "equ": 4904,
      "ences": 4905,
      "carros": 4906,
      "ocean": 4907,
      "science": 4908,
      "bons": 4909,
      "issão": 4910,
      "reun": 4911,
      "seat": 4912,
      "veloc": 4913,
      "costa": 4914,
      "regi": 4915,
      "triste": 4916,
      "querida": 4917,
      "novos": 4918,
      "peix": 4919,
      "operation": 4920,
      "srta": 4921,
      "tions": 4922,
      "conhecimento": 4923,
      "dents": 4924,
      "ops": 4925,
      "sá": 4926,
      "ude": 4927,
      "wis": 4928,
      "wol": 4929,
      "pegou": 4930,
      "ids": 4931,
      "tindo": 4932,
      "received": 4933,
      "inda": 4934,
      "usually": 4935,
      "jog": 4936,
      "miser": 4937,
      "poucos": 4938,
      "90": 4939,
      "bê": 4940,
      "osso": 4941,
      "laugh": 4942,
      "bene": 4943,
      "patient": 4944,
      "anha": 4945,
      "devol": 4946,
      "tries": 4947,
      "convida": 4948,
      "rub": 4949,
      "memory": 4950,
      "fis": 4951,
      "ounds": 4952,
      "Vocês": 4953,
      "flight": 4954,
      "quanti": 4955,
      "tras": 4956,
      "direto": 4957,
      "ônia": 4958,
      "holding": 4959,
      "necessário": 4960,
      "projeto": 4961,
      "invi": 4962,
      "pole": 4963,
      "brea": 4964,
      "mental": 4965,
      "contrat": 4966,
      "career": 4967,
      "tit": 4968,
      "thur": 4969,
      "entende": 4970,
      "solo": 4971,
      "whom": 4972,
      "cober": 4973,
      "dedic": 4974,
      "surface": 4975,
      "francisco": 4976,
      "tamanho": 4977,
      "spl": 4978,
      "arre": 4979,
      "arro": 4980,
      "quir": 4981,
      "teacher": 4982,
      "dições": 4983,
      "rias": 4984,
      "vada": 4985,
      "política": 4986,
      "Desde": 4987,
      "conversa": 4988,
      "amount": 4989,
      "ocup": 4990,
      "comece": 4991,
      "citiz": 4992,
      "nível": 4993,
      "éu": 4994,
      "sejam": 4995,
      "vação": 4996,
      "Le": 4997,
      "ented": 4998,
      "grace": 4999,
      "core": 5000,
      "voltou": 5001,
      "Dr": 5002,
      "cão": 5003,
      "robert": 5004,
      "soube": 5005,
      "aster": 5006,
      "cobr": 5007,
      "writing": 5008,
      "weapons": 5009,
      "45": 5010,
      "gang": 5011,
      "ison": 5012,
      "sele": 5013,
      "secon": 5014,
      "derro": 5015,
      "assus": 5016,
      "spring": 5017,
      "ius": 5018,
      "grá": 5019,
      "difference": 5020,
      "levá": 5021,
      "conversar": 5022,
      "substitu": 5023,
      "ability": 5024,
      "kar": 5025,
      "ders": 5026,
      "iff": 5027,
      "faculdade": 5028,
      "books": 5029,
      "tiveram": 5030,
      "esty": 5031,
      "agrad": 5032,
      "smith": 5033,
      "message": 5034,
      "inver": 5035,
      "conosco": 5036,
      "corpos": 5037,
      "certamente": 5038,
      "pux": 5039,
      "mercado": 5040,
      "feelings": 5041,
      "doença": 5042,
      "ush": 5043,
      "lied": 5044,
      "navio": 5045,
      "fied": 5046,
      "thanks": 5047,
      "similar": 5048,
      "correndo": 5049,
      "daquele": 5050,
      "inferno": 5051,
      "segredo": 5052,
      "300": 5053,
      "perm": 5054,
      "irem": 5055,
      "shoot": 5056,
      "bottom": 5057,
      "ameaça": 5058,
      "movimento": 5059,
      "adi": 5060,
      "defe": 5061,
      "divor": 5062,
      "propósito": 5063,
      "coragem": 5064,
      "burn": 5065,
      "dispos": 5066,
      "ambos": 5067,
      "cirur": 5068,
      "sia": 5069,
      "beber": 5070,
      "lap": 5071,
      "resid": 5072,
      "See": 5073,
      "valu": 5074,
      "health": 5075,
      "mensagem": 5076,
      "incrível": 5077,
      "partner": 5078,
      "pedido": 5079,
      "multi": 5080,
      "arris": 5081,
      "proud": 5082,
      "iling": 5083,
      "casas": 5084,
      "virgin": 5085,
      "ínhamos": 5086,
      "destroyed": 5087,
      "courage": 5088,
      "hollywood": 5089,
      "egg": 5090,
      "winter": 5091,
      "lines": 5092,
      "jamais": 5093,
      "aniversário": 5094,
      "Senhor": 5095,
      "Or": 5096,
      "hous": 5097,
      "tot": 5098,
      "often": 5099,
      "perdeu": 5100,
      "market": 5101,
      "sério": 5102,
      "glad": 5103,
      "rael": 5104,
      "played": 5105,
      "sozinha": 5106,
      "From": 5107,
      "mate": 5108,
      "tum": 5109,
      "arqui": 5110,
      "noites": 5111,
      "uncle": 5112,
      "certi": 5113,
      "distância": 5114,
      "pedaço": 5115,
      "cust": 5116,
      "ofic": 5117,
      "disco": 5118,
      "superfí": 5119,
      "certainly": 5120,
      "picked": 5121,
      "neighbor": 5122,
      "estrela": 5123,
      "pair": 5124,
      "provas": 5125,
      "juiz": 5126,
      "dizia": 5127,
      "nervos": 5128,
      "delic": 5129,
      "cavalo": 5130,
      "aware": 5131,
      "ocupa": 5132,
      "weapon": 5133,
      "ahead": 5134,
      "eta": 5135,
      "imas": 5136,
      "convic": 5137,
      "boo": 5138,
      "worse": 5139,
      "entregar": 5140,
      "turns": 5141,
      "likely": 5142,
      "tha": 5143,
      "aming": 5144,
      "imp": 5145,
      "cook": 5146,
      "sentar": 5147,
      "flores": 5148,
      "itivo": 5149,
      "thom": 5150,
      "exig": 5151,
      "possu": 5152,
      "size": 5153,
      "tured": 5154,
      "opin": 5155,
      "combin": 5156,
      "tec": 5157,
      "forne": 5158,
      "conheço": 5159,
      "clube": 5160,
      "freedom": 5161,
      "britân": 5162,
      "queira": 5163,
      "rainha": 5164,
      "millions": 5165,
      "interesse": 5166,
      "passando": 5167,
      "duro": 5168,
      "lee": 5169,
      "tina": 5170,
      "encontrado": 5171,
      "pequenos": 5172,
      "sofr": 5173,
      "pronto": 5174,
      "hig": 5175,
      "impl": 5176,
      "laun": 5177,
      "agent": 5178,
      "dise": 5179,
      "somehow": 5180,
      "credit": 5181,
      "felizes": 5182,
      "political": 5183,
      "lucky": 5184,
      "máquina": 5185,
      "ices": 5186,
      "sonhos": 5187,
      "invas": 5188,
      "suppose": 5189,
      "machu": 5190,
      "sight": 5191,
      "demand": 5192,
      "atri": 5193,
      "tired": 5194,
      "provi": 5195,
      "deixando": 5196,
      "While": 5197,
      "finger": 5198,
      "heaven": 5199,
      "sour": 5200,
      "idão": 5201,
      "appeared": 5202,
      "dendo": 5203,
      "tira": 5204,
      "alo": 5205,
      "tres": 5206,
      "pleasure": 5207,
      "poderíamos": 5208,
      "promised": 5209,
      "dreams": 5210,
      "apresentar": 5211,
      "aper": 5212,
      "pet": 5213,
      "necessary": 5214,
      "membro": 5215,
      "inteira": 5216,
      "cinema": 5217,
      "magic": 5218,
      "russi": 5219,
      "err": 5220,
      "comunidade": 5221,
      "chas": 5222,
      "cheia": 5223,
      "appreciate": 5224,
      "dé": 5225,
      "começo": 5226,
      "juntar": 5227,
      "heads": 5228,
      "decidiu": 5229,
      "example": 5230,
      "jet": 5231,
      "mm": 5232,
      "rose": 5233,
      "zar": 5234,
      "irmãos": 5235,
      "habit": 5236,
      "occur": 5237,
      "lias": 5238,
      "perdo": 5239,
      "pense": 5240,
      "dry": 5241,
      "choose": 5242,
      "funny": 5243,
      "roupa": 5244,
      "percebi": 5245,
      "22": 5246,
      "theory": 5247,
      "caused": 5248,
      "ensin": 5249,
      "achou": 5250,
      "captur": 5251,
      "bility": 5252,
      "gil": 5253,
      "gain": 5254,
      "atures": 5255,
      "ours": 5256,
      "cura": 5257,
      "resultado": 5258,
      "ótimo": 5259,
      "israel": 5260,
      "usão": 5261,
      "usual": 5262,
      "filled": 5263,
      "stuck": 5264,
      "floresta": 5265,
      "arrived": 5266,
      "vess": 5267,
      "continua": 5268,
      "prince": 5269,
      "superfície": 5270,
      "ída": 5271,
      "heró": 5272,
      "broad": 5273,
      "obter": 5274,
      "galá": 5275,
      "pictures": 5276,
      "suger": 5277,
      "cidad": 5278,
      "gues": 5279,
      "fronte": 5280,
      "deixá": 5281,
      "bomba": 5282,
      "minuto": 5283,
      "rádio": 5284,
      "extreme": 5285,
      "cere": 5286,
      "erro": 5287,
      "escra": 5288,
      "quebr": 5289,
      "henry": 5290,
      "bay": 5291,
      "alu": 5292,
      "prestes": 5293,
      "suic": 5294,
      "pressure": 5295,
      "escolha": 5296,
      "defense": 5297,
      "orders": 5298,
      "teoria": 5299,
      "oito": 5300,
      "âm": 5301,
      "grav": 5302,
      "precisava": 5303,
      "biggest": 5304,
      "teste": 5305,
      "ordin": 5306,
      "price": 5307,
      "result": 5308,
      "warm": 5309,
      "Até": 5310,
      "pared": 5311,
      "coleg": 5312,
      "chef": 5313,
      "classe": 5314,
      "menor": 5315,
      "council": 5316,
      "paciente": 5317,
      "saú": 5318,
      "peça": 5319,
      "ages": 5320,
      "presença": 5321,
      "ships": 5322,
      "segundos": 5323,
      "Claro": 5324,
      "congr": 5325,
      "tenente": 5326,
      "pedra": 5327,
      "risco": 5328,
      "pier": 5329,
      "descobriu": 5330,
      "attor": 5331,
      "mail": 5332,
      "fecha": 5333,
      "gram": 5334,
      "starts": 5335,
      "walked": 5336,
      "keeping": 5337,
      "brothers": 5338,
      "montanhas": 5339,
      "tage": 5340,
      "chor": 5341,
      "pensou": 5342,
      "brut": 5343,
      "livros": 5344,
      "Precis": 5345,
      "totally": 5346,
      "dim": 5347,
      "saindo": 5348,
      "weak": 5349,
      "univers": 5350,
      "memória": 5351,
      "encontrei": 5352,
      "kim": 5353,
      "detail": 5354,
      "conclus": 5355,
      "gran": 5356,
      "maria": 5357,
      "tenham": 5358,
      "vast": 5359,
      "ôm": 5360,
      "desen": 5361,
      "bloc": 5362,
      "shop": 5363,
      "recogn": 5364,
      "ible": 5365,
      "desenvol": 5366,
      "burg": 5367,
      "operação": 5368,
      "incluindo": 5369,
      "cadeia": 5370,
      "chave": 5371,
      "mix": 5372,
      "pool": 5373,
      "berg": 5374,
      "happ": 5375,
      "ônio": 5376,
      "chances": 5377,
      "jum": 5378,
      "nine": 5379,
      "novas": 5380,
      "garra": 5381,
      "liter": 5382,
      "nights": 5383,
      "murdered": 5384,
      "max": 5385,
      "site": 5386,
      "braços": 5387,
      "qü": 5388,
      "terão": 5389,
      "util": 5390,
      "persegu": 5391,
      "stories": 5392,
      "vítimas": 5393,
      "hitler": 5394,
      "texas": 5395,
      "inais": 5396,
      "consum": 5397,
      "records": 5398,
      "Aque": 5399,
      "eating": 5400,
      "regar": 5401,
      "abra": 5402,
      "feita": 5403,
      "frança": 5404,
      "consegui": 5405,
      "streets": 5406,
      "tradition": 5407,
      "Like": 5408,
      "bela": 5409,
      "finding": 5410,
      "bola": 5411,
      "intim": 5412,
      "contou": 5413,
      "cars": 5414,
      "thern": 5415,
      "arrest": 5416,
      "vestido": 5417,
      "cesse": 5418,
      "instr": 5419,
      "estim": 5420,
      "threaten": 5421,
      "reveal": 5422,
      "demos": 5423,
      "crack": 5424,
      "graças": 5425,
      "Esse": 5426,
      "ética": 5427,
      "supre": 5428,
      "load": 5429,
      "sie": 5430,
      "file": 5431,
      "Além": 5432,
      "acredi": 5433,
      "órios": 5434,
      "existem": 5435,
      "hasn": 5436,
      "lieutenant": 5437,
      "dúvida": 5438,
      "heavy": 5439,
      "jard": 5440,
      "ency": 5441,
      "aturas": 5442,
      "recente": 5443,
      "cash": 5444,
      "breve": 5445,
      "harry": 5446,
      "menino": 5447,
      "host": 5448,
      "momentos": 5449,
      "humanidade": 5450,
      "Mar": 5451,
      "cê": 5452,
      "rig": 5453,
      "mundial": 5454,
      "ajudá": 5455,
      "convinced": 5456,
      "aler": 5457,
      "atl": 5458,
      "france": 5459,
      "calor": 5460,
      "ligação": 5461,
      "Ah": 5462,
      "nan": 5463,
      "argum": 5464,
      "associ": 5465,
      "vemos": 5466,
      "immedi": 5467,
      "admir": 5468,
      "director": 5469,
      "study": 5470,
      "placed": 5471,
      "project": 5472,
      "hundreds": 5473,
      "saúde": 5474,
      "eri": 5475,
      "escu": 5476,
      "iação": 5477,
      "corner": 5478,
      "flying": 5479,
      "nur": 5480,
      "although": 5481,
      "apon": 5482,
      "starting": 5483,
      "nela": 5484,
      "troca": 5485,
      "vergon": 5486,
      "felic": 5487,
      "bonita": 5488,
      "institu": 5489,
      "estud": 5490,
      "execu": 5491,
      "video": 5492,
      "seconds": 5493,
      "ict": 5494,
      "termos": 5495,
      "tida": 5496,
      "preser": 5497,
      "máx": 5498,
      "challen": 5499,
      "técn": 5500,
      "esto": 5501,
      "itou": 5502,
      "tress": 5503,
      "ligou": 5504,
      "draw": 5505,
      "fresh": 5506,
      "21": 5507,
      "antigo": 5508,
      "finan": 5509,
      "papers": 5510,
      "dout": 5511,
      "enças": 5512,
      "access": 5513,
      "sons": 5514,
      "iremos": 5515,
      "engine": 5516,
      "suspect": 5517,
      "shooting": 5518,
      "Sou": 5519,
      "atual": 5520,
      "massa": 5521,
      "pás": 5522,
      "sobr": 5523,
      "ocas": 5524,
      "union": 5525,
      "pod": 5526,
      "milhão": 5527,
      "senti": 5528,
      "cesa": 5529,
      "commander": 5530,
      "educ": 5531,
      "mamãe": 5532,
      "ultim": 5533,
      "strug": 5534,
      "helped": 5535,
      "funeral": 5536,
      "quisesse": 5537,
      "possam": 5538,
      "galax": 5539,
      "lawyer": 5540,
      "relax": 5541,
      "olog": 5542,
      "interesting": 5543,
      "dece": 5544,
      "pop": 5545,
      "adm": 5546,
      "victor": 5547,
      "cadeira": 5548,
      "mago": 5549,
      "sobreviver": 5550,
      "finished": 5551,
      "returned": 5552,
      "médicos": 5553,
      "roll": 5554,
      "corrida": 5555,
      "velocidade": 5556,
      "frio": 5557,
      "sme": 5558,
      "doente": 5559,
      "truck": 5560,
      "pulled": 5561,
      "leaves": 5562,
      "Before": 5563,
      "satur": 5564,
      "lum": 5565,
      "metro": 5566,
      "histórias": 5567,
      "ordens": 5568,
      "sug": 5569,
      "briga": 5570,
      "quiet": 5571,
      "blind": 5572,
      "following": 5573,
      "hanging": 5574,
      "almo": 5575,
      "perio": 5576,
      "lake": 5577,
      "mostra": 5578,
      "vento": 5579,
      "horri": 5580,
      "shir": 5581,
      "desert": 5582,
      "organiz": 5583,
      "aprove": 5584,
      "phe": 5585,
      "tínhamos": 5586,
      "meter": 5587,
      "perfeito": 5588,
      "farm": 5589,
      "procura": 5590,
      "happening": 5591,
      "absolutely": 5592,
      "contas": 5593,
      "weight": 5594,
      "tary": 5595,
      "affair": 5596,
      "fará": 5597,
      "Essa": 5598,
      "Pri": 5599,
      "bb": 5600,
      "vimos": 5601,
      "cked": 5602,
      "tellig": 5603,
      "parede": 5604,
      "sensa": 5605,
      "surr": 5606,
      "franc": 5607,
      "witch": 5608,
      "lunch": 5609,
      "anne": 5610,
      "entra": 5611,
      "sau": 5612,
      "names": 5613,
      "louco": 5614,
      "coffee": 5615,
      "acompan": 5616,
      "hil": 5617,
      "íst": 5618,
      "ises": 5619,
      "feira": 5620,
      "coronel": 5621,
      "tons": 5622,
      "drag": 5623,
      "afir": 5624,
      "daddy": 5625,
      "prepared": 5626,
      "infin": 5627,
      "acas": 5628,
      "tered": 5629,
      "viva": 5630,
      "astic": 5631,
      "mencion": 5632,
      "mistake": 5633,
      "próximos": 5634,
      "shado": 5635,
      "prédio": 5636,
      "tare": 5637,
      "locked": 5638,
      "pôr": 5639,
      "anterior": 5640,
      "reje": 5641,
      "colonel": 5642,
      "gaz": 5643,
      "contrário": 5644,
      "rules": 5645,
      "intellig": 5646,
      "conser": 5647,
      "prisione": 5648,
      "defender": 5649,
      "atravess": 5650,
      ".'.": 5651,
      "pig": 5652,
      "leis": 5653,
      "lider": 5654,
      "pega": 5655,
      "raise": 5656,
      "birthday": 5657,
      "árvore": 5658,
      "journey": 5659,
      "bic": 5660,
      "bang": 5661,
      "rat": 5662,
      "voc": 5663,
      "contain": 5664,
      "rios": 5665,
      "tend": 5666,
      "graça": 5667,
      "banheiro": 5668,
      "laws": 5669,
      "azul": 5670,
      "drugs": 5671,
      "dada": 5672,
      "former": 5673,
      "cartas": 5674,
      "cortar": 5675,
      "beauty": 5676,
      "confiança": 5677,
      "enviar": 5678,
      "júri": 5679,
      "introdu": 5680,
      "pista": 5681,
      "escri": 5682,
      "excel": 5683,
      "pedi": 5684,
      "sentimentos": 5685,
      "ficará": 5686,
      "bobby": 5687,
      "perdido": 5688,
      "reality": 5689,
      "grab": 5690,
      "mág": 5691,
      "attorney": 5692,
      "swear": 5693,
      "tê": 5694,
      "anna": 5695,
      "impossível": 5696,
      "entanto": 5697,
      "assis": 5698,
      "anyway": 5699,
      "tiny": 5700,
      "encontramos": 5701,
      "atras": 5702,
      "namorada": 5703,
      "fizemos": 5704,
      "incid": 5705,
      "cozinha": 5706,
      "La": 5707,
      "lite": 5708,
      "rado": 5709,
      "coast": 5710,
      "preço": 5711,
      "march": 5712,
      "families": 5713,
      "bate": 5714,
      "dun": 5715,
      "excit": 5716,
      "praia": 5717,
      "busy": 5718,
      "transform": 5719,
      "official": 5720,
      "testemunha": 5721,
      "interessante": 5722,
      "pede": 5723,
      "vieram": 5724,
      "ieve": 5725,
      "stolen": 5726,
      "officers": 5727,
      "beleza": 5728,
      "regras": 5729,
      "escal": 5730,
      "hop": 5731,
      "cados": 5732,
      "earlier": 5733,
      "possess": 5734,
      "período": 5735,
      "costumava": 5736,
      "vag": 5737,
      "antigos": 5738,
      "cansa": 5739,
      "trade": 5740,
      "suspeito": 5741,
      "deserto": 5742,
      "property": 5743,
      "cock": 5744,
      "inse": 5745,
      "debaixo": 5746,
      "rede": 5747,
      "clare": 5748,
      "angel": 5749,
      "internet": 5750,
      "feels": 5751,
      "corrup": 5752,
      "policiais": 5753,
      "mín": 5754,
      "enfer": 5755,
      "rot": 5756,
      "fail": 5757,
      "dura": 5758,
      "craft": 5759,
      "Esper": 5760,
      "bringing": 5761,
      "pieces": 5762,
      "haverá": 5763,
      "aproxim": 5764,
      "tough": 5765,
      "tray": 5766,
      "nose": 5767,
      "casos": 5768,
      "propriedade": 5769,
      "impossible": 5770,
      "cidos": 5771,
      "ciência": 5772,
      "bres": 5773,
      "presence": 5774,
      "ewing": 5775,
      "parts": 5776,
      "ndia": 5777,
      "notice": 5778,
      "worst": 5779,
      "astre": 5780,
      "cular": 5781,
      "chama": 5782,
      "possibly": 5783,
      "However": 5784,
      "montanha": 5785,
      "oficiais": 5786,
      "gat": 5787,
      "cora": 5788,
      "ficam": 5789,
      "girlfriend": 5790,
      "universidade": 5791,
      "Ouça": 5792,
      "modern": 5793,
      "opinion": 5794,
      "gins": 5795,
      "rebe": 5796,
      "pesco": 5797,
      "oferecer": 5798,
      "victims": 5799,
      "namorado": 5800,
      "trick": 5801,
      "grant": 5802,
      "phy": 5803,
      "cientistas": 5804,
      "branca": 5805,
      "capazes": 5806,
      "demonstr": 5807,
      "califor": 5808,
      "brilhante": 5809,
      "Did": 5810,
      "obe": 5811,
      "pted": 5812,
      "rough": 5813,
      "roof": 5814,
      "campa": 5815,
      "passei": 5816,
      "tanta": 5817,
      "instal": 5818,
      "obviously": 5819,
      "ech": 5820,
      "étr": 5821,
      "complic": 5822,
      "iron": 5823,
      "desp": 5824,
      "fera": 5825,
      "daquela": 5826,
      "closed": 5827,
      "garantir": 5828,
      "aé": 5829,
      "xi": 5830,
      "incomo": 5831,
      "umar": 5832,
      "relatório": 5833,
      "apoio": 5834,
      "physical": 5835,
      "vim": 5836,
      "zas": 5837,
      "ising": 5838,
      "condições": 5839,
      "capable": 5840,
      "preocupar": 5841,
      "cuidado": 5842,
      "ológ": 5843,
      "caiu": 5844,
      "cow": 5845,
      "partes": 5846,
      "numbers": 5847,
      "Hoje": 5848,
      "ouviu": 5849,
      "hey": 5850,
      "heat": 5851,
      "conte": 5852,
      "planos": 5853,
      "vote": 5854,
      "foreign": 5855,
      "pequenas": 5856,
      "famílias": 5857,
      "escapar": 5858,
      "oceano": 5859,
      "According": 5860,
      "galáx": 5861,
      "actor": 5862,
      "resp": 5863,
      "drunk": 5864,
      "poison": 5865,
      "fred": 5866,
      "snow": 5867,
      "aret": 5868,
      "purpose": 5869,
      "painting": 5870,
      "welcome": 5871,
      "First": 5872,
      "gift": 5873,
      "repu": 5874,
      "quebra": 5875,
      "plans": 5876,
      "primeiros": 5877,
      "reading": 5878,
      "194": 5879,
      "bird": 5880,
      "dick": 5881,
      "tamos": 5882,
      "conclu": 5883,
      "parada": 5884,
      "pedindo": 5885,
      "possamos": 5886,
      "fugir": 5887,
      "smart": 5888,
      "Ainda": 5889,
      "lago": 5890,
      "series": 5891,
      "rights": 5892,
      "rise": 5893,
      "bigger": 5894,
      "complex": 5895,
      "correct": 5896,
      "objetivo": 5897,
      "pida": 5898,
      "ículo": 5899,
      "note": 5900,
      "ull": 5901,
      "agar": 5902,
      "mond": 5903,
      "current": 5904,
      "esperava": 5905,
      "proced": 5906,
      "image": 5907,
      "proteg": 5908,
      "câm": 5909,
      "kis": 5910,
      "link": 5911,
      "sna": 5912,
      "entrada": 5913,
      "morar": 5914,
      "cheg": 5915,
      "garotos": 5916,
      "challenge": 5917,
      "23": 5918,
      "ulação": 5919,
      "firm": 5920,
      "observ": 5921,
      "violent": 5922,
      "convencer": 5923,
      "cachor": 5924,
      "character": 5925,
      "ec": 5926,
      "ku": 5927,
      "insul": 5928,
      "altura": 5929,
      "lip": 5930,
      "lyn": 5931,
      "concerned": 5932,
      "Durante": 5933,
      "nomes": 5934,
      "aparece": 5935,
      "fant": 5936,
      "rando": 5937,
      "advanta": 5938,
      "viamente": 5939,
      "iração": 5940,
      "camera": 5941,
      "acham": 5942,
      "receb": 5943,
      "experiment": 5944,
      "controlar": 5945,
      "rapidamente": 5946,
      "quantidade": 5947,
      "reino": 5948,
      "urance": 5949,
      "weird": 5950,
      "agon": 5951,
      "model": 5952,
      "ficando": 5953,
      "committed": 5954,
      "agreed": 5955,
      "cend": 5956,
      "embaixo": 5957,
      "tivos": 5958,
      "worried": 5959,
      "prior": 5960,
      "county": 5961,
      "livrar": 5962,
      "christian": 5963,
      "austr": 5964,
      "tire": 5965,
      "estabele": 5966,
      "velhos": 5967,
      "staff": 5968,
      "verdadeira": 5969,
      "inocente": 5970,
      "cic": 5971,
      "honey": 5972,
      "scr": 5973,
      "tais": 5974,
      "valley": 5975,
      "itais": 5976,
      "steve": 5977,
      "negoc": 5978,
      "bull": 5979,
      "promotor": 5980,
      "eg": 5981,
      "éis": 5982,
      "forman": 5983,
      "importantes": 5984,
      "boss": 5985,
      "mountains": 5986,
      "pesquisa": 5987,
      "soli": 5988,
      "uses": 5989,
      "terei": 5990,
      "deram": 5991,
      "upset": 5992,
      "mister": 5993,
      "detective": 5994,
      "daqueles": 5995,
      "majesty": 5996,
      "conduz": 5997,
      "assin": 5998,
      "cerem": 5999,
      "shel": 6000,
      "species": 6001,
      "arras": 6002,
      "gged": 6003,
      "california": 6004,
      "lack": 6005,
      "útil": 6006,
      "thou": 6007,
      "sold": 6008,
      "radi": 6009,
      "discover": 6010,
      "daria": 6011,
      "bling": 6012,
      "cumpr": 6013,
      "instrum": 6014,
      "encar": 6015,
      "eliz": 6016,
      "hook": 6017,
      "anywhere": 6018,
      "empire": 6019,
      "istence": 6020,
      "destin": 6021,
      "scared": 6022,
      "Sempre": 6023,
      "ene": 6024,
      "barr": 6025,
      "transformar": 6026,
      "justo": 6027,
      "próprios": 6028,
      "recl": 6029,
      "usou": 6030,
      "marca": 6031,
      "stead": 6032,
      "mandou": 6033,
      "expected": 6034,
      "inimigos": 6035,
      "Prime": 6036,
      "pescoço": 6037,
      "35": 6038,
      "gência": 6039,
      "jou": 6040,
      "taught": 6041,
      "agir": 6042,
      "male": 6043,
      "boyfriend": 6044,
      "rico": 6045,
      "astron": 6046,
      "prima": 6047,
      "expul": 6048,
      "pregn": 6049,
      "cases": 6050,
      "hidden": 6051,
      "smell": 6052,
      "Sem": 6053,
      "cass": 6054,
      "cous": 6055,
      "leste": 6056,
      "quím": 6057,
      "rema": 6058,
      "prêm": 6059,
      "prost": 6060,
      "ideas": 6061,
      "gging": 6062,
      "sounds": 6063,
      "japanese": 6064,
      "uts": 6065,
      "royal": 6066,
      "longa": 6067,
      "explor": 6068,
      "daniel": 6069,
      "empty": 6070,
      "ífico": 6071,
      "servir": 6072,
      "escreveu": 6073,
      "threat": 6074,
      "subject": 6075,
      "cti": 6076,
      "yo": 6077,
      "ala": 6078,
      "remind": 6079,
      "elem": 6080,
      "violência": 6081,
      "fábr": 6082,
      "cture": 6083,
      "ames": 6084,
      "bright": 6085,
      "garden": 6086,
      "cré": 6087,
      "baile": 6088,
      "braço": 6089,
      "charges": 6090,
      "clientes": 6091,
      "training": 6092,
      "aver": 6093,
      "jump": 6094,
      "cipe": 6095,
      "troops": 6096,
      "seguida": 6097,
      "grade": 6098,
      "surpris": 6099,
      "nearly": 6100,
      "recently": 6101,
      "chocol": 6102,
      "tecnolo": 6103,
      "jado": 6104,
      "vivendo": 6105,
      "antiga": 6106,
      "cue": 6107,
      "giant": 6108,
      "aven": 6109,
      "fonte": 6110,
      "lis": 6111,
      "tava": 6112,
      "perdi": 6113,
      "mudou": 6114,
      "rested": 6115,
      "colon": 6116,
      "campan": 6117,
      "tentativa": 6118,
      "flat": 6119,
      "students": 6120,
      "lights": 6121,
      "nariz": 6122,
      "vô": 6123,
      "republic": 6124,
      "sees": 6125,
      "comport": 6126,
      "solit": 6127,
      "stan": 6128,
      "survive": 6129,
      "relation": 6130,
      "rant": 6131,
      "ulous": 6132,
      "surpresa": 6133,
      "legs": 6134,
      "sleeping": 6135,
      "imprensa": 6136,
      "bound": 6137,
      "mau": 6138,
      "frac": 6139,
      "bother": 6140,
      "minds": 6141,
      "taram": 6142,
      "dono": 6143,
      "hearing": 6144,
      "johnson": 6145,
      "safety": 6146,
      "female": 6147,
      "incredi": 6148,
      "tia": 6149,
      "emoc": 6150,
      "forest": 6151,
      "kills": 6152,
      "violence": 6153,
      "-.": 6154,
      "bid": 6155,
      "kni": 6156,
      "fric": 6157,
      "alegr": 6158,
      "levando": 6159,
      "independ": 6160,
      "inteligente": 6161,
      "comecei": 6162,
      "vital": 6163,
      "ãs": 6164,
      "powers": 6165,
      "caça": 6166,
      "perman": 6167,
      "block": 6168,
      "mont": 6169,
      "parecem": 6170,
      "direitos": 6171,
      "loss": 6172,
      "bolo": 6173,
      "Também": 6174,
      "bam": 6175,
      "escr": 6176,
      "orient": 6177,
      "sequer": 6178,
      "arrang": 6179,
      "appears": 6180,
      "compet": 6181,
      "kitchen": 6182,
      "tróleo": 6183,
      "nit": 6184,
      "wide": 6185,
      "égio": 6186,
      "topo": 6187,
      "ola": 6188,
      "petróleo": 6189,
      "perform": 6190,
      "postos": 6191,
      "peso": 6192,
      "portanto": 6193,
      "storm": 6194,
      "felicidade": 6195,
      "wra": 6196,
      "intr": 6197,
      "iada": 6198,
      "sapa": 6199,
      "rique": 6200,
      "histor": 6201,
      "cancel": 6202,
      "icada": 6203,
      "crist": 6204,
      "opened": 6205,
      "actions": 6206,
      "jimmy": 6207,
      "...,": 6208,
      "convince": 6209,
      "tay": 6210,
      "trees": 6211,
      "passion": 6212,
      "fossem": 6213,
      "craw": 6214,
      "ators": 6215,
      "doutor": 6216,
      "ibus": 6217,
      "zed": 6218,
      "hem": 6219,
      "compl": 6220,
      "lio": 6221,
      "pernas": 6222,
      "simo": 6223,
      "banho": 6224,
      "handle": 6225,
      "helping": 6226,
      "crap": 6227,
      "responder": 6228,
      "inverno": 6229,
      "ême": 6230,
      "prín": 6231,
      "ental": 6232,
      "lixo": 6233,
      "plom": 6234,
      "invad": 6235,
      "acusado": 6236,
      "discuss": 6237,
      "remains": 6238,
      "gall": 6239,
      "saved": 6240,
      "surprise": 6241,
      "territor": 6242,
      "americana": 6243,
      "assassin": 6244,
      "partici": 6245,
      "vitória": 6246,
      "fles": 6247,
      "rim": 6248,
      "vous": 6249,
      "sagra": 6250,
      "coro": 6251,
      "começaram": 6252,
      "keeps": 6253,
      "americans": 6254,
      "Embora": 6255,
      "explosão": 6256,
      "chinese": 6257,
      "tig": 6258,
      "impression": 6259,
      "rule": 6260,
      "existência": 6261,
      "avoid": 6262,
      "period": 6263,
      "sensação": 6264,
      "ático": 6265,
      "attempt": 6266,
      "paral": 6267,
      "und": 6268,
      "whoever": 6269,
      "followed": 6270,
      "horrível": 6271,
      "majestade": 6272,
      "evidência": 6273,
      "quickly": 6274,
      "pássar": 6275,
      "Come": 6276,
      "Às": 6277,
      "impé": 6278,
      "recebeu": 6279,
      "leading": 6280,
      "bottle": 6281,
      "fortune": 6282,
      "scientists": 6283,
      "ium": 6284,
      "ports": 6285,
      "mass": 6286,
      "extrem": 6287,
      "strike": 6288,
      "ativos": 6289,
      "bala": 6290,
      "clearly": 6291,
      "technolo": 6292,
      "gradu": 6293,
      "reasons": 6294,
      "400": 6295,
      "Pen": 6296,
      "africa": 6297,
      "lín": 6298,
      "partido": 6299,
      "terem": 6300,
      "sobrevi": 6301,
      "alemães": 6302,
      "ivos": 6303,
      "rões": 6304,
      "alde": 6305,
      "acting": 6306,
      "strip": 6307,
      "199": 6308,
      "acaba": 6309,
      "levant": 6310,
      "wheel": 6311,
      "fleet": 6312,
      "effect": 6313,
      "global": 6314,
      "gus": 6315,
      "ror": 6316,
      "ína": 6317,
      "anunci": 6318,
      "diplom": 6319,
      "vies": 6320,
      "strang": 6321,
      "obs": 6322,
      "ruin": 6323,
      "amazing": 6324,
      "empur": 6325,
      "árvores": 6326,
      "parou": 6327,
      "imentar": 6328,
      "elétr": 6329,
      "ung": 6330,
      "existence": 6331,
      "managed": 6332,
      "poderoso": 6333,
      "união": 6334,
      "imagens": 6335,
      "197": 6336,
      "culpado": 6337,
      "vermelho": 6338,
      "ek": 6339,
      "mous": 6340,
      "angry": 6341,
      "becomes": 6342,
      "drinking": 6343,
      "scott": 6344,
      "aval": 6345,
      "dil": 6346,
      "fif": 6347,
      "pão": 6348,
      "ódio": 6349,
      "ering": 6350,
      "una": 6351,
      "brand": 6352,
      "billion": 6353,
      "médio": 6354,
      "weekend": 6355,
      "agradecer": 6356,
      "tecnologia": 6357,
      "telo": 6358,
      "prevent": 6359,
      "sending": 6360,
      "university": 6361,
      "fome": 6362,
      "kins": 6363,
      "chos": 6364,
      "trail": 6365,
      "contri": 6366,
      "silver": 6367,
      "obrigado": 6368,
      "square": 6369,
      "esquerda": 6370,
      "brutal": 6371,
      "ía": 6372,
      "enci": 6373,
      "trase": 6374,
      "descan": 6375,
      "provide": 6376,
      "direita": 6377,
      "Entre": 6378,
      "student": 6379,
      "dançar": 6380,
      "Primeiro": 6381,
      "eiro": 6382,
      "águ": 6383,
      "season": 6384,
      "seres": 6385,
      "querido": 6386,
      "clock": 6387,
      "subir": 6388,
      "buried": 6389,
      "saco": 6390,
      "detetive": 6391,
      "Imag": 6392,
      "eve": 6393,
      "etern": 6394,
      "ston": 6395,
      "potent": 6396,
      "queriam": 6397,
      "bers": 6398,
      "pude": 6399,
      "gency": 6400,
      "estrut": 6401,
      "terras": 6402,
      "espac": 6403,
      "wine": 6404,
      "media": 6405,
      "raiva": 6406,
      "tropas": 6407,
      "vices": 6408,
      "femin": 6409,
      "notícias": 6410,
      "advantage": 6411,
      "pom": 6412,
      "vinho": 6413,
      "yle": 6414,
      "rebel": 6415,
      "falo": 6416,
      "droga": 6417,
      "folks": 6418,
      "ônibus": 6419,
      "selling": 6420,
      "permitir": 6421,
      "Posso": 6422,
      "neither": 6423,
      "elev": 6424,
      "tantos": 6425,
      "damage": 6426,
      "kiss": 6427,
      "mestre": 6428,
      "lets": 6429,
      "carol": 6430,
      "joel": 6431,
      "stock": 6432,
      "issu": 6433,
      "estab": 6434,
      "cau": 6435,
      "pene": 6436,
      "bilhões": 6437,
      "dirty": 6438,
      "twice": 6439,
      "vietnam": 6440,
      "carrying": 6441,
      "\"?": 6442,
      "bour": 6443,
      "festi": 6444,
      "jose": 6445,
      "phere": 6446,
      "arrested": 6447,
      "acts": 6448,
      "tadas": 6449,
      "certas": 6450,
      "196": 6451,
      "orgulho": 6452,
      "maravilhoso": 6453,
      "campaign": 6454,
      "escut": 6455,
      "ald": 6456,
      "whenever": 6457,
      "afas": 6458,
      "phen": 6459,
      "império": 6460,
      "technology": 6461,
      "ique": 6462,
      "imedi": 6463,
      "eds": 6464,
      "code": 6465,
      "sincer": 6466,
      "considered": 6467,
      "birds": 6468,
      "estranha": 6469,
      "rapazes": 6470,
      "item": 6471,
      "haw": 6472,
      "liked": 6473,
      "cops": 6474,
      "faces": 6475,
      "sarah": 6476,
      "clusive": 6477,
      "pter": 6478,
      "ígen": 6479,
      "andre": 6480,
      "impedir": 6481,
      "magaz": 6482,
      "ceis": 6483,
      "brad": 6484,
      "tenta": 6485,
      "deveriam": 6486,
      "pessoalmente": 6487,
      "walls": 6488,
      "ui": 6489,
      "áfrica": 6490,
      "separa": 6491,
      "fortes": 6492,
      "carbon": 6493,
      "minister": 6494,
      "industr": 6495,
      "otherwise": 6496,
      "brook": 6497,
      "liga": 6498,
      "bastar": 6499,
      "guarante": 6500,
      "cidades": 6501,
      "assume": 6502,
      "electric": 6503,
      "detalhes": 6504,
      "colegas": 6505,
      "câmera": 6506,
      "aliment": 6507,
      "edif": 6508,
      "forgive": 6509,
      "cultur": 6510,
      "transmit": 6511,
      "Deix": 6512,
      "golpe": 6513,
      "restaurante": 6514,
      "princíp": 6515,
      "mudança": 6516,
      "Tell": 6517,
      "gás": 6518,
      "icion": 6519,
      "tral": 6520,
      "acc": 6521,
      "agentes": 6522,
      "postas": 6523,
      "chem": 6524,
      "presas": 6525,
      "locais": 6526,
      "contrato": 6527,
      "atacar": 6528,
      "reports": 6529,
      "bando": 6530,
      "mig": 6531,
      "neu": 6532,
      "pó": 6533,
      "vey": 6534,
      "parque": 6535,
      "disci": 6536,
      "growing": 6537,
      "release": 6538,
      "campanha": 6539,
      "ries": 6540,
      "diss": 6541,
      "ferro": 6542,
      "bordo": 6543,
      "quilô": 6544,
      "desafio": 6545,
      "sis": 6546,
      "voce": 6547,
      "inje": 6548,
      "devil": 6549,
      "presos": 6550,
      "finds": 6551,
      "meaning": 6552,
      "passage": 6553,
      "pretend": 6554,
      "maté": 6555,
      "doce": 6556,
      "requi": 6557,
      "reached": 6558,
      "andando": 6559,
      "acabe": 6560,
      "usado": 6561,
      "zero": 6562,
      "achamos": 6563,
      "viram": 6564,
      "tribe": 6565,
      "dropped": 6566,
      "possibilidade": 6567,
      "levantar": 6568,
      "suffering": 6569,
      "Anyway": 6570,
      "ades": 6571,
      "lots": 6572,
      "desapare": 6573,
      "erais": 6574,
      "meninas": 6575,
      "greater": 6576,
      "padre": 6577,
      "admitir": 6578,
      "noticed": 6579,
      "aero": 6580,
      "absol": 6581,
      "absor": 6582,
      "excuse": 6583,
      "tores": 6584,
      "visita": 6585,
      "stole": 6586,
      "encontrá": 6587,
      "bios": 6588,
      "double": 6589,
      "emotion": 6590,
      "próprias": 6591,
      "laboratório": 6592,
      "agu": 6593,
      "dign": 6594,
      "cker": 6595,
      "pure": 6596,
      "pontos": 6597,
      "gery": 6598,
      "lovely": 6599,
      "fizesse": 6600,
      "aula": 6601,
      "jamos": 6602,
      "quia": 6603,
      "itamente": 6604,
      "forth": 6605,
      "fired": 6606,
      "territ": 6607,
      "boston": 6608,
      "deseja": 6609,
      "famoso": 6610,
      "parently": 6611,
      "agradável": 6612,
      "thomas": 6613,
      "dí": 6614,
      "dust": 6615,
      "wester": 6616,
      "loyal": 6617,
      "billy": 6618,
      "ordered": 6619,
      "pacientes": 6620,
      "população": 6621,
      "Gos": 6622,
      "ego": 6623,
      "rec": 6624,
      "quebrar": 6625,
      "amy": 6626,
      "trá": 6627,
      "trar": 6628,
      "irrit": 6629,
      "tipos": 6630,
      "geant": 6631,
      "agress": 6632,
      "champ": 6633,
      "chamou": 6634,
      "crescer": 6635,
      "Cap": 6636,
      "ral": 6637,
      "xico": 6638,
      "voy": 6639,
      "cursos": 6640,
      "ponte": 6641,
      "fascin": 6642,
      "recuperar": 6643,
      "enfrentar": 6644,
      "Isto": 6645,
      "unit": 6646,
      "peito": 6647,
      "exped": 6648,
      "evento": 6649,
      "virar": 6650,
      "dict": 6651,
      "People": 6652,
      "notícia": 6653,
      "Nunca": 6654,
      "ícul": 6655,
      "occas": 6656,
      "cristo": 6657,
      "throughout": 6658,
      "proteção": 6659,
      "nis": 6660,
      "dava": 6661,
      "permissão": 6662,
      "milhas": 6663,
      "viajar": 6664,
      "letters": 6665,
      "estrange": 6666,
      "bonito": 6667,
      "chuva": 6668,
      "capacidade": 6669,
      "príncipe": 6670,
      "slight": 6671,
      "acesso": 6672,
      "formas": 6673,
      "naked": 6674,
      "cano": 6675,
      "distin": 6676,
      "listening": 6677,
      "pedaços": 6678,
      "fotogra": 6679,
      "individual": 6680,
      "efeito": 6681,
      "tí": 6682,
      "teriam": 6683,
      "whis": 6684,
      "loves": 6685,
      "desire": 6686,
      "exchange": 6687,
      "assign": 6688,
      "tirou": 6689,
      "bullet": 6690,
      "attacked": 6691,
      "knife": 6692,
      "ow": 6693,
      "pân": 6694,
      "tear": 6695,
      "waste": 6696,
      "talento": 6697,
      "falei": 6698,
      "planning": 6699,
      "settle": 6700,
      "pattern": 6701,
      "darkness": 6702,
      "happiness": 6703,
      "Acre": 6704,
      "thin": 6705,
      "negros": 6706,
      "epis": 6707,
      "acontecido": 6708,
      "personally": 6709,
      "kidna": 6710,
      "progress": 6711,
      "paixão": 6712,
      "máximo": 6713,
      "afric": 6714,
      "alco": 6715,
      "lif": 6716,
      "perda": 6717,
      "vencer": 6718,
      "marinha": 6719,
      "víde": 6720,
      "alemanha": 6721,
      "practice": 6722,
      "chocolate": 6723,
      "depos": 6724,
      "exci": 6725,
      "carried": 6726,
      "canal": 6727,
      "harm": 6728,
      "partil": 6729,
      "pud": 6730,
      "germany": 6731,
      "diretamente": 6732,
      "começando": 6733,
      "ret": 6734,
      "estilo": 6735,
      "cabo": 6736,
      "role": 6737,
      "proof": 6738,
      "breaking": 6739,
      "malu": 6740,
      "banda": 6741,
      "authority": 6742,
      "disease": 6743,
      "tles": 6744,
      "combat": 6745,
      "pratic": 6746,
      "address": 6747,
      "colum": 6748,
      "tale": 6749,
      "istir": 6750,
      "ideal": 6751,
      "speaking": 6752,
      "signed": 6753,
      "números": 6754,
      "dirigir": 6755,
      "evidências": 6756,
      "fronteira": 6757,
      "arthur": 6758,
      "request": 6759,
      "prose": 6760,
      "lux": 6761,
      "monitor": 6762,
      "homicídio": 6763,
      "criou": 6764,
      "últimas": 6765,
      "errada": 6766,
      "razões": 6767,
      "dressed": 6768,
      "rey": 6769,
      "terceiro": 6770,
      "manip": 6771,
      "torne": 6772,
      "chegando": 6773,
      "hose": 6774,
      "histór": 6775,
      "abeth": 6776,
      "johnny": 6777,
      "source": 6778,
      "escrito": 6779,
      "Apesar": 6780,
      "campe": 6781,
      "gene": 6782,
      "showing": 6783,
      "push": 6784,
      "Diga": 6785,
      "impress": 6786,
      "older": 6787,
      "ching": 6788,
      "weal": 6789,
      "entemente": 6790,
      "descre": 6791,
      "carga": 6792,
      "adoles": 6793,
      "pleas": 6794,
      "Qual": 6795,
      "ativas": 6796,
      "coloca": 6797,
      "mirac": 6798,
      "cavalos": 6799,
      "accused": 6800,
      "encan": 6801,
      "dep": 6802,
      "amiz": 6803,
      "nove": 6804,
      "habilidade": 6805,
      "feit": 6806,
      "avent": 6807,
      "russian": 6808,
      "crédito": 6809,
      "tantas": 6810,
      "çados": 6811,
      "dev": 6812,
      "sole": 6813,
      "tiu": 6814,
      "tony": 6815,
      "deixei": 6816,
      "doming": 6817,
      "jardim": 6818,
      "Diz": 6819,
      "attrac": 6820,
      "olhe": 6821,
      "massive": 6822,
      "castle": 6823,
      "creature": 6824,
      "visitar": 6825,
      "losing": 6826,
      "fute": 6827,
      "television": 6828,
      "provável": 6829,
      "Mais": 6830,
      "Pro": 6831,
      "dentes": 6832,
      "rate": 6833,
      "tó": 6834,
      "armed": 6835,
      "enced": 6836,
      "depend": 6837,
      "osas": 6838,
      "sujeito": 6839,
      "uly": 6840,
      "voar": 6841,
      "creio": 6842,
      "creatures": 6843,
      "éssemos": 6844,
      "modelo": 6845,
      "prêmio": 6846,
      "cantar": 6847,
      "farei": 6848,
      "attemp": 6849,
      "saving": 6850,
      "protest": 6851,
      "missed": 6852,
      "counter": 6853,
      "normalmente": 6854,
      "enemies": 6855,
      "frag": 6856,
      "provoc": 6857,
      "directly": 6858,
      "quit": 6859,
      "occup": 6860,
      "nais": 6861,
      "falls": 6862,
      "jackson": 6863,
      "ofer": 6864,
      "behavi": 6865,
      "cartão": 6866,
      "prepara": 6867,
      "portas": 6868,
      "insurance": 6869,
      "shoes": 6870,
      "colocá": 6871,
      "limpar": 6872,
      "roma": 6873,
      "Sometimes": 6874,
      "tarefa": 6875,
      "ake": 6876,
      "impul": 6877,
      "exterior": 6878,
      "failed": 6879,
      "mara": 6880,
      "avail": 6881,
      "driver": 6882,
      "louis": 6883,
      "document": 6884,
      "gento": 6885,
      "iando": 6886,
      "toler": 6887,
      "cação": 6888,
      "chase": 6889,
      "mergul": 6890,
      "tribo": 6891,
      "escolhe": 6892,
      "levado": 6893,
      "emergency": 6894,
      "swim": 6895,
      "ália": 6896,
      "dee": 6897,
      "advis": 6898,
      "fechar": 6899,
      "jogando": 6900,
      "soldado": 6901,
      "buscar": 6902,
      "passagem": 6903,
      "clark": 6904,
      "bolsa": 6905,
      "points": 6906,
      "deca": 6907,
      "tea": 6908,
      "teira": 6909,
      "cargo": 6910,
      "movies": 6911,
      "distr": 6912,
      "doors": 6913,
      "férias": 6914,
      "assistir": 6915,
      "roubou": 6916,
      "preocupado": 6917,
      "discutir": 6918,
      "kelly": 6919,
      "pher": 6920,
      "tight": 6921,
      "ídos": 6922,
      "ceira": 6923,
      "vidos": 6924,
      "roy": 6925,
      "crash": 6926,
      "cultura": 6927,
      "direction": 6928,
      "prints": 6929,
      "stayed": 6930,
      "confiar": 6931,
      "horror": 6932,
      "região": 6933,
      "bande": 6934,
      "ingl": 6935,
      "descend": 6936,
      "ifór": 6937,
      "moments": 6938,
      "relat": 6939,
      "punish": 6940,
      "emergência": 6941,
      "cirurgia": 6942,
      "ifórnia": 6943,
      "redu": 6944,
      "noiva": 6945,
      "oli": 6946,
      "pertur": 6947,
      "target": 6948,
      "fazemos": 6949,
      "events": 6950,
      "apolog": 6951,
      "closer": 6952,
      "código": 6953,
      "perfectly": 6954,
      "restaurant": 6955,
      "futebol": 6956,
      "dimin": 6957,
      "pse": 6958,
      "conquis": 6959,
      "humans": 6960,
      "califórnia": 6961,
      "submar": 6962,
      "intenção": 6963,
      "dimens": 6964,
      "inglês": 6965,
      "gênio": 6966,
      "invis": 6967,
      "embr": 6968,
      "lower": 6969,
      "letting": 6970,
      "reló": 6971,
      "paying": 6972,
      "released": 6973,
      "galaxy": 6974,
      "Tom": 6975,
      "õe": 6976,
      "anc": 6977,
      "below": 6978,
      "estarei": 6979,
      "chate": 6980,
      "vivos": 6981,
      "ficado": 6982,
      "houver": 6983,
      "trict": 6984,
      "fon": 6985,
      "fabr": 6986,
      "serei": 6987,
      "ób": 6988,
      "comfor": 6989,
      "eless": 6990,
      "breath": 6991,
      "mayor": 6992,
      "surpre": 6993,
      "Although": 6994,
      "games": 6995,
      "grown": 6996,
      "tentei": 6997,
      "ástico": 6998,
      "spending": 6999,
      "relationship": 7000,
      "matéria": 7001,
      "issue": 7002,
      "eman": 7003,
      "liqu": 7004,
      "web": 7005,
      "seriam": 7006,
      "Quem": 7007,
      "assegur": 7008,
      "explic": 7009,
      "falling": 7010,
      "',": 7011,
      "bia": 7012,
      "yel": 7013,
      "ondas": 7014,
      "impressão": 7015,
      "eddie": 7016,
      "temple": 7017,
      "senhoras": 7018,
      "decidi": 7019,
      "segura": 7020,
      "brief": 7021,
      "Alguns": 7022,
      "successful": 7023,
      "houses": 7024,
      "alegria": 7025,
      "Che": 7026,
      "ilhas": 7027,
      "kee": 7028,
      "neve": 7029,
      "mole": 7030,
      "cancer": 7031,
      "camar": 7032,
      "bury": 7033,
      "roman": 7034,
      "doctors": 7035,
      "explodir": 7036,
      "orgulhos": 7037,
      "frota": 7038,
      "esforço": 7039,
      "cachorro": 7040,
      "Ch": 7041,
      "dd": 7042,
      "slo": 7043,
      "aspe": 7044,
      "meth": 7045,
      "bee": 7046,
      "belo": 7047,
      "indica": 7048,
      "cheguei": 7049,
      "conhecida": 7050,
      "league": 7051,
      "supply": 7052,
      "golden": 7053,
      "tratamento": 7054,
      "hiding": 7055,
      "guerre": 7056,
      "quilômetros": 7057,
      "available": 7058,
      "Two": 7059,
      "cú": 7060,
      "emper": 7061,
      "iles": 7062,
      "pau": 7063,
      "distribu": 7064,
      "izada": 7065,
      "estarão": 7066,
      "vamp": 7067,
      "gigante": 7068,
      "education": 7069,
      "Ei": 7070,
      "dita": 7071,
      "scal": 7072,
      "cerim": 7073,
      "sentimento": 7074,
      "border": 7075,
      "drove": 7076,
      "percebe": 7077,
      "distance": 7078,
      "patients": 7079,
      "suicide": 7080,
      "garrafa": 7081,
      "acredite": 7082,
      "western": 7083,
      "atom": 7084,
      "fate": 7085,
      "quant": 7086,
      "impac": 7087,
      "soviet": 7088,
      "chest": 7089,
      "gods": 7090,
      "performan": 7091,
      "roger": 7092,
      "ficaram": 7093,
      "passing": 7094,
      "salv": 7095,
      "guage": 7096,
      "conditions": 7097,
      "Pelo": 7098,
      "aer": 7099,
      "atos": 7100,
      "aks": 7101,
      "dal": 7102,
      "however": 7103,
      "verá": 7104,
      "edge": 7105,
      "likes": 7106,
      "beings": 7107,
      "legend": 7108,
      "roubo": 7109,
      "destruição": 7110,
      "escuro": 7111,
      "ik": 7112,
      "iana": 7113,
      "sinais": 7114,
      "deixado": 7115,
      "claramente": 7116,
      "produce": 7117,
      "language": 7118,
      "pensava": 7119,
      "robin": 7120,
      "cóp": 7121,
      "higher": 7122,
      "comportamento": 7123,
      "!\".": 7124,
      "Cada": 7125,
      "apre": 7126,
      "dança": 7127,
      "ware": 7128,
      "inva": 7129,
      "pear": 7130,
      "prepare": 7131,
      "plate": 7132,
      "pressa": 7133,
      "cujo": 7134,
      "governor": 7135,
      "custom": 7136,
      "easier": 7137,
      "threw": 7138,
      "perigoso": 7139,
      "Ladies": 7140,
      "bie": 7141,
      "huh": 7142,
      "toward": 7143,
      "prender": 7144,
      "rido": 7145,
      "disposto": 7146,
      "mostrou": 7147,
      "venha": 7148,
      "respir": 7149,
      "monster": 7150,
      "brilli": 7151,
      "teeth": 7152,
      "citizens": 7153,
      "Após": 7154,
      "dedos": 7155,
      "reduz": 7156,
      "habil": 7157,
      "poe": 7158,
      "advice": 7159,
      "percent": 7160,
      "vivem": 7161,
      "mindo": 7162,
      "dispon": 7163,
      "criatura": 7164,
      "inspir": 7165,
      "faca": 7166,
      "adequ": 7167,
      "telefon": 7168,
      "princess": 7169,
      "Ter": 7170,
      "fought": 7171,
      "mum": 7172,
      "deiro": 7173,
      "vegas": 7174,
      "carl": 7175,
      "plus": 7176,
      "aceit": 7177,
      "anton": 7178,
      "calcul": 7179,
      "recebe": 7180,
      "deuses": 7181,
      "testes": 7182,
      "balls": 7183,
      "connection": 7184,
      "immediately": 7185,
      "despite": 7186,
      "whit": 7187,
      "rode": 7188,
      "descer": 7189,
      "blame": 7190,
      "finance": 7191,
      "escolh": 7192,
      "effort": 7193,
      "princesa": 7194,
      "corrente": 7195,
      "spoke": 7196,
      "idiotas": 7197,
      "japones": 7198,
      "brux": 7199,
      "flowers": 7200,
      "vantagem": 7201,
      "photograph": 7202,
      "atitude": 7203,
      "itada": 7204,
      "meat": 7205,
      "acamp": 7206,
      "usion": 7207,
      "igger": 7208,
      "matá": 7209,
      "criaturas": 7210,
      "sunday": 7211,
      "object": 7212,
      "split": 7213,
      "vistas": 7214,
      "yed": 7215,
      "keys": 7216,
      "weather": 7217,
      "viam": 7218,
      "istic": 7219,
      "contract": 7220,
      "dormindo": 7221,
      "surgery": 7222,
      "bombar": 7223,
      "generation": 7224,
      "acusação": 7225,
      "bits": 7226,
      "oz": 7227,
      "quan": 7228,
      "meta": 7229,
      "fatos": 7230,
      "pref": 7231,
      "corredor": 7232,
      "ensinar": 7233,
      "favorite": 7234,
      "enviou": 7235,
      "sheriff": 7236,
      "bathroom": 7237,
      "espacial": 7238,
      "bí": 7239,
      "lulas": 7240,
      "espel": 7241,
      "ened": 7242,
      "truly": 7243,
      "page": 7244,
      "expand": 7245,
      "indian": 7246,
      "tratar": 7247,
      "olhada": 7248,
      "ji": 7249,
      "ache": 7250,
      "pressed": 7251,
      "sovi": 7252,
      "uros": 7253,
      "pego": 7254,
      "preparar": 7255,
      "grama": 7256,
      "ficava": 7257,
      "milk": 7258,
      "poderes": 7259,
      "sentia": 7260,
      "fazenda": 7261,
      "militares": 7262,
      "Senhoras": 7263,
      "escuridão": 7264,
      "física": 7265,
      "invited": 7266,
      "range": 7267,
      "onda": 7268,
      "lex": 7269,
      "trata": 7270,
      "comem": 7271,
      "verde": 7272,
      "cadas": 7273,
      "raça": 7274,
      "ending": 7275,
      "wave": 7276,
      "tomou": 7277,
      "victory": 7278,
      "pacific": 7279,
      "gentil": 7280,
      "approach": 7281,
      "Right": 7282,
      "gina": 7283,
      "iano": 7284,
      "wick": 7285,
      "leal": 7286,
      "term": 7287,
      "therine": 7288,
      "mina": 7289,
      "querendo": 7290,
      "crus": 7291,
      "obviamente": 7292,
      "secretary": 7293,
      "crown": 7294,
      "saída": 7295,
      "atirar": 7296,
      "permite": 7297,
      "erife": 7298,
      "150": 7299,
      "sust": 7300,
      "tower": 7301,
      "alun": 7302,
      "alvo": 7303,
      "formal": 7304,
      "adver": 7305,
      "bron": 7306,
      "presentes": 7307,
      "campos": 7308,
      "opening": 7309,
      "defendant": 7310,
      "Perhaps": 7311,
      "schedu": 7312,
      "Ar": 7313,
      "santo": 7314,
      "zel": 7315,
      "deva": 7316,
      "reven": 7317,
      "acu": 7318,
      "tulo": 7319,
      "speech": 7320,
      "ônica": 7321,
      "tivessem": 7322,
      "origin": 7323,
      "football": 7324,
      "hills": 7325,
      "atmosphere": 7326,
      "recentemente": 7327,
      "vergonha": 7328,
      "pregnant": 7329,
      "ritual": 7330,
      "escor": 7331,
      "nobre": 7332,
      "acon": 7333,
      "desk": 7334,
      "district": 7335,
      "sentence": 7336,
      "value": 7337,
      "jornais": 7338,
      "lane": 7339,
      "seriously": 7340,
      ";.": 7341,
      "oth": 7342,
      "ouvido": 7343,
      "vera": 7344,
      "dram": 7345,
      "culpe": 7346,
      "span": 7347,
      "pensam": 7348,
      "owner": 7349,
      "acordar": 7350,
      "espada": 7351,
      "offered": 7352,
      "ologia": 7353,
      "licença": 7354,
      "symbol": 7355,
      "chicken": 7356,
      "cidadãos": 7357,
      "taylor": 7358,
      "aug": 7359,
      "ingles": 7360,
      "coach": 7361,
      "agens": 7362,
      "population": 7363,
      "autoridade": 7364,
      "festival": 7365,
      "fy": 7366,
      "yan": 7367,
      "kingdom": 7368,
      "crí": 7369,
      "gais": 7370,
      "integr": 7371,
      "bloque": 7372,
      "confid": 7373,
      "stream": 7374,
      "estudar": 7375,
      "mexico": 7376,
      "acreditam": 7377,
      "amizade": 7378,
      "tela": 7379,
      "lips": 7380,
      "interfer": 7381,
      "palco": 7382,
      "bale": 7383,
      "causar": 7384,
      "Toda": 7385,
      "movement": 7386,
      "planetas": 7387,
      "sacrifice": 7388,
      "língua": 7389,
      "fare": 7390,
      "runs": 7391,
      "device": 7392,
      "terms": 7393,
      "criado": 7394,
      "stri": 7395,
      "false": 7396,
      "êncio": 7397,
      "taste": 7398,
      "conhecemos": 7399,
      "rison": 7400,
      "location": 7401,
      "belief": 7402,
      "bones": 7403,
      "construção": 7404,
      "soft": 7405,
      "almoço": 7406,
      "Who": 7407,
      "fash": 7408,
      "vêm": 7409,
      "ético": 7410,
      "tox": 7411,
      "decor": 7412,
      "seas": 7413,
      "espir": 7414,
      "Today": 7415,
      "smile": 7416,
      "registros": 7417,
      "caminhão": 7418,
      "pointed": 7419,
      "audience": 7420,
      "galáxia": 7421,
      "48": 7422,
      "Cor": 7423,
      "odi": 7424,
      "íram": 7425,
      "podiam": 7426,
      "saia": 7427,
      "fault": 7428,
      "cart": 7429,
      "cards": 7430,
      "ajudou": 7431,
      "perfeita": 7432,
      "ology": 7433,
      "registro": 7434,
      "associa": 7435,
      "horrible": 7436,
      "território": 7437,
      "bble": 7438,
      "obl": 7439,
      "pper": 7440,
      "ouve": 7441,
      "alt": 7442,
      "active": 7443,
      "castelo": 7444,
      "forms": 7445,
      "méxico": 7446,
      "maintain": 7447,
      "aviões": 7448,
      "padrão": 7449,
      "screen": 7450,
      "headed": 7451,
      "designed": 7452,
      "Those": 7453,
      "uais": 7454,
      "úr": 7455,
      "dogs": 7456,
      "dação": 7457,
      "holes": 7458,
      "maid": 7459,
      "cerveja": 7460,
      "horses": 7461,
      "camer": 7462,
      "virtu": 7463,
      "ruins": 7464,
      "frances": 7465,
      "bunda": 7466,
      "ocorreu": 7467,
      "herói": 7468,
      "sant": 7469,
      "imony": 7470,
      "caç": 7471,
      "caver": 7472,
      "kings": 7473,
      "grew": 7474,
      "culture": 7475,
      "fundos": 7476,
      "natur": 7477,
      "silêncio": 7478,
      "véssemos": 7479,
      "inteligência": 7480,
      "Car": 7481,
      "Disse": 7482,
      "Nor": 7483,
      "cela": 7484,
      "egy": 7485,
      "geração": 7486,
      "sword": 7487,
      "âne": 7488,
      "orbit": 7489,
      "section": 7490,
      "india": 7491,
      "Quanto": 7492,
      "Which": 7493,
      "ponho": 7494,
      "signal": 7495,
      "shape": 7496,
      "dealing": 7497,
      "alcançar": 7498,
      "atmosfera": 7499,
      "contribu": 7500,
      "aeroporto": 7501,
      "jason": 7502,
      "narr": 7503,
      "alous": 7504,
      "dol": 7505,
      "icional": 7506,
      "navy": 7507,
      "joined": 7508,
      "privi": 7509,
      "puta": 7510,
      "conseguia": 7511,
      "iosos": 7512,
      "possibility": 7513,
      "hearts": 7514,
      "jobs": 7515,
      "séculos": 7516,
      "envolvido": 7517,
      "acusações": 7518,
      "chuck": 7519,
      "tempestade": 7520,
      "cozin": 7521,
      "sofrimento": 7522,
      "Go": 7523,
      "Last": 7524,
      "bita": 7525,
      "fita": 7526,
      "becoming": 7527,
      "naval": 7528,
      "humor": 7529,
      "brave": 7530,
      "larry": 7531,
      "infant": 7532,
      "lutando": 7533,
      "gentleman": 7534,
      "statement": 7535,
      "permanecer": 7536,
      "peixe": 7537,
      "chemical": 7538,
      "Apenas": 7539,
      "doug": 7540,
      "iner": 7541,
      "cuja": 7542,
      "ganha": 7543,
      "dorm": 7544,
      "solve": 7545,
      "198": 7546,
      "ski": 7547,
      "aliança": 7548,
      "celular": 7549,
      "changes": 7550,
      "academ": 7551,
      "ministro": 7552,
      "morreram": 7553,
      "monstro": 7554,
      "joseph": 7555,
      "Am": 7556,
      "dale": 7557,
      "acost": 7558,
      "raised": 7559,
      "plent": 7560,
      "casal": 7561,
      "meninos": 7562,
      "thoughts": 7563,
      "rooms": 7564,
      "hunt": 7565,
      "Escute": 7566,
      "soldier": 7567,
      "cousin": 7568,
      "brilliant": 7569,
      "bby": 7570,
      "jones": 7571,
      "lados": 7572,
      "ares": 7573,
      "lec": 7574,
      "daí": 7575,
      "editor": 7576,
      "services": 7577,
      "therefore": 7578,
      "planned": 7579,
      "treated": 7580,
      "studio": 7581,
      "países": 7582,
      "constant": 7583,
      "eventually": 7584,
      "medicine": 7585,
      "engraçado": 7586,
      "dissesse": 7587,
      "Digo": 7588,
      "nest": 7589,
      "pup": 7590,
      "xerife": 7591,
      "thus": 7592,
      "arti": 7593,
      "conspir": 7594,
      "agents": 7595,
      "preocup": 7596,
      "senão": 7597,
      "obst": 7598,
      "conheceu": 7599,
      "completa": 7600,
      "destes": 7601,
      "grupos": 7602,
      "brancos": 7603,
      "separate": 7604,
      "fábrica": 7605,
      "sapatos": 7606,
      "kat": 7607,
      "peço": 7608,
      "muse": 7609,
      "harmon": 7610,
      "mesmas": 7611,
      "encher": 7612,
      "checked": 7613,
      "testemunhas": 7614,
      "televisão": 7615,
      "scientific": 7616,
      "bêbado": 7617,
      "extremely": 7618,
      "discipl": 7619,
      "gers": 7620,
      "ths": 7621,
      "usted": 7622,
      "ixa": 7623,
      "culp": 7624,
      "atividade": 7625,
      "distante": 7626,
      "employe": 7627,
      "results": 7628,
      "educação": 7629,
      "enfrent": 7630,
      "democrac": 7631,
      "câncer": 7632,
      "fab": 7633,
      "pent": 7634,
      "remove": 7635,
      "teto": 7636,
      "eding": 7637,
      "advan": 7638,
      "fox": 7639,
      "visual": 7640,
      "produção": 7641,
      "destruction": 7642,
      "bebida": 7643,
      "planets": 7644,
      "entered": 7645,
      "vigil": 7646,
      "haviam": 7647,
      "Col": 7648,
      "Her": 7649,
      "ffic": 7650,
      "enfor": 7651,
      "encia": 7652,
      "commission": 7653,
      "haja": 7654,
      "prefeito": 7655,
      "buck": 7656,
      "genet": 7657,
      "tesouro": 7658,
      "nervous": 7659,
      "burned": 7660,
      "protection": 7661,
      "singing": 7662,
      "comprou": 7663,
      "carregar": 7664,
      "candid": 7665,
      "segredos": 7666,
      "pocket": 7667,
      "28": 7668,
      "mile": 7669,
      "nin": 7670,
      "ícios": 7671,
      "ossos": 7672,
      "beer": 7673,
      "tição": 7674,
      "vios": 7675,
      "pedras": 7676,
      "supp": 7677,
      "musical": 7678,
      "performance": 7679,
      "ovos": 7680,
      "revista": 7681,
      "icking": 7682,
      "copy": 7683,
      "barul": 7684,
      "surge": 7685,
      "palace": 7686,
      "tripulação": 7687,
      "policy": 7688,
      "desculpe": 7689,
      "shadow": 7690,
      "fashion": 7691,
      "cun": 7692,
      "reci": 7693,
      "retir": 7694,
      "leon": 7695,
      "beloved": 7696,
      "estejam": 7697,
      "insis": 7698,
      "mula": 7699,
      "conseguimos": 7700,
      "warri": 7701,
      "mighty": 7702,
      "mantê": 7703,
      "committee": 7704,
      "aldeia": 7705,
      "sne": 7706,
      "velo": 7707,
      "embaix": 7708,
      "laid": 7709,
      "sides": 7710,
      "profiss": 7711,
      "louca": 7712,
      "governador": 7713,
      "hired": 7714,
      "fortuna": 7715,
      "vídeo": 7716,
      "aunt": 7717,
      "rir": 7718,
      "ansi": 7719,
      "engen": 7720,
      "acted": 7721,
      "content": 7722,
      "chip": 7723,
      "cles": 7724,
      "achieve": 7725,
      "obra": 7726,
      "quarter": 7727,
      "loucura": 7728,
      "Only": 7729,
      "woods": 7730,
      "luzes": 7731,
      "alemão": 7732,
      "autoridades": 7733,
      "influence": 7734,
      "watched": 7735,
      "elizabeth": 7736,
      "26": 7737,
      "psi": 7738,
      "zona": 7739,
      "pobres": 7740,
      "bread": 7741,
      "apparently": 7742,
      "ambiente": 7743,
      "friday": 7744,
      "juntas": 7745,
      "abel": 7746,
      "circu": 7747,
      "Poder": 7748,
      "selvagem": 7749,
      "saturday": 7750,
      "surprised": 7751,
      "Sir": 7752,
      "más": 7753,
      "conex": 7754,
      "perna": 7755,
      "marks": 7756,
      "palá": 7757,
      "completo": 7758,
      "sexta": 7759,
      "secreto": 7760,
      "fields": 7761,
      "medida": 7762,
      "addition": 7763,
      "imediatamente": 7764,
      "emperor": 7765,
      "Sab": 7766,
      "fen": 7767,
      "informar": 7768,
      "reck": 7769,
      "desculpa": 7770,
      "cores": 7771,
      "certos": 7772,
      "matters": 7773,
      "pensamento": 7774,
      "nesses": 7775,
      "considerar": 7776,
      "cliff": 7777,
      "clay": 7778,
      "estúpido": 7779,
      "treatment": 7780,
      "mystery": 7781,
      "alunos": 7782,
      "27": 7783,
      "Ning": 7784,
      "toca": 7785,
      "alar": 7786,
      "queda": 7787,
      "estate": 7788,
      "rada": 7789,
      "manager": 7790,
      "venen": 7791,
      "afford": 7792,
      "judeus": 7793,
      "gret": 7794,
      "rosa": 7795,
      "gastar": 7796,
      "suspic": 7797,
      "Todo": 7798,
      "realizar": 7799,
      "airport": 7800,
      "Mrs": 7801,
      "aberta": 7802,
      "struggle": 7803,
      "ological": 7804,
      "umes": 7805,
      "condição": 7806,
      "dessem": 7807,
      "areia": 7808,
      "corn": 7809,
      "jewel": 7810,
      "sentindo": 7811,
      "puts": 7812,
      "charged": 7813,
      "incên": 7814,
      "basically": 7815,
      "ínio": 7816,
      "testimony": 7817,
      "humanity": 7818,
      "achava": 7819,
      "staying": 7820,
      "sooner": 7821,
      "Desculpe": 7822,
      "imperial": 7823,
      "equipment": 7824,
      "flesh": 7825,
      "sobreviv": 7826,
      "relógio": 7827,
      "brio": 7828,
      "equal": 7829,
      "teatro": 7830,
      "holi": 7831,
      "ficial": 7832,
      "cometer": 7833,
      "tommy": 7834,
      "danny": 7835,
      "faster": 7836,
      "templo": 7837,
      "gostava": 7838,
      "thrown": 7839,
      "Espero": 7840,
      "bli": 7841,
      "ghost": 7842,
      "sig": 7843,
      "amed": 7844,
      "...\"": 7845,
      "icó": 7846,
      "perspe": 7847,
      "vapor": 7848,
      "derru": 7849,
      "served": 7850,
      "ficamos": 7851,
      "interpre": 7852,
      "eventos": 7853,
      "sargento": 7854,
      "viveu": 7855,
      "solução": 7856,
      "desculpas": 7857,
      "smoke": 7858,
      "congress": 7859,
      "reputação": 7860,
      "bin": 7861,
      "gab": 7862,
      "lóg": 7863,
      "pants": 7864,
      "poten": 7865,
      "produt": 7866,
      "gritando": 7867,
      "stret": 7868,
      "combate": 7869,
      "fatal": 7870,
      "câmara": 7871,
      "infec": 7872,
      "John": 7873,
      "acabei": 7874,
      "Ninguém": 7875,
      "aid": 7876,
      "mally": 7877,
      "seal": 7878,
      "veh": 7879,
      "mechan": 7880,
      "sake": 7881,
      "pete": 7882,
      "incident": 7883,
      "imperador": 7884,
      "divorce": 7885,
      "Can": 7886,
      "nad": 7887,
      "pam": 7888,
      "decent": 7889,
      "amante": 7890,
      "ila": 7891,
      "divisão": 7892,
      "loving": 7893,
      "extin": 7894,
      "canto": 7895,
      "shin": 7896,
      "everywhere": 7897,
      "amava": 7898,
      "hardly": 7899,
      "declaração": 7900,
      "fruit": 7901,
      "paredes": 7902,
      "territory": 7903,
      "magazine": 7904,
      "quete": 7905,
      "height": 7906,
      "comfort": 7907,
      "aces": 7908,
      "cific": 7909,
      "propor": 7910,
      "eleg": 7911,
      "matt": 7912,
      "task": 7913,
      "proce": 7914,
      "atives": 7915,
      "factory": 7916,
      "sombra": 7917,
      "robber": 7918,
      "fingers": 7919,
      "jersey": 7920,
      "aberto": 7921,
      "geralmente": 7922,
      "32": 7923,
      "bou": 7924,
      "wire": 7925,
      "ôs": 7926,
      "cope": 7927,
      "grass": 7928,
      "gary": 7929,
      "poderemos": 7930,
      "ganhou": 7931,
      "secrets": 7932,
      "perguntou": 7933,
      "particip": 7934,
      "eggs": 7935,
      "intelligence": 7936,
      "plenty": 7937,
      "fuma": 7938,
      "endido": 7939,
      "chá": 7940,
      "papa": 7941,
      "plat": 7942,
      "foo": 7943,
      "bye": 7944,
      "passaram": 7945,
      "flash": 7946,
      "standard": 7947,
      "shown": 7948,
      "honour": 7949,
      "facts": 7950,
      "cedor": 7951,
      "difíceis": 7952,
      "alienígen": 7953,
      "conference": 7954,
      "guarantee": 7955,
      "domingo": 7956,
      "ciam": 7957,
      "madeira": 7958,
      "cabeças": 7959,
      "atory": 7960,
      "rush": 7961,
      "leaders": 7962,
      "succe": 7963,
      "indeed": 7964,
      "flag": 7965,
      "mysterious": 7966,
      "chosen": 7967,
      "kent": 7968,
      "tú": 7969,
      "wy": 7970,
      "incl": 7971,
      "remin": 7972,
      "parceiro": 7973,
      "sail": 7974,
      "distur": 7975,
      "dará": 7976,
      "gage": 7977,
      "secreta": 7978,
      "assistente": 7979,
      "religious": 7980,
      "beneath": 7981,
      "dora": 7982,
      "iv": 7983,
      "tall": 7984,
      "forgotten": 7985,
      "divers": 7986,
      "division": 7987,
      "porquê": 7988,
      "negra": 7989,
      "jogos": 7990,
      "presents": 7991,
      "countries": 7992,
      "bush": 7993,
      "believes": 7994,
      "reported": 7995,
      "38": 7996,
      "damos": 7997,
      "vira": 7998,
      "dedo": 7999,
      "leite": 8000,
      "youth": 8001,
      "coma": 8002,
      "comit": 8003,
      "immun": 8004,
      "utter": 8005,
      "cave": 8006,
      "kevin": 8007,
      "guest": 8008,
      "Segun": 8009,
      "southern": 8010,
      "ássemos": 8011,
      "tornando": 8012,
      "necessidade": 8013,
      "centuries": 8014,
      "assuntos": 8015,
      "índia": 8016,
      "tome": 8017,
      "alli": 8018,
      "riding": 8019,
      "sergeant": 8020,
      "barbar": 8021,
      "valent": 8022,
      "fundam": 8023,
      "íssimo": 8024,
      "suppor": 8025,
      "deveríamos": 8026,
      "consist": 8027,
      "Alguém": 8028,
      "connected": 8029,
      "ricky": 8030,
      "edifício": 8031,
      "champion": 8032,
      "acampamento": 8033,
      "iência": 8034,
      "ov": 8035,
      "pill": 8036,
      "çamento": 8037,
      "dozen": 8038,
      "reput": 8039,
      "veter": 8040,
      "caro": 8041,
      "preto": 8042,
      "solic": 8043,
      "vossa": 8044,
      "mexic": 8045,
      "sábado": 8046,
      "potential": 8047,
      "yellow": 8048,
      "piz": 8049,
      "zil": 8050,
      "eses": 8051,
      "teis": 8052,
      "dawn": 8053,
      "actual": 8054,
      "concre": 8055,
      "poll": 8056,
      "traffic": 8057,
      "donna": 8058,
      "jealous": 8059,
      "transforma": 8060,
      "quadr": 8061,
      "custody": 8062,
      "virginia": 8063,
      "vôo": 8064,
      "daily": 8065,
      "betray": 8066,
      "nota": 8067,
      "endere": 8068,
      "jeff": 8069,
      "wanting": 8070,
      "trabalhad": 8071,
      "fund": 8072,
      "importância": 8073,
      "kinds": 8074,
      "regul": 8075,
      "bloody": 8076,
      "pública": 8077,
      "Pensei": 8078,
      "museum": 8079,
      "figh": 8080,
      "mama": 8081,
      "raio": 8082,
      "vier": 8083,
      "fake": 8084,
      "previous": 8085,
      "idores": 8086,
      "resour": 8087,
      "meras": 8088,
      "linhas": 8089,
      "expert": 8090,
      "murderer": 8091,
      "changing": 8092,
      "determined": 8093,
      "Ob": 8094,
      "kers": 8095,
      "pounds": 8096,
      "édia": 8097,
      "tied": 8098,
      "homes": 8099,
      "priest": 8100,
      "counts": 8101,
      "relacion": 8102,
      "sett": 8103,
      "chegaram": 8104,
      "frequ": 8105,
      "recompensa": 8106,
      "maravilhosa": 8107,
      "developed": 8108,
      "wolf": 8109,
      "occurred": 8110,
      "absolut": 8111,
      "permission": 8112,
      "feitas": 8113,
      "frustr": 8114,
      "penal": 8115,
      "horiz": 8116,
      "encontraram": 8117,
      "ataques": 8118,
      "Alg": 8119,
      "determine": 8120,
      "Podemos": 8121,
      "interessado": 8122,
      "Are": 8123,
      "juro": 8124,
      "enfi": 8125,
      "forem": 8126,
      "conec": 8127,
      "tidos": 8128,
      "trap": 8129,
      "pride": 8130,
      "limit": 8131,
      "mirror": 8132,
      "tratado": 8133,
      "vizinhos": 8134,
      "glory": 8135,
      "descoberta": 8136,
      "shirt": 8137,
      "São": 8138,
      "scri": 8139,
      "zinho": 8140,
      "compartil": 8141,
      "empr": 8142,
      "teríamos": 8143,
      "cav": 8144,
      "motion": 8145,
      "grate": 8146,
      "notas": 8147,
      "tortur": 8148,
      "graus": 8149,
      "ligado": 8150,
      "conhecia": 8151,
      "piloto": 8152,
      "details": 8153,
      "ape": 8154,
      "lent": 8155,
      "lisa": 8156,
      "eric": 8157,
      "anel": 8158,
      "ensi": 8159,
      "trin": 8160,
      "massac": 8161,
      "mob": 8162,
      "positive": 8163,
      "disfar": 8164,
      "çada": 8165,
      "ears": 8166,
      "gios": 8167,
      "burning": 8168,
      "bitch": 8169,
      "considering": 8170,
      "percebeu": 8171,
      "serviços": 8172,
      "assumir": 8173,
      "comfortable": 8174,
      "Pa": 8175,
      "Sra": 8176,
      "Vai": 8177,
      "scan": 8178,
      "envir": 8179,
      "aste": 8180,
      "meas": 8181,
      "comed": 8182,
      "congel": 8183,
      "cape": 8184,
      "pendur": 8185,
      "trave": 8186,
      "unique": 8187,
      "highly": 8188,
      "produzir": 8189,
      "revolution": 8190,
      "throat": 8191,
      "morrendo": 8192,
      "chegamos": 8193,
      "participar": 8194,
      "Tr": 8195,
      "aur": 8196,
      "wound": 8197,
      "nowhere": 8198,
      "conse": 8199,
      "peças": 8200,
      "loose": 8201,
      "gato": 8202,
      "juí": 8203,
      "houvesse": 8204,
      "function": 8205,
      "confli": 8206,
      "younger": 8207,
      "hunting": 8208,
      "vídu": 8209,
      "estranhos": 8210,
      "aument": 8211,
      "slowly": 8212,
      "Sinto": 8213,
      "nif": 8214,
      "yon": 8215,
      "ústr": 8216,
      "thol": 8217,
      "infl": 8218,
      "meal": 8219,
      "acel": 8220,
      "posse": 8221,
      "disto": 8222,
      "corda": 8223,
      "ellen": 8224,
      "blan": 8225,
      "poucas": 8226,
      "Todas": 8227,
      "circul": 8228,
      "indivídu": 8229,
      "criminoso": 8230,
      "newspaper": 8231,
      "resultados": 8232,
      "prisoners": 8233,
      "explosion": 8234,
      "Nosso": 8235,
      "ceremony": 8236,
      "600": 8237,
      "iou": 8238,
      "recursos": 8239,
      "desistir": 8240,
      "fright": 8241,
      "mora": 8242,
      "crying": 8243,
      "matando": 8244,
      "doria": 8245,
      "friendship": 8246,
      "identidade": 8247,
      "tests": 8248,
      "rocks": 8249,
      "estúdio": 8250,
      "Havia": 8251,
      "palácio": 8252,
      "oma": 8253,
      "confor": 8254,
      "chines": 8255,
      "rival": 8256,
      "ultra": 8257,
      "mover": 8258,
      "shame": 8259,
      "creating": 8260,
      "apan": 8261,
      "recebi": 8262,
      "presented": 8263,
      "líderes": 8264,
      "arriscar": 8265,
      "manipul": 8266,
      "ancest": 8267,
      "Segundo": 8268,
      "esqu": 8269,
      "rez": 8270,
      "agência": 8271,
      "frut": 8272,
      "plants": 8273,
      "wore": 8274,
      "cheiro": 8275,
      "melh": 8276,
      "esperado": 8277,
      "promessa": 8278,
      "sabiam": 8279,
      "freak": 8280,
      "easily": 8281,
      "screaming": 8282,
      "memories": 8283,
      "resistência": 8284,
      "crowd": 8285,
      "enferme": 8286,
      "semelh": 8287,
      "noble": 8288,
      "peguei": 8289,
      "morgan": 8290,
      "respostas": 8291,
      "ived": 8292,
      "falso": 8293,
      "artist": 8294,
      "brian": 8295,
      "cement": 8296,
      "objeto": 8297,
      "aprendi": 8298,
      "network": 8299,
      "dirigindo": 8300,
      "ield": 8301,
      "revolução": 8302,
      "gathered": 8303,
      "prosecut": 8304,
      "reputation": 8305,
      "gera": 8306,
      "sím": 8307,
      "assure": 8308,
      "quantas": 8309,
      "almas": 8310,
      "refe": 8311,
      "itação": 8312,
      "confort": 8313,
      "butter": 8314,
      "pado": 8315,
      "indústr": 8316,
      "presid": 8317,
      "balan": 8318,
      "brincar": 8319,
      "águas": 8320,
      "estrutura": 8321,
      "method": 8322,
      "environ": 8323,
      "Fal": 8324,
      "aulas": 8325,
      "lamento": 8326,
      "ouvindo": 8327,
      "behalf": 8328,
      "heira": 8329,
      "versão": 8330,
      "guem": 8331,
      "excell": 8332,
      "venda": 8333,
      "mata": 8334,
      "shopping": 8335,
      "identific": 8336,
      "dancing": 8337,
      "systems": 8338,
      "breakfast": 8339,
      "costume": 8340,
      "funcionar": 8341,
      "awful": 8342,
      "waters": 8343,
      "prisioneiros": 8344,
      "praticamente": 8345,
      "behavior": 8346,
      "ricos": 8347,
      "erros": 8348,
      "reação": 8349,
      "teles": 8350,
      "expla": 8351,
      "therap": 8352,
      "discurso": 8353,
      "gritar": 8354,
      "casado": 8355,
      "izing": 8356,
      "apag": 8357,
      "treasure": 8358,
      "simon": 8359,
      "underground": 8360,
      "balance": 8361,
      "setting": 8362,
      "winning": 8363,
      "conversation": 8364,
      "throwing": 8365,
      "temperatura": 8366,
      "condenado": 8367,
      "trocar": 8368,
      "alcohol": 8369,
      "vesti": 8370,
      "beast": 8371,
      "carter": 8372,
      "idor": 8373,
      "darwin": 8374,
      "bless": 8375,
      "spin": 8376,
      "Portanto": 8377,
      "aux": 8378,
      "motorista": 8379,
      "knock": 8380,
      "abriu": 8381,
      "prostitu": 8382,
      "elementos": 8383,
      "oferta": 8384,
      "gação": 8385,
      "rof": 8386,
      "ration": 8387,
      "sacred": 8388,
      "org": 8389,
      "lease": 8390,
      "itation": 8391,
      "commer": 8392,
      "map": 8393,
      "tery": 8394,
      "marsh": 8395,
      "jogou": 8396,
      "shell": 8397,
      "istan": 8398,
      "stranger": 8399,
      "buying": 8400,
      "estaremos": 8401,
      "souber": 8402,
      "salvo": 8403,
      "recep": 8404,
      "jornada": 8405,
      "examin": 8406,
      "healthy": 8407,
      "vulner": 8408,
      "alcance": 8409,
      "celebrate": 8410,
      "Actually": 8411,
      "devolver": 8412,
      "incidente": 8413,
      "mínimo": 8414,
      "equil": 8415,
      "rica": 8416,
      "squad": 8417,
      "ífica": 8418,
      "deira": 8419,
      "iting": 8420,
      "ilum": 8421,
      "utu": 8422,
      "fras": 8423,
      "proto": 8424,
      "minor": 8425,
      "disappeared": 8426,
      "tração": 8427,
      "endendo": 8428,
      "senior": 8429,
      "artigo": 8430,
      "ilegal": 8431,
      "oppos": 8432,
      "acabado": 8433,
      "production": 8434,
      "piano": 8435,
      "religião": 8436,
      "concordar": 8437,
      "extremamente": 8438,
      "pudéssemos": 8439,
      "aonde": 8440,
      "kir": 8441,
      "lindo": 8442,
      "pson": 8443,
      "éias": 8444,
      "anas": 8445,
      "escap": 8446,
      "estic": 8447,
      "concentr": 8448,
      "lido": 8449,
      "chann": 8450,
      "fet": 8451,
      "ionais": 8452,
      "paint": 8453,
      "shock": 8454,
      "salão": 8455,
      "steps": 8456,
      "factor": 8457,
      "éramos": 8458,
      "romper": 8459,
      "destas": 8460,
      "itors": 8461,
      "decisões": 8462,
      "shore": 8463,
      "religion": 8464,
      "influência": 8465,
      "arquivos": 8466,
      "aded": 8467,
      "pical": 8468,
      "wins": 8469,
      "bebe": 8470,
      "guitar": 8471,
      "brings": 8472,
      "diabo": 8473,
      "souls": 8474,
      "workers": 8475,
      "pensamentos": 8476,
      "nasceu": 8477,
      "especiais": 8478,
      "tomando": 8479,
      "wilson": 8480,
      "deserve": 8481,
      "pôs": 8482,
      "aparência": 8483,
      "acaso": 8484,
      "diminu": 8485,
      "grateful": 8486,
      "cities": 8487,
      "mend": 8488,
      "alhas": 8489,
      "alimentar": 8490,
      "iriam": 8491,
      "uring": 8492,
      "advent": 8493,
      "wash": 8494,
      "ets": 8495,
      "vidades": 8496,
      "maldito": 8497,
      "salt": 8498,
      "route": 8499,
      "próximas": 8500,
      "bedroom": 8501,
      "midnight": 8502,
      "pronta": 8503,
      "madame": 8504,
      "consciência": 8505,
      "oblig": 8506,
      "Da": 8507,
      "Fui": 8508,
      "ez": 8509,
      "altar": 8510,
      "iter": 8511,
      "comendo": 8512,
      "elli": 8513,
      "wayne": 8514,
      "haria": 8515,
      "volun": 8516,
      "waves": 8517,
      "Deve": 8518,
      "estraté": 8519,
      "bilhe": 8520,
      "agement": 8521,
      "imaginação": 8522,
      "incredible": 8523,
      "Qualquer": 8524,
      "cerimônia": 8525,
      "comitê": 8526,
      "absolutamente": 8527,
      "mare": 8528,
      "ashed": 8529,
      "demit": 8530,
      "degree": 8531,
      "ales": 8532,
      "tril": 8533,
      "ires": 8534,
      "prat": 8535,
      "elle": 8536,
      "rip": 8537,
      "tile": 8538,
      "mann": 8539,
      "chegada": 8540,
      "volte": 8541,
      "cky": 8542,
      "stands": 8543,
      "levaram": 8544,
      "origem": 8545,
      "removed": 8546,
      "determinar": 8547,
      "fortunate": 8548,
      "prometo": 8549,
      "colega": 8550,
      "pilot": 8551,
      "francês": 8552,
      "sagrado": 8553,
      "gates": 8554,
      "anni": 8555,
      "icate": 8556,
      "saint": 8557,
      "saud": 8558,
      "ridic": 8559,
      "plas": 8560,
      "answers": 8561,
      "jake": 8562,
      "angle": 8563,
      "bucks": 8564,
      "ryan": 8565,
      "gasol": 8566,
      "perguntando": 8567,
      "glória": 8568,
      "divertido": 8569,
      "criação": 8570,
      "gigantes": 8571,
      "threatened": 8572,
      "sisters": 8573,
      "impacto": 8574,
      "36": 8575,
      "75": 8576,
      "ihe": 8577,
      "chose": 8578,
      "senso": 8579,
      "junior": 8580,
      "sangr": 8581,
      "walter": 8582,
      "bolso": 8583,
      "pacífico": 8584,
      "leads": 8585,
      "germans": 8586,
      "vermelha": 8587,
      "merece": 8588,
      "issues": 8589,
      "habilidades": 8590,
      "Would": 8591,
      "kans": 8592,
      "zon": 8593,
      "eria": 8594,
      "beth": 8595,
      "trace": 8596,
      "rier": 8597,
      "images": 8598,
      "colocando": 8599,
      "195": 8600,
      "highest": 8601,
      "fallen": 8602,
      "médica": 8603,
      "fingir": 8604,
      "remote": 8605,
      "testemunho": 8606,
      "industrial": 8607,
      "infeliz": 8608,
      "aside": 8609,
      "acres": 8610,
      "consp": 8611,
      "confl": 8612,
      "motel": 8613,
      "velhas": 8614,
      "cheap": 8615,
      "afun": 8616,
      "spell": 8617,
      "pensamos": 8618,
      "stomach": 8619,
      "specific": 8620,
      "guardi": 8621,
      "aparentemente": 8622,
      "hattan": 8623,
      "impact": 8624,
      "solid": 8625,
      "29": 8626,
      "Mic": 8627,
      "Neste": 8628,
      "lama": 8629,
      "illegal": 8630,
      "vidro": 8631,
      "dose": 8632,
      "torre": 8633,
      "sentiu": 8634,
      "lonely": 8635,
      "japão": 8636,
      "mantém": 8637,
      "authorities": 8638,
      "analis": 8639,
      "fio": 8640,
      "rastre": 8641,
      "decre": 8642,
      "retornar": 8643,
      "novem": 8644,
      "utor": 8645,
      "rail": 8646,
      "Their": 8647,
      "stress": 8648,
      "interview": 8649,
      "burst": 8650,
      "native": 8651,
      "confusão": 8652,
      "dragon": 8653,
      "remembered": 8654,
      "precious": 8655,
      "accepted": 8656,
      "searching": 8657,
      "vazio": 8658,
      "focus": 8659,
      "sessão": 8660,
      "primavera": 8661,
      "emotional": 8662,
      "Char": 8663,
      "cca": 8664,
      "reaction": 8665,
      "primo": 8666,
      "forgot": 8667,
      "terceira": 8668,
      "persua": 8669,
      "plantas": 8670,
      "sip": 8671,
      "pesade": 8672,
      "clima": 8673,
      "aceita": 8674,
      "visões": 8675,
      "calças": 8676,
      "understood": 8677,
      "avó": 8678,
      "counsel": 8679,
      "captured": 8680,
      "tribal": 8681,
      "fuga": 8682,
      "struck": 8683,
      "criminosos": 8684,
      "fugiu": 8685,
      "jerry": 8686,
      "parties": 8687,
      "aumentar": 8688,
      "cabin": 8689,
      "Imagine": 8690,
      "iões": 8691,
      "mall": 8692,
      "hada": 8693,
      "print": 8694,
      "unknown": 8695,
      "pera": 8696,
      "desapareceu": 8697,
      "fech": 8698,
      "propag": 8699,
      "gras": 8700,
      "corações": 8701,
      "colher": 8702,
      "cream": 8703,
      "gray": 8704,
      "tasse": 8705,
      "nascer": 8706,
      "vila": 8707,
      "sexy": 8708,
      "fourth": 8709,
      "groups": 8710,
      "arrive": 8711,
      "philip": 8712,
      "nervoso": 8713,
      "pássaros": 8714,
      "bombarde": 8715,
      "anor": 8716,
      "leep": 8717,
      "beating": 8718,
      "desaparecer": 8719,
      "manhattan": 8720,
      "idéias": 8721,
      "calm": 8722,
      "ambul": 8723,
      "stable": 8724,
      "aconteça": 8725,
      "objetos": 8726,
      "assistant": 8727,
      "funciona": 8728,
      "guards": 8729,
      "advogados": 8730,
      "confirm": 8731,
      "exercis": 8732,
      "lt": 8733,
      "patch": 8734,
      "dean": 8735,
      "regret": 8736,
      "comprom": 8737,
      "verificar": 8738,
      "convent": 8739,
      "suicídio": 8740,
      "despre": 8741,
      "gui": 8742,
      "surround": 8743,
      "transport": 8744,
      "player": 8745,
      "testemunhar": 8746,
      "cells": 8747,
      "Remember": 8748,
      "roubado": 8749,
      "witnesses": 8750,
      "journal": 8751,
      "assault": 8752,
      "inocentes": 8753,
      "survivor": 8754,
      "pertence": 8755,
      "cina": 8756,
      "centes": 8757,
      "gast": 8758,
      "wander": 8759,
      "yers": 8760,
      "lava": 8761,
      "elements": 8762,
      "seek": 8763,
      "matem": 8764,
      "poderosa": 8765,
      "evacu": 8766,
      "contando": 8767,
      "rank": 8768,
      "latest": 8769,
      "suffered": 8770,
      "cigaret": 8771,
      "ordinary": 8772,
      "Gostaria": 8773,
      "excited": 8774,
      "ianos": 8775,
      "asing": 8776,
      "vege": 8777,
      "style": 8778,
      "navios": 8779,
      "absur": 8780,
      "expen": 8781,
      "rescue": 8782,
      "odd": 8783,
      "strate": 8784,
      "choque": 8785,
      "signs": 8786,
      "identity": 8787,
      "guardas": 8788,
      "relações": 8789,
      "idiot": 8790,
      "besides": 8791,
      "candida": 8792,
      "mistur": 8793,
      "máquinas": 8794,
      "develop": 8795,
      "eternal": 8796,
      "valuable": 8797,
      "financial": 8798,
      "responde": 8799,
      "environment": 8800,
      "99": 8801,
      "Tra": 8802,
      "danos": 8803,
      "eda": 8804,
      "pisto": 8805,
      "astr": 8806,
      "tip": 8807,
      "agarr": 8808,
      "exame": 8809,
      "motivos": 8810,
      "gard": 8811,
      "worthy": 8812,
      "planes": 8813,
      "warning": 8814,
      "identified": 8815,
      "quarters": 8816,
      "prontos": 8817,
      "slip": 8818,
      "surrounded": 8819,
      "alliance": 8820,
      "fême": 8821,
      "uí": 8822,
      "porém": 8823,
      "coat": 8824,
      "crise": 8825,
      "matrim": 8826,
      "juli": 8827,
      "wherever": 8828,
      "ântico": 8829,
      "personagem": 8830,
      "borrow": 8831,
      "arrumar": 8832,
      "romance": 8833,
      "digamos": 8834,
      "escondido": 8835,
      "ricul": 8836,
      "cobrir": 8837,
      "quantos": 8838,
      "complain": 8839,
      "tiva": 8840,
      "tradição": 8841,
      "pudessem": 8842,
      "interrup": 8843,
      "babies": 8844,
      "chain": 8845,
      "suspen": 8846,
      "nedy": 8847,
      "questões": 8848,
      "comprome": 8849,
      "ticket": 8850,
      "tunnel": 8851,
      "ially": 8852,
      "wings": 8853,
      "zone": 8854,
      "trigger": 8855,
      "mapa": 8856,
      "terap": 8857,
      "museu": 8858,
      "coln": 8859,
      "grees": 8860,
      "steel": 8861,
      "heading": 8862,
      "italian": 8863,
      "cutting": 8864,
      "vírus": 8865,
      "entirely": 8866,
      "peixes": 8867,
      "discovery": 8868,
      "aproveitar": 8869,
      "cumprir": 8870,
      "incêndio": 8871,
      "ives": 8872,
      "uel": 8873,
      "ódia": 8874,
      "inclusive": 8875,
      "debate": 8876,
      "begins": 8877,
      "unable": 8878,
      "confron": 8879,
      "ficient": 8880,
      "pesca": 8881,
      "oração": 8882,
      "mates": 8883,
      "brains": 8884,
      "político": 8885,
      "estiverem": 8886,
      "lenda": 8887,
      "irmãs": 8888,
      "divór": 8889,
      "espelho": 8890,
      "nations": 8891,
      "wich": 8892,
      "zi": 8893,
      "thee": 8894,
      "theater": 8895,
      "thetic": 8896,
      "hay": 8897,
      "nações": 8898,
      "waited": 8899,
      "tained": 8900,
      "conseguem": 8901,
      "version": 8902,
      "driven": 8903,
      "wishes": 8904,
      "multidão": 8905,
      "ocupado": 8906,
      "ículas": 8907,
      "damente": 8908,
      "gên": 8909,
      "ilet": 8910,
      "kong": 8911,
      "rug": 8912,
      "mars": 8913,
      "trais": 8914,
      "trained": 8915,
      "iami": 8916,
      "largest": 8917,
      "ônios": 8918,
      "quiserem": 8919,
      "collection": 8920,
      "documentos": 8921,
      "cír": 8922,
      "activity": 8923,
      "atravessar": 8924,
      "wealth": 8925,
      "cket": 8926,
      "anál": 8927,
      "enha": 8928,
      "illed": 8929,
      "usada": 8930,
      "lav": 8931,
      "aga": 8932,
      "songs": 8933,
      "apple": 8934,
      "deixaram": 8935,
      "capture": 8936,
      "ligh": 8937,
      "banks": 8938,
      "baseball": 8939,
      "Nossa": 8940,
      "desperate": 8941,
      "treinamento": 8942,
      "possession": 8943,
      "destiny": 8944,
      "éria": 8945,
      "asleep": 8946,
      "alia": 8947,
      "relie": 8948,
      "umo": 8949,
      "liz": 8950,
      "naves": 8951,
      "perf": 8952,
      "nego": 8953,
      "agency": 8954,
      "corps": 8955,
      "lucy": 8956,
      "entrevista": 8957,
      "picking": 8958,
      "pensado": 8959,
      "attacks": 8960,
      "constitu": 8961,
      "During": 8962,
      "crisis": 8963,
      "aust": 8964,
      "aço": 8965,
      "boun": 8966,
      "lil": 8967,
      "degrees": 8968,
      "edward": 8969,
      "portal": 8970,
      "cadá": 8971,
      "exter": 8972,
      "manif": 8973,
      "trauma": 8974,
      "fogue": 8975,
      "avô": 8976,
      "palm": 8977,
      "structure": 8978,
      "murders": 8979,
      "Esses": 8980,
      "perfeitamente": 8981,
      "professional": 8982,
      "Pois": 8983,
      "armário": 8984,
      "pushed": 8985,
      "bruce": 8986,
      "acreditava": 8987,
      "medicina": 8988,
      "cadáver": 8989,
      "Ma": 8990,
      "bás": 8991,
      "ré": 8992,
      "zia": 8993,
      "inher": 8994,
      "icles": 8995,
      "hopes": 8996,
      "manner": 8997,
      "colégio": 8998,
      "chei": 8999,
      "hart": 9000,
      "pessoais": 9001,
      "buf": 9002,
      "ponta": 9003,
      "ideias": 9004,
      "primeiras": 9005,
      "eralmente": 9006,
      "média": 9007,
      "baseado": 9008,
      "cavalheiro": 9009,
      "agreement": 9010,
      "fantasma": 9011,
      "invite": 9012,
      "bíbl": 9013,
      "Tive": 9014,
      "ashes": 9015,
      "det": 9016,
      "altern": 9017,
      "iments": 9018,
      "usá": 9019,
      "ocident": 9020,
      "unusual": 9021,
      "ably": 9022,
      "guests": 9023,
      "breast": 9024,
      "sono": 9025,
      "voltando": 9026,
      "jews": 9027,
      "vingança": 9028,
      "ualmente": 9029,
      "schools": 9030,
      "abandoned": 9031,
      "aboard": 9032,
      "argument": 9033,
      "afirma": 9034,
      "bandeira": 9035,
      "profissional": 9036,
      "dat": 9037,
      "ole": 9038,
      "inner": 9039,
      "suced": 9040,
      "wet": 9041,
      "derram": 9042,
      "someday": 9043,
      "merely": 9044,
      "artes": 9045,
      "ajudando": 9046,
      "bibli": 9047,
      "danças": 9048,
      "flower": 9049,
      "reserva": 9050,
      "equipamento": 9051,
      "arrog": 9052,
      "assistindo": 9053,
      "princípio": 9054,
      "apl": 9055,
      "aves": 9056,
      "bizar": 9057,
      "dolor": 9058,
      "secure": 9059,
      "amigas": 9060,
      "prize": 9061,
      "viar": 9062,
      "voltei": 9063,
      "solution": 9064,
      "ruth": 9065,
      "ânio": 9066,
      "considerando": 9067,
      "organização": 9068,
      "enormous": 9069,
      "windows": 9070,
      "consciente": 9071,
      "regard": 9072,
      "bibliote": 9073,
      "alleg": 9074,
      "teiro": 9075,
      "ami": 9076,
      "trum": 9077,
      "compar": 9078,
      "confin": 9079,
      "sabo": 9080,
      "cake": 9081,
      "neur": 9082,
      "preparado": 9083,
      "upstairs": 9084,
      "tens": 9085,
      "hasse": 9086,
      "clou": 9087,
      "appoint": 9088,
      "woke": 9089,
      "ugly": 9090,
      "mercy": 9091,
      "warn": 9092,
      "bateu": 9093,
      "começam": 9094,
      "cycle": 9095,
      "careful": 9096,
      "clients": 9097,
      "cionar": 9098,
      "temporada": 9099,
      "Muito": 9100,
      "convidados": 9101,
      "citizen": 9102,
      "defeat": 9103,
      "introduce": 9104,
      "Most": 9105,
      "dating": 9106,
      "imed": 9107,
      "skills": 9108,
      "çamos": 9109,
      "amarr": 9110,
      "tria": 9111,
      "soil": 9112,
      "ulha": 9113,
      "proved": 9114,
      "bern": 9115,
      "falava": 9116,
      "mentes": 9117,
      "shower": 9118,
      "mandado": 9119,
      "colocado": 9120,
      "órg": 9121,
      "concern": 9122,
      "claims": 9123,
      "trabalhava": 9124,
      "audiência": 9125,
      "miller": 9126,
      "invasão": 9127,
      "aérea": 9128,
      "spanish": 9129,
      "dimos": 9130,
      "kne": 9131,
      "vance": 9132,
      "elos": 9133,
      "ury": 9134,
      "cai": 9135,
      "suportar": 9136,
      "marin": 9137,
      "iza": 9138,
      "turas": 9139,
      "films": 9140,
      "insist": 9141,
      "passam": 9142,
      "walks": 9143,
      "limited": 9144,
      "considerado": 9145,
      "smaller": 9146,
      "teams": 9147,
      "bowl": 9148,
      "apaixonado": 9149,
      "enviado": 9150,
      "custódia": 9151,
      "histórico": 9152,
      "pizza": 9153,
      "sque": 9154,
      "intent": 9155,
      "deton": 9156,
      "reconhecer": 9157,
      "contest": 9158,
      "sugar": 9159,
      "assinar": 9160,
      "duke": 9161,
      "files": 9162,
      "passos": 9163,
      "passamos": 9164,
      "genius": 9165,
      "continued": 9166,
      "hunter": 9167,
      "distant": 9168,
      "collect": 9169,
      "drinks": 9170,
      "discussão": 9171,
      "profundo": 9172,
      "conduct": 9173,
      "chapéu": 9174,
      "iquei": 9175,
      "enx": 9176,
      "envelo": 9177,
      "igan": 9178,
      "fever": 9179,
      "exi": 9180,
      "indus": 9181,
      "jean": 9182,
      "background": 9183,
      "campus": 9184,
      "artista": 9185,
      "pondo": 9186,
      "pulling": 9187,
      "shots": 9188,
      "grávida": 9189,
      "kansas": 9190,
      "lf": 9191,
      "encial": 9192,
      "civis": 9193,
      "façam": 9194,
      "moves": 9195,
      "areas": 9196,
      "brinc": 9197,
      "various": 9198,
      "uniform": 9199,
      "melhorar": 9200,
      "chamas": 9201,
      "riso": 9202,
      "kennedy": 9203,
      "wives": 9204,
      "estudo": 9205,
      "estudos": 9206,
      "daquelas": 9207,
      "embarr": 9208,
      "miserable": 9209,
      "confidence": 9210,
      "expensive": 9211,
      "Miss": 9212,
      "cate": 9213,
      "centre": 9214,
      "cães": 9215,
      "rand": 9216,
      "rare": 9217,
      "enço": 9218,
      "irland": 9219,
      "laura": 9220,
      "fria": 9221,
      "manage": 9222,
      "bled": 9223,
      "giu": 9224,
      "senhorita": 9225,
      "assassinos": 9226,
      "escaped": 9227,
      "cofre": 9228,
      "inspector": 9229,
      "estudantes": 9230,
      "divórcio": 9231,
      "pink": 9232,
      "esco": 9233,
      "ori": 9234,
      "reward": 9235,
      "importar": 9236,
      "maç": 9237,
      "porra": 9238,
      "adult": 9239,
      "guide": 9240,
      "pago": 9241,
      "talent": 9242,
      "áss": 9243,
      "normally": 9244,
      "perguntei": 9245,
      "produtos": 9246,
      "guardar": 9247,
      "circle": 9248,
      "sistemas": 9249,
      "itiva": 9250,
      "judg": 9251,
      "coloquei": 9252,
      "benefit": 9253,
      "mís": 9254,
      "randy": 9255,
      "ua": 9256,
      "isl": 9257,
      "recru": 9258,
      "noise": 9259,
      "acia": 9260,
      "accompl": 9261,
      "importo": 9262,
      "didos": 9263,
      "suí": 9264,
      "canção": 9265,
      "dish": 9266,
      "gress": 9267,
      "cortes": 9268,
      "interro": 9269,
      "precise": 9270,
      "ganta": 9271,
      "singer": 9272,
      "baixa": 9273,
      "refused": 9274,
      "decisions": 9275,
      "quadro": 9276,
      "jerus": 9277,
      "texto": 9278,
      "fantasia": 9279,
      "espécies": 9280,
      "conscious": 9281,
      "temperature": 9282,
      "mentioned": 9283,
      "kicked": 9284,
      "revenge": 9285,
      "boc": 9286,
      "gela": 9287,
      "miami": 9288,
      "meios": 9289,
      "comuns": 9290,
      "acking": 9291,
      "cathol": 9292,
      "papé": 9293,
      "moça": 9294,
      "disappear": 9295,
      "grac": 9296,
      "marshall": 9297,
      "garagem": 9298,
      "garganta": 9299,
      "cheque": 9300,
      "ênis": 9301,
      "caminha": 9302,
      "chamber": 9303,
      "bana": 9304,
      "flutu": 9305,
      "terreno": 9306,
      "lincoln": 9307,
      "sofrer": 9308,
      "status": 9309,
      "mistério": 9310,
      "competition": 9311,
      "assegurar": 9312,
      "barulho": 9313,
      "papéis": 9314,
      "saté": 9315,
      "vom": 9316,
      "infil": 9317,
      "informed": 9318,
      "endem": 9319,
      "alan": 9320,
      "davis": 9321,
      "empen": 9322,
      "exists": 9323,
      "trapped": 9324,
      "joga": 9325,
      "Seus": 9326,
      "vari": 9327,
      "honesto": 9328,
      "índios": 9329,
      "achado": 9330,
      "badly": 9331,
      "contam": 9332,
      "michel": 9333,
      "winner": 9334,
      "handed": 9335,
      "haveria": 9336,
      "interests": 9337,
      "Meus": 9338,
      "effects": 9339,
      "fancy": 9340,
      "stealing": 9341,
      "escolheu": 9342,
      "conexão": 9343,
      "rout": 9344,
      "sl": 9345,
      "óis": 9346,
      "amado": 9347,
      "acid": 9348,
      "sober": 9349,
      "usam": 9350,
      "paraí": 9351,
      "supr": 9352,
      "brary": 9353,
      "garage": 9354,
      "resgat": 9355,
      "drama": 9356,
      "tongue": 9357,
      "salva": 9358,
      "começamos": 9359,
      "wenty": 9360,
      "bolas": 9361,
      "livres": 9362,
      "romantic": 9363,
      "russos": 9364,
      "ússia": 9365,
      "intend": 9366,
      "rocha": 9367,
      "prisoner": 9368,
      "humili": 9369,
      "atriz": 9370,
      "exciting": 9371,
      "penetr": 9372,
      "resources": 9373,
      "bass": 9374,
      "kling": 9375,
      "sí": 9376,
      "tat": 9377,
      "áreas": 9378,
      "retirar": 9379,
      "emas": 9380,
      "ements": 9381,
      "chut": 9382,
      "muda": 9383,
      "shr": 9384,
      "donald": 9385,
      "cometeu": 9386,
      "bombas": 9387,
      "imagina": 9388,
      "companies": 9389,
      "julia": 9390,
      "convencido": 9391,
      "enterprise": 9392,
      "electr": 9393,
      "launch": 9394,
      "recognize": 9395,
      "aprova": 9396,
      "switch": 9397,
      "comissão": 9398,
      "library": 9399,
      "chat": 9400,
      "chester": 9401,
      "lover": 9402,
      "abenço": 9403,
      "canad": 9404,
      "ficasse": 9405,
      "shine": 9406,
      "darling": 9407,
      "homic": 9408,
      "virus": 9409,
      "nascimento": 9410,
      "Estes": 9411,
      "basket": 9412,
      "pagamento": 9413,
      "silly": 9414,
      "silence": 9415,
      "pôde": 9416,
      "bishop": 9417,
      "occasion": 9418,
      "óbvio": 9419,
      "paraíso": 9420,
      "jó": 9421,
      "ótima": 9422,
      "compra": 9423,
      "acess": 9424,
      "serial": 9425,
      "election": 9426,
      "plastic": 9427,
      "upper": 9428,
      "marcas": 9429,
      "harbor": 9430,
      "howard": 9431,
      "drum": 9432,
      "enses": 9433,
      "grau": 9434,
      "deixaria": 9435,
      "britain": 9436,
[...]
