{
  "version": "1.0",
  "truncation": null,
  "padding": null,
  "added_tokens": [
    {
      "id": 0,
      "content": "<PAD>",
      "single_word": false,
      "lstrip": false,
      "rstrip": false,
      "normalized": false,
      "special": true
    },
    {
      "id": 1,
      "content": "<UNK>",
      "single_word": false,
      "lstrip": false,
      "rstrip": false,
      "normalized": false,
      "special": true
    },
    {
      "id": 2,
      "content": "<CLS>",
      "single_word": false,
      "lstrip": false,
      "rstrip": false,
      "normalized": false,
      "special": true
    },
    {
      "id": 3,
      "content": "<SEP>",
      "single_word": false,
      "lstrip": false,
      "rstrip": false,
      "normalized": false,
      "special": true
    },
    {
      "id": 4,
      "content": "<MASK>",
      "single_word": false,
      "lstrip": false,
      "rstrip": false,
      "normalized": false,
      "special": true
    },
    {
      "id": 5,
      "content": "<BOS>",
      "single_word": false,
      "lstrip": false,
      "rstrip": false,
      "normalized": false,
      "special": true
    },
    {
      "id": 6,
      "content": "<EOS>",
      "single_word": false,
      "lstrip": false,
      "rstrip": false,
      "normalized": false,
      "special": true
    }
  ],
  "normalizer": null,
  "pre_tokenizer": {
    "type": "Whitespace"
  },
  "post_processor": {
    "type": "TemplateProcessing",
    "single": [
      {
        "SpecialToken": {
          "id": "<BOS>",
          "type_id": 0
        }
      },
      {
        "Sequence": {
          "id": "A",
          "type_id": 0
        }
      },
      {
        "SpecialToken": {
          "id": "<EOS>",
          "type_id": 0
        }
      }
    ],
    "pair": [
      {
        "SpecialToken": {
          "id": "<BOS>",
          "type_id": 0
        }
      },
      {
        "Sequence": {
          "id": "A",
          "type_id": 0
        }
      },
      {
        "SpecialToken": {
          "id": "<SEP>",
          "type_id": 0
        }
      },
      {
        "Sequence": {
          "id": "B",
          "type_id": 1
        }
      },
      {
        "SpecialToken": {
          "id": "<EOS>",
          "type_id": 1
        }
      }
    ],
    "special_tokens": {
      "<BOS>": {
        "id": "<BOS>",
        "ids": [
          5
        ],
        "tokens": [
          "<BOS>"
        ]
      },
      "<EOS>": {
        "id": "<EOS>",
        "ids": [
          6
        ],
        "tokens": [
          "<EOS>"
        ]
      },
      "<SEP>": {
        "id": "<SEP>",
        "ids": [
          3
        ],
        "tokens": [
          "<SEP>"
        ]
      }
    }
  },
  "decoder": {
    "type": "BPEDecoder",
    "suffix": "</w>"
  },
  "model": {
    "type": "BPE",
    "dropout": null,
    "unk_token": "<UNK>",
    "continuing_subword_prefix": null,
    "end_of_word_suffix": "</w>",
    "fuse_unk": false,
    "byte_fallback": false,
    "ignore_merges": false,
    "vocab": {
      "<PAD>": 0,
      "<UNK>": 1,
      "<CLS>": 2,
      "<SEP>": 3,
      "<MASK>": 4,
      "<BOS>": 5,
      "<EOS>": 6,
      "!": 7,
      "\"": 8,
      "#": 9,
      "$": 10,
      "%": 11,
      "'": 12,
      "(": 13,
      ")": 14,
      "*": 15,
      "+": 16,
      ",": 17,
      "-": 18,
      ".": 19,
      "/": 20,
      "0": 21,
      "1": 22,
      "2": 23,
      "3": 24,
      "4": 25,
      "5": 26,
      "6": 27,
      "7": 28,
      "8": 29,
      "9": 30,
      ":": 31,
      ";": 32,
      "=": 33,
      "?": 34,
      "@": 35,
      "A": 36,
      "B": 37,
      "C": 38,
      "D": 39,
      "E": 40,
      "F": 41,
      "G": 42,
      "H": 43,
      "I": 44,
      "J": 45,
      "K": 46,
      "L": 47,
      "M": 48,
      "N": 49,
      "O": 50,
      "P": 51,
      "Q": 52,
      "R": 53,
      "S": 54,
      "T": 55,
      "U": 56,
      "V": 57,
      "W": 58,
      "X": 59,
      "Y": 60,
      "Z": 61,
      "[": 62,
      "\\": 63,
      "]": 64,
      "^": 65,
      "_": 66,
      "`": 67,
      "a": 68,
      "b": 69,
      "c": 70,
      "d": 71,
      "e": 72,
      "f": 73,
      "g": 74,
      "h": 75,
      "i": 76,
      "j": 77,
      "k": 78,
      "l": 79,
      "m": 80,
      "n": 81,
      "o": 82,
      "p": 83,
      "q": 84,
      "r": 85,
      "s": 86,
      "t": 87,
      "u": 88,
      "v": 89,
      "w": 90,
      "x": 91,
      "y": 92,
      "z": 93,
      "{": 94,
      "|": 95,
      "}": 96,
      "~": 97,
      "": 98,
      "": 99,
      "": 100,
      "": 101,
      "": 102,
      "": 103,
      "": 104,
      "": 105,
      "": 106,
      "": 107,
      "": 108,
      "": 109,
      "": 110,
      "": 111,
      "": 112,
      "": 113,
      "": 114,
      "": 115,
      "": 116,
      "": 117,
      "": 118,
      "": 119,
      "": 120,
      "": 121,
      "": 122,
      "¡": 123,
      "¢": 124,
      "£": 125,
      "¤": 126,
      "¥": 127,
      "¦": 128,
      "§": 129,
      "¨": 130,
      "©": 131,
      "ª": 132,
      "¬": 133,
      "­": 134,
      "®": 135,
      "¯": 136,
      "°": 137,
      "±": 138,
      "²": 139,
      "³": 140,
      "´": 141,
      "µ": 142,
      "¶": 143,
      "·": 144,
      "¸": 145,
      "¹": 146,
      "º": 147,
      "¼": 148,
      "½": 149,
      "¾": 150,
      "¿": 151,
      "À": 152,
      "Á": 153,
      "Â": 154,
      "Ã": 155,
      "Å": 156,
      "Ç": 157,
      "È": 158,
      "É": 159,
      "Ê": 160,
      "Í": 161,
      "Ï": 162,
      "Ñ": 163,
      "Ò": 164,
      "Ó": 165,
      "Ô": 166,
      "Ö": 167,
      "×": 168,
      "Ú": 169,
      "Ý": 170,
      "ß": 171,
      "à": 172,
      "á": 173,
      "â": 174,
      "ã": 175,
      "ä": 176,
      "å": 177,
      "æ": 178,
      "ç": 179,
      "è": 180,
      "é": 181,
      "ê": 182,
      "ë": 183,
      "ì": 184,
      "í": 185,
      "î": 186,
      "ï": 187,
      "ð": 188,
      "ñ": 189,
      "ò": 190,
      "ó": 191,
      "ô": 192,
      "õ": 193,
      "ö": 194,
      "÷": 195,
      "ø": 196,
      "ù": 197,
      "ú": 198,
      "û": 199,
      "ü": 200,
      "ý": 201,
      "þ": 202,
      "ÿ": 203,
      "ā": 204,
      "ă": 205,
      "ą": 206,
      "ć": 207,
      "č": 208,
      "ď": 209,
      "Đ": 210,
      "đ": 211,
      "ē": 212,
      "ę": 213,
      "ě": 214,
      "ğ": 215,
      "ī": 216,
      "İ": 217,
      "ı": 218,
      "ł": 219,
      "ń": 220,
      "ō": 221,
      "ŏ": 222,
      "ő": 223,
      "œ": 224,
      "ŕ": 225,
      "ř": 226,
      "ś": 227,
      "ŝ": 228,
      "Ş": 229,
      "ş": 230,
      "š": 231,
      "ť": 232,
      "ũ": 233,
      "ū": 234,
      "ź": 235,
      "ż": 236,
      "ž": 237,
      "ơ": 238,
      "ư": 239,
      "ǔ": 240,
      "ǻ": 241,
      "ș": 242,
      "ț": 243,
      "ʒ": 244,
      "ʧ": 245,
      "ʲ": 246,
      "ˆ": 247,
      "˜": 248,
      "̥": 249,
      "̶": 250,
      "΄": 251,
      "Α": 252,
      "Η": 253,
      "Ν": 254,
      "Τ": 255,
      "Υ": 256,
      "ή": 257,
      "α": 258,
      "β": 259,
      "ε": 260,
      "η": 261,
      "κ": 262,
      "μ": 263,
      "ν": 264,
      "ξ": 265,
      "ο": 266,
      "π": 267,
      "ρ": 268,
      "σ": 269,
      "τ": 270,
      "υ": 271,
      "А": 272,
      "В": 273,
      "Н": 274,
      "О": 275,
      "Т": 276,
      "а": 277,
      "г": 278,
      "е": 279,
      "з": 280,
      "й": 281,
      "м": 282,
      "н": 283,
      "о": 284,
      "п": 285,
      "р": 286,
      "с": 287,
      "т": 288,
      "у": 289,
      "х": 290,
      "є": 291,
      "ј": 292,
      "أ": 293,
      "د": 294,
      "ر": 295,
      "ل": 296,
      "م": 297,
      "و": 298,
      "ى": 299,
      "ي": 300,
      "ڑ": 301,
      "ං": 302,
      "ක": 303,
      "ඟ": 304,
      "ද": 305,
      "න": 306,
      "බ": 307,
      "ම": 308,
      "ය": 309,
      "ල": 310,
      "ව": 311,
      "හ": 312,
      "ා": 313,
      "ැ": 314,
      "ි": 315,
      "ෝ": 316,
      "ᵈ": 317,
      "ạ": 318,
      "ả": 319,
      "ấ": 320,
      "ầ": 321,
      "ậ": 322,
      "ắ": 323,
      "ặ": 324,
      "ẽ": 325,
      "ế": 326,
      "ề": 327,
      "ể": 328,
      "ễ": 329,
      "ệ": 330,
      "ỉ": 331,
      "ị": 332,
      "ọ": 333,
      "ỏ": 334,
      "ố": 335,
      "ồ": 336,
      "ổ": 337,
      "ộ": 338,
      "ớ": 339,
      "ờ": 340,
      "ở": 341,
      "ỡ": 342,
      "ợ": 343,
      "ủ": 344,
      "ứ": 345,
      "ừ": 346,
      "ữ": 347,
      "ự": 348,
      "​": 349,
      "‎": 350,
      "‐": 351,
      "‒": 352,
      "–": 353,
      "—": 354,
      "―": 355,
      "‚": 356,
      "•": 357,
      "‪": 358,
      "‫": 359,
      "‬": 360,
      "‭": 361,
      "‰": 362,
      "ⁿ": 363,
      "₩": 364,
      "€": 365,
      "™": 366,
      "─": 367,
      "■": 368,
      "★": 369,
      "☆": 370,
      "♥": 371,
      "♪": 372,
      "♫": 373,
      "♬": 374,
      "乾": 375,
      "兌": 376,
      "品": 377,
      "坎": 378,
      "坤": 379,
      "嫕": 380,
      "州": 381,
      "巽": 382,
      "抮": 383,
      "桜": 384,
      "炄": 385,
      "璉": 386,
      "秋": 387,
      "穰": 388,
      "精": 389,
      "絈": 390,
      "絜": 391,
      "艮": 392,
      "通": 393,
      "遺": 394,
      "離": 395,
      "震": 396,
      "靖": 397,
      "韘": 398,
      "馥": 399,
      "남": 400,
      "님": 401,
      "밡": 402,
      "유": 403,
      "품": 404,
      "ﬁ": 405,
      "ﬂ": 406,
      "﻿": 407,
      "，": 408,
      "￡": 409,
      "�": 410,
      "o</w>": 411,
      "r</w>": 412,
      "e</w>": 413,
      "d</w>": 414,
      "s</w>": 415,
      "u</w>": 416,
      "n</w>": 417,
      "i</w>": 418,
      "a</w>": 419,
      "á</w>": 420,
      "h</w>": 421,
      "m</w>": 422,
      "z</w>": 423,
      "v</w>": 424,
      "l</w>": 425,
      "p</w>": 426,
      "t</w>": 427,
      "f</w>": 428,
      "0</w>": 429,
      "g</w>": 430,
      "x</w>": 431,
      "y</w>": 432,
      "º</w>": 433,
      "1</w>": 434,
      "ã</w>": 435,
      "c</w>": 436,
      "k</w>": 437,
      "â</w>": 438,
      "4</w>": 439,
      "</w>": 440,
      ".</w>": 441,
      "ô</w>": 442,
      "\"</w>": 443,
      "q</w>": 444,
      "æ</w>": 445,
      "b</w>": 446,
      "ê</w>": 447,
      "6</w>": 448,
      "í</w>": 449,
      "7</w>": 450,
      "3</w>": 451,
      "w</w>": 452,
      "5</w>": 453,
      "2</w>": 454,
      "+</w>": 455,
      "à</w>": 456,
      "j</w>": 457,
      "$</w>": 458,
      "8</w>": 459,
      ",</w>": 460,
      "♫</w>": 461,
      "é</w>": 462,
      "9</w>": 463,
      "?</w>": 464,
      "î</w>": 465,
      "ó</w>": 466,
      "ª</w>": 467,
      "'</w>": 468,
      "ł</w>": 469,
      "è</w>": 470,
      "ō</w>": 471,
      "ä</w>": 472,
      "ü</w>": 473,
      "</w>": 474,
      "穰</w>": 475,
      "♬</w>": 476,
      "ş</w>": 477,
      "‫</w>": 478,
      "¥</w>": 479,
      "ò</w>": 480,
      "α</w>": 481,
      "/</w>": 482,
      "]</w>": 483,
      "</w>": 484,
      "ø</w>": 485,
      "=</w>": 486,
      "е</w>": 487,
      "ú</w>": 488,
      "‐</w>": 489,
      ";</w>": 490,
      ":</w>": 491,
      ")</w>": 492,
      "ß</w>": 493,
      "þ</w>": 494,
      "å</w>": 495,
      "ï</w>": 496,
      "(</w>": 497,
      "</w>": 498,
      "°</w>": 499,
      "-</w>": 500,
      "ç</w>": 501,
      "ο</w>": 502,
      "­</w>": 503,
      "*</w>": 504,
      "D</w>": 505,
      "ę</w>": 506,
      "ć</w>": 507,
      "</w>": 508,
      "ි</w>": 509,
      "Â</w>": 510,
      "κ</w>": 511,
      "!</w>": 512,
      "★</w>": 513,
      "</w>": 514,
      "﻿</w>": 515,
      "˜</w>": 516,
      "</w>": 517,
      "</w>": 518,
      "♪</w>": 519,
      "♥</w>": 520,
      "ř</w>": 521,
      "_</w>": 522,
      "̥</w>": 523,
      "J</w>": 524,
      "΄</w>": 525,
      "õ</w>": 526,
      "#</w>": 527,
      "–</w>": 528,
      "É</w>": 529,
      "ŕ</w>": 530,
      "·</w>": 531,
      "`</w>": 532,
      "ă</w>": 533,
      "[</w>": 534,
      "ö</w>": 535,
      "—</w>": 536,
      "|</w>": 537,
      "ư</w>": 538,
      "ổ</w>": 539,
      "巽</w>": 540,
      "§</w>": 541,
      "ủ</w>": 542,
      "ỡ</w>": 543,
      "G</w>": 544,
      "離</w>": 545,
      "у</w>": 546,
      "</w>": 547,
      "품</w>": 548,
      "U</w>": 549,
      "�</w>": 550,
      "ل</w>": 551,
      "‒</w>": 552,
      "‬</w>": 553,
      "Z</w>": 554,
      "~</w>": 555,
      "F</w>": 556,
      "½</w>": 557,
      "</w>": 558,
      "™</w>": 559,
      "ť</w>": 560,
      "ả</w>": 561,
      "£</w>": 562,
      "絈</w>": 563,
      "п</w>": 564,
      "ū</w>": 565,
      "，</w>": 566,
      "´</w>": 567,
      "@</w>": 568,
      "ì</w>": 569,
      "ñ</w>": 570,
      "N</w>": 571,
      "¹</w>": 572,
      "ś</w>": 573,
      "K</w>": 574,
      "‎</w>": 575,
      "×</w>": 576,
      "¯</w>": 577,
      "ë</w>": 578,
      "А</w>": 579,
      "р</w>": 580,
      "ự</w>": 581,
      "ệ</w>": 582,
      "¢</w>": 583,
      "兌</w>": 584,
      "ං</w>": 585,
      "ğ</w>": 586,
      "û</w>": 587,
      "¦</w>": 588,
      "ě</w>": 589,
      "</w>": 590,
      "%</w>": 591,
      "œ</w>": 592,
      "Ò</w>": 593,
      "ي</w>": 594,
      "―</w>": 595,
      "Ê</w>": 596,
      "</w>": 597,
      "±</w>": 598,
      "</w>": 599,
      "©</w>": 600,
      "￡</w>": 601,
      "P</w>": 602,
      "•</w>": 603,
      "</w>": 604,
      "ẽ</w>": 605,
      "震</w>": 606,
      "V</w>": 607,
      "ρ</w>": 608,
      "ừ</w>": 609,
      "و</w>": 610,
      "ද</w>": 611,
      "Y</w>": 612,
      "R</w>": 613,
      "ź</w>": 614,
      "─</w>": 615,
      "أ</w>": 616,
      "ế</w>": 617,
      "υ</w>": 618,
      "ā</w>": 619,
      "L</w>": 620,
      "​</w>": 621,
      "ù</w>": 622,
      "W</w>": 623,
      "ﬂ</w>": 624,
      "¡</w>": 625,
      "C</w>": 626,
      "є</w>": 627,
      "Q</w>": 628,
      "品</w>": 629,
      "X</w>": 630,
      "È</w>": 631,
      "</w>": 632,
      "T</w>": 633,
      "ή</w>": 634,
      "Ö</w>": 635,
      "}</w>": 636,
      "÷</w>": 637,
      "‭</w>": 638,
      "¬</w>": 639,
      "남</w>": 640,
      "ũ</w>": 641,
      "</w>": 642,
      "州</w>": 643,
      "ể</w>": 644,
      "ᵈ</w>": 645,
      "ē</w>": 646,
      "ý</w>": 647,
      "\\</w>": 648,
      "靖</w>": 649,
      "¶</w>": 650,
      "¸</w>": 651,
      "م</w>": 652,
      "坎</w>": 653,
      "B</w>": 654,
      "о</w>": 655,
      "₩</w>": 656,
      "ề</w>": 657,
      "č</w>": 658,
      "‰</w>": 659,
      "š</w>": 660,
      "а</w>": 661,
      "{</w>": 662,
      "</w>": 663,
      "¿</w>": 664,
      "ỉ</w>": 665,
      "</w>": 666,
      "đ</w>": 667,
      "Ï</w>": 668,
      "O</w>": 669,
      "®</w>": 670,
      "^</w>": 671,
      "S</w>": 672,
      "■</w>": 673,
      "</w>": 674,
      "精</w>": 675,
      "H</w>": 676,
      "Ó</w>": 677,
      "</w>": 678,
      "ứ</w>": 679,
      "‚</w>": 680,
      "ở</w>": 681,
      "ð</w>": 682,
      "Ã</w>": 683,
      "</w>": 684,
      "¤</w>": 685,
      "В</w>": 686,
      "님</w>": 687,
      "A</w>": 688,
      "乾</w>": 689,
      "¨</w>": 690,
      "ǔ</w>": 691,
      "€</w>": 692,
      "³</w>": 693,
      "ڑ</w>": 694,
      "¼</w>": 695,
      "ị</w>": 696,
      "</w>": 697,
      "‪</w>": 698,
      "π</w>": 699,
      "ố</w>": 700,
      "ī</w>": 701,
      "桜</w>": 702,
      "M</w>": 703,
      "À</w>": 704,
      "Ô</w>": 705,
      "µ</w>": 706,
      "ˆ</w>": 707,
      "坤</w>": 708,
      "ى</w>": 709,
      "E</w>": 710,
      "ș</w>": 711,
      "د</w>": 712,
      "</w>": 713,
      "²</w>": 714,
      "ž</w>": 715,
      "I</w>": 716,
      "ÿ</w>": 717,
      "ʒ</w>": 718,
      "Υ</w>": 719,
      "</w>": 720,
      "絜</w>": 721,
      "ợ</w>": 722,
      "¾</w>": 723,
      "̶</w>": 724,
      "Á</w>": 725,
      "艮</w>": 726,
      "th": 727,
      "an": 728,
      "in": 729,
      "er": 730,
      "en": 731,
      "ar": 732,
      "es": 733,
      "qu": 734,
      "co": 735,
      "as</w>": 736,
      "to</w>": 737,
      "er</w>": 738,
      "the</w>": 739,
      "de</w>": 740,
      "os</w>": 741,
      "do</w>": 742,
      "or": 743,
      "al": 744,
      "el": 745,
      "que</w>": 746,
      "ou": 747,
      "re": 748,
      "ou</w>": 749,
      "ti": 750,
      "es</w>": 751,
      "ão</w>": 752,
      "ing</w>": 753,
      "is</w>": 754,
      "on": 755,
      "is": 756,
      "and</w>": 757,
      "ar</w>": 758,
      "tr": 759,
      "at</w>": 760,
      "ca": 761,
      "em</w>": 762,
      "it": 763,
      "or</w>": 764,
      "ed</w>": 765,
      "se</w>": 766,
      "ma": 767,
      "pr": 768,
      "on</w>": 769,
      "of</w>": 770,
      "..</w>": 771,
      "par": 772,
      "di": 773,
      "te</w>": 774,
      "me</w>": 775,
      "...</w>": 776,
      "se": 777,
      "you</w>": 778,
      "ta": 779,
      "da</w>": 780,
      "in</w>": 781,
      "no": 782,
      "ha": 783,
      "li": 784,
      "ac": 785,
      "de": 786,
      "ri": 787,
      "oc": 788,
      "ve</w>": 789,
      "that</w>": 790,
      "con": 791,
      "po": 792,
      "il": 793,
      "un": 794,
      "me": 795,
      "as": 796,
      "ma</w>": 797,
      "wh": 798,
      "um</w>": 799,
      "ur": 800,
      "ci": 801,
      "en</w>": 802,
      "am": 803,
      "so": 804,
      "us": 805,
      "para</w>": 806,
      "ir": 807,
      "at": 808,
      "be": 809,
      "so</w>": 810,
      "est": 811,
      "it</w>": 812,
      "ic": 813,
      "le": 814,
      "he</w>": 815,
      "com": 816,
      "ab": 817,
      "ch": 818,
      "te": 819,
      "to": 820,
      "da": 821,
      "men": 822,
      "não</w>": 823,
      "su": 824,
      "ro": 825,
      "vi": 826,
      "uma</w>": 827,
      "ul": 828,
      "al</w>": 829,
      "ando</w>": 830,
      "le</w>": 831,
      "lo": 832,
      "si": 833,
      "ho": 834,
      "ere</w>": 835,
      "pe": 836,
      "ver": 837,
      "ocê</w>": 838,
      "am</w>": 839,
      "ia</w>": 840,
      "per": 841,
      "ent": 842,
      "ag": 843,
      "st": 844,
      "eu</w>": 845,
      "com</w>": 846,
      "our</w>": 847,
      "ut</w>": 848,
      "você</w>": 849,
      "ly</w>": 850,
      "gu": 851,
      "for": 852,
      "ad": 853,
      "ne": 854,
      "for</w>": 855,
      "sa": 856,
      "no</w>": 857,
      "ig": 858,
      "pro": 859,
      "ol": 860,
      "was</w>": 861,
      "ke</w>": 862,
      "ra": 863,
      "mas</w>": 864,
      "an</w>": 865,
      "na</w>": 866,
      "we</w>": 867,
      "ith</w>": 868,
      "mo": 869,
      "out</w>": 870,
      "ce</w>": 871,
      "ha</w>": 872,
      "go": 873,
      "be</w>": 874,
      "the": 875,
      "with</w>": 876,
      "ve": 877,
      "ter": 878,
      "mos</w>": 879,
      "re</w>": 880,
      "ele</w>": 881,
      "ver</w>": 882,
      "min": 883,
      "ex": 884,
      "des": 885,
      "ter</w>": 886,
      "por": 887,
      "one</w>": 888,
      "dos</w>": 889,
      "fa": 890,
      "my</w>": 891,
      "this</w>": 892,
      "he": 893,
      "ção</w>": 894,
      "but</w>": 895,
      "us</w>": 896,
      "have</w>": 897,
      "do": 898,
      "ta</w>": 899,
      "ht</w>": 900,
      "por</w>": 901,
      "bo": 902,
      "all</w>": 903,
      "ld</w>": 904,
      "pa": 905,
      "ir</w>": 906,
      "now</w>": 907,
      "va</w>": 908,
      "sa</w>": 909,
      "fe": 910,
      "your</w>": 911,
      "ela</w>": 912,
      "fi": 913,
      "pl": 914,
      "ho</w>": 915,
      "man": 916,
      "mor": 917,
      "tion</w>": 918,
      "ge": 919,
      "mb": 920,
      "como</w>": 921,
      "pre": 922,
      "pen": 923,
      "fo": 924,
      "im": 925,
      "car": 926,
      "go</w>": 927,
      "mu": 928,
      "dis": 929,
      "der": 930,
      "ther</w>": 931,
      "nd</w>": 932,
      "mais</w>": 933,
      "res": 934,
      "his</w>": 935,
      "ust</w>": 936,
      "ts</w>": 937,
      "im</w>": 938,
      "they</w>": 939,
      "ente</w>": 940,
      "ado</w>": 941,
      "can</w>": 942,
      "her</w>": 943,
      "are</w>": 944,
      "esta": 945,
      "wa": 946,
      "ito</w>": 947,
      "lu": 948,
      "if</w>": 949,
      "gr": 950,
      "dade</w>": 951,
      "cor": 952,
      "thing</w>": 953,
      "use</w>": 954,
      "wor": 955,
      "know</w>": 956,
      "ell</w>": 957,
      "fro": 958,
      "ass": 959,
      "ten": 960,
      "not</w>": 961,
      "st</w>": 962,
      "op": 963,
      "mente</w>": 964,
      "from</w>": 965,
      "like</w>": 966,
      "tu": 967,
      "ill</w>": 968,
      "zer</w>": 969,
      "king</w>": 970,
      "mp": 971,
      "sh": 972,
      "sua</w>": 973,
      "das</w>": 974,
      "ds</w>": 975,
      "ant": 976,
      "ent</w>": 977,
      "ould</w>": 978,
      "seu</w>": 979,
      "ing": 980,
      "der</w>": 981,
      "just</w>": 982,
      "aqu": 983,
      "ce": 984,
      "tra": 985,
      "ess": 986,
      "oug": 987,
      "ser": 988,
      "mar": 989,
      "up</w>": 990,
      "ch</w>": 991,
      "cause</w>": 992,
      "ça</w>": 993,
      "who</w>": 994,
      "está</w>": 995,
      "pes": 996,
      "amos</w>": 997,
      "fic": 998,
      "what</w>": 999,
      "ll</w>": 1000,
      "br": 1001,
      "about</w>": 1002,
      "la": 1003,
      "isso</w>": 1004,
      "ant</w>": 1005,
      "when</w>": 1006,
      "ém</w>": 1007,
      "na": 1008,
      "gi": 1009,
      "ora</w>": 1010,
      "quando</w>": 1011,
      "ally</w>": 1012,
      "has</w>": 1013,
      "wn</w>": 1014,
      "ca</w>": 1015,
      "there</w>": 1016,
      "pos": 1017,
      "co</w>": 1018,
      "by</w>": 1019,
      "va": 1020,
      "tur": 1021,
      "fin": 1022,
      "will</w>": 1023,
      "jo": 1024,
      "sen": 1025,
      "ser</w>": 1026,
      "man</w>": 1027,
      "she</w>": 1028,
      "fu": 1029,
      "pres": 1030,
      "eles</w>": 1031,
      "get</w>": 1032,
      "tin": 1033,
      "mo</w>": 1034,
      "du": 1035,
      "contr": 1036,
      "ões</w>": 1037,
      "th</w>": 1038,
      "ev": 1039,
      "foi</w>": 1040,
      "had</w>": 1041,
      "ec": 1042,
      "fer": 1043,
      "ao</w>": 1044,
      "here</w>": 1045,
      "cia</w>": 1046,
      "ge</w>": 1047,
      "we": 1048,
      "mon": 1049,
      "str": 1050,
      "cri": 1051,
      "would</w>": 1052,
      "ist": 1053,
      "id": 1054,
      "some": 1055,
      "col": 1056,
      "cer": 1057,
      "were</w>": 1058,
      "ix": 1059,
      "ru": 1060,
      "him</w>": 1061,
      "pesso": 1062,
      "ack</w>": 1063,
      "ye": 1064,
      "ight</w>": 1065,
      "time</w>": 1066,
      "ite</w>": 1067,
      "ting</w>": 1068,
      "mes": 1069,
      "because</w>": 1070,
      "And</w>": 1071,
      "don</w>": 1072,
      "ted</w>": 1073,
      "nos": 1074,
      "way</w>": 1075,
      "porque</w>": 1076,
      "cre": 1077,
      "pri": 1078,
      "ers</w>": 1079,
      "sob": 1080,
      "ess</w>": 1081,
      "endo</w>": 1082,
      "ys</w>": 1083,
      "ali": 1084,
      "iro</w>": 1085,
      "ga": 1086,
      "em": 1087,
      "sab": 1088,
      "sta": 1089,
      "ante</w>": 1090,
      "ad</w>": 1091,
      "fr": 1092,
      "fe</w>": 1093,
      "thin": 1094,
      "of": 1095,
      "ap": 1096,
      "very</w>": 1097,
      "tem</w>": 1098,
      "how</w>": 1099,
      "esse</w>": 1100,
      "The</w>": 1101,
      "nos</w>": 1102,
      "fil": 1103,
      "tos</w>": 1104,
      "minha</w>": 1105,
      "meu</w>": 1106,
      "coul": 1107,
      "era</w>": 1108,
      "tor": 1109,
      "ity</w>": 1110,
      "vol": 1111,
      "into</w>": 1112,
      "rig": 1113,
      "tar</w>": 1114,
      "cois": 1115,
      "cis": 1116,
      "entr": 1117,
      "muito</w>": 1118,
      "ons</w>": 1119,
      "ound</w>": 1120,
      "id</w>": 1121,
      "tal": 1122,
      "então</w>": 1123,
      "est</w>": 1124,
      "ople</w>": 1125,
      "ra</w>": 1126,
      "outr": 1127,
      "quer": 1128,
      "been</w>": 1129,
      "day</w>": 1130,
      "sobre</w>": 1131,
      "sel": 1132,
      "their</w>": 1133,
      "people</w>": 1134,
      "od</w>": 1135,
      "and": 1136,
      "gar</w>": 1137,
      "fal": 1138,
      "estava</w>": 1139,
      "che": 1140,
      "cl": 1141,
      "ok</w>": 1142,
      "af": 1143,
      "cul": 1144,
      "ace</w>": 1145,
      "then</w>": 1146,
      "ên": 1147,
      "gar": 1148,
      "ós</w>": 1149,
      "pi": 1150,
      "vez</w>": 1151,
      "eli": 1152,
      "são</w>": 1153,
      "vo</w>": 1154,
      "tão</w>": 1155,
      "fazer</w>": 1156,
      "anto</w>": 1157,
      "them</w>": 1158,
      "cu": 1159,
      "pu": 1160,
      "ira</w>": 1161,
      "Eu</w>": 1162,
      "ough</w>": 1163,
      "ju": 1164,
      "anos</w>": 1165,
      "ação</w>": 1166,
      "ment</w>": 1167,
      "ke": 1168,
      "vel</w>": 1169,
      "bi": 1170,
      "ei</w>": 1171,
      "esti": 1172,
      "ong</w>": 1173,
      "mil": 1174,
      "dia</w>": 1175,
      "ying</w>": 1176,
      "could</w>": 1177,
      "ês</w>": 1178,
      "ast</w>": 1179,
      "mis": 1180,
      "You</w>": 1181,
      "aqui</w>": 1182,
      "ty</w>": 1183,
      "ks</w>": 1184,
      "dn</w>": 1185,
      "cha": 1186,
      "some</w>": 1187,
      "pode</w>": 1188,
      "think</w>": 1189,
      "pel": 1190,
      "fam": 1191,
      "bu": 1192,
      "ni": 1193,
      "sti": 1194,
      "fir": 1195,
      "rio</w>": 1196,
      "other</w>": 1197,
      "more</w>": 1198,
      "sur": 1199,
      "ard</w>": 1200,
      "av": 1201,
      "uni": 1202,
      "tri": 1203,
      "\".</w>": 1204,
      "dy</w>": 1205,
      "our": 1206,
      "back</w>": 1207,
      "ars</w>": 1208,
      "ria</w>": 1209,
      "mento</w>": 1210,
      "ich</w>": 1211,
      "ba": 1212,
      "cr": 1213,
      "gun": 1214,
      "temp": 1215,
      "quer</w>": 1216,
      "ked</w>": 1217,
      "pois</w>": 1218,
      "antes</w>": 1219,
      "dar</w>": 1220,
      "todos</w>": 1221,
      "got</w>": 1222,
      "ings</w>": 1223,
      "mi": 1224,
      "vida</w>": 1225,
      "pessoas</w>": 1226,
      "ven": 1227,
      "ain": 1228,
      "mel": 1229,
      "vai</w>": 1230,
      "guém</w>": 1231,
      "ine</w>": 1232,
      "esta</w>": 1233,
      "inter": 1234,
      "até</w>": 1235,
      "want</w>": 1236,
      "el</w>": 1237,
      "ding</w>": 1238,
      "pp": 1239,
      "ada</w>": 1240,
      "where</w>": 1241,
      "Qu": 1242,
      "gra": 1243,
      "son</w>": 1244,
      "ja</w>": 1245,
      "gre": 1246,
      "which</w>": 1247,
      "segu": 1248,
      "ções</w>": 1249,
      "ese</w>": 1250,
      "mun": 1251,
      "hu": 1252,
      "vis": 1253,
      "tudo</w>": 1254,
      "come</w>": 1255,
      "new</w>": 1256,
      "comp": 1257,
      "só</w>": 1258,
      "see</w>": 1259,
      "aram</w>": 1260,
      "precis": 1261,
      "aria</w>": 1262,
      "led</w>": 1263,
      "ance</w>": 1264,
      "vo": 1265,
      "tle</w>": 1266,
      "ores</w>": 1267,
      "lit": 1268,
      "right</w>": 1269,
      "au": 1270,
      "gen": 1271,
      "sp": 1272,
      "only</w>": 1273,
      "wi": 1274,
      "io</w>": 1275,
      "abal": 1276,
      "Se</w>": 1277,
      "oun": 1278,
      "vel": 1279,
      "sei</w>": 1280,
      "make</w>": 1281,
      "bl": 1282,
      "po</w>": 1283,
      "any</w>": 1284,
      "gon": 1285,
      "tw": 1286,
      "seus</w>": 1287,
      "pe</w>": 1288,
      "trabal": 1289,
      "ica</w>": 1290,
      "ados</w>": 1291,
      "lo</w>": 1292,
      "tel": 1293,
      "cal": 1294,
      "la</w>": 1295,
      "Mas</w>": 1296,
      "ro</w>": 1297,
      "bem</w>": 1298,
      "almente</w>": 1299,
      "But</w>": 1300,
      "ble</w>": 1301,
      "ob": 1302,
      "going</w>": 1303,
      "ous</w>": 1304,
      "ving</w>": 1305,
      "tre": 1306,
      "port": 1307,
      "este</w>": 1308,
      "ço</w>": 1309,
      "tran": 1310,
      "can": 1311,
      "ência</w>": 1312,
      "et</w>": 1313,
      "00</w>": 1314,
      "over</w>": 1315,
      "nós</w>": 1316,
      "life</w>": 1317,
      "ber": 1318,
      "come": 1319,
      "indo</w>": 1320,
      "deix": 1321,
      "rel": 1322,
      "It</w>": 1323,
      "ence</w>": 1324,
      "bri": 1325,
      "sin": 1326,
      "mer": 1327,
      "mul": 1328,
      "ose</w>": 1329,
      "ct</w>": 1330,
      "take</w>": 1331,
      "wo": 1332,
      "agora</w>": 1333,
      "sem</w>": 1334,
      "any": 1335,
      "gonna</w>": 1336,
      "tempo</w>": 1337,
      "poder": 1338,
      "ais</w>": 1339,
      "há</w>": 1340,
      "than</w>": 1341,
      "Wh": 1342,
      "ves</w>": 1343,
      "dizer</w>": 1344,
      "cur": 1345,
      "cal</w>": 1346,
      "quanto</w>": 1347,
      "je": 1348,
      "fore</w>": 1349,
      "ever": 1350,
      "mesmo</w>": 1351,
      "que": 1352,
      "If</w>": 1353,
      "sim</w>": 1354,
      "tes</w>": 1355,
      "En": 1356,
      "fri": 1357,
      "onde</w>": 1358,
      "disse</w>": 1359,
      "ang": 1360,
      "ati": 1361,
      "hor</w>": 1362,
      "ling</w>": 1363,
      "down</w>": 1364,
      "pass": 1365,
      "plan": 1366,
      "casa</w>": 1367,
      "We</w>": 1368,
      "these</w>": 1369,
      "hel": 1370,
      "Não</w>": 1371,
      "years</w>": 1372,
      "essa</w>": 1373,
      "even</w>": 1374,
      "estão</w>": 1375,
      "fun": 1376,
      "dire": 1377,
      "every": 1378,
      "self</w>": 1379,
      "end</w>": 1380,
      "cos</w>": 1381,
      "mã": 1382,
      "really</w>": 1383,
      "ph": 1384,
      "two</w>": 1385,
      "ought</w>": 1386,
      "depois</w>": 1387,
      "pelo</w>": 1388,
      "tru": 1389,
      "ste": 1390,
      "encontr": 1391,
      "first</w>": 1392,
      "little</w>": 1393,
      "tec": 1394,
      "something</w>": 1395,
      "algo</w>": 1396,
      "mes</w>": 1397,
      "ation</w>": 1398,
      "ento</w>": 1399,
      "mundo</w>": 1400,
      "ded</w>": 1401,
      "cas": 1402,
      "say</w>": 1403,
      "pon": 1404,
      "hor": 1405,
      "ita</w>": 1406,
      "before</w>": 1407,
      "coisa</w>": 1408,
      "har</w>": 1409,
      "ck</w>": 1410,
      "din": 1411,
      "hos</w>": 1412,
      "tal</w>": 1413,
      "ani": 1414,
      "ved</w>": 1415,
      "So</w>": 1416,
      "star": 1417,
      "her": 1418,
      "tinha</w>": 1419,
      "ning</w>": 1420,
      "tas</w>": 1421,
      "cho": 1422,
      "spe": 1423,
      "ate</w>": 1424,
      "enti": 1425,
      "stu": 1426,
      "sho": 1427,
      "red</w>": 1428,
      "off</w>": 1429,
      "after</w>": 1430,
      "world</w>": 1431,
      "ança</w>": 1432,
      "body</w>": 1433,
      "om</w>": 1434,
      "age</w>": 1435,
      "entes</w>": 1436,
      "able</w>": 1437,
      "cap": 1438,
      "cial</w>": 1439,
      "hou": 1440,
      "vou</w>": 1441,
      "ind</w>": 1442,
      "ol</w>": 1443,
      "Você</w>": 1444,
      "har": 1445,
      "alg": 1446,
      "inv": 1447,
      "mag": 1448,
      "bar": 1449,
      "tor</w>": 1450,
      "pas": 1451,
      "estou</w>": 1452,
      "fac": 1453,
      "dif": 1454,
      "sos</w>": 1455,
      "voc": 1456,
      "thr": 1457,
      "sal": 1458,
      "pra</w>": 1459,
      "alguém</w>": 1460,
      "car</w>": 1461,
      "ga</w>": 1462,
      "faz": 1463,
      "tell</w>": 1464,
      "prime": 1465,
      "men</w>": 1466,
      "mim</w>": 1467,
      "most</w>": 1468,
      "ls</w>": 1469,
      "ry</w>": 1470,
      "bet": 1471,
      "pró": 1472,
      "ban": 1473,
      "coisas</w>": 1474,
      "ice</w>": 1475,
      "hom": 1476,
      "ever</w>": 1477,
      "dur": 1478,
      "said</w>": 1479,
      "mat": 1480,
      "esper": 1481,
      "conhe": 1482,
      "pela</w>": 1483,
      "never</w>": 1484,
      "coun": 1485,
      "ina</w>": 1486,
      "emos</w>": 1487,
      "pul": 1488,
      "nor": 1489,
      "did</w>": 1490,
      "sig": 1491,
      "Well</w>": 1492,
      "qui": 1493,
      "prob": 1494,
      "des</w>": 1495,
      "zes</w>": 1496,
      "onal</w>": 1497,
      "tar": 1498,
      "todo</w>": 1499,
      "dele</w>": 1500,
      "noite</w>": 1501,
      "pens": 1502,
      "tive</w>": 1503,
      "didn</w>": 1504,
      "ws</w>": 1505,
      "za</w>": 1506,
      "vocês</w>": 1507,
      "unca</w>": 1508,
      "hist": 1509,
      "loo": 1510,
      "those</w>": 1511,
      "find</w>": 1512,
      "ças</w>": 1513,
      "tent": 1514,
      "acon": 1515,
      "ainda</w>": 1516,
      "good</w>": 1517,
      "ep</w>": 1518,
      "ano</w>": 1519,
      "need</w>": 1520,
      "well</w>": 1521,
      "being</w>": 1522,
      "atr": 1523,
      "ível</w>": 1524,
      "lá</w>": 1525,
      "apar": 1526,
      "ure</w>": 1527,
      "its</w>": 1528,
      "ey</w>": 1529,
      "suas</w>": 1530,
      "proc": 1531,
      "ile</w>": 1532,
      "ps</w>": 1533,
      ".\".</w>": 1534,
      "pre</w>": 1535,
      "gran": 1536,
      "lon": 1537,
      "val": 1538,
      "ree</w>": 1539,
      "every</w>": 1540,
      "sabe</w>": 1541,
      "tir</w>": 1542,
      "through</w>": 1543,
      "quem</w>": 1544,
      "já</w>": 1545,
      "homem</w>": 1546,
      "pai</w>": 1547,
      "tamb": 1548,
      "ico</w>": 1549,
      "side</w>": 1550,
      "ele": 1551,
      "vamos</w>": 1552,
      "ful</w>": 1553,
      "oci": 1554,
      "ft</w>": 1555,
      "things</w>": 1556,
      "work</w>": 1557,
      "nunca</w>": 1558,
      "No": 1559,
      "ated</w>": 1560,
      "up": 1561,
      "pla": 1562,
      "ans</w>": 1563,
      "let</w>": 1564,
      "memb": 1565,
      "poli": 1566,
      "também</w>": 1567,
      "Th": 1568,
      "igo</w>": 1569,
      "nada</w>": 1570,
      "amento</w>": 1571,
      "consegu": 1572,
      "ms</w>": 1573,
      "ned</w>": 1574,
      "pou": 1575,
      "ily</w>": 1576,
      "peri": 1577,
      "ach</w>": 1578,
      "old</w>": 1579,
      "bro": 1580,
      "lig": 1581,
      "aju": 1582,
      "tenho</w>": 1583,
      "dre": 1584,
      "bre": 1585,
      "inc": 1586,
      "Então</w>": 1587,
      "penas</w>": 1588,
      "much</w>": 1589,
      "sem": 1590,
      "kno": 1591,
      "melhor</w>": 1592,
      "ece</w>": 1593,
      "night</w>": 1594,
      "inha</w>": 1595,
      "cada</w>": 1596,
      "aci": 1597,
      "assim</w>": 1598,
      "Quando</w>": 1599,
      "try</w>": 1600,
      "ficar</w>": 1601,
      "pol": 1602,
      "ear": 1603,
      "qual": 1604,
      "wat": 1605,
      "import": 1606,
      "ug": 1607,
      "sto": 1608,
      "made</w>": 1609,
      "last</w>": 1610,
      "pal": 1611,
      "around</w>": 1612,
      "red": 1613,
      "sor": 1614,
      "ário</w>": 1615,
      "íci": 1616,
      "heiro</w>": 1617,
      "aca": 1618,
      "ris": 1619,
      "sempre</w>": 1620,
      "via</w>": 1621,
      "lev": 1622,
      "ory</w>": 1623,
      "ân": 1624,
      "jun": 1625,
      "fl": 1626,
      "tiv": 1627,
      "grande</w>": 1628,
      "ven</w>": 1629,
      "He</w>": 1630,
      "apenas</w>": 1631,
      "san": 1632,
      "cen": 1633,
      "lia</w>": 1634,
      "adas</w>": 1635,
      "itos</w>": 1636,
      "beli": 1637,
      "estar</w>": 1638,
      "char": 1639,
      "ger": 1640,
      "put</w>": 1641,
      "bus": 1642,
      "lugar</w>": 1643,
      "mai": 1644,
      "should</w>": 1645,
      "nosso</w>": 1646,
      "still</w>": 1647,
      "qualquer</w>": 1648,
      "contin": 1649,
      "sub": 1650,
      "Ele</w>": 1651,
      "ide": 1652,
      "nas</w>": 1653,
      "ás</w>": 1654,
      "came</w>": 1655,
      "les</w>": 1656,
      "sse</w>": 1657,
      "eve</w>": 1658,
      "gir": 1659,
      "bas": 1660,
      "den": 1661,
      "sas</w>": 1662,
      "give</w>": 1663,
      "acho</w>": 1664,
      "ways</w>": 1665,
      "place</w>": 1666,
      "nu": 1667,
      "trans": 1668,
      "amente</w>": 1669,
      "dois</w>": 1670,
      "gan": 1671,
      "mãe</w>": 1672,
      "with": 1673,
      "começ": 1674,
      "bra": 1675,
      "igh": 1676,
      "kil": 1677,
      "mar</w>": 1678,
      "dem</w>": 1679,
      "infor": 1680,
      "nossa</w>": 1681,
      "wal": 1682,
      "tting</w>": 1683,
      "cer</w>": 1684,
      "used</w>": 1685,
      "rece": 1686,
      "cle": 1687,
      "emb": 1688,
      "own</w>": 1689,
      "iam</w>": 1690,
      "anti": 1691,
      "hon": 1692,
      "ase</w>": 1693,
      "under": 1694,
      "escol": 1695,
      "tamente</w>": 1696,
      "ef": 1697,
      "ents</w>": 1698,
      "bli": 1699,
      "ger</w>": 1700,
      "desco": 1701,
      "ido</w>": 1702,
      "look</w>": 1703,
      "why</w>": 1704,
      "tado</w>": 1705,
      "stru": 1706,
      "thought</w>": 1707,
      "cour": 1708,
      "anted</w>": 1709,
      "someone</w>": 1710,
      "aliz": 1711,
      "itar</w>": 1712,
      "amer": 1713,
      "might</w>": 1714,
      "mal": 1715,
      "found</w>": 1716,
      "land</w>": 1717,
      "outro</w>": 1718,
      "elas</w>": 1719,
      "ori": 1720,
      "deci": 1721,
      "continu": 1722,
      "dr": 1723,
      "ish</w>": 1724,
      "je</w>": 1725,
      "wr": 1726,
      "love</w>": 1727,
      "tions</w>": 1728,
      "ún": 1729,
      "poderia</w>": 1730,
      "famí": 1731,
      "lti": 1732,
      "ará</w>": 1733,
      "sion</w>": 1734,
      "ath</w>": 1735,
      "wer</w>": 1736,
      "ador</w>": 1737,
      "agem</w>": 1738,
      "ória</w>": 1739,
      "told</w>": 1740,
      "gur": 1741,
      "ros": 1742,
      "til</w>": 1743,
      "home</w>": 1744,
      "verdade</w>": 1745,
      "shi": 1746,
      "últi": 1747,
      "house</w>": 1748,
      "toda</w>": 1749,
      "eram</w>": 1750,
      "ton</w>": 1751,
      "pris": 1752,
      "sol": 1753,
      "quero</w>": 1754,
      "When</w>": 1755,
      "sy": 1756,
      "clar": 1757,
      "ady</w>": 1758,
      "chil": 1759,
      "minu": 1760,
      "ável</w>": 1761,
      "diz": 1762,
      "gover": 1763,
      "bel": 1764,
      "may": 1765,
      "dio</w>": 1766,
      "war": 1767,
      "exp": 1768,
      "anc": 1769,
      "entre</w>": 1770,
      "family</w>": 1771,
      "ain</w>": 1772,
      "mal</w>": 1773,
      "talvez</w>": 1774,
      "ole</w>": 1775,
      "may</w>": 1776,
      "ary</w>": 1777,
      "long</w>": 1778,
      "sis": 1779,
      "hi": 1780,
      "cara</w>": 1781,
      "kes</w>": 1782,
      "sta</w>": 1783,
      "vem</w>": 1784,
      "res</w>": 1785,
      "tro": 1786,
      "son": 1787,
      "away</w>": 1788,
      "assin": 1789,
      "clo": 1790,
      "vam</w>": 1791,
      "wanted</w>": 1792,
      "hap": 1793,
      "sus": 1794,
      "dinheiro</w>": 1795,
      "ava</w>": 1796,
      "was": 1797,
      "ah</w>": 1798,
      "parti": 1799,
      "ins</w>": 1800,
      "trabalho</w>": 1801,
      "bur": 1802,
      "bat": 1803,
      "espe": 1804,
      "while</w>": 1805,
      "too</w>": 1806,
      "cidade</w>": 1807,
      "dela</w>": 1808,
      "In</w>": 1809,
      "xi": 1810,
      "ka": 1811,
      "enten": 1812,
      "proble": 1813,
      "same</w>": 1814,
      "ture</w>": 1815,
      "vir": 1816,
      "wing</w>": 1817,
      "ner</w>": 1818,
      "As</w>": 1819,
      "sou": 1820,
      "lar": 1821,
      "consi": 1822,
      "ári": 1823,
      "wee": 1824,
      "tir": 1825,
      "imag": 1826,
      "help</w>": 1827,
      "ating</w>": 1828,
      "todas</w>": 1829,
      "always</w>": 1830,
      "fez</w>": 1831,
      "low</w>": 1832,
      "ler</w>": 1833,
      "il</w>": 1834,
      "segur": 1835,
      "mur": 1836,
      "money</w>": 1837,
      "guns</w>": 1838,
      "bor": 1839,
      "rou": 1840,
      "família</w>": 1841,
      "arr": 1842,
      "vid": 1843,
      "quis": 1844,
      "leg": 1845,
      "pouco</w>": 1846,
      "comple": 1847,
      "acontec": 1848,
      "also</w>": 1849,
      "lhe</w>": 1850,
      "ago</w>": 1851,
      "temos</w>": 1852,
      "poss": 1853,
      "mean</w>": 1854,
      "kind</w>": 1855,
      "enquanto</w>": 1856,
      "ick</w>": 1857,
      "cli": 1858,
      "ely</w>": 1859,
      "seja</w>": 1860,
      "tipo</w>": 1861,
      "lot</w>": 1862,
      "19": 1863,
      "reg": 1864,
      "ham</w>": 1865,
      "caus": 1866,
      "xt</w>": 1867,
      "sup": 1868,
      "year</w>": 1869,
      "pedi": 1870,
      "sure</w>": 1871,
      "fica</w>": 1872,
      "times</w>": 1873,
      "ak</w>": 1874,
      "cus": 1875,
      "medi": 1876,
      "Now</w>": 1877,
      "real</w>": 1878,
      "fora</w>": 1879,
      "many</w>": 1880,
      "great</w>": 1881,
      "dro": 1882,
      "father</w>": 1883,
      "happen": 1884,
      "cado</w>": 1885,
      "terr": 1886,
      "foram</w>": 1887,
      "hey</w>": 1888,
      "posi": 1889,
      "cou</w>": 1890,
      "queria</w>": 1891,
      "parte</w>": 1892,
      "torn": 1893,
      "posso</w>": 1894,
      "anything</w>": 1895,
      "sit": 1896,
      "went</w>": 1897,
      "pessoa</w>": 1898,
      "feel</w>": 1899,
      "esp": 1900,
      "garo": 1901,
      "hoje</w>": 1902,
      "Bem</w>": 1903,
      "No</w>": 1904,
      "everything</w>": 1905,
      "ista</w>": 1906,
      "demos</w>": 1907,
      "novo</w>": 1908,
      "meus</w>": 1909,
      "iu</w>": 1910,
      "int</w>": 1911,
      "show</w>": 1912,
      "realmente</w>": 1913,
      "stand</w>": 1914,
      "human": 1915,
      "Co": 1916,
      "experi": 1917,
      "ital</w>": 1918,
      "mé": 1919,
      "three</w>": 1920,
      "my": 1921,
      "eng": 1922,
      "ses</w>": 1923,
      "lin": 1924,
      "cion": 1925,
      "wan": 1926,
      "deu</w>": 1927,
      "lemb": 1928,
      "ki": 1929,
      "esses</w>": 1930,
      "gue</w>": 1931,
      "less</w>": 1932,
      "mulher</w>": 1933,
      "vezes</w>": 1934,
      "dor</w>": 1935,
      "fici": 1936,
      "pt</w>": 1937,
      "trying</w>": 1938,
      "quen": 1939,
      "uh</w>": 1940,
      "cin": 1941,
      "ne</w>": 1942,
      "ction</w>": 1943,
      "ic</w>": 1944,
      "again</w>": 1945,
      "entro</w>": 1946,
      "contra</w>": 1947,
      "chance</w>": 1948,
      "atur": 1949,
      "produ": 1950,
      "mit": 1951,
      "menos</w>": 1952,
      "polí": 1953,
      "ck": 1954,
      "next</w>": 1955,
      "keep</w>": 1956,
      "sou</w>": 1957,
      "maybe</w>": 1958,
      "forma</w>": 1959,
      "--</w>": 1960,
      "nem</w>": 1961,
      "ist</w>": 1962,
      "tain</w>": 1963,
      "seria</w>": 1964,
      "tou</w>": 1965,
      "sr</w>": 1966,
      "head</w>": 1967,
      "estr": 1968,
      "assassin": 1969,
      "saber</w>": 1970,
      "doc": 1971,
      "def": 1972,
      "another</w>": 1973,
      "nin": 1974,
      "iros</w>": 1975,
      "tic": 1976,
      "als</w>": 1977,
      "believe</w>": 1978,
      "los</w>": 1979,
      "big</w>": 1980,
      "outra</w>": 1981,
      "vic": 1982,
      "happ": 1983,
      "doing</w>": 1984,
      "guy</w>": 1985,
      "mr</w>": 1986,
      "íamos</w>": 1987,
      "possi": 1988,
      "termin": 1989,
      "cra": 1990,
      "row</w>": 1991,
      "dri": 1992,
      "ion</w>": 1993,
      "until</w>": 1994,
      "oso</w>": 1995,
      "estamos</w>": 1996,
      "acred": 1997,
      "left</w>": 1998,
      "ton": 1999,
      "lado</w>": 2000,
      "falar</w>": 2001,
      "seman": 2002,
      "dar": 2003,
      "dias</w>": 2004,
      "liv": 2005,
      "They</w>": 2006,
      "oul": 2007,
      "deve</w>": 2008,
      "informa": 2009,
      "nam": 2010,
      "pergun": 2011,
      "será</w>": 2012,
      "hear": 2013,
      "prote": 2014,
      "gether</w>": 2015,
      "lan": 2016,
      "ten</w>": 2017,
      "hã</w>": 2018,
      "outros</w>": 2019,
      "bal": 2020,
      "secre": 2021,
      "sk": 2022,
      "This</w>": 2023,
      "alguns</w>": 2024,
      "without</w>": 2025,
      "together</w>": 2026,
      "best</w>": 2027,
      "must</w>": 2028,
      "ange</w>": 2029,
      "mão</w>": 2030,
      "algum</w>": 2031,
      "equi": 2032,
      "scho": 2033,
      "woman</w>": 2034,
      "ações</w>": 2035,
      "friend</w>": 2036,
      "indi": 2037,
      "às</w>": 2038,
      "presid": 2039,
      "han": 2040,
      "ín": 2041,
      "itas</w>": 2042,
      "jo</w>": 2043,
      "fre": 2044,
      "caso</w>": 2045,
      "amig": 2046,
      "ecer</w>": 2047,
      "ther": 2048,
      "test": 2049,
      "since</w>": 2050,
      "acab": 2051,
      "buil": 2052,
      "aquele</w>": 2053,
      "ff</w>": 2054,
      "ken</w>": 2055,
      "000</w>": 2056,
      "ween</w>": 2057,
      "feito</w>": 2058,
      "tic</w>": 2059,
      "hal": 2060,
      "jus": 2061,
      "wil": 2062,
      "conta": 2063,
      "better</w>": 2064,
      "gia</w>": 2065,
      "hora</w>": 2066,
      "mentos</w>": 2067,
      "room</w>": 2068,
      "blo": 2069,
      "ens</w>": 2070,
      "person</w>": 2071,
      "dades</w>": 2072,
      "lat": 2073,
      "oper": 2074,
      "volta</w>": 2075,
      "ful": 2076,
      "member</w>": 2077,
      "sha": 2078,
      "vi</w>": 2079,
      "aos</w>": 2080,
      "tly</w>": 2081,
      "ock</w>": 2082,
      "ino</w>": 2083,
      "esn</w>": 2084,
      "descobri": 2085,
      "soci": 2086,
      "ours</w>": 2087,
      "actu": 2088,
      "má": 2089,
      "pequen": 2090,
      "fron": 2091,
      "ters</w>": 2092,
      "enh": 2093,
      "enough</w>": 2094,
      "momento</w>": 2095,
      "doesn</w>": 2096,
      "offic": 2097,
      "três</w>": 2098,
      "case</w>": 2099,
      "days</w>": 2100,
      "far": 2101,
      "história</w>": 2102,
      "bom</w>": 2103,
      "few</w>": 2104,
      "difer": 2105,
      "again": 2106,
      "against</w>": 2107,
      "pren": 2108,
      "oca</w>": 2109,
      "took</w>": 2110,
      "sing</w>": 2111,
      "porta</w>": 2112,
      "investi": 2113,
      "pag": 2114,
      "mother</w>": 2115,
      "nova</w>": 2116,
      "hed</w>": 2117,
      "won</w>": 2118,
      "alguma</w>": 2119,
      "press": 2120,
      "faz</w>": 2121,
      "gener": 2122,
      "differ": 2123,
      "ual</w>": 2124,
      "ja": 2125,
      "face</w>": 2126,
      "fav": 2127,
      "call</w>": 2128,
      "fazendo</w>": 2129,
      "Est": 2130,
      "hig": 2131,
      "fol": 2132,
      "eg": 2133,
      "anças</w>": 2134,
      "podem</w>": 2135,
      "ready</w>": 2136,
      "morte</w>": 2137,
      "ness</w>": 2138,
      "senti": 2139,
      "dever": 2140,
      "tivo</w>": 2141,
      "today</w>": 2142,
      "ida</w>": 2143,
      "camin": 2144,
      "org": 2145,
      "whole</w>": 2146,
      "cido</w>": 2147,
      "fosse</w>": 2148,
      "sex": 2149,
      "called</w>": 2150,
      "és</w>": 2151,
      "terra</w>": 2152,
      "quar": 2153,
      "ninguém</w>": 2154,
      "Es": 2155,
      "dge</w>": 2156,
      "certo</w>": 2157,
      "youn": 2158,
      "ason</w>": 2159,
      "feli": 2160,
      "primeira</w>": 2161,
      "sido</w>": 2162,
      "mas": 2163,
      "between</w>": 2164,
      "school</w>": 2165,
      "cel": 2166,
      "nothing</w>": 2167,
      "nec": 2168,
      "prof": 2169,
      "ise</w>": 2170,
      "acor": 2171,
      "iz": 2172,
      "De": 2173,
      "filho</w>": 2174,
      "inho</w>": 2175,
      "guer": 2176,
      "atrás</w>": 2177,
      "primeiro</w>": 2178,
      "chama": 2179,
      "ends</w>": 2180,
      "ouldn</w>": 2181,
      "sado</w>": 2182,
      "cru": 2183,
      "turn</w>": 2184,
      "signi": 2185,
      "vos</w>": 2186,
      "vão</w>": 2187,
      "gumas</w>": 2188,
      "city</w>": 2189,
      "tan": 2190,
      "ví": 2191,
      "Os</w>": 2192,
      "part</w>": 2193,
      "mostr": 2194,
      "spen": 2195,
      "vir</w>": 2196,
      "getting</w>": 2197,
      "êm</w>": 2198,
      "homen": 2199,
      "deus</w>": 2200,
      "dor": 2201,
      "vers": 2202,
      "each</w>": 2203,
      "aquela</w>": 2204,
      "duas</w>": 2205,
      "kay</w>": 2206,
      "deles</w>": 2207,
      "ório</w>": 2208,
      "veis</w>": 2209,
      "pa</w>": 2210,
      "evid": 2211,
      "qual</w>": 2212,
      "10</w>": 2213,
      "atra": 2214,
      "looking</w>": 2215,
      "den</w>": 2216,
      "port</w>": 2217,
      "death</w>": 2218,
      "rei</w>": 2219,
      "meio</w>": 2220,
      "var</w>": 2221,
      "cabe": 2222,
      "ny</w>": 2223,
      "respon": 2224,
      "conf": 2225,
      "bil": 2226,
      "bon": 2227,
      "There</w>": 2228,
      "ass</w>": 2229,
      "tando</w>": 2230,
      "tica</w>": 2231,
      "procur": 2232,
      "ties</w>": 2233,
      "nenh": 2234,
      "vil": 2235,
      "pped</w>": 2236,
      "pic": 2237,
      "ato</w>": 2238,
      "set</w>": 2239,
      "Par": 2240,
      "ies</w>": 2241,
      "hes</w>": 2242,
      "Ag": 2243,
      "coming</w>": 2244,
      "knew</w>": 2245,
      "realiz": 2246,
      "out": 2247,
      "ey": 2248,
      "dado</w>": 2249,
      "parece</w>": 2250,
      "once</w>": 2251,
      "ple": 2252,
      "asse</w>": 2253,
      "teria</w>": 2254,
      "That</w>": 2255,
      "ave</w>": 2256,
      "girl</w>": 2257,
      "Al": 2258,
      "hun": 2259,
      "nossos</w>": 2260,
      "ths</w>": 2261,
      "ship</w>": 2262,
      "jec": 2263,
      "Um</w>": 2264,
      "essas</w>": 2265,
      "cora": 2266,
      "talk</w>": 2267,
      "under</w>": 2268,
      "actually</w>": 2269,
      "ários</w>": 2270,
      "20</w>": 2271,
      "havia</w>": 2272,
      "disso</w>": 2273,
      "nome</w>": 2274,
      "desse</w>": 2275,
      "podemos</w>": 2276,
      "bun": 2277,
      "hosp": 2278,
      "respe": 2279,
      "horas</w>": 2280,
      "coloc": 2281,
      "daqu": 2282,
      "hando</w>": 2283,
      "live</w>": 2284,
      "algumas</w>": 2285,
      "homens</w>": 2286,
      "mus": 2287,
      "Be": 2288,
      "ited</w>": 2289,
      "fica": 2290,
      "clu": 2291,
      "constru": 2292,
      "inci": 2293,
      "tura</w>": 2294,
      "tenha</w>": 2295,
      "saw</w>": 2296,
      "ze</w>": 2297,
      "publi": 2298,
      "ros</w>": 2299,
      "tentando</w>": 2300,
      "tanto</w>": 2301,
      "os": 2302,
      "Agora</w>": 2303,
      "perce": 2304,
      "ley</w>": 2305,
      "teri": 2306,
      "ns</w>": 2307,
      "dra": 2308,
      "ber</w>": 2309,
      "poder</w>": 2310,
      "hard</w>": 2311,
      "ping</w>": 2312,
      "chi": 2313,
      "sé": 2314,
      "name</w>": 2315,
      "precisa</w>": 2316,
      "done</w>": 2317,
      "fel": 2318,
      "wed</w>": 2319,
      "suc": 2320,
      "viol": 2321,
      "camp": 2322,
      "tem": 2323,
      "Em</w>": 2324,
      "neg": 2325,
      "med</w>": 2326,
      "having</w>": 2327,
      "plane": 2328,
      "ata": 2329,
      "frente</w>": 2330,
      "win": 2331,
      "stre": 2332,
      "act</w>": 2333,
      "young</w>": 2334,
      "cio</w>": 2335,
      "teza</w>": 2336,
      "iting</w>": 2337,
      "else</w>": 2338,
      "diz</w>": 2339,
      "ire</w>": 2340,
      "final</w>": 2341,
      "têm</w>": 2342,
      "cent": 2343,
      "deixar</w>": 2344,
      "ors</w>": 2345,
      "sci": 2346,
      "ments</w>": 2347,
      "arem</w>": 2348,
      "ugh": 2349,
      "govern": 2350,
      "encontrar</w>": 2351,
      "sac": 2352,
      "paí": 2353,
      "consider": 2354,
      "wife</w>": 2355,
      "corpo</w>": 2356,
      "guar": 2357,
      "carro</w>": 2358,
      "nee": 2359,
      "ace": 2360,
      "di</w>": 2361,
      "dentro</w>": 2362,
      "ces</w>": 2363,
      "ener": 2364,
      "ker</w>": 2365,
      "num</w>": 2366,
      "ata</w>": 2367,
      "mic": 2368,
      "police</w>": 2369,
      "desde</w>": 2370,
      "per</w>": 2371,
      "bab": 2372,
      "light</w>": 2373,
      "point</w>": 2374,
      "arti": 2375,
      "ried</w>": 2376,
      "though</w>": 2377,
      "cy</w>": 2378,
      "ous": 2379,
      "god</w>": 2380,
      "hol": 2381,
      "gas</w>": 2382,
      "confi": 2383,
      "maior</w>": 2384,
      "gl": 2385,
      "Ela</w>": 2386,
      "anta": 2387,
      "óri": 2388,
      "super": 2389,
      "gy</w>": 2390,
      "ward</w>": 2391,
      "paz</w>": 2392,
      "She</w>": 2393,
      "ana</w>": 2394,
      "teve</w>": 2395,
      "fact</w>": 2396,
      "segun": 2397,
      "situ": 2398,
      "mber</w>": 2399,
      "Como</w>": 2400,
      "única</w>": 2401,
      "eira</w>": 2402,
      "understand</w>": 2403,
      "Lo": 2404,
      "emp": 2405,
      "bi</w>": 2406,
      "cé": 2407,
      "bol": 2408,
      "iness</w>": 2409,
      "sed</w>": 2410,
      "friends</w>": 2411,
      "dizendo</w>": 2412,
      "job</w>": 2413,
      "cla": 2414,
      "both</w>": 2415,
      "country</w>": 2416,
      "prepar": 2417,
      "gs</w>": 2418,
      "To": 2419,
      "mind</w>": 2420,
      "vas</w>": 2421,
      "happened</w>": 2422,
      "estran": 2423,
      "remember</w>": 2424,
      "sm": 2425,
      "power</w>": 2426,
      "rado</w>": 2427,
      "eas": 2428,
      "ini": 2429,
      "My</w>": 2430,
      "gua</w>": 2431,
      "Por</w>": 2432,
      "ore</w>": 2433,
      "del": 2434,
      "difíci": 2435,
      "estavam</w>": 2436,
      "liber": 2437,
      "ren": 2438,
      "high</w>": 2439,
      "movi": 2440,
      "cho</w>": 2441,
      "sair</w>": 2442,
      "polícia</w>": 2443,
      "pra": 2444,
      "cabeça</w>": 2445,
      "crime</w>": 2446,
      "rest</w>": 2447,
      "ixo</w>": 2448,
      "ross</w>": 2449,
      "lou": 2450,
      "start</w>": 2451,
      "such</w>": 2452,
      "sendo</w>": 2453,
      "line</w>": 2454,
      "colo": 2455,
      "hospital</w>": 2456,
      "esso</w>": 2457,
      "vemos</w>": 2458,
      "estu": 2459,
      "durante</w>": 2460,
      "wouldn</w>": 2461,
      "comigo</w>": 2462,
      "ili": 2463,
      "comes</w>": 2464,
      "pensar</w>": 2465,
      "saying</w>": 2466,
      "beg": 2467,
      "fim</w>": 2468,
      "tamento</w>": 2469,
      "guerra</w>": 2470,
      "started</w>": 2471,
      "making</w>": 2472,
      "gal": 2473,
      "inf": 2474,
      "dr</w>": 2475,
      "ot</w>": 2476,
      "destru": 2477,
      "mer</w>": 2478,
      "tel</w>": 2479,
      "different</w>": 2480,
      "morr": 2481,
      "band</w>": 2482,
      "suspe": 2483,
      "compr": 2484,
      "myself</w>": 2485,
      "voltar</w>": 2486,
      "ack": 2487,
      "idade</w>": 2488,
      "tei</w>": 2489,
      "bit</w>": 2490,
      "secon": 2491,
      "wasn</w>": 2492,
      "fran": 2493,
      "possível</w>": 2494,
      "ben": 2495,
      "joh": 2496,
      "recor": 2497,
      "stop</w>": 2498,
      "50</w>": 2499,
      "\",</w>": 2500,
      "appe": 2501,
      "sent": 2502,
      "hões</w>": 2503,
      "team</w>": 2504,
      "don": 2505,
      "amigos</w>": 2506,
      "tivesse</w>": 2507,
      "means</w>": 2508,
      "atos</w>": 2509,
      "leave</w>": 2510,
      "certeza</w>": 2511,
      "wer": 2512,
      "30</w>": 2513,
      "pare": 2514,
      "grand": 2515,
      "abri": 2516,
      "war</w>": 2517,
      "dito</w>": 2518,
      "ined</w>": 2519,
      "everyone</w>": 2520,
      "care</w>": 2521,
      "feel": 2522,
      "dou</w>": 2523,
      "sim": 2524,
      "water</w>": 2525,
      "condi": 2526,
      "explo": 2527,
      "crianças</w>": 2528,
      "ult</w>": 2529,
      "tional</w>": 2530,
      "identi": 2531,
      "vie": 2532,
      "apo": 2533,
      "osa</w>": 2534,
      "perfe": 2535,
      "killed</w>": 2536,
      "país</w>": 2537,
      "preciso</w>": 2538,
      "town</w>": 2539,
      "lion</w>": 2540,
      "pur": 2541,
      "univer": 2542,
      "len": 2543,
      "couldn</w>": 2544,
      "bul": 2545,
      "americ": 2546,
      "guys</w>": 2547,
      "ús": 2548,
      "dead</w>": 2549,
      "ref": 2550,
      "importante</w>": 2551,
      "ask</w>": 2552,
      "working</w>": 2553,
      "justi": 2554,
      "local</w>": 2555,
      "acha</w>": 2556,
      "istas</w>": 2557,
      "Por": 2558,
      "mesma</w>": 2559,
      "ama": 2560,
      "ced</w>": 2561,
      "numa</w>": 2562,
      "sabia</w>": 2563,
      "inclu": 2564,
      "rus": 2565,
      "xim": 2566,
      "ably</w>": 2567,
      "passar</w>": 2568,
      "causa</w>": 2569,
      "cted</w>": 2570,
      "manhã</w>": 2571,
      "bad</w>": 2572,
      "decis": 2573,
      "cir": 2574,
      "morning</w>": 2575,
      "maj": 2576,
      "especi": 2577,
      "isto</w>": 2578,
      "própri": 2579,
      "rar</w>": 2580,
      "lear": 2581,
      "possible</w>": 2582,
      "are": 2583,
      "deveria</w>": 2584,
      "envol": 2585,
      "ços</w>": 2586,
      "What</w>": 2587,
      "chu": 2588,
      "defen": 2589,
      "your": 2590,
      "important</w>": 2591,
      "unidade</w>": 2592,
      "preoc": 2593,
      "fato</w>": 2594,
      "heart</w>": 2595,
      "ajudar</w>": 2596,
      "cam": 2597,
      "semana</w>": 2598,
      "gost": 2599,
      "dren</w>": 2600,
      "gou</w>": 2601,
      "wha": 2602,
      "hus": 2603,
      "dem": 2604,
      "exis": 2605,
      "stitu": 2606,
      "earth</w>": 2607,
      "difícil</w>": 2608,
      "wit": 2609,
      "presa</w>": 2610,
      "perto</w>": 2611,
      "boa</w>": 2612,
      "ér": 2613,
      "matter</w>": 2614,
      "front</w>": 2615,
      "children</w>": 2616,
      "yed</w>": 2617,
      "thers</w>": 2618,
      "bar</w>": 2619,
      "trou": 2620,
      "vin": 2621,
      "far</w>": 2622,
      "reason</w>": 2623,
      "heres</w>": 2624,
      "story</w>": 2625,
      "atta": 2626,
      "seen</w>": 2627,
      "vido</w>": 2628,
      "yor": 2629,
      "tever</w>": 2630,
      "ed": 2631,
      "ones</w>": 2632,
      "eu": 2633,
      "mid": 2634,
      "outras</w>": 2635,
      "tico</w>": 2636,
      "does</w>": 2637,
      "change</w>": 2638,
      "água</w>": 2639,
      "mãos</w>": 2640,
      "flo": 2641,
      "posa</w>": 2642,
      "aten": 2643,
      "usar</w>": 2644,
      "kids</w>": 2645,
      "thinking</w>": 2646,
      "dá</w>": 2647,
      "half</w>": 2648,
      "inten": 2649,
      "pais</w>": 2650,
      "women</w>": 2651,
      "Eles</w>": 2652,
      "ávamos</w>": 2653,
      "corr": 2654,
      "hours</w>": 2655,
      "cover": 2656,
      "ari": 2657,
      "raz": 2658,
      "bring</w>": 2659,
      "rá": 2660,
      "fiz": 2661,
      "ching</w>": 2662,
      "ição</w>": 2663,
      "crimin": 2664,
      "hand</w>": 2665,
      "over": 2666,
      "dig": 2667,
      "sing": 2668,
      "Sab": 2669,
      "hou</w>": 2670,
      "Look</w>": 2671,
      "ór": 2672,
      "eja</w>": 2673,
      "human</w>": 2674,
      "business</w>": 2675,
      "stas</w>": 2676,
      "die</w>": 2677,
      "amigo</w>": 2678,
      "quase</w>": 2679,
      "part": 2680,
      "mulheres</w>": 2681,
      "order</w>": 2682,
      "anyone</w>": 2683,
      "become</w>": 2684,
      "Uma</w>": 2685,
      "dando</w>": 2686,
      "cias</w>": 2687,
      "tis": 2688,
      "atu": 2689,
      "state</w>": 2690,
      "gado</w>": 2691,
      "dados</w>": 2692,
      "médi": 2693,
      "intel": 2694,
      "sil": 2695,
      "ran": 2696,
      "ster</w>": 2697,
      "dent</w>": 2698,
      "esposa</w>": 2699,
      "move</w>": 2700,
      "meses</w>": 2701,
      "corre": 2702,
      "colle": 2703,
      "four</w>": 2704,
      "Na</w>": 2705,
      "equipe</w>": 2706,
      "ney</w>": 2707,
      "Ho": 2708,
      "ância</w>": 2709,
      "entrar</w>": 2710,
      "aconte": 2711,
      "ner": 2712,
      "neste</w>": 2713,
      "dad</w>": 2714,
      "após</w>": 2715,
      "says</w>": 2716,
      "york</w>": 2717,
      "dies</w>": 2718,
      "ind": 2719,
      "idea</w>": 2720,
      "imagin": 2721,
      "won": 2722,
      "probably</w>": 2723,
      "aí</w>": 2724,
      "present": 2725,
      "bed</w>": 2726,
      "yourself</w>": 2727,
      "envi": 2728,
      "bir": 2729,
      "20": 2730,
      "five</w>": 2731,
      "lie</w>": 2732,
      "jur": 2733,
      "cas</w>": 2734,
      "istr": 2735,
      "moment</w>": 2736,
      "nas": 2737,
      "jeito</w>": 2738,
      "amor</w>": 2739,
      "gave</w>": 2740,
      "jan": 2741,
      "months</w>": 2742,
      "course</w>": 2743,
      "ughter</w>": 2744,
      "entos</w>": 2745,
      "ates</w>": 2746,
      "heard</w>": 2747,
      "filha</w>": 2748,
      "oria</w>": 2749,
      "fer</w>": 2750,
      "tty</w>": 2751,
      "tun": 2752,
      "escola</w>": 2753,
      "agu": 2754,
      "bo</w>": 2755,
      "bran": 2756,
      "hind</w>": 2757,
      "sum": 2758,
      "acordo</w>": 2759,
      "run</w>": 2760,
      "inte": 2761,
      "conver": 2762,
      "esa</w>": 2763,
      "nossas</w>": 2764,
      "ias</w>": 2765,
      "black</w>": 2766,
      "whatever</w>": 2767,
      "estado</w>": 2768,
      "armos</w>": 2769,
      "uns</w>": 2770,
      "caminho</w>": 2771,
      "ders</w>": 2772,
      "atrav": 2773,
      "ket</w>": 2774,
      "conven": 2775,
      "company</w>": 2776,
      "apro": 2777,
      "already</w>": 2778,
      "senhor</w>": 2779,
      "known</w>": 2780,
      "ero</w>": 2781,
      "próxi": 2782,
      "gos</w>": 2783,
      "seem": 2784,
      "descobrir</w>": 2785,
      "vendo</w>": 2786,
      "behind</w>": 2787,
      "velmente</w>": 2788,
      "blood</w>": 2789,
      "tiva</w>": 2790,
      "possa</w>": 2791,
      "All</w>": 2792,
      "dou": 2793,
      "kill</w>": 2794,
      "ba</w>": 2795,
      "problema</w>": 2796,
      "viu</w>": 2797,
      "murder</w>": 2798,
      "gets</w>": 2799,
      "juntos</w>": 2800,
      "coração</w>": 2801,
      "Po": 2802,
      "minhas</w>": 2803,
      "lives</w>": 2804,
      "aconteceu</w>": 2805,
      "ator</w>": 2806,
      "cking</w>": 2807,
      "ficou</w>": 2808,
      "pegar</w>": 2809,
      "beau": 2810,
      "orig": 2811,
      "talking</w>": 2812,
      "chegar</w>": 2813,
      "adores</w>": 2814,
      "hing</w>": 2815,
      "week</w>": 2816,
      "ged</w>": 2817,
      "ares</w>": 2818,
      "taking</w>": 2819,
      "loc": 2820,
      "viver</w>": 2821,
      "significa</w>": 2822,
      "solu": 2823,
      "husband</w>": 2824,
      "iras</w>": 2825,
      "sle": 2826,
      "atro</w>": 2827,
      "escre": 2828,
      "bemos</w>": 2829,
      "marido</w>": 2830,
      "Because</w>": 2831,
      "asked</w>": 2832,
      "tido</w>": 2833,
      "fui</w>": 2834,
      "estiv": 2835,
      ":.</w>": 2836,
      "tam</w>": 2837,
      "clear</w>": 2838,
      "gru": 2839,
      "escr": 2840,
      "Para</w>": 2841,
      "compe": 2842,
      "play</w>": 2843,
      "lor": 2844,
      "him": 2845,
      "living</w>": 2846,
      "muitos</w>": 2847,
      "entre": 2848,
      "última</w>": 2849,
      "ença</w>": 2850,
      "bili": 2851,
      "past</w>": 2852,
      "pú": 2853,
      "boy</w>": 2854,
      "see": 2855,
      "fiel": 2856,
      "inside</w>": 2857,
      "comm": 2858,
      "Porque</w>": 2859,
      "stay</w>": 2860,
      "nú": 2861,
      "child</w>": 2862,
      "feliz</w>": 2863,
      "whe": 2864,
      "elo</w>": 2865,
      "sob</w>": 2866,
      "sufici": 2867,
      "So": 2868,
      "spo": 2869,
      "jul": 2870,
      "Ye": 2871,
      "second</w>": 2872,
      "pil": 2873,
      "hope</w>": 2874,
      "gente</w>": 2875,
      "selves</w>": 2876,
      "dol": 2877,
      "top</w>": 2878,
      "An": 2879,
      "phone</w>": 2880,
      "siste": 2881,
      "sangue</w>": 2882,
      "full</w>": 2883,
      "ched</w>": 2884,
      "imp": 2885,
      "claro</w>": 2886,
      "open</w>": 2887,
      "iria</w>": 2888,
      "quei</w>": 2889,
      "levar</w>": 2890,
      "Oh</w>": 2891,
      "passado</w>": 2892,
      "cent</w>": 2893,
      "ations</w>": 2894,
      "lost</w>": 2895,
      "cro": 2896,
      "metr": 2897,
      "fig": 2898,
      "spir": 2899,
      "tely</w>": 2900,
      "mús": 2901,
      "çar</w>": 2902,
      "vê</w>": 2903,
      "públi": 2904,
      "serv": 2905,
      "las</w>": 2906,
      "ale": 2907,
      "aman": 2908,
      "estes</w>": 2909,
      "hamos</w>": 2910,
      "tentar</w>": 2911,
      "fur": 2912,
      "organi": 2913,
      "office</w>": 2914,
      "chec": 2915,
      "plac": 2916,
      "evidence</w>": 2917,
      "filhos</w>": 2918,
      "ram</w>": 2919,
      "culo</w>": 2920,
      "promis": 2921,
      "daughter</w>": 2922,
      "ty": 2923,
      "brother</w>": 2924,
      "inst": 2925,
      "muitas</w>": 2926,
      "pelos</w>": 2927,
      "Sim</w>": 2928,
      "white</w>": 2929,
      "pin": 2930,
      "apren": 2931,
      "Yeah</w>": 2932,
      "wants</w>": 2933,
      "died</w>": 2934,
      "makes</w>": 2935,
      "favor</w>": 2936,
      "legal</w>": 2937,
      "hei</w>": 2938,
      "segurança</w>": 2939,
      "jor": 2940,
      "eur": 2941,
      "dio": 2942,
      "15</w>": 2943,
      "força</w>": 2944,
      "mom</w>": 2945,
      "rac": 2946,
      "sco": 2947,
      "dan": 2948,
      "stead</w>": 2949,
      "Estou</w>": 2950,
      "ither</w>": 2951,
      "exce": 2952,
      "pensei</w>": 2953,
      "vil</w>": 2954,
      "sso</w>": 2955,
      "lead": 2956,
      "ames</w>": 2957,
      "happy</w>": 2958,
      "hear</w>": 2959,
      "eceu</w>": 2960,
      "pis": 2961,
      "tt</w>": 2962,
      "deira</w>": 2963,
      "dores</w>": 2964,
      "palav": 2965,
      "wrong</w>": 2966,
      "hand": 2967,
      "ested</w>": 2968,
      "acus": 2969,
      "cation</w>": 2970,
      "ly": 2971,
      "tante</w>": 2972,
      "gação</w>": 2973,
      "ef</w>": 2974,
      "turned</w>": 2975,
      "taken</w>": 2976,
      "For</w>": 2977,
      "yet</w>": 2978,
      "himself</w>": 2979,
      "negó": 2980,
      "medo</w>": 2981,
      "funcion": 2982,
      "tação</w>": 2983,
      "abor": 2984,
      "antar</w>": 2985,
      "bru": 2986,
      "olhos</w>": 2987,
      "ming</w>": 2988,
      "sar": 2989,
      "12</w>": 2990,
      "deli": 2991,
      "ências</w>": 2992,
      "matar</w>": 2993,
      "irmão</w>": 2994,
      "during</w>": 2995,
      "parar</w>": 2996,
      "vidas</w>": 2997,
      "esqu": 2998,
      "éri": 2999,
      "alidade</w>": 3000,
      "camente</w>": 3001,
      "dru": 3002,
      "ster": 3003,
      "ams</w>": 3004,
      "posed</w>": 3005,
      "governo</w>": 3006,
      "than": 3007,
      "nenhum</w>": 3008,
      "pat": 3009,
      "dão</w>": 3010,
      "expe": 3011,
      "simpl": 3012,
      "isn</w>": 3013,
      "isten</w>": 3014,
      "Sabe</w>": 3015,
      "thre": 3016,
      "presidente</w>": 3017,
      "Acho</w>": 3018,
      "Ou": 3019,
      "ária</w>": 3020,
      "stra": 3021,
      "tada</w>": 3022,
      "númer": 3023,
      "fra": 3024,
      "irá</w>": 3025,
      "ple</w>": 3026,
      "maneira</w>": 3027,
      "grou": 3028,
      "suficiente</w>": 3029,
      "number</w>": 3030,
      "stem</w>": 3031,
      "gg": 3032,
      "fire</w>": 3033,
      "garota</w>": 3034,
      "além</w>": 3035,
      "ideia</w>": 3036,
      "hores</w>": 3037,
      "espa": 3038,
      "adv": 3039,
      "tados</w>": 3040,
      "popul": 3041,
      "Con": 3042,
      "stand": 3043,
      "tirar</w>": 3044,
      "exc": 3045,
      "exa": 3046,
      "gostaria</w>": 3047,
      "gada</w>": 3048,
      "emun": 3049,
      "decidi": 3050,
      "rem</w>": 3051,
      "gri": 3052,
      "cres": 3053,
      "soz": 3054,
      "embora</w>": 3055,
      "único</w>": 3056,
      "tendo</w>": 3057,
      "gro": 3058,
      "problemas</w>": 3059,
      "nia</w>": 3060,
      "gol": 3061,
      "sent</w>": 3062,
      "truth</w>": 3063,
      "erto</w>": 3064,
      "john</w>": 3065,
      "government</w>": 3066,
      "preci": 3067,
      "mil</w>": 3068,
      "arei</w>": 3069,
      "compan": 3070,
      "edade</w>": 3071,
      "ofer": 3072,
      "ining</w>": 3073,
      "enter": 3074,
      "ício</w>": 3075,
      "colocar</w>": 3076,
      "cil</w>": 3077,
      "ras": 3078,
      "pretty</w>": 3079,
      "ís": 3080,
      "run": 3081,
      "milhões</w>": 3082,
      "ak": 3083,
      "importa</w>": 3084,
      "filme</w>": 3085,
      "resul": 3086,
      "quarto</w>": 3087,
      "system</w>": 3088,
      "cular</w>": 3089,
      "resol": 3090,
      "form</w>": 3091,
      "book</w>": 3092,
      "head": 3093,
      "ponto</w>": 3094,
      "lis": 3095,
      "game</w>": 3096,
      "trabalhar</w>": 3097,
      "futur": 3098,
      "ficial</w>": 3099,
      "testemun": 3100,
      "começar</w>": 3101,
      "dam": 3102,
      "using</w>": 3103,
      "conseguir</w>": 3104,
      "ximo</w>": 3105,
      "ature</w>": 3106,
      "trac": 3107,
      "island</w>": 3108,
      "telling</w>": 3109,
      "acredit": 3110,
      "coup": 3111,
      "pay</w>": 3112,
      "parents</w>": 3113,
      "close</w>": 3114,
      "tonight</w>": 3115,
      "yer</w>": 3116,
      "dam</w>": 3117,
      "sistema</w>": 3118,
      "party</w>": 3119,
      "stuff</w>": 3120,
      "pan": 3121,
      "organiz": 3122,
      "negr": 3123,
      "table</w>": 3124,
      "alis": 3125,
      "later</w>": 3126,
      "profess": 3127,
      "pedir</w>": 3128,
      "soon</w>": 3129,
      "true</w>": 3130,
      "jovem</w>": 3131,
      "casamento</w>": 3132,
      "ously</w>": 3133,
      "víti": 3134,
      "ras</w>": 3135,
      "trada</w>": 3136,
      "hotel</w>": 3137,
      "hands</w>": 3138,
      "bit": 3139,
      "late</w>": 3140,
      "felt</w>": 3141,
      "ive</w>": 3142,
      "thy</w>": 3143,
      "entire</w>": 3144,
      "fing": 3145,
      "roc": 3146,
      "100</w>": 3147,
      "future</w>": 3148,
      "ground</w>": 3149,
      "..": 3150,
      "upa": 3151,
      "somebody</w>": 3152,
      "swe": 3153,
      "wel": 3154,
      "million</w>": 3155,
      "escrit": 3156,
      "quatro</w>": 3157,
      "along</w>": 3158,
      "goes</w>": 3159,
      "eyes</w>": 3160,
      "div": 3161,
      "got": 3162,
      "pping</w>": 3163,
      "beb": 3164,
      "natur": 3165,
      "couple</w>": 3166,
      "depen": 3167,
      "boo": 3168,
      "Se": 3169,
      "deste</w>": 3170,
      "door</w>": 3171,
      "bomb": 3172,
      "namor": 3173,
      "sive</w>": 3174,
      "word</w>": 3175,
      "manter</w>": 3176,
      "taur": 3177,
      "ôni": 3178,
      "small</w>": 3179,
      "victi": 3180,
      "field</w>": 3181,
      "pun": 3182,
      "Com</w>": 3183,
      "determin": 3184,
      "least</w>": 3185,
      "ame": 3186,
      "ished</w>": 3187,
      "public</w>": 3188,
      "hur": 3189,
      "Depois</w>": 3190,
      "mir": 3191,
      "rea</w>": 3192,
      "deal</w>": 3193,
      "grupo</w>": 3194,
      "minutos</w>": 3195,
      "fá": 3196,
      "jogo</w>": 3197,
      "empre": 3198,
      "history</w>": 3199,
      "base</w>": 3200,
      "dle</w>": 3201,
      "ie</w>": 3202,
      "contar</w>": 3203,
      "começou</w>": 3204,
      "knows</w>": 3205,
      "tade</w>": 3206,
      "court</w>": 3207,
      "baby</w>": 3208,
      "dom</w>": 3209,
      "hy": 3210,
      "Há</w>": 3211,
      "si</w>": 3212,
      "six</w>": 3213,
      "information</w>": 3214,
      "gas": 3215,
      "cinco</w>": 3216,
      "tried</w>": 3217,
      "pensando</w>": 3218,
      "Nós</w>": 3219,
      "sia</w>": 3220,
      "secur": 3221,
      "given</w>": 3222,
      "test</w>": 3223,
      "gone</w>": 3224,
      "conta</w>": 3225,
      "okay</w>": 3226,
      "hold</w>": 3227,
      "person": 3228,
      "tarde</w>": 3229,
      "across</w>": 3230,
      "memor": 3231,
      "dest": 3232,
      "dido</w>": 3233,
      "falando</w>": 3234,
      "dres": 3235,
      "ign</w>": 3236,
      "brought</w>": 3237,
      "control</w>": 3238,
      "law</w>": 3239,
      "alone</w>": 3240,
      "necess": 3241,
      "fter</w>": 3242,
      "desta</w>": 3243,
      "ball</w>": 3244,
      "et": 3245,
      "amb": 3246,
      "compu": 3247,
      "minutes</w>": 3248,
      "pir": 3249,
      "fiz</w>": 3250,
      "criança</w>": 3251,
      "simp": 3252,
      "ej": 3253,
      "liz": 3254,
      "control": 3255,
      "fas": 3256,
      "podia</w>": 3257,
      "shot</w>": 3258,
      "ject</w>": 3259,
      "ches</w>": 3260,
      "destro": 3261,
      "cele": 3262,
      "ican</w>": 3263,
      "íveis</w>": 3264,
      "arão</w>": 3265,
      "oh</w>": 3266,
      "instead</w>": 3267,
      "pria</w>": 3268,
      "rápi": 3269,
      "happen</w>": 3270,
      "logo</w>": 3271,
      "missão</w>": 3272,
      "vavelmente</w>": 3273,
      "outside</w>": 3274,
      "Esta": 3275,
      "osos</w>": 3276,
      "adr": 3277,
      "meet</w>": 3278,
      "space</w>": 3279,
      "chang": 3280,
      "expli": 3281,
      "diver": 3282,
      "tom": 3283,
      "fight</w>": 3284,
      "razão</w>": 3285,
      "end": 3286,
      "posição</w>": 3287,
      "general</w>": 3288,
      "free</w>": 3289,
      "caval": 3290,
      "nesta</w>": 3291,
      "food</w>": 3292,
      "questi": 3293,
      "dev": 3294,
      "drin": 3295,
      "met</w>": 3296,
      "aqueles</w>": 3297,
      "covered</w>": 3298,
      "Só</w>": 3299,
      "própria</w>": 3300,
      "Sei</w>": 3301,
      "ul</w>": 3302,
      "wers</w>": 3303,
      "sentir</w>": 3304,
      "gres": 3305,
      "ious</w>": 3306,
      "After</w>": 3307,
      "árias</w>": 3308,
      "kid</w>": 3309,
      "street</w>": 3310,
      "expl": 3311,
      "restaur": 3312,
      "sobre": 3313,
      "gando</w>": 3314,
      "tiful</w>": 3315,
      "zy</w>": 3316,
      "cima</w>": 3317,
      "tom</w>": 3318,
      "normal</w>": 3319,
      "Ma": 3320,
      "cat": 3321,
      "confir": 3322,
      "sala</w>": 3323,
      "pron": 3324,
      "american</w>": 3325,
      "próprio</w>": 3326,
      "ince</w>": 3327,
      "ecu": 3328,
      "pho": 3329,
      "nal</w>": 3330,
      "ouro</w>": 3331,
      "hit</w>": 3332,
      "anci": 3333,
      "Tal": 3334,
      "Okay</w>": 3335,
      "quiser</w>": 3336,
      "ped": 3337,
      "através</w>": 3338,
      "sse": 3339,
      "remo": 3340,
      "hts</w>": 3341,
      "grama</w>": 3342,
      "tí": 3343,
      "cole": 3344,
      "morrow</w>": 3345,
      "scre": 3346,
      "arma</w>": 3347,
      "ép": 3348,
      "elec": 3349,
      "prome": 3350,
      "princi": 3351,
      "prisão</w>": 3352,
      "luz</w>": 3353,
      "milit": 3354,
      "ura</w>": 3355,
      "De</w>": 3356,
      "futuro</w>": 3357,
      "pati": 3358,
      "feder": 3359,
      "resto</w>": 3360,
      "exac": 3361,
      "dessa</w>": 3362,
      "sul": 3363,
      "ges</w>": 3364,
      "chamado</w>": 3365,
      "lha</w>": 3366,
      "special</w>": 3367,
      "sinto</w>": 3368,
      "ans": 3369,
      "có": 3370,
      "tra</w>": 3371,
      "ár": 3372,
      "force</w>": 3373,
      "decided</w>": 3374,
      "posto</w>": 3375,
      "spi": 3376,
      "president</w>": 3377,
      "conheci": 3378,
      "almost</w>": 3379,
      "sort</w>": 3380,
      "cle</w>": 3381,
      "ick": 3382,
      "ird</w>": 3383,
      "sun": 3384,
      "veio</w>": 3385,
      "gem</w>": 3386,
      "fucking</w>": 3387,
      "shit</w>": 3388,
      "pose</w>": 3389,
      "ixa</w>": 3390,
      "execu": 3391,
      "key</w>": 3392,
      "extre": 3393,
      "beautiful</w>": 3394,
      "ped</w>": 3395,
      "separ": 3396,
      "finally</w>": 3397,
      "avi": 3398,
      "nolo": 3399,
      "ram": 3400,
      "adi": 3401,
      "Talvez</w>": 3402,
      "ador": 3403,
      "ima": 3404,
      "oned</w>": 3405,
      "rul": 3406,
      "origin": 3407,
      "aw": 3408,
      "vista</w>": 3409,
      "estiver</w>": 3410,
      "semanas</w>": 3411,
      "blem</w>": 3412,
      "walk</w>": 3413,
      "ington</w>": 3414,
      "idio": 3415,
      "ford</w>": 3416,
      "ss</w>": 3417,
      "cação</w>": 3418,
      "dez</w>": 3419,
      "ajuda</w>": 3420,
      "ensin": 3421,
      "exactly</w>": 3422,
      "deixou</w>": 3423,
      "ester": 3424,
      "paci": 3425,
      "weeks</w>": 3426,
      "problem</w>": 3427,
      "direc": 3428,
      "capaz</w>": 3429,
      "comb": 3430,
      "group</w>": 3431,
      "star</w>": 3432,
      "wanna</w>": 3433,
      "ff": 3434,
      "big": 3435,
      "takes</w>": 3436,
      "certain</w>": 3437,
      "longe</w>": 3438,
      "girls</w>": 3439,
      "inas</w>": 3440,
      "deo</w>": 3441,
      "repor": 3442,
      "provavelmente</w>": 3443,
      "tornar</w>": 3444,
      "ow": 3445,
      "chur": 3446,
      "conce": 3447,
      "leav": 3448,
      "Ten": 3449,
      "advo": 3450,
      "ouvir</w>": 3451,
      "cover</w>": 3452,
      "conhec": 3453,
      "achar</w>": 3454,
      "capit": 3455,
      "Des": 3456,
      "música</w>": 3457,
      "moun": 3458,
      "dered</w>": 3459,
      "win</w>": 3460,
      "rob": 3461,
      "bra</w>": 3462,
      "invol": 3463,
      "gos": 3464,
      "empresa</w>": 3465,
      "direito</w>": 3466,
      "seems</w>": 3467,
      "Then</w>": 3468,
      "diferente</w>": 3469,
      "nov": 3470,
      "building</w>": 3471,
      "send</w>": 3472,
      "pas</w>": 3473,
      "cts</w>": 3474,
      "fied</w>": 3475,
      "icas</w>": 3476,
      "carre": 3477,
      "Your</w>": 3478,
      "famili": 3479,
      "wood</w>": 3480,
      "escon": 3481,
      "baixo</w>": 3482,
      "dei</w>": 3483,
      "cut</w>": 3484,
      "reuni": 3485,
      "oce": 3486,
      "trás</w>": 3487,
      "acc": 3488,
      "pressão</w>": 3489,
      "Isso</w>": 3490,
      "essi": 3491,
      "costu": 3492,
      "az": 3493,
      "mission</w>": 3494,
      "One</w>": 3495,
      "edu": 3496,
      "hen": 3497,
      "exam": 3498,
      "tho": 3499,
      "tical</w>": 3500,
      "arly</w>": 3501,
      "câ": 3502,
      "domin": 3503,
      "áveis</w>": 3504,
      "air</w>": 3505,
      "número</w>": 3506,
      "verda": 3507,
      "avam</w>": 3508,
      "tes": 3509,
      "seis</w>": 3510,
      "tomorrow</w>": 3511,
      "eria</w>": 3512,
      "chor": 3513,
      "obje": 3514,
      "jap": 3515,
      "scen": 3516,
      "tomar</w>": 3517,
      "ex</w>": 3518,
      "oi</w>": 3519,
      "guei</w>": 3520,
      "fico</w>": 3521,
      "hado</w>": 3522,
      "centr": 3523,
      "povo</w>": 3524,
      "dal": 3525,
      "tv</w>": 3526,
      "regi": 3527,
      "either</w>": 3528,
      "quil": 3529,
      "ounds</w>": 3530,
      "grandes</w>": 3531,
      "Meu</w>": 3532,
      "aring</w>": 3533,
      "mate</w>": 3534,
      "chefe</w>": 3535,
      "break</w>": 3536,
      "ught</w>": 3537,
      "ular</w>": 3538,
      "mp</w>": 3539,
      "aco</w>": 3540,
      "ona</w>": 3541,
      "pó": 3542,
      "clus": 3543,
      "dist": 3544,
      "dendo</w>": 3545,
      "tava</w>": 3546,
      "figure</w>": 3547,
      "len</w>": 3548,
      "haven</w>": 3549,
      "mudar</w>": 3550,
      "sorry</w>": 3551,
      "nice</w>": 3552,
      "chris": 3553,
      "bril": 3554,
      "amanhã</w>": 3555,
      "running</w>": 3556,
      "miss</w>": 3557,
      "docu": 3558,
      "post": 3559,
      "terá</w>": 3560,
      "telef": 3561,
      "within</w>": 3562,
      "dang": 3563,
      "bot": 3564,
      "suf": 3565,
      "tradi": 3566,
      "40</w>": 3567,
      "let": 3568,
      "rit": 3569,
      "jer": 3570,
      "forte</w>": 3571,
      "servi": 3572,
      "rema": 3573,
      "chin": 3574,
      "assassinato</w>": 3575,
      "tech": 3576,
      "lí": 3577,
      "sometimes</w>": 3578,
      "haps</w>": 3579,
      "standing</w>": 3580,
      "mc": 3581,
      "pelas</w>": 3582,
      "pes</w>": 3583,
      "velho</w>": 3584,
      "morto</w>": 3585,
      "Su": 3586,
      "aremos</w>": 3587,
      "fanta": 3588,
      "watch</w>": 3589,
      "believ": 3590,
      "irm": 3591,
      "segundo</w>": 3592,
      "lei</w>": 3593,
      "od": 3594,
      "nenhuma</w>": 3595,
      "gent": 3596,
      "tron": 3597,
      "proje": 3598,
      "exatamente</w>": 3599,
      "energia</w>": 3600,
      "mado</w>": 3601,
      "ério</w>": 3602,
      "pus": 3603,
      "pequeno</w>": 3604,
      "bs</w>": 3605,
      "nesse</w>": 3606,
      "amea": 3607,
      "waiting</w>": 3608,
      "detec": 3609,
      "sense</w>": 3610,
      "area</w>": 3611,
      "sada</w>": 3612,
      "spend</w>": 3613,
      "bre</w>": 3614,
      "posta</w>": 3615,
      "kee": 3616,
      "tamos</w>": 3617,
      "olhar</w>": 3618,
      "bro</w>": 3619,
      "bastante</w>": 3620,
      "On": 3621,
      "morrer</w>": 3622,
      "sear": 3623,
      "plo</w>": 3624,
      "eiro</w>": 3625,
      "tinham</w>": 3626,
      "hão</w>": 3627,
      "atten": 3628,
      "mess": 3629,
      "veu</w>": 3630,
      "incre": 3631,
      "ils</w>": 3632,
      "mens": 3633,
      "secret</w>": 3634,
      "escu": 3635,
      "precisamos</w>": 3636,
      "promo": 3637,
      "pudesse</w>": 3638,
      "limp": 3639,
      "whether</w>": 3640,
      "cording</w>": 3641,
      "fé</w>": 3642,
      "mostrar</w>": 3643,
      "pessoal</w>": 3644,
      "entender</w>": 3645,
      "usando</w>": 3646,
      "save</w>": 3647,
      "pers": 3648,
      "emer": 3649,
      "concer": 3650,
      ",\"</w>": 3651,
      "single</w>": 3652,
      "sabemos</w>": 3653,
      "wards</w>": 3654,
      "chr": 3655,
      "querem</w>": 3656,
      "xo</w>": 3657,
      "progr": 3658,
      "gun</w>": 3659,
      "tin</w>": 3660,
      "área</w>": 3661,
      "married</w>": 3662,
      "hour</w>": 3663,
      "deiro</w>": 3664,
      "esteja</w>": 3665,
      "exist": 3666,
      "pos</w>": 3667,
      "estivesse</w>": 3668,
      "Quero</w>": 3669,
      "transfor": 3670,
      "mud": 3671,
      "criar</w>": 3672,
      "survi": 3673,
      "fundo</w>": 3674,
      "época</w>": 3675,
      "To</w>": 3676,
      "shor": 3677,
      "obvi": 3678,
      "return</w>": 3679,
      "estas</w>": 3680,
      "pequena</w>": 3681,
      "continuar</w>": 3682,
      "gio</w>": 3683,
      "pesar</w>": 3684,
      "deser": 3685,
      "poin": 3686,
      "esperando</w>": 3687,
      "tors</w>": 3688,
      "últimos</w>": 3689,
      "situação</w>": 3690,
      "sister</w>": 3691,
      "road</w>": 3692,
      "emo": 3693,
      "arri": 3694,
      "sever": 3695,
      "ciais</w>": 3696,
      "ats</w>": 3697,
      "ging</w>": 3698,
      "guess</w>": 3699,
      "agens</w>": 3700,
      "prove</w>": 3701,
      "looked</w>": 3702,
      "materi": 3703,
      "finalmente</w>": 3704,
      "atório</w>": 3705,
      "último</w>": 3706,
      "At</w>": 3707,
      "mee": 3708,
      "allo": 3709,
      "scar": 3710,
      "óti": 3711,
      "planeta</w>": 3712,
      "espaço</w>": 3713,
      "everybody</w>": 3714,
      "val</w>": 3715,
      "park</w>": 3716,
      "consel": 3717,
      "roub": 3718,
      "gor": 3719,
      "digo</w>": 3720,
      "spent</w>": 3721,
      "needs</w>": 3722,
      "ually</w>": 3723,
      "tex": 3724,
      "speci": 3725,
      "follo": 3726,
      "enor": 3727,
      "próximo</w>": 3728,
      "declar": 3729,
      "controle</w>": 3730,
      "plan</w>": 3731,
      "acce": 3732,
      "exér": 3733,
      "foc": 3734,
      "flor": 3735,
      "security</w>": 3736,
      "lady</w>": 3737,
      "bla": 3738,
      "giving</w>": 3739,
      "cito</w>": 3740,
      "fic</w>": 3741,
      "çado</w>": 3742,
      "ontem</w>": 3743,
      "históri": 3744,
      "aking</w>": 3745,
      "pal</w>": 3746,
      "tador</w>": 3747,
      "propri": 3748,
      "law": 3749,
      "novamente</w>": 3750,
      "recu": 3751,
      "heav": 3752,
      "repen": 3753,
      "needed</w>": 3754,
      "acontecer</w>": 3755,
      "cuid": 3756,
      "america</w>": 3757,
      "wish</w>": 3758,
      "agra": 3759,
      "acional</w>": 3760,
      "diferentes</w>": 3761,
      "commun": 3762,
      "campo</w>": 3763,
      "read</w>": 3764,
      "great": 3765,
      "ests</w>": 3766,
      "wonder": 3767,
      "mb</w>": 3768,
      "position</w>": 3769,
      "próxima</w>": 3770,
      "instru": 3771,
      "news</w>": 3772,
      "please</w>": 3773,
      "pá": 3774,
      "rs</w>": 3775,
      "heal": 3776,
      "daqui</w>": 3777,
      "hael</w>": 3778,
      "dó": 3779,
      "reac": 3780,
      "condu": 3781,
      "cated</w>": 3782,
      "vindo</w>": 3783,
      "planet</w>": 3784,
      "manag": 3785,
      "sex</w>": 3786,
      "press</w>": 3787,
      "ques": 3788,
      "somos</w>": 3789,
      "veram</w>": 3790,
      "pagar</w>": 3791,
      "ula</w>": 3792,
      "especial</w>": 3793,
      "sol</w>": 3794,
      "figh": 3795,
      "escritório</w>": 3796,
      "ssemos</w>": 3797,
      "pesquis": 3798,
      "par</w>": 3799,
      "errado</w>": 3800,
      "tre</w>": 3801,
      "competi": 3802,
      "others</w>": 3803,
      "irs</w>": 3804,
      "buy</w>": 3805,
      "sugg": 3806,
      "sai": 3807,
      "view</w>": 3808,
      "ior</w>": 3809,
      "zing</w>": 3810,
      "princ": 3811,
      "reu</w>": 3812,
      "Re": 3813,
      "defin": 3814,
      "absolu": 3815,
      "safe</w>": 3816,
      "quite</w>": 3817,
      "ike</w>": 3818,
      "Foi</w>": 3819,
      "ash</w>": 3820,
      "glo": 3821,
      "feeling</w>": 3822,
      "muita</w>": 3823,
      "dente</w>": 3824,
      "ently</w>": 3825,
      "ared</w>": 3826,
      "horr": 3827,
      "rápido</w>": 3828,
      "11</w>": 3829,
      "looks</w>": 3830,
      "ído</w>": 3831,
      "date</w>": 3832,
      "hid": 3833,
      "fortun": 3834,
      "vens</w>": 3835,
      "comida</w>": 3836,
      "tribun": 3837,
      "blu": 3838,
      "incr": 3839,
      "shall</w>": 3840,
      "registr": 3841,
      "irmã</w>": 3842,
      "gest</w>": 3843,
      "mit</w>": 3844,
      "visão</w>": 3845,
      "programa</w>": 3846,
      "esca": 3847,
      "ques</w>": 3848,
      "paix": 3849,
      "alto</w>": 3850,
      "miles</w>": 3851,
      "assu": 3852,
      "sud": 3853,
      "west</w>": 3854,
      "preso</w>": 3855,
      "desapar": 3856,
      "ically</w>": 3857,
      "abo": 3858,
      "seeing</w>": 3859,
      "professor</w>": 3860,
      "culos</w>": 3861,
      "high": 3862,
      "favor": 3863,
      "sw": 3864,
      "udo</w>": 3865,
      "preen": 3866,
      "sul</w>": 3867,
      "festa</w>": 3868,
      "states</w>": 3869,
      "count</w>": 3870,
      "aband": 3871,
      "ances</w>": 3872,
      "consci": 3873,
      "rather</w>": 3874,
      "relig": 3875,
      "ang</w>": 3876,
      "sacri": 3877,
      "sts</w>": 3878,
      "phy": 3879,
      "thro": 3880,
      "ti</w>": 3881,
      "inhos</w>": 3882,
      "aj": 3883,
      "morreu</w>": 3884,
      "tou": 3885,
      "tivos</w>": 3886,
      "arran": 3887,
      "cy": 3888,
      "social</w>": 3889,
      "estranho</w>": 3890,
      "hell</w>": 3891,
      "national</w>": 3892,
      "music</w>": 3893,
      "sequ": 3894,
      "metros</w>": 3895,
      "intelig": 3896,
      "tribu": 3897,
      "pro</w>": 3898,
      "presen": 3899,
      "worked</w>": 3900,
      "Tenho</w>": 3901,
      "descul": 3902,
      "trial</w>": 3903,
      "fle": 3904,
      "demais</w>": 3905,
      "succ": 3906,
      "vit": 3907,
      "exército</w>": 3908,
      "toc": 3909,
      "piece</w>": 3910,
      "autor": 3911,
      "cks</w>": 3912,
      "real": 3913,
      "cali": 3914,
      "auth": 3915,
      "plano</w>": 3916,
      "europ": 3917,
      "open": 3918,
      "ios</w>": 3919,
      "became</w>": 3920,
      "igu": 3921,
      "olo": 3922,
      "seguir</w>": 3923,
      "visto</w>": 3924,
      "vesti": 3925,
      "ann": 3926,
      "wait</w>": 3927,
      "maioria</w>": 3928,
      "sit</w>": 3929,
      "weap": 3930,
      "prim": 3931,
      "comprar</w>": 3932,
      "certa</w>": 3933,
      "present</w>": 3934,
      "lord</w>": 3935,
      "lies</w>": 3936,
      "sexual</w>": 3937,
      "estávamos</w>": 3938,
      "liter": 3939,
      "sitting</w>": 3940,
      "longo</w>": 3941,
      "acreditar</w>": 3942,
      "In": 3943,
      "oport": 3944,
      "modo</w>": 3945,
      "preten": 3946,
      "relati": 3947,
      "fis": 3948,
      "arma": 3949,
      "ilha</w>": 3950,
      "geor": 3951,
      "nessa</w>": 3952,
      "mol": 3953,
      "With</w>": 3954,
      "bert</w>": 3955,
      "lun": 3956,
      "longer</w>": 3957,
      "livro</w>": 3958,
      "cate</w>": 3959,
      "matou</w>": 3960,
      "influ": 3961,
      "público</w>": 3962,
      "care": 3963,
      "yes</w>": 3964,
      "natural</w>": 3965,
      "ide</w>": 3966,
      "army</w>": 3967,
      "cios</w>": 3968,
      "base": 3969,
      "united</w>": 3970,
      "sion": 3971,
      "drive</w>": 3972,
      "middle</w>": 3973,
      "perder</w>": 3974,
      "board</w>": 3975,
      "strong</w>": 3976,
      "redor</w>": 3977,
      "mine</w>": 3978,
      "ganhar</w>": 3979,
      "tiz": 3980,
      "sea</w>": 3981,
      "mou</w>": 3982,
      "raid</w>": 3983,
      "born</w>": 3984,
      "she": 3985,
      "experience</w>": 3986,
      "rock</w>": 3987,
      "fully</w>": 3988,
      "naquela</w>": 3989,
      "ilo</w>": 3990,
      "trust</w>": 3991,
      "assassino</w>": 3992,
      "rie</w>": 3993,
      "pain": 3994,
      "spec": 3995,
      "pô": 3996,
      "realize</w>": 3997,
      "perman": 3998,
      "attack</w>": 3999,
      "assist": 4000,
      "melhores</w>": 4001,
      "acabou</w>": 4002,
      "squ": 4003,
      "commit": 4004,
      "alive</w>": 4005,
      "inim": 4006,
      "doctor</w>": 4007,
      "aus": 4008,
      "As": 4009,
      "respeito</w>": 4010,
      "sra</w>": 4011,
      "art</w>": 4012,
      "afi": 4013,
      "supposed</w>": 4014,
      "ety</w>": 4015,
      "audi": 4016,
      "question</w>": 4017,
      "lar</w>": 4018,
      "diga</w>": 4019,
      "cannot</w>": 4020,
      "convers": 4021,
      "flu": 4022,
      "power": 4023,
      "words</w>": 4024,
      "agre": 4025,
      "radi": 4026,
      "mani": 4027,
      "ill": 4028,
      "pel</w>": 4029,
      "Enquanto</w>": 4030,
      "air": 4031,
      "tais</w>": 4032,
      "brain</w>": 4033,
      "net</w>": 4034,
      "mental</w>": 4035,
      "bilidade</w>": 4036,
      "dow</w>": 4037,
      "crazy</w>": 4038,
      "continue</w>": 4039,
      "priva": 4040,
      "brig": 4041,
      "ali</w>": 4042,
      "Aqu": 4043,
      "ka</w>": 4044,
      "writ": 4045,
      "cky</w>": 4046,
      "ai</w>": 4047,
      "bebê</w>": 4048,
      "passou</w>": 4049,
      "armas</w>": 4050,
      "lares</w>": 4051,
      "them": 4052,
      "preocupa": 4053,
      "race</w>": 4054,
      "norte</w>": 4055,
      "lam": 4056,
      "chal": 4057,
      "sli": 4058,
      "elimin": 4059,
      "junto</w>": 4060,
      "els</w>": 4061,
      "permi": 4062,
      "gate</w>": 4063,
      "sla": 4064,
      "hares</w>": 4065,
      "tribunal</w>": 4066,
      "dir</w>": 4067,
      "levou</w>": 4068,
      "cked</w>": 4069,
      "protec": 4070,
      "concor": 4071,
      "south</w>": 4072,
      "meeting</w>": 4073,
      "Olha</w>": 4074,
      "pensa</w>": 4075,
      "Even</w>": 4076,
      "sun</w>": 4077,
      "trein": 4078,
      "vid</w>": 4079,
      "ataque</w>": 4080,
      "caras</w>": 4081,
      "perfect</w>": 4082,
      "yeah</w>": 4083,
      "atura</w>": 4084,
      "ambi": 4085,
      "wed": 4086,
      "seem</w>": 4087,
      "patr": 4088,
      "terri": 4089,
      "moder": 4090,
      "tia</w>": 4091,
      "protect</w>": 4092,
      "erem</w>": 4093,
      "thou": 4094,
      "procurando</w>": 4095,
      "iva</w>": 4096,
      "igre": 4097,
      "playing</w>": 4098,
      "tan</w>": 4099,
      "upon</w>": 4100,
      "ility</w>": 4101,
      "themselves</w>": 4102,
      "eat</w>": 4103,
      "vag": 4104,
      "one": 4105,
      "montan": 4106,
      "informações</w>": 4107,
      "vio</w>": 4108,
      "dizem</w>": 4109,
      "lose</w>": 4110,
      "Pe": 4111,
      "energy</w>": 4112,
      "ories</w>": 4113,
      "acabar</w>": 4114,
      "ticos</w>": 4115,
      "monstr": 4116,
      "fast</w>": 4117,
      "ot": 4118,
      "dark</w>": 4119,
      "apresent": 4120,
      "guil": 4121,
      "associ": 4122,
      "rup": 4123,
      "early</w>": 4124,
      "fogo</w>": 4125,
      "plain</w>": 4126,
      "ena</w>": 4127,
      "centro</w>": 4128,
      "kept</w>": 4129,
      "free": 4130,
      "rua</w>": 4131,
      "prison</w>": 4132,
      "terror": 4133,
      "mou": 4134,
      "entar</w>": 4135,
      "pain</w>": 4136,
      "hava</w>": 4137,
      "worth</w>": 4138,
      "linha</w>": 4139,
      "pick</w>": 4140,
      "tment</w>": 4141,
      "roman": 4142,
      "motivo</w>": 4143,
      "Tudo</w>": 4144,
      "fácil</w>": 4145,
      "cados</w>": 4146,
      "fazem</w>": 4147,
      "fy</w>": 4148,
      "civi": 4149,
      "situation</w>": 4150,
      "Just</w>": 4151,
      "troux": 4152,
      "óg": 4153,
      "ue</w>": 4154,
      "san</w>": 4155,
      "Do</w>": 4156,
      "dé": 4157,
      "devem</w>": 4158,
      "eua</w>": 4159,
      "asking</w>": 4160,
      "querer</w>": 4161,
      "conv": 4162,
      "fen": 4163,
      "eri": 4164,
      "asure</w>": 4165,
      "personal</w>": 4166,
      "desig": 4167,
      "esting</w>": 4168,
      "julg": 4169,
      "mí": 4170,
      "partici": 4171,
      "parecer</w>": 4172,
      "boys</w>": 4173,
      "unless</w>": 4174,
      "mesa</w>": 4175,
      "fon": 4176,
      "orden": 4177,
      "issu": 4178,
      "recuper": 4179,
      "cerca</w>": 4180,
      "lead</w>": 4181,
      "Que</w>": 4182,
      "brin": 4183,
      "original</w>": 4184,
      "talmente</w>": 4185,
      "descri": 4186,
      "particular</w>": 4187,
      "fall</w>": 4188,
      "fbi</w>": 4189,
      "corpor": 4190,
      "speak</w>": 4191,
      "sam": 4192,
      "várias</w>": 4193,
      "opport": 4194,
      ".\"</w>": 4195,
      "antas</w>": 4196,
      "provi": 4197,
      "experiência</w>": 4198,
      "estaria</w>": 4199,
      "iled</w>": 4200,
      "Mes": 4201,
      "trabalhando</w>": 4202,
      "michael</w>": 4203,
      "aixo</w>": 4204,
      "sabem</w>": 4205,
      "ri</w>": 4206,
      "dan</w>": 4207,
      "film</w>": 4208,
      "class</w>": 4209,
      "back": 4210,
      "pli": 4211,
      "dí": 4212,
      "achei</w>": 4213,
      "crimes</w>": 4214,
      "tas": 4215,
      "gul": 4216,
      "viaj": 4217,
      "dna</w>": 4218,
      "relação</w>": 4219,
      "iz</w>": 4220,
      "bly</w>": 4221,
      "naquele</w>": 4222,
      "vivo</w>": 4223,
      "depar": 4224,
      "tornou</w>": 4225,
      "ignor": 4226,
      "feet</w>": 4227,
      "dly</w>": 4228,
      "happens</w>": 4229,
      "belo</w>": 4230,
      "sell</w>": 4231,
      "afraid</w>": 4232,
      "Mr</w>": 4233,
      "dólares</w>": 4234,
      "esus</w>": 4235,
      "assis": 4236,
      "military</w>": 4237,
      "bal</w>": 4238,
      "listen</w>": 4239,
      "idente</w>": 4240,
      "church</w>": 4241,
      "cére": 4242,
      "rad": 4243,
      "ãos</w>": 4244,
      "mir</w>": 4245,
      "diffic": 4246,
      "revel": 4247,
      "discus": 4248,
      "espero</w>": 4249,
      "médico</w>": 4250,
      "eco": 4251,
      "salvar</w>": 4252,
      "Mesmo</w>": 4253,
      "ceu</w>": 4254,
      "18</w>": 4255,
      "saí": 4256,
      "brit": 4257,
      "questão</w>": 4258,
      "contra": 4259,
      "sy</w>": 4260,
      "report</w>": 4261,
      "super</w>": 4262,
      "learn</w>": 4263,
      "?\".</w>": 4264,
      "coz": 4265,
      "unity</w>": 4266,
      "dow": 4267,
      "han</w>": 4268,
      "ine": 4269,
      "imagine</w>": 4270,
      "jam</w>": 4271,
      "nigh": 4272,
      "peda": 4273,
      "ading</w>": 4274,
      "deram</w>": 4275,
      "ko": 4276,
      "van</w>": 4277,
      "rada</w>": 4278,
      "essem</w>": 4279,
      "comer</w>": 4280,
      "segre": 4281,
      "check</w>": 4282,
      "esperar</w>": 4283,
      "gosto</w>": 4284,
      "impor": 4285,
      "riage</w>": 4286,
      "vários</w>": 4287,
      "honor</w>": 4288,
      "movie</w>": 4289,
      "On</w>": 4290,
      "ease</w>": 4291,
      "Ac": 4292,
      "uso</w>": 4293,
      "garoto</w>": 4294,
      "25</w>": 4295,
      "chegou</w>": 4296,
      "igreja</w>": 4297,
      "inos</w>": 4298,
      "estados</w>": 4299,
      "watching</w>": 4300,
      "curr": 4301,
      "fort</w>": 4302,
      "monte</w>": 4303,
      "deep</w>": 4304,
      "fine</w>": 4305,
      "stor": 4306,
      "major</w>": 4307,
      "oportunidade</w>": 4308,
      "gical</w>": 4309,
      "temente</w>": 4310,
      "pé": 4311,
      "tindo</w>": 4312,
      "north</w>": 4313,
      "faça</w>": 4314,
      "support</w>": 4315,
      "hit": 4316,
      "icí": 4317,
      "60</w>": 4318,
      "té": 4319,
      "record</w>": 4320,
      "compli": 4321,
      "whose</w>": 4322,
      "tiver</w>": 4323,
      "fizeram</w>": 4324,
      "vis</w>": 4325,
      "negócio</w>": 4326,
      "bac": 4327,
      "yl": 4328,
      "cha</w>": 4329,
      "vítima</w>": 4330,
      "unci": 4331,
      "perhaps</w>": 4332,
      "completely</w>": 4333,
      "seram</w>": 4334,
      "sidade</w>": 4335,
      "atenção</w>": 4336,
      "mex": 4337,
      "Ex": 4338,
      "milhares</w>": 4339,
      "jour": 4340,
      "ôn": 4341,
      "killer</w>": 4342,
      "corri": 4343,
      "sleep</w>": 4344,
      "palavras</w>": 4345,
      "poten": 4346,
      "bank</w>": 4347,
      "sands</w>": 4348,
      "rec": 4349,
      "inoc": 4350,
      "existe</w>": 4351,
      "quebr": 4352,
      "Yes</w>": 4353,
      "tures</w>": 4354,
      "cher</w>": 4355,
      "acre": 4356,
      "rap": 4357,
      "psy": 4358,
      "victim</w>": 4359,
      "conhecer</w>": 4360,
      "policial</w>": 4361,
      "Pre": 4362,
      "hot</w>": 4363,
      "near</w>": 4364,
      "hole</w>": 4365,
      "ál": 4366,
      "trazer</w>": 4367,
      "van": 4368,
      "sir</w>": 4369,
      "build</w>": 4370,
      "sito</w>": 4371,
      "create</w>": 4372,
      "iram</w>": 4373,
      "batal": 4374,
      "mark</w>": 4375,
      "24</w>": 4376,
      "ants</w>": 4377,
      "total</w>": 4378,
      "animal</w>": 4379,
      "wash": 4380,
      "kin": 4381,
      "escap": 4382,
      "ax": 4383,
      "ler": 4384,
      ".,</w>": 4385,
      "nacional</w>": 4386,
      "acredito</w>": 4387,
      "ken": 4388,
      "scene</w>": 4389,
      "dir": 4390,
      "jantar</w>": 4391,
      "tric": 4392,
      "pré": 4393,
      "cast": 4394,
      "jack</w>": 4395,
      "teac": 4396,
      "curso</w>": 4397,
      "fren": 4398,
      "cama</w>": 4399,
      "built</w>": 4400,
      "ceiro</w>": 4401,
      "conhecido</w>": 4402,
      "wall</w>": 4403,
      "amentos</w>": 4404,
      "sof": 4405,
      "officer</w>": 4406,
      "principal</w>": 4407,
      "recei": 4408,
      "proteger</w>": 4409,
      "tice</w>": 4410,
      "essed</w>": 4411,
      "repente</w>": 4412,
      "mentar</w>": 4413,
      "loved</w>": 4414,
      "vá</w>": 4415,
      "paper</w>": 4416,
      "Este</w>": 4417,
      "drogas</w>": 4418,
      "Per": 4419,
      "effe": 4420,
      "esmente</w>": 4421,
      "tiu</w>": 4422,
      "uldade</w>": 4423,
      "sky</w>": 4424,
      "ecem</w>": 4425,
      "month</w>": 4426,
      "enta</w>": 4427,
      "acontecendo</w>": 4428,
      "fiquei</w>": 4429,
      "antos</w>": 4430,
      "but": 4431,
      "jesus</w>": 4432,
      "banco</w>": 4433,
      "hood</w>": 4434,
      "ries</w>": 4435,
      "compar": 4436,
      "Esta</w>": 4437,
      "realized</w>": 4438,
      "obser": 4439,
      "involved</w>": 4440,
      "prac": 4441,
      "aber": 4442,
      "avis": 4443,
      "trag": 4444,
      "tation</w>": 4445,
      "central</w>": 4446,
      "eye</w>": 4447,
      "scienti": 4448,
      "trouble</w>": 4449,
      "has": 4450,
      "ficado</w>": 4451,
      "quê</w>": 4452,
      "assus": 4453,
      "sucesso</w>": 4454,
      "lista</w>": 4455,
      "ph</w>": 4456,
      "ental</w>": 4457,
      "resear": 4458,
      "houve</w>": 4459,
      "bus</w>": 4460,
      "kers</w>": 4461,
      "stone</w>": 4462,
      "stage</w>": 4463,
      "exem": 4464,
      "ical</w>": 4465,
      "secu": 4466,
      "tó": 4467,
      "infer": 4468,
      "ancient</w>": 4469,
      "tempor": 4470,
      "deia</w>": 4471,
      "lin</w>": 4472,
      "dinner</w>": 4473,
      "write</w>": 4474,
      "fair</w>": 4475,
      "merda</w>": 4476,
      "rosto</w>": 4477,
      "ial</w>": 4478,
      "Vou</w>": 4479,
      "usa</w>": 4480,
      "leaving</w>": 4481,
      "ring</w>": 4482,
      "ond</w>": 4483,
      "preocup": 4484,
      "roo": 4485,
      "gold</w>": 4486,
      "dream</w>": 4487,
      "drag": 4488,
      "afe": 4489,
      "vul": 4490,
      "desafi": 4491,
      "community</w>": 4492,
      "yo": 4493,
      "opportunity</w>": 4494,
      "dú": 4495,
      "explor": 4496,
      "hada</w>": 4497,
      "sorte</w>": 4498,
      "togra": 4499,
      "prov": 4500,
      "jogar</w>": 4501,
      "gens</w>": 4502,
      "serão</w>": 4503,
      "justiça</w>": 4504,
      "Minha</w>": 4505,
      "members</w>": 4506,
      "named</w>": 4507,
      "dit": 4508,
      "nel</w>": 4509,
      "step</w>": 4510,
      "pediu</w>": 4511,
      "promise</w>": 4512,
      "washington</w>": 4513,
      "conselho</w>": 4514,
      "land": 4515,
      "gentle": 4516,
      "mrs</w>": 4517,
      "ners</w>": 4518,
      "simplesmente</w>": 4519,
      "taram</w>": 4520,
      "dedi": 4521,
      "club</w>": 4522,
      "serviço</w>": 4523,
      "ury</w>": 4524,
      "viagem</w>": 4525,
      "george</w>": 4526,
      "ong": 4527,
      "male</w>": 4528,
      "Uh</w>": 4529,
      "encon": 4530,
      "seguro</w>": 4531,
      "new": 4532,
      "ordem</w>": 4533,
      "beu</w>": 4534,
      "papel</w>": 4535,
      "neigh": 4536,
      "marriage</w>": 4537,
      "ough": 4538,
      "vação</w>": 4539,
      "hair</w>": 4540,
      "confor": 4541,
      "lhes</w>": 4542,
      "limit": 4543,
      "partment</w>": 4544,
      "marav": 4545,
      "céu</w>": 4546,
      "ky</w>": 4547,
      "list</w>": 4548,
      "ites</w>": 4549,
      "convi": 4550,
      "reser": 4551,
      "knowing</w>": 4552,
      "interess": 4553,
      "sign</w>": 4554,
      "service</w>": 4555,
      "fun</w>": 4556,
      "eter": 4557,
      "david</w>": 4558,
      "jog": 4559,
      "ama</w>": 4560,
      "pid</w>": 4561,
      "perig": 4562,
      "partir</w>": 4563,
      "perfor": 4564,
      "dad": 4565,
      "somewhere</w>": 4566,
      "yers</w>": 4567,
      "alter": 4568,
      "vari": 4569,
      "pers</w>": 4570,
      "incrível</w>": 4571,
      "due</w>": 4572,
      "pior</w>": 4573,
      "andar</w>": 4574,
      "data</w>": 4575,
      "smo": 4576,
      "dress</w>": 4577,
      "ran</w>": 4578,
      "joy</w>": 4579,
      "know": 4580,
      "idos</w>": 4581,
      "fear</w>": 4582,
      "soli": 4583,
      "sau": 4584,
      "gig": 4585,
      "dul": 4586,
      "spr": 4587,
      "cérebro</w>": 4588,
      "16</w>": 4589,
      "tá</w>": 4590,
      "consegue</w>": 4591,
      "humano</w>": 4592,
      "dirig": 4593,
      "Estamos</w>": 4594,
      "arru": 4595,
      "tores</w>": 4596,
      "emy</w>": 4597,
      "estú": 4598,
      "espí": 4599,
      "14</w>": 4600,
      "ismo</w>": 4601,
      "willing</w>": 4602,
      "respons": 4603,
      "teu</w>": 4604,
      "ston</w>": 4605,
      "volu": 4606,
      "esc": 4607,
      "deta": 4608,
      "estará</w>": 4609,
      "provar</w>": 4610,
      "veja</w>": 4611,
      "humanos</w>": 4612,
      "nie</w>": 4613,
      "eses</w>": 4614,
      "totalmente</w>": 4615,
      "station</w>": 4616,
      "consigo</w>": 4617,
      "criminal</w>": 4618,
      "hurt</w>": 4619,
      "May": 4620,
      "lembrar</w>": 4621,
      "éia</w>": 4622,
      "nobody</w>": 4623,
      "dê</w>": 4624,
      "lived</w>": 4625,
      "presente</w>": 4626,
      "attemp": 4627,
      "questions</w>": 4628,
      "nisso</w>": 4629,
      "sentido</w>": 4630,
      "learned</w>": 4631,
      "nar": 4632,
      "Assim</w>": 4633,
      "tics</w>": 4634,
      "nature</w>": 4635,
      "bt</w>": 4636,
      "aren</w>": 4637,
      "franc": 4638,
      "esfor": 4639,
      "lee</w>": 4640,
      "peace</w>": 4641,
      "forget</w>": 4642,
      "discovered</w>": 4643,
      "respect</w>": 4644,
      "julgamento</w>": 4645,
      "fru": 4646,
      "jovens</w>": 4647,
      "conseguiu</w>": 4648,
      "ian</w>": 4649,
      "inno": 4650,
      "fla": 4651,
      "cam</w>": 4652,
      "espé": 4653,
      "cí": 4654,
      "ate": 4655,
      "zed</w>": 4656,
      "cida</w>": 4657,
      "vejo</w>": 4658,
      "poor</w>": 4659,
      "ticas</w>": 4660,
      "desper": 4661,
      "vaz": 4662,
      "proper": 4663,
      "espéci": 4664,
      "tain": 4665,
      "lions</w>": 4666,
      "charge</w>": 4667,
      "Já</w>": 4668,
      "Sen": 4669,
      "answer</w>": 4670,
      "satis": 4671,
      "grad": 4672,
      "evol": 4673,
      "minute</w>": 4674,
      "var": 4675,
      "thinks</w>": 4676,
      "thank</w>": 4677,
      "uses</w>": 4678,
      "department</w>": 4679,
      "picture</w>": 4680,
      "disseram</w>": 4681,
      "200</w>": 4682,
      "cool</w>": 4683,
      "powerful</w>": 4684,
      "itor</w>": 4685,
      "informação</w>": 4686,
      "orgul": 4687,
      "temper": 4688,
      "box</w>": 4689,
      "lembro</w>": 4690,
      "quanti": 4691,
      "desses</w>": 4692,
      "justice</w>": 4693,
      "árv": 4694,
      "gares</w>": 4695,
      "18": 4696,
      "livre</w>": 4697,
      "idiota</w>": 4698,
      "ions</w>": 4699,
      "osas</w>": 4700,
      "gation</w>": 4701,
      "bis": 4702,
      "dentes</w>": 4703,
      "unidos</w>": 4704,
      "huge</w>": 4705,
      "thousands</w>": 4706,
      "econo": 4707,
      "till</w>": 4708,
      "adora</w>": 4709,
      "rest": 4710,
      "ession</w>": 4711,
      "mach": 4712,
      "lembr": 4713,
      "contato</w>": 4714,
      "yle</w>": 4715,
      "gic</w>": 4716,
      "material</w>": 4717,
      "500</w>": 4718,
      "queen</w>": 4719,
      "captain</w>": 4720,
      "esque": 4721,
      "ics</w>": 4722,
      "difficult</w>": 4723,
      "including</w>": 4724,
      "james</w>": 4725,
      "caixa</w>": 4726,
      "Vamos</w>": 4727,
      "gn": 4728,
      "ating": 4729,
      "chegar": 4730,
      "pass</w>": 4731,
      "assun": 4732,
      "ligh": 4733,
      "acontece</w>": 4734,
      "cliente</w>": 4735,
      "segunda</w>": 4736,
      "abrir</w>": 4737,
      "soldi": 4738,
      "somb": 4739,
      "song</w>": 4740,
      "ately</w>": 4741,
      "appro": 4742,
      "stupid</w>": 4743,
      "site</w>": 4744,
      "dog</w>": 4745,
      "after": 4746,
      "killing</w>": 4747,
      "vermel": 4748,
      "charac": 4749,
      "érica</w>": 4750,
      "quais</w>": 4751,
      "mos": 4752,
      "pena</w>": 4753,
      "ruim</w>": 4754,
      "aceit": 4755,
      "direção</w>": 4756,
      "Some": 4757,
      "lag": 4758,
      "aling</w>": 4759,
      "pper</w>": 4760,
      "planej": 4761,
      "cold</w>": 4762,
      "sound</w>": 4763,
      "sen</w>": 4764,
      "ade</w>": 4765,
      "processo</w>": 4766,
      "anybody</w>": 4767,
      "parecia</w>": 4768,
      "cui": 4769,
      "Our</w>": 4770,
      "universo</w>": 4771,
      "universe</w>": 4772,
      "saiu</w>": 4773,
      "Maybe</w>": 4774,
      "cais</w>": 4775,
      "seven</w>": 4776,
      "surpris": 4777,
      "telefone</w>": 4778,
      "level</w>": 4779,
      "yal</w>": 4780,
      "pazes</w>": 4781,
      "created</w>": 4782,
      "pac": 4783,
      "cando</w>": 4784,
      "works</w>": 4785,
      "umas</w>": 4786,
      "traz": 4787,
      "ble": 4788,
      "ante": 4789,
      "based</w>": 4790,
      "reza</w>": 4791,
      "chamada</w>": 4792,
      "verá</w>": 4793,
      "mem": 4794,
      "minis": 4795,
      "conden": 4796,
      "fish</w>": 4797,
      "mês</w>": 4798,
      "negócios</w>": 4799,
      "figu": 4800,
      "connec": 4801,
      "superi": 4802,
      "andy</w>": 4803,
      "palavra</w>": 4804,
      "intro": 4805,
      "maravil": 4806,
      "anha</w>": 4807,
      "estade</w>": 4808,
      "zo</w>": 4809,
      "acci": 4810,
      "abandon": 4811,
      "several</w>": 4812,
      "desej": 4813,
      "myster": 4814,
      "cedo</w>": 4815,
      "oud</w>": 4816,
      "membros</w>": 4817,
      "divi": 4818,
      "defesa</w>": 4819,
      "set": 4820,
      "federal</w>": 4821,
      "faria</w>": 4822,
      "blue</w>": 4823,
      "agente</w>": 4824,
      "sozinho</w>": 4825,
      "chão</w>": 4826,
      "lugares</w>": 4827,
      "throw</w>": 4828,
      "início</w>": 4829,
      "sible</w>": 4830,
      "atar</w>": 4831,
      "soul</w>": 4832,
      "denly</w>": 4833,
      "ariam</w>": 4834,
      "cá</w>": 4835,
      "tris": 4836,
      "metade</w>": 4837,
      "cena</w>": 4838,
      "pit": 4839,
      "série</w>": 4840,
      "wever</w>": 4841,
      "colon": 4842,
      "gotta</w>": 4843,
      "advogado</w>": 4844,
      "institu": 4845,
      "encontro</w>": 4846,
      "quis</w>": 4847,
      "ligar</w>": 4848,
      "decisão</w>": 4849,
      "Temos</w>": 4850,
      "rol": 4851,
      "knowle": 4852,
      "olhando</w>": 4853,
      "-.</w>": 4854,
      "emprego</w>": 4855,
      "viz": 4856,
      "fighting</w>": 4857,
      "fore": 4858,
      "Certo</w>": 4859,
      "sch": 4860,
      "loja</w>": 4861,
      "ement</w>": 4862,
      "caught</w>": 4863,
      "emplo": 4864,
      "cum": 4865,
      "shows</w>": 4866,
      "zo": 4867,
      "rich</w>": 4868,
      "completamente</w>": 4869,
      "comum</w>": 4870,
      "putting</w>": 4871,
      "rich": 4872,
      "descober": 4873,
      "redu": 4874,
      "large</w>": 4875,
      "prova</w>": 4876,
      "apartamento</w>": 4877,
      "nele</w>": 4878,
      "devemos</w>": 4879,
      "dada</w>": 4880,
      "perguntar</w>": 4881,
      "hil": 4882,
      "private</w>": 4883,
      "til": 4884,
      "especially</w>": 4885,
      "tá": 4886,
      "capitão</w>": 4887,
      "mary</w>": 4888,
      "'.</w>": 4889,
      "alma</w>": 4890,
      "alem": 4891,
      "rito</w>": 4892,
      "ek</w>": 4893,
      "kis": 4894,
      "vely</w>": 4895,
      "search</w>": 4896,
      "easy</w>": 4897,
      "combin": 4898,
      "comunidade</w>": 4899,
      "mortos</w>": 4900,
      "mada</w>": 4901,
      "decide</w>": 4902,
      "serem</w>": 4903,
      "Todos</w>": 4904,
      "pósito</w>": 4905,
      "precisam</w>": 4906,
      "devo</w>": 4907,
      "china</w>": 4908,
      "voz</w>": 4909,
      "missing</w>": 4910,
      "máqu": 4911,
      "amoun": 4912,
      "requ": 4913,
      "animais</w>": 4914,
      "liberdade</w>": 4915,
      "von": 4916,
      "seguin": 4917,
      "evil</w>": 4918,
      "garan": 4919,
      "li</w>": 4920,
      "cadas</w>": 4921,
      "not": 4922,
      "offer</w>": 4923,
      "çando</w>": 4924,
      "hate</w>": 4925,
      "nível</w>": 4926,
      "pé</w>": 4927,
      "recom": 4928,
      "busca</w>": 4929,
      "weren</w>": 4930,
      ",...</w>": 4931,
      "ano": 4932,
      "bol</w>": 4933,
      "gosta": 4934,
      "natal</w>": 4935,
      "trop": 4936,
      "cuidar</w>": 4937,
      "paris</w>": 4938,
      "paid</w>": 4939,
      "vidade</w>": 4940,
      "17</w>": 4941,
      "cof": 4942,
      "tered</w>": 4943,
      "américa</w>": 4944,
      "forward</w>": 4945,
      "dormir</w>": 4946,
      "exten": 4947,
      "repu": 4948,
      "detal": 4949,
      "conne": 4950,
      "argu": 4951,
      "fotos</w>": 4952,
      "share</w>": 4953,
      "mic</w>": 4954,
      "moving</w>": 4955,
      "Mu": 4956,
      "held</w>": 4957,
      "garotas</w>": 4958,
      "center</w>": 4959,
      "delas</w>": 4960,
      "sexo</w>": 4961,
      "anim": 4962,
      "oficial</w>": 4963,
      "ority</w>": 4964,
      "refer": 4965,
      "bag": 4966,
      "Not</w>": 4967,
      "café</w>": 4968,
      "gel": 4969,
      "enda</w>": 4970,
      "mor</w>": 4971,
      "ples</w>": 4972,
      "turns</w>": 4973,
      "finan": 4974,
      "ounded</w>": 4975,
      "ya</w>": 4976,
      "acidente</w>": 4977,
      "round</w>": 4978,
      "ability</w>": 4979,
      "inning</w>": 4980,
      "avan": 4981,
      "wedding</w>": 4982,
      "How</w>": 4983,
      "explain</w>": 4984,
      "13</w>": 4985,
      "pado</w>": 4986,
      "itself</w>": 4987,
      "fique</w>": 4988,
      "vac": 4989,
      "natu": 4990,
      "profun": 4991,
      "ero": 4992,
      "college</w>": 4993,
      "pull</w>": 4994,
      "opini": 4995,
      "ets</w>": 4996,
      "apartment</w>": 4997,
      "yours</w>": 4998,
      "exemplo</w>": 4999,
      "adul": 5000,
      "nation</w>": 5001,
      "strange</w>": 5002,
      "cris": 5003,
      "lap": 5004,
      "simples</w>": 5005,
      "third</w>": 5006,
      "dessas</w>": 5007,
      "problems</w>": 5008,
      "0s</w>": 5009,
      "apesar</w>": 5010,
      "attention</w>": 5011,
      "luta</w>": 5012,
      "culpa</w>": 5013,
      "las": 5014,
      "labor": 5015,
      "medical</w>": 5016,
      "cing</w>": 5017,
      "repe": 5018,
      "irão</w>": 5019,
      "dete": 5020,
      "amiga</w>": 5021,
      "represent": 5022,
      "straight</w>": 5023,
      "drink</w>": 5024,
      "jud": 5025,
      "boas</w>": 5026,
      "ry": 5027,
      "ouvi</w>": 5028,
      "allow</w>": 5029,
      "tude</w>": 5030,
      "jury</w>": 5031,
      "rit</w>": 5032,
      "suddenly</w>": 5033,
      "gil": 5034,
      "acion": 5035,
      "fia</w>": 5036,
      "velop": 5037,
      "forever</w>": 5038,
      "casar</w>": 5039,
      "quin": 5040,
      "alta</w>": 5041,
      "dece": 5042,
      "internet</w>": 5043,
      "refle": 5044,
      "moved</w>": 5045,
      "eta</w>": 5046,
      "stri": 5047,
      "deixa</w>": 5048,
      "cura</w>": 5049,
      "tê</w>": 5050,
      "diante</w>": 5051,
      "lidar</w>": 5052,
      "resid": 5053,
      "ejo</w>": 5054,
      "tenta": 5055,
      "fres": 5056,
      "sociedade</w>": 5057,
      "bunch</w>": 5058,
      "drug</w>": 5059,
      "meras</w>": 5060,
      "short</w>": 5061,
      "stan": 5062,
      "candi": 5063,
      "anymore</w>": 5064,
      "Dur": 5065,
      "damn</w>": 5066,
      "society</w>": 5067,
      "cimento</w>": 5068,
      "menti": 5069,
      "store</w>": 5070,
      "hero": 5071,
      "announ": 5072,
      "eral</w>": 5073,
      "gosta</w>": 5074,
      "apaix": 5075,
      "jú": 5076,
      "client</w>": 5077,
      "200": 5078,
      "alu": 5079,
      "tial</w>": 5080,
      "indus": 5081,
      "sente</w>": 5082,
      "dance</w>": 5083,
      "infe": 5084,
      "icídio</w>": 5085,
      "lim": 5086,
      "aquilo</w>": 5087,
      "receber</w>": 5088,
      "plo": 5089,
      "começa</w>": 5090,
      "passed</w>": 5091,
      "ists</w>": 5092,
      "psi": 5093,
      "stud": 5094,
      "entrou</w>": 5095,
      "departamento</w>": 5096,
      "sour": 5097,
      "Precis": 5098,
      "witness</w>": 5099,
      "believed</w>": 5100,
      "Sr</w>": 5101,
      "esperança</w>": 5102,
      "anda</w>": 5103,
      "willi": 5104,
      "changed</w>": 5105,
      "verão</w>": 5106,
      "contact</w>": 5107,
      "multi": 5108,
      "reunião</w>": 5109,
      "Since</w>": 5110,
      "vas": 5111,
      "reve": 5112,
      "diretor</w>": 5113,
      "foto</w>": 5114,
      "offer": 5115,
      "companh": 5116,
      "moon</w>": 5117,
      "ane</w>": 5118,
      "action</w>": 5119,
      "follow</w>": 5120,
      "filmes</w>": 5121,
      "tally</w>": 5122,
      "video</w>": 5123,
      "fugi": 5124,
      "garantir</w>": 5125,
      "mm</w>": 5126,
      "except</w>": 5127,
      "construir</w>": 5128,
      "east</w>": 5129,
      "roupas</w>": 5130,
      "testi": 5131,
      "voice</w>": 5132,
      "john": 5133,
      "enorme</w>": 5134,
      "hi</w>": 5135,
      "Me</w>": 5136,
      "extra</w>": 5137,
      "falta</w>": 5138,
      "These</w>": 5139,
      "enfr": 5140,
      "decision</w>": 5141,
      "ages</w>": 5142,
      "tida</w>": 5143,
      "knowledge</w>": 5144,
      "fazia</w>": 5145,
      "forças</w>": 5146,
      "km</w>": 5147,
      "naz": 5148,
      "meia</w>": 5149,
      "tary</w>": 5150,
      "vontade</w>": 5151,
      "const": 5152,
      "inging</w>": 5153,
      "precisava</w>": 5154,
      "boca</w>": 5155,
      "sobrevi": 5156,
      "tory</w>": 5157,
      "esterday</w>": 5158,
      "judge</w>": 5159,
      "costas</w>": 5160,
      "master</w>": 5161,
      "lik": 5162,
      "risk</w>": 5163,
      "places</w>": 5164,
      "lars</w>": 5165,
      "ines</w>": 5166,
      "cabelo</w>": 5167,
      "ased</w>": 5168,
      "vision</w>": 5169,
      "obrig": 5170,
      "ox": 5171,
      "cruz": 5172,
      "edi": 5173,
      "cei</w>": 5174,
      "bate</w>": 5175,
      "çam</w>": 5176,
      "assi": 5177,
      "research</w>": 5178,
      "bill</w>": 5179,
      "reach</w>": 5180,
      "capital</w>": 5181,
      "stories</w>": 5182,
      "jac": 5183,
      "civiliz": 5184,
      "mail</w>": 5185,
      "che</w>": 5186,
      "Ao</w>": 5187,
      "file</w>": 5188,
      "eight</w>": 5189,
      "forma": 5190,
      "discu": 5191,
      "mia</w>": 5192,
      "boy": 5193,
      "cere": 5194,
      "travel": 5195,
      "gay</w>": 5196,
      "grand</w>": 5197,
      "Está</w>": 5198,
      "democ": 5199,
      "floor</w>": 5200,
      "saiba</w>": 5201,
      "Listen</w>": 5202,
      "fo</w>": 5203,
      "territ": 5204,
      "equip": 5205,
      "gotten</w>": 5206,
      "regr": 5207,
      "icamente</w>": 5208,
      "reco": 5209,
      "ening</w>": 5210,
      "carta</w>": 5211,
      "claim": 5212,
      "mensagem</w>": 5213,
      "reas": 5214,
      "mando</w>": 5215,
      "choice</w>": 5216,
      "devia</w>": 5217,
      "tecnolo": 5218,
      "spirit</w>": 5219,
      "queremos</w>": 5220,
      "visit": 5221,
      "ather</w>": 5222,
      "lying</w>": 5223,
      "err": 5224,
      "walking</w>": 5225,
      "carreira</w>": 5226,
      "trouxe</w>": 5227,
      "natureza</w>": 5228,
      "broke</w>": 5229,
      "christ": 5230,
      "quão</w>": 5231,
      "ods</w>": 5232,
      "tio</w>": 5233,
      "onto</w>": 5234,
      "dios</w>": 5235,
      "80</w>": 5236,
      "dani": 5237,
      "model": 5238,
      "especialmente</w>": 5239,
      "suffer": 5240,
      "imos</w>": 5241,
      "histórias</w>": 5242,
      "maravilho": 5243,
      "ude</w>": 5244,
      "óli": 5245,
      "tentou</w>": 5246,
      "teira</w>": 5247,
      "further</w>": 5248,
      "sey</w>": 5249,
      "sete</w>": 5250,
      "bud": 5251,
      "apaixon": 5252,
      "faculdade</w>": 5253,
      "arqui": 5254,
      "aly": 5255,
      "projeto</w>": 5256,
      "descobr": 5257,
      "began</w>": 5258,
      "perí": 5259,
      "program</w>": 5260,
      "dida</w>": 5261,
      "mean": 5262,
      "fa</w>": 5263,
      "estrada</w>": 5264,
      "beat</w>": 5265,
      "terior</w>": 5266,
      "tian</w>": 5267,
      "transfer": 5268,
      "danger": 5269,
      "vado</w>": 5270,
      "jen": 5271,
      "nor</w>": 5272,
      "maiores</w>": 5273,
      "ulti": 5274,
      "cles</w>": 5275,
      "encontrou</w>": 5276,
      "kid": 5277,
      "escrever</w>": 5278,
      "above</w>": 5279,
      "convinc": 5280,
      "nio</w>": 5281,
      "agrade": 5282,
      "physi": 5283,
      "bey": 5284,
      "meant</w>": 5285,
      "prince</w>": 5286,
      "introdu": 5287,
      "cipe</w>": 5288,
      "sinal</w>": 5289,
      "abe": 5290,
      "gan</w>": 5291,
      "champ": 5292,
      "Pro": 5293,
      "sat": 5294,
      "shoo": 5295,
      "process</w>": 5296,
      "career</w>": 5297,
      "batalha</w>": 5298,
      "slo": 5299,
      "By</w>": 5300,
      "enci": 5301,
      "cop": 5302,
      "havi": 5303,
      "paul</w>": 5304,
      "tree</w>": 5305,
      "technolo": 5306,
      "terminar</w>": 5307,
      "arte</w>": 5308,
      "veri": 5309,
      "operação</w>": 5310,
      "ham": 5311,
      "lier</w>": 5312,
      "resposta</w>": 5313,
      "americanos</w>": 5314,
      "forced</w>": 5315,
      "univers": 5316,
      "acredita</w>": 5317,
      "ínhamos</w>": 5318,
      "Seu</w>": 5319,
      "ães</w>": 5320,
      "licen": 5321,
      "cienti": 5322,
      "responsible</w>": 5323,
      "mouth</w>": 5324,
      "jar": 5325,
      "perguntas</w>": 5326,
      "ague</w>": 5327,
      "unk</w>": 5328,
      "versário</w>": 5329,
      "tivemos</w>": 5330,
      "ols</w>": 5331,
      "devido</w>": 5332,
      "erá</w>": 5333,
      "ara</w>": 5334,
      "les": 5335,
      "cional</w>": 5336,
      "poderiam</w>": 5337,
      "plane</w>": 5338,
      "inhas</w>": 5339,
      "Pode</w>": 5340,
      "negro</w>": 5341,
      "cting</w>": 5342,
      "battle</w>": 5343,
      "kit": 5344,
      "espal": 5345,
      "peg": 5346,
      "tul": 5347,
      "drop</w>": 5348,
      "prefer": 5349,
      "tries</w>": 5350,
      "tish</w>": 5351,
      "ption</w>": 5352,
      "wis": 5353,
      "type</w>": 5354,
      "del</w>": 5355,
      "seguinte</w>": 5356,
      "çada</w>": 5357,
      "anger</w>": 5358,
      "wear</w>": 5359,
      "ici": 5360,
      "bei": 5361,
      "clean</w>": 5362,
      "coo": 5363,
      "responsável</w>": 5364,
      "sar</w>": 5365,
      "zir</w>": 5366,
      "chamar</w>": 5367,
      "precisar</w>": 5368,
      "conhece</w>": 5369,
      "benef": 5370,
      "sam</w>": 5371,
      "river</w>": 5372,
      "aprender</w>": 5373,
      "afri": 5374,
      "stood</w>": 5375,
      "cirur": 5376,
      "by": 5377,
      "dear</w>": 5378,
      "operation</w>": 5379,
      "adrão</w>": 5380,
      "dele": 5381,
      "lutar</w>": 5382,
      "deixe</w>": 5383,
      "avião</w>": 5384,
      "falou</w>": 5385,
      "Sua</w>": 5386,
      "bby</w>": 5387,
      "centen": 5388,
      "pad": 5389,
      "dee": 5390,
      "astron": 5391,
      "evis": 5392,
      "ides</w>": 5393,
      "entendo</w>": 5394,
      "green</w>": 5395,
      "som</w>": 5396,
      "localiz": 5397,
      "greatest</w>": 5398,
      "showed</w>": 5399,
      "hadn</w>": 5400,
      "guarda</w>": 5401,
      "aceitar</w>": 5402,
      "amo</w>": 5403,
      "inici": 5404,
      "amount</w>": 5405,
      "cab": 5406,
      "interest</w>": 5407,
      "nuclear</w>": 5408,
      "arms</w>": 5409,
      "destroy</w>": 5410,
      "likely</w>": 5411,
      "dangerous</w>": 5412,
      "xa</w>": 5413,
      "train</w>": 5414,
      "complete</w>": 5415,
      "chief</w>": 5416,
      "essar</w>": 5417,
      "rote</w>": 5418,
      "ministr": 5419,
      "smar": 5420,
      "mava</w>": 5421,
      "velha</w>": 5422,
      "vítimas</w>": 5423,
      "letter</w>": 5424,
      "sick</w>": 5425,
      "oner</w>": 5426,
      "sions</w>": 5427,
      "hoping</w>": 5428,
      "americano</w>": 5429,
      "espírito</w>": 5430,
      "Un": 5431,
      "ii</w>": 5432,
      "pegou</w>": 5433,
      "sonho</w>": 5434,
      "ength</w>": 5435,
      "mica</w>": 5436,
      "spre": 5437,
      "aleg": 5438,
      "soldados</w>": 5439,
      "provas</w>": 5440,
      "evitar</w>": 5441,
      "century</w>": 5442,
      "kel": 5443,
      "engan": 5444,
      "gados</w>": 5445,
      "fís": 5446,
      "dava</w>": 5447,
      "verdadeiro</w>": 5448,
      "onship</w>": 5449,
      "percebi</w>": 5450,
      "gle</w>": 5451,
      "quad": 5452,
      "comun": 5453,
      "angeles</w>": 5454,
      "Ou</w>": 5455,
      "gin": 5456,
      "un</w>": 5457,
      "torna</w>": 5458,
      "política</w>": 5459,
      "ung</w>": 5460,
      "ised</w>": 5461,
      "appreci": 5462,
      "Pen": 5463,
      "fell</w>": 5464,
      "lab": 5465,
      "termos</w>": 5466,
      "procurar</w>": 5467,
      "lias</w>": 5468,
      "acima</w>": 5469,
      "dial</w>": 5470,
      "suit</w>": 5471,
      "trei</w>": 5472,
      "custo": 5473,
      "ered</w>": 5474,
      "confer": 5475,
      "agent</w>": 5476,
      "thes</w>": 5477,
      "cemos</w>": 5478,
      "incluindo</w>": 5479,
      "ofici": 5480,
      "perten": 5481,
      "broken</w>": 5482,
      "Tem</w>": 5483,
      "forces</w>": 5484,
      "vement</w>": 5485,
      "enemy</w>": 5486,
      "inti": 5487,
      "recus": 5488,
      "wearing</w>": 5489,
      "risco</w>": 5490,
      "correr</w>": 5491,
      "conversa</w>": 5492,
      "resolver</w>": 5493,
      "allowed</w>": 5494,
      "according</w>": 5495,
      "Jo": 5496,
      "au</w>": 5497,
      "visit</w>": 5498,
      "hante</w>": 5499,
      "interested</w>": 5500,
      "Hey</w>": 5501,
      "comman": 5502,
      "desen": 5503,
      "heiros</w>": 5504,
      "invés</w>": 5505,
      "aming</w>": 5506,
      "Parece</w>": 5507,
      "líder</w>": 5508,
      "Once</w>": 5509,
      "companhia</w>": 5510,
      "vale</w>": 5511,
      "linda</w>": 5512,
      "machu": 5513,
      "towards</w>": 5514,
      "stopped</w>": 5515,
      "apoi": 5516,
      "accept</w>": 5517,
      "sovi": 5518,
      "fit</w>": 5519,
      "pés</w>": 5520,
      "ulas</w>": 5521,
      "inteiro</w>": 5522,
      "ci</w>": 5523,
      "vender</w>": 5524,
      "gives</w>": 5525,
      "talked</w>": 5526,
      "branco</w>": 5527,
      "machine</w>": 5528,
      "disappe": 5529,
      "shar": 5530,
      "mony</w>": 5531,
      "Essa</w>": 5532,
      "vidu": 5533,
      "olho</w>": 5534,
      "judi": 5535,
      "voltou</w>": 5536,
      "conspir": 5537,
      "tadas</w>": 5538,
      "esty</w>": 5539,
      "excel": 5540,
      "ficaria</w>": 5541,
      "summer</w>": 5542,
      "wrote</w>": 5543,
      "senhora</w>": 5544,
      "brea": 5545,
      "frank</w>": 5546,
      "bought</w>": 5547,
      "nave</w>": 5548,
      "herself</w>": 5549,
      "tecnologia</w>": 5550,
      "individu": 5551,
      "isse</w>": 5552,
      "metal</w>": 5553,
      "alun": 5554,
      "feitos</w>": 5555,
      "calling</w>": 5556,
      "christmas</w>": 5557,
      "rying</w>": 5558,
      "stars</w>": 5559,
      "lua</w>": 5560,
      "encontrado</w>": 5561,
      "explicar</w>": 5562,
      "televis": 5563,
      "fazê</w>": 5564,
      "beyond</w>": 5565,
      "humana</w>": 5566,
      "apresen": 5567,
      "guilty</w>": 5568,
      "wise</w>": 5569,
      "cau": 5570,
      "finding</w>": 5571,
      "fug": 5572,
      "199": 5573,
      "Era</w>": 5574,
      "who": 5575,
      "certain": 5576,
      "século</w>": 5577,
      "aquelas</w>": 5578,
      "famous</w>": 5579,
      "mercado</w>": 5580,
      "tage</w>": 5581,
      "morar</w>": 5582,
      "aware</w>": 5583,
      "none</w>": 5584,
      "conser": 5585,
      "gry</w>": 5586,
      "destruir</w>": 5587,
      "received</w>": 5588,
      "sí": 5589,
      "ourselves</w>": 5590,
      "cionar</w>": 5591,
      "ur</w>": 5592,
      "ancy</w>": 5593,
      "holding</w>": 5594,
      "ligação</w>": 5595,
      "leva</w>": 5596,
      "fomos</w>": 5597,
      "antigo</w>": 5598,
      "boat</w>": 5599,
      "amazing</w>": 5600,
      "message</w>": 5601,
      "down": 5602,
      "cell</w>": 5603,
      "ásti": 5604,
      "murdered</w>": 5605,
      "investigação</w>": 5606,
      "Let</w>": 5607,
      "chen</w>": 5608,
      "trip</w>": 5609,
      "espera</w>": 5610,
      "dollars</w>": 5611,
      "terrible</w>": 5612,
      "rainha</w>": 5613,
      "policiais</w>": 5614,
      "çou</w>": 5615,
      "foot</w>": 5616,
      "puder</w>": 5617,
      "choose</w>": 5618,
      "civil</w>": 5619,
      "obs": 5620,
      "nesses</w>": 5621,
      "prín": 5622,
      "incredi": 5623,
      "inspir": 5624,
      "Like</w>": 5625,
      "alcan": 5626,
      "idéia</w>": 5627,
      "feelings</w>": 5628,
      "gentlemen</w>": 5629,
      "main</w>": 5630,
      "among</w>": 5631,
      "sabendo</w>": 5632,
      "expect</w>": 5633,
      "Esse</w>": 5634,
      "ãs</w>": 5635,
      "escolha</w>": 5636,
      "His</w>": 5637,
      "cober": 5638,
      "leo</w>": 5639,
      "corte</w>": 5640,
      "kie</w>": 5641,
      "suspeito</w>": 5642,
      "ery</w>": 5643,
      "mbers</w>": 5644,
      "rom</w>": 5645,
      "yesterday</w>": 5646,
      "ze": 5647,
      "bodies</w>": 5648,
      "join</w>": 5649,
      "passa</w>": 5650,
      "window</w>": 5651,
      "mountain</w>": 5652,
      "reti": 5653,
      "nação</w>": 5654,
      "curi": 5655,
      "conhecimento</w>": 5656,
      "pesquisa</w>": 5657,
      "cant": 5658,
      "erra</w>": 5659,
      "project</w>": 5660,
      "jar</w>": 5661,
      "beginning</w>": 5662,
      "starting</w>": 5663,
      "suspect</w>": 5664,
      "catch</w>": 5665,
      "fala</w>": 5666,
      "acidade</w>": 5667,
      "vent": 5668,
      "card</w>": 5669,
      "accident</w>": 5670,
      "conec": 5671,
      "vers</w>": 5672,
      "cross</w>": 5673,
      "destino</w>": 5674,
      "supp": 5675,
      "Every</w>": 5676,
      "popular</w>": 5677,
      "mig": 5678,
      "arm</w>": 5679,
      "calls</w>": 5680,
      "imaginar</w>": 5681,
      "bloo": 5682,
      "novas</w>": 5683,
      "progres": 5684,
      "sozinha</w>": 5685,
      "oak</w>": 5686,
      "prestes</w>": 5687,
      "rever": 5688,
      "At": 5689,
      "ended</w>": 5690,
      "itando</w>": 5691,
      "shouldn</w>": 5692,
      "shel": 5693,
      "bado</w>": 5694,
      "resist": 5695,
      "zz": 5696,
      "ony</w>": 5697,
      "isol": 5698,
      "habit": 5699,
      "empres": 5700,
      "Me": 5701,
      "tro</w>": 5702,
      "account</w>": 5703,
      "Além</w>": 5704,
      "vince</w>": 5705,
      "Lemb": 5706,
      "sobr": 5707,
      "access</w>": 5708,
      "track</w>": 5709,
      "gence</w>": 5710,
      "peter</w>": 5711,
      "keeping</w>": 5712,
      "french</w>": 5713,
      "ester</w>": 5714,
      "saú": 5715,
      "auto": 5716,
      "clothes</w>": 5717,
      "grow</w>": 5718,
      "novos</w>": 5719,
      "god": 5720,
      "Antes</w>": 5721,
      "engra": 5722,
      "ism</w>": 5723,
      "diria</w>": 5724,
      "esteve</w>": 5725,
      "ray</w>": 5726,
      "sensa": 5727,
      "amar": 5728,
      "prosecu": 5729,
      "mesmos</w>": 5730,
      "soub": 5731,
      "records</w>": 5732,
      "substitu": 5733,
      "solar</w>": 5734,
      "divor": 5735,
      "tig": 5736,
      "heró": 5737,
      "tiveram</w>": 5738,
      "suger": 5739,
      "passando</w>": 5740,
      "helped</w>": 5741,
      "belo": 5742,
      "colocou</w>": 5743,
      "Voc": 5744,
      "eno</w>": 5745,
      "escal": 5746,
      "penso</w>": 5747,
      "apon": 5748,
      "descobriu</w>": 5749,
      "exer": 5750,
      "lembra</w>": 5751,
      "eiros</w>": 5752,
      "passada</w>": 5753,
      "week": 5754,
      "ótimo</w>": 5755,
      "como": 5756,
      "norm": 5757,
      "estrelas</w>": 5758,
      "birth": 5759,
      "memory</w>": 5760,
      "admi": 5761,
      "centenas</w>": 5762,
      "drugs</w>": 5763,
      "biggest</w>": 5764,
      "Desde</w>": 5765,
      "innocent</w>": 5766,
      "figured</w>": 5767,
      "bele": 5768,
      "valor</w>": 5769,
      "seemed</w>": 5770,
      "gên": 5771,
      "victims</w>": 5772,
      "papai</w>": 5773,
      "kets</w>": 5774,
      "While</w>": 5775,
      "simil": 5776,
      "teremos</w>": 5777,
      "serious</w>": 5778,
      "instal": 5779,
      "computer</w>": 5780,
      "taman": 5781,
      "casos</w>": 5782,
      "ema</w>": 5783,
      "escolher</w>": 5784,
      "distin": 5785,
      "aniversário</w>": 5786,
      "happening</w>": 5787,
      "phil": 5788,
      "sejam</w>": 5789,
      "escolh": 5790,
      "cân": 5791,
      "pós</w>": 5792,
      "noon</w>": 5793,
      "vada</w>": 5794,
      "somehow</w>": 5795,
      "Any": 5796,
      "simply</w>": 5797,
      "ssa</w>": 5798,
      "driving</w>": 5799,
      "haver</w>": 5800,
      "cont": 5801,
      "defense</w>": 5802,
      "ville</w>": 5803,
      "animals</w>": 5804,
      "fíci": 5805,
      "op</w>": 5806,
      "faço</w>": 5807,
      "hang</w>": 5808,
      "ering</w>": 5809,
      "joe</w>": 5810,
      "barco</w>": 5811,
      "honest</w>": 5812,
      "celebr": 5813,
      "cheg": 5814,
      "books</w>": 5815,
      "desejo</w>": 5816,
      "imagem</w>": 5817,
      "pedra</w>": 5818,
      "hall</w>": 5819,
      "deca": 5820,
      "credi": 5821,
      "movimento</w>": 5822,
      "solo</w>": 5823,
      "success": 5824,
      "floresta</w>": 5825,
      "realidade</w>": 5826,
      "começo</w>": 5827,
      "ctive</w>": 5828,
      "ficando</w>": 5829,
      "written</w>": 5830,
      "saúde</w>": 5831,
      "porte</w>": 5832,
      "ok": 5833,
      "agree</w>": 5834,
      "evening</w>": 5835,
      "affe": 5836,
      "families</w>": 5837,
      "tus</w>": 5838,
      "sava</w>": 5839,
      "tells</w>": 5840,
      "medic": 5841,
      "alista</w>": 5842,
      "addi": 5843,
      "viram</w>": 5844,
      "verem</w>": 5845,
      "writing</w>": 5846,
      "avo": 5847,
      "lywood</w>": 5848,
      "70</w>": 5849,
      "sr": 5850,
      "remos</w>": 5851,
      "torno</w>": 5852,
      "correndo</w>": 5853,
      "trá": 5854,
      "exig": 5855,
      "tina</w>": 5856,
      "ald</w>": 5857,
      "prin": 5858,
      "arris": 5859,
      "carreg": 5860,
      "political</w>": 5861,
      "honra</w>": 5862,
      "pressure</w>": 5863,
      "leader</w>": 5864,
      "According</w>": 5865,
      "often</w>": 5866,
      "health</w>": 5867,
      "senhores</w>": 5868,
      "Why</w>": 5869,
      "príncipe</w>": 5870,
      "lands</w>": 5871,
      "grá": 5872,
      "consu": 5873,
      "dora</w>": 5874,
      "inda</w>": 5875,
      "citiz": 5876,
      "wake</w>": 5877,
      "famílias</w>": 5878,
      "lider": 5879,
      "perdeu</w>": 5880,
      "london</w>": 5881,
      "escondi": 5882,
      "ale</w>": 5883,
      "perigo</w>": 5884,
      "cheio</w>": 5885,
      "achou</w>": 5886,
      "fecha": 5887,
      "celebra": 5888,
      "lage</w>": 5889,
      "tch</w>": 5890,
      "weird</w>": 5891,
      "bene": 5892,
      "lá": 5893,
      "ads</w>": 5894,
      "begin</w>": 5895,
      "desenvol": 5896,
      "british</w>": 5897,
      "pilo": 5898,
      "fór": 5899,
      "itado</w>": 5900,
      "diferença</w>": 5901,
      "patient</w>": 5902,
      "dez": 5903,
      "assum": 5904,
      "consider</w>": 5905,
      "tínhamos</w>": 5906,
      "espécie</w>": 5907,
      "richard</w>": 5908,
      "con</w>": 5909,
      "iling</w>": 5910,
      "porto</w>": 5911,
      "Some</w>": 5912,
      "teste</w>": 5913,
      "ins": 5914,
      "tempos</w>": 5915,
      "tivas</w>": 5916,
      "haram</w>": 5917,
      "ride</w>": 5918,
      "science</w>": 5919,
      "touch</w>": 5920,
      "turning</w>": 5921,
      "slee": 5922,
      "indepen": 5923,
      "tent</w>": 5924,
      "passo</w>": 5925,
      "market</w>": 5926,
      "hill</w>": 5927,
      "kim</w>": 5928,
      "Hoje</w>": 5929,
      "wondering</w>": 5930,
      "fly</w>": 5931,
      "nosco</w>": 5932,
      "Vocês</w>": 5933,
      "bater</w>": 5934,
      "ética</w>": 5935,
      "corpos</w>": 5936,
      "event</w>": 5937,
      "dres</w>": 5938,
      "congres": 5939,
      "bras</w>": 5940,
      "laun": 5941,
      "gelo</w>": 5942,
      "caused</w>": 5943,
      "carros</w>": 5944,
      "pergunta</w>": 5945,
      "ki</w>": 5946,
      "sche": 5947,
      "iga</w>": 5948,
      "usually</w>": 5949,
      "simple</w>": 5950,
      "estação</w>": 5951,
      "cash</w>": 5952,
      "ordin": 5953,
      "vídeo</w>": 5954,
      "regar": 5955,
      "usou</w>": 5956,
      "robert</w>": 5957,
      "clin": 5958,
      "doubt</w>": 5959,
      "conversar</w>": 5960,
      "technology</w>": 5961,
      "crew</w>": 5962,
      "osso</w>": 5963,
      "arro": 5964,
      "religi": 5965,
      "challen": 5966,
      "doença</w>": 5967,
      "ônia</w>": 5968,
      "mile</w>": 5969,
      "tion": 5970,
      "issão</w>": 5971,
      "feita</w>": 5972,
      "pedido</w>": 5973,
      "aprove": 5974,
      "serve</w>": 5975,
      "postos</w>": 5976,
      "má</w>": 5977,
      "aler": 5978,
      "ruas</w>": 5979,
      "afas": 5980,
      "comando</w>": 5981,
      "atir": 5982,
      "membro</w>": 5983,
      "kin</w>": 5984,
      "revolu": 5985,
      "caix": 5986,
      "ado": 5987,
      "ficam</w>": 5988,
      "gni": 5989,
      "convic": 5990,
      "comand": 5991,
      "prati": 5992,
      "fos": 5993,
      "obviously</w>": 5994,
      "mad</w>": 5995,
      "asse": 5996,
      "contri": 5997,
      "director</w>": 5998,
      "evolu": 5999,
      "hang": 6000,
      "distribu": 6001,
      "obter</w>": 6002,
      "dura</w>": 6003,
      "terrível</w>": 6004,
      "wonder</w>": 6005,
      "impl": 6006,
      "tú": 6007,
      "conosco</w>": 6008,
      "ving": 6009,
      "shop</w>": 6010,
      "played</w>": 6011,
      "cago</w>": 6012,
      "itali": 6013,
      "magic</w>": 6014,
      "german</w>": 6015,
      "decidiu</w>": 6016,
      "Ok</w>": 6017,
      "continua</w>": 6018,
      "estrela</w>": 6019,
      "dy": 6020,
      "deixando</w>": 6021,
      "arras": 6022,
      "reality</w>": 6023,
      "character</w>": 6024,
      "rab": 6025,
      "consul": 6026,
      "fizemos</w>": 6027,
      "equ": 6028,
      "senten": 6029,
      "momentos</w>": 6030,
      "mandar</w>": 6031,
      "carne</w>": 6032,
      "charles</w>": 6033,
      "mamente</w>": 6034,
      "rick</w>": 6035,
      "segredo</w>": 6036,
      "mera</w>": 6037,
      "defe": 6038,
      "beach</w>": 6039,
      "worried</w>": 6040,
      "interesting</w>": 6041,
      "irmãos</w>": 6042,
      "chan": 6043,
      "tenham</w>": 6044,
      "órios</w>": 6045,
      "inimigo</w>": 6046,
      "hitler</w>": 6047,
      "acer": 6048,
      "sacrific": 6049,
      "unt</w>": 6050,
      "girl": 6051,
      "daquele</w>": 6052,
      "ocean</w>": 6053,
      "consegui</w>": 6054,
      "certi": 6055,
      "grav": 6056,
      "village</w>": 6057,
      "state": 6058,
      "common</w>": 6059,
      "erro</w>": 6060,
      "feels</w>": 6061,
      "propósito</w>": 6062,
      "motor": 6063,
      "worse</w>": 6064,
      "senti</w>": 6065,
      "escape</w>": 6066,
      "pele</w>": 6067,
      "rights</w>": 6068,
      "dred</w>": 6069,
      "sonhos</w>": 6070,
      "lines</w>": 6071,
      "pression</w>": 6072,
      "direto</w>": 6073,
      "maria</w>": 6074,
      "cases</w>": 6075,
      "camera</w>": 6076,
      "pronto</w>": 6077,
      "ligence</w>": 6078,
      "stuck</w>": 6079,
      "assem</w>": 6080,
      "militar</w>": 6081,
      "mike</w>": 6082,
      "chicago</w>": 6083,
      "ctions</w>": 6084,
      "possu": 6085,
      "graças</w>": 6086,
      "resultado</w>": 6087,
      "kar": 6088,
      "proud</w>": 6089,
      "jas</w>": 6090,
      "buraco</w>": 6091,
      "hollywood</w>": 6092,
      "ben</w>": 6093,
      "manipul": 6094,
      "acesso</w>": 6095,
      "worry</w>": 6096,
      "invas": 6097,
      "compl": 6098,
      "adol": 6099,
      "invent": 6100,
      "match</w>": 6101,
      "foun": 6102,
      "ater</w>": 6103,
      "Estava</w>": 6104,
      "contribu": 6105,
      "poc": 6106,
      "poderíamos</w>": 6107,
      "lock</w>": 6108,
      "janela</w>": 6109,
      "apart</w>": 6110,
      "quente</w>": 6111,
      "soldiers</w>": 6112,
      "sofr": 6113,
      "henry</w>": 6114,
      "daria</w>": 6115,
      "contou</w>": 6116,
      "dreds</w>": 6117,
      "clientes</w>": 6118,
      "ap</w>": 6119,
      "sh</w>": 6120,
      "ás": 6121,
      "turas</w>": 6122,
      "conheço</w>": 6123,
      "ahead</w>": 6124,
      "compani": 6125,
      "thous": 6126,
      "fuck</w>": 6127,
      "study</w>": 6128,
      "confiança</w>": 6129,
      "russi": 6130,
      "oil</w>": 6131,
      "acy</w>": 6132,
      "carry</w>": 6133,
      "sag": 6134,
      "reino</w>": 6135,
      "cast</w>": 6136,
      "trem</w>": 6137,
      "king": 6138,
      "moral</w>": 6139,
      "Emb": 6140,
      "ajudá</w>": 6141,
      "nic": 6142,
      "perío": 6143,
      "\"...</w>": 6144,
      "tives</w>": 6145,
      "dreams</w>": 6146,
      "ficava</w>": 6147,
      "neighbor": 6148,
      "ore": 6149,
      "vimos</w>": 6150,
      "millions</w>": 6151,
      "Até</w>": 6152,
      "19</w>": 6153,
      "net": 6154,
      "nega": 6155,
      "bottom</w>": 6156,
      "mortal</w>": 6157,
      "estud": 6158,
      "máquina</w>": 6159,
      "perfeito</w>": 6160,
      "clube</w>": 6161,
      "prédio</w>": 6162,
      "ut": 6163,
      "immedi": 6164,
      "difference</w>": 6165,
      "europa</w>": 6166,
      "derro": 6167,
      "opinião</w>": 6168,
      "weapon</w>": 6169,
      "cros": 6170,
      "saindo</w>": 6171,
      "apareceu</w>": 6172,
      "jail</w>": 6173,
      "bebi": 6174,
      "nicos</w>": 6175,
      "safe": 6176,
      "poderá</w>": 6177,
      "partner</w>": 6178,
      "inva": 6179,
      "90</w>": 6180,
      "sões</w>": 6181,
      "wonderful</w>": 6182,
      "From</w>": 6183,
      "imedi": 6184,
      "listen": 6185,
      "thousand</w>": 6186,
      "blow</w>": 6187,
      "cem</w>": 6188,
      "ecido</w>": 6189,
      "quick": 6190,
      "tie</w>": 6191,
      "Aqui</w>": 6192,
      "costa</w>": 6193,
      "oito</w>": 6194,
      "somente</w>": 6195,
      "rapid": 6196,
      "Clar": 6197,
      "peix": 6198,
      "assunto</w>": 6199,
      "ameaça</w>": 6200,
      "morta</w>": 6201,
      "bloc": 6202,
      "levá</w>": 6203,
      "eating</w>": 6204,
      "antigos</w>": 6205,
      "dizia</w>": 6206,
      "apoio</w>": 6207,
      "cair</w>": 6208,
      "speed</w>": 6209,
      "perceber</w>": 6210,
      "sério</w>": 6211,
      "wind</w>": 6212,
      "ída</w>": 6213,
      "isra": 6214,
      "cendo</w>": 6215,
      "shoot</w>": 6216,
      "vy</w>": 6217,
      "derru": 6218,
      "strug": 6219,
      "interro": 6220,
      "evidência</w>": 6221,
      "following</w>": 6222,
      "accep": 6223,
      "Bom</w>": 6224,
      "conclus": 6225,
      "mei</w>": 6226,
      "taref": 6227,
      "conversa": 6228,
      "troca</w>": 6229,
      "stick</w>": 6230,
      "apresentar</w>": 6231,
      "interessante</w>": 6232,
      "ade": 6233,
      "rar": 6234,
      "elev": 6235,
      "zen</w>": 6236,
      "assa": 6237,
      "soube</w>": 6238,
      "emoci": 6239,
      "cently</w>": 6240,
      "próximos</w>": 6241,
      "certamente</w>": 6242,
      "juiz</w>": 6243,
      "clearly</w>": 6244,
      "camp</w>": 6245,
      "chances</w>": 6246,
      "ath": 6247,
      "encontrei</w>": 6248,
      "tamanho</w>": 6249,
      "jam": 6250,
      "petr": 6251,
      "dest</w>": 6252,
      "lawyer</w>": 6253,
      "voltar": 6254,
      "investig": 6255,
      "ier</w>": 6256,
      "earlier</w>": 6257,
      "roubar</w>": 6258,
      "namorado</w>": 6259,
      "global</w>": 6260,
      "spot</w>": 6261,
      "size</w>": 6262,
      "regras</w>": 6263,
      "media</w>": 6264,
      "comecei</w>": 6265,
      "vergon": 6266,
      "sentimentos</w>": 6267,
      "filled</w>": 6268,
      "propriedade</w>": 6269,
      "Go": 6270,
      "riam</w>": 6271,
      "fech": 6272,
      "communi": 6273,
      "abaixo</w>": 6274,
      "dence</w>": 6275,
      "insis": 6276,
      "ocupa": 6277,
      "usão</w>": 6278,
      "casas</w>": 6279,
      "hide</w>": 6280,
      "theory</w>": 6281,
      "travel</w>": 6282,
      "fee</w>": 6283,
      "santa</w>": 6284,
      "evidências</w>": 6285,
      "partes</w>": 6286,
      "boss</w>": 6287,
      "skin</w>": 6288,
      "téc": 6289,
      "wol": 6290,
      "estru": 6291,
      "coragem</w>": 6292,
      "strength</w>": 6293,
      "cultura</w>": 6294,
      "ambos</w>": 6295,
      "property</w>": 6296,
      "perdo": 6297,
      "médio</w>": 6298,
      "challenge</w>": 6299,
      "ícias</w>": 6300,
      "physical</w>": 6301,
      "ço": 6302,
      "signed</w>": 6303,
      "bility</w>": 6304,
      "restaurante</w>": 6305,
      "ren</w>": 6306,
      "direitos</w>": 6307,
      "dant</w>": 6308,
      "livros</w>": 6309,
      "bons</w>": 6310,
      "oeste</w>": 6311,
      "acu": 6312,
      "ceira</w>": 6313,
      "tiny</w>": 6314,
      "ative</w>": 6315,
      "Embora</w>": 6316,
      "êmi": 6317,
      "quali": 6318,
      "rep": 6319,
      "totally</w>": 6320,
      "peça</w>": 6321,
      "pública</w>": 6322,
      "bag</w>": 6323,
      "helping</w>": 6324,
      "develop": 6325,
      "feri": 6326,
      "melhor": 6327,
      "charlie</w>": 6328,
      "300</w>": 6329,
      "ences</w>": 6330,
      "surr": 6331,
      "arm": 6332,
      "faith</w>": 6333,
      "londres</w>": 6334,
      "duro</w>": 6335,
      "birthday</w>": 6336,
      "mage</w>": 6337,
      "degre": 6338,
      "teoria</w>": 6339,
      "ingl": 6340,
      "stairs</w>": 6341,
      "toria</w>": 6342,
      "interesse</w>": 6343,
      "hundred</w>": 6344,
      "universidade</w>": 6345,
      "anunci": 6346,
      "exceto</w>": 6347,
      "certainly</w>": 6348,
      "ada": 6349,
      "starts</w>": 6350,
      "brothers</w>": 6351,
      "194": 6352,
      "promised</w>": 6353,
      "dific": 6354,
      "holy</w>": 6355,
      "shut</w>": 6356,
      "seri": 6357,
      "antiga</w>": 6358,
      "branca</w>": 6359,
      "example</w>": 6360,
      "laterra</w>": 6361,
      "recently</w>": 6362,
      "inferno</w>": 6363,
      "event": 6364,
      "horri": 6365,
      "marry</w>": 6366,
      "gy": 6367,
      "raiva</w>": 6368,
      "europe</w>": 6369,
      "tress</w>": 6370,
      "está": 6371,
      "hundreds</w>": 6372,
      "freedom</w>": 6373,
      "cta": 6374,
      "asses</w>": 6375,
      "bles</w>": 6376,
      "detective</w>": 6377,
      "guard</w>": 6378,
      "cars</w>": 6379,
      "interior</w>": 6380,
      "crow": 6381,
      "memória</w>": 6382,
      "nine</w>": 6383,
      "tis</w>": 6384,
      "inglaterra</w>": 6385,
      "regul": 6386,
      "tici": 6387,
      "lucky</w>": 6388,
      "bomba</w>": 6389,
      "corrida</w>": 6390,
      "tua</w>": 6391,
      "aparecer</w>": 6392,
      "pulled</w>": 6393,
      "rules</w>": 6394,
      "conex": 6395,
      "royal</w>": 6396,
      "persegu": 6397,
      "adly</w>": 6398,
      "duty</w>": 6399,
      "walked</w>": 6400,
      "investigation</w>": 6401,
      "thern</w>": 6402,
      "ígen": 6403,
      "demon": 6404,
      "atl": 6405,
      "corrup": 6406,
      "ships</w>": 6407,
      "tocar</w>": 6408,
      "estúpi": 6409,
      "amar</w>": 6410,
      "surface</w>": 6411,
      "grave</w>": 6412,
      "celular</w>": 6413,
      "prazer</w>": 6414,
      "captur": 6415,
      "decidir</w>": 6416,
      "necessário</w>": 6417,
      "superior</w>": 6418,
      "admit</w>": 6419,
      "boyfriend</w>": 6420,
      "gen</w>": 6421,
      "esquer": 6422,
      "desis": 6423,
      "eces</w>": 6424,
      "cheia</w>": 6425,
      "relationship</w>": 6426,
      "afternoon</w>": 6427,
      "worst</w>": 6428,
      "triste</w>": 6429,
      "post</w>": 6430,
      "ostr": 6431,
      "menor</w>": 6432,
      "paciente</w>": 6433,
      "distância</w>": 6434,
      "arrest</w>": 6435,
      "reli": 6436,
      "chem": 6437,
      "estive</w>": 6438,
      "objetivo</w>": 6439,
      "price</w>": 6440,
      "veloci": 6441,
      "treat": 6442,
      "humanidade</w>": 6443,
      "majesty</w>": 6444,
      "non</w>": 6445,
      "suici": 6446,
      "Of</w>": 6447,
      "ank</w>": 6448,
      "foot": 6449,
      "vote</w>": 6450,
      "necessi": 6451,
      "mundial</w>": 6452,
      "acial</w>": 6453,
      "computador</w>": 6454,
      "ladies</w>": 6455,
      "officers</w>": 6456,
      "Dr</w>": 6457,
      "cursos</w>": 6458,
      "encontramos</w>": 6459,
      "inteira</w>": 6460,
      "ai": 6461,
      "câmera</w>": 6462,
      "existem</w>": 6463,
      "arrived</w>": 6464,
      "ína</w>": 6465,
      "cos": 6466,
      "releas": 6467,
      "bigger</w>": 6468,
      "host</w>": 6469,
      "violência</w>": 6470,
      "forne": 6471,
      "descobri</w>": 6472,
      "idades</w>": 6473,
      "comparti": 6474,
      "tele": 6475,
      "pensou</w>": 6476,
      "bola</w>": 6477,
      "zar</w>": 6478,
      "mação</w>": 6479,
      "compor": 6480,
      "connection</w>": 6481,
      "geral</w>": 6482,
      "ônio</w>": 6483,
      "absolutely</w>": 6484,
      "england</w>": 6485,
      "didos</w>": 6486,
      "training</w>": 6487,
      "visi": 6488,
      "obe": 6489,
      "quí": 6490,
      "attor": 6491,
      "cão</w>": 6492,
      "ops</w>": 6493,
      "ânico</w>": 6494,
      "mi</w>": 6495,
      "sweet</w>": 6496,
      "pedaço</w>": 6497,
      "srta</w>": 6498,
      "navio</w>": 6499,
      "esquecer</w>": 6500,
      "weapons</w>": 6501,
      "fará</w>": 6502,
      "ris</w>": 6503,
      "pedindo</w>": 6504,
      "júri</w>": 6505,
      "bing</w>": 6506,
      "less": 6507,
      "ron": 6508,
      "former</w>": 6509,
      "198": 6510,
      "cker</w>": 6511,
      "crus": 6512,
      "students</w>": 6513,
      "gam": 6514,
      "acham</w>": 6515,
      "tured</w>": 6516,
      "hasn</w>": 6517,
      "entanto</w>": 6518,
      "bringing</w>": 6519,
      "tains</w>": 6520,
      "pois": 6521,
      "sional</w>": 6522,
      "privil": 6523,
      "diam": 6524,
      "pregn": 6525,
      "clean": 6526,
      "hearing</w>": 6527,
      "sue</w>": 6528,
      "queira</w>": 6529,
      "testemunha</w>": 6530,
      "detalhes</w>": 6531,
      "girlfriend</w>": 6532,
      "ko</w>": 6533,
      "usado</w>": 6534,
      "sad</w>": 6535,
      "namorada</w>": 6536,
      "appreciate</w>": 6537,
      "mestre</w>": 6538,
      "names</w>": 6539,
      "heads</w>": 6540,
      "university</w>": 6541,
      "atas</w>": 6542,
      "agreed</w>": 6543,
      "período</w>": 6544,
      "nur": 6545,
      "vam": 6546,
      "ency</w>": 6547,
      "whom</w>": 6548,
      "finish</w>": 6549,
      "ligou</w>": 6550,
      "scared</w>": 6551,
      "Quer</w>": 6552,
      "importantes</w>": 6553,
      "basically</w>": 6554,
      "médicos</w>": 6555,
      "inver": 6556,
      "bob</w>": 6557,
      "contrário</w>": 6558,
      "embar": 6559,
      "quickly</w>": 6560,
      "flight</w>": 6561,
      "ermos</w>": 6562,
      "troc": 6563,
      "sug": 6564,
      "mudou</w>": 6565,
      "lake</w>": 6566,
      "dying</w>": 6567,
      "cachor": 6568,
      "rid</w>": 6569,
      "wher": 6570,
      "chave</w>": 6571,
      "campa": 6572,
      "cinema</w>": 6573,
      "viet": 6574,
      "menina</w>": 6575,
      "relatório</w>": 6576,
      "poucos</w>": 6577,
      "pite</w>": 6578,
      "possam</w>": 6579,
      "intelligence</w>": 6580,
      "detetive</w>": 6581,
      "bê": 6582,
      "pieces</w>": 6583,
      "picked</w>": 6584,
      "jects</w>": 6585,
      "olha</w>": 6586,
      "sincer": 6587,
      "esconder</w>": 6588,
      "thanks</w>": 6589,
      "--.</w>": 6590,
      "vation</w>": 6591,
      "escra": 6592,
      "parts</w>": 6593,
      "season</w>": 6594,
      "supre": 6595,
      "terem</w>": 6596,
      "bomb</w>": 6597,
      "terror</w>": 6598,
      "Esper": 6599,
      "inteligência</w>": 6600,
      "primeiros</w>": 6601,
      "odi": 6602,
      "union</w>": 6603,
      "humil": 6604,
      "roupa</w>": 6605,
      "possibly</w>": 6606,
      "louco</w>": 6607,
      "ansi": 6608,
      "spee": 6609,
      "placed</w>": 6610,
      "lish</w>": 6611,
      "funny</w>": 6612,
      "confli": 6613,
      "welcome</w>": 6614,
      "só": 6615,
      "locais</w>": 6616,
      "legas</w>": 6617,
      "superfíci": 6618,
      "mandou</w>": 6619,
      "friend": 6620,
      "fei": 6621,
      "irmos</w>": 6622,
      "grace</w>": 6623,
      "aturas</w>": 6624,
      "parede</w>": 6625,
      "suggest</w>": 6626,
      "rebel": 6627,
      "uly</w>": 6628,
      "tern</w>": 6629,
      "preser": 6630,
      "pista</w>": 6631,
      "main": 6632,
      "matic</w>": 6633,
      "montanha</w>": 6634,
      "cious</w>": 6635,
      "impossível</w>": 6636,
      "possamos</w>": 6637,
      "atures</w>": 6638,
      "perm": 6639,
      "truck</w>": 6640,
      "break": 6641,
      "recebeu</w>": 6642,
      "arrested</w>": 6643,
      "fonte</w>": 6644,
      "21</w>": 6645,
      "cou": 6646,
      "pux": 6647,
      "destin": 6648,
      "Ainda</w>": 6649,
      "colegas</w>": 6650,
      "charges</w>": 6651,
      "sentar</w>": 6652,
      "achi": 6653,
      "bear</w>": 6654,
      "impossible</w>": 6655,
      "deria</w>": 6656,
      "shooting</w>": 6657,
      "treat</w>": 6658,
      "busy</w>": 6659,
      "Before</w>": 6660,
      "locked</w>": 6661,
      "series</w>": 6662,
      "flying</w>": 6663,
      "murder": 6664,
      "mág": 6665,
      "ash": 6666,
      "neck</w>": 6667,
      "student</w>": 6668,
      "dal</w>": 6669,
      "aded</w>": 6670,
      "mamãe</w>": 6671,
      "plant</w>": 6672,
      "gie</w>": 6673,
      "classi": 6674,
      "remain</w>": 6675,
      "árvore</w>": 6676,
      "devol": 6677,
      "postas</w>": 6678,
      "ices</w>": 6679,
      "committed</w>": 6680,
      "espi": 6681,
      "cor</w>": 6682,
      "Nos</w>": 6683,
      "Sou</w>": 6684,
      "path</w>": 6685,
      "sold</w>": 6686,
      "presença</w>": 6687,
      "journey</w>": 6688,
      "very": 6689,
      "prensa</w>": 6690,
      "streets</w>": 6691,
      "sexu": 6692,
      "mudança</w>": 6693,
      "performan": 6694,
      "subst": 6695,
      "destroyed</w>": 6696,
      "smith</w>": 6697,
      "restaurant</w>": 6698,
      "esco": 6699,
      "preço</w>": 6700,
      "stein</w>": 6701,
      "majestade</w>": 6702,
      "velocidade</w>": 6703,
      "onel</w>": 6704,
      "nights</w>": 6705,
      "mindo</w>": 6706,
      "érias</w>": 6707,
      "uncle</w>": 6708,
      "deixá</w>": 6709,
      "soubesse</w>": 6710,
      "mped</w>": 6711,
      "frus": 6712,
      "começaram</w>": 6713,
      "felizes</w>": 6714,
      "violence</w>": 6715,
      "camos</w>": 6716,
      "respir": 6717,
      "enviar</w>": 6718,
      "concerned</w>": 6719,
      "gradu": 6720,
      "evento</w>": 6721,
      "pontos</w>": 6722,
      "entregar</w>": 6723,
      "noites</w>": 6724,
      "becomes</w>": 6725,
      "cancel": 6726,
      "ac</w>": 6727,
      "ome</w>": 6728,
      "truly</w>": 6729,
      "sentado</w>": 6730,
      "question": 6731,
      "sons</w>": 6732,
      "cadeia</w>": 6733,
      "mbro</w>": 6734,
      "Every": 6735,
      "breve</w>": 6736,
      "segundos</w>": 6737,
      "examin": 6738,
      "comandante</w>": 6739,
      "ficará</w>": 6740,
      "mistake</w>": 6741,
      "claim</w>": 6742,
      "jos</w>": 6743,
      "jack": 6744,
      "spar": 6745,
      "fix": 6746,
      "shir": 6747,
      "prepared</w>": 6748,
      "birth</w>": 6749,
      "safety</w>": 6750,
      "dência</w>": 6751,
      "horse</w>": 6752,
      "Here</w>": 6753,
      "mention</w>": 6754,
      "sai</w>": 6755,
      "danger</w>": 6756,
      "superfície</w>": 6757,
      "you": 6758,
      "purpose</w>": 6759,
      "nela</w>": 6760,
      "vanta": 6761,
      "radio</w>": 6762,
      "black": 6763,
      "magn": 6764,
      "Mar": 6765,
      "female</w>": 6766,
      "growing</w>": 6767,
      "enças</w>": 6768,
      "esto</w>": 6769,
      "wild</w>": 6770,
      "inteligente</w>": 6771,
      "sters</w>": 6772,
      "califor": 6773,
      "fli": 6774,
      "essing</w>": 6775,
      "istério</w>": 6776,
      "smart</w>": 6777,
      "hat": 6778,
      "imprensa</w>": 6779,
      "órias</w>": 6780,
      "enever</w>": 6781,
      "raise</w>": 6782,
      "pense</w>": 6783,
      "frag": 6784,
      "agres": 6785,
      "sá": 6786,
      "volun": 6787,
      "sequestr": 6788,
      "oli": 6789,
      "prêmi": 6790,
      "contas</w>": 6791,
      "imper": 6792,
      "apolo": 6793,
      "advanta": 6794,
      "similar</w>": 6795,
      "Pri": 6796,
      "bes</w>": 6797,
      "vin</w>": 6798,
      "location</w>": 6799,
      "pression": 6800,
      "verdadeira</w>": 6801,
      "convinced</w>": 6802,
      "ards</w>": 6803,
      "pot": 6804,
      "stal": 6805,
      "bridge</w>": 6806,
      "ay</w>": 6807,
      "bes": 6808,
      "femin": 6809,
      "entende</w>": 6810,
      "sounds</w>": 6811,
      "uti": 6812,
      "diab": 6813,
      "reun": 6814,
      "roll</w>": 6815,
      "whoever</w>": 6816,
      "Or</w>": 6817,
      "aled</w>": 6818,
      "almo": 6819,
      "culpado</w>": 6820,
      "valu": 6821,
      "survive</w>": 6822,
      "beber</w>": 6823,
      "alien": 6824,
      "pictures</w>": 6825,
      "tentativa</w>": 6826,
      "tora</w>": 6827,
      "online</w>": 6828,
      "tasse</w>": 6829,
      "classe</w>": 6830,
      "miser": 6831,
      "pequenos</w>": 6832,
      "negoci": 6833,
      "sand": 6834,
      "eless</w>": 6835,
      "íssi": 6836,
      "minuto</w>": 6837,
      "english</w>": 6838,
      "However</w>": 6839,
      "cit": 6840,
      "corner</w>": 6841,
      "tícia</w>": 6842,
      "gência</w>": 6843,
      "remin": 6844,
      "proce": 6845,
      "ibi": 6846,
      "teach</w>": 6847,
      "result</w>": 6848,
      "epis": 6849,
      "appar": 6850,
      "france</w>": 6851,
      "code</w>": 6852,
      "chega</w>": 6853,
      "steve</w>": 6854,
      "Sem": 6855,
      "dry</w>": 6856,
      "ov": 6857,
      "cozinha</w>": 6858,
      "bet</w>": 6859,
      "expul": 6860,
      "banheiro</w>": 6861,
      "william</w>": 6862,
      "mon</w>": 6863,
      "culture</w>": 6864,
      "pop</w>": 6865,
      "immy</w>": 6866,
      "trabalha</w>": 6867,
      "diu</w>": 6868,
      "desafio</w>": 6869,
      "legen": 6870,
      "veria</w>": 6871,
      "recogni": 6872,
      "Após</w>": 6873,
      "óleo</w>": 6874,
      "inven": 6875,
      "pedi</w>": 6876,
      "selling</w>": 6877,
      "pio</w>": 6878,
      "cobri": 6879,
      "ecendo</w>": 6880,
      "jamais</w>": 6881,
      "Sempre</w>": 6882,
      "numbers</w>": 6883,
      "quantidade</w>": 6884,
      "dun": 6885,
      "notic": 6886,
      "menino</w>": 6887,
      "vidos</w>": 6888,
      "pay": 6889,
      "evin</w>": 6890,
      "fera</w>": 6891,
      "buried</w>": 6892,
      "courage</w>": 6893,
      "agrad": 6894,
      "eliz": 6895,
      "funeral</w>": 6896,
      "bei</w>": 6897,
      "dação</w>": 6898,
      "threaten": 6899,
      "favorite</w>": 6900,
      "contrato</w>": 6901,
      "taught</w>": 6902,
      "irst</w>": 6903,
      "humans</w>": 6904,
      "acompan": 6905,
      "dings</w>": 6906,
      "vieram</w>": 6907,
      "kills</w>": 6908,
      "sym": 6909,
      "seconds</w>": 6910,
      "capazes</w>": 6911,
      "deman": 6912,
      "aumen": 6913,
      "imagens</w>": 6914,
      "Tamb": 6915,
      "nervo": 6916,
      "handle</w>": 6917,
      "dúvida</w>": 6918,
      "requi": 6919,
      "tenant</w>": 6920,
      "Também</w>": 6921,
      "inspe": 6922,
      "nomes</w>": 6923,
      "prisi": 6924,
      "espan": 6925,
      "notícias</w>": 6926,
      "tons</w>": 6927,
      "threat</w>": 6928,
      "costumava</w>": 6929,
      "texas</w>": 6930,
      "vices</w>": 6931,
      "usual</w>": 6932,
      "longa</w>": 6933,
      "expected</w>": 6934,
      "soph": 6935,
      "baix": 6936,
      "release</w>": 6937,
      "técn": 6938,
      "vali": 6939,
      "surger": 6940,
      "mostra</w>": 6941,
      "hidden</w>": 6942,
      "sna": 6943,
      "éria</w>": 6944,
      "pobre</w>": 6945,
      "ficaram</w>": 6946,
      "apli": 6947,
      "capacidade</w>": 6948,
      "credit</w>": 6949,
      "cigar": 6950,
      "queriam</w>": 6951,
      "controlar</w>": 6952,
      "although</w>": 6953,
      "fizer</w>": 6954,
      "tual</w>": 6955,
      "garam</w>": 6956,
      "correu</w>": 6957,
      "opened</w>": 6958,
      "chic": 6959,
      "viva</w>": 6960,
      "exper": 6961,
      "stolen</w>": 6962,
      "rede</w>": 6963,
      "frança</w>": 6964,
      "passei</w>": 6965,
      "começando</w>": 6966,
      "Mo": 6967,
      "ell": 6968,
      "achamos</w>": 6969,
      "cisco</w>": 6970,
      "oughout</w>": 6971,
      "aged</w>": 6972,
      "nearly</w>": 6973,
      "sper": 6974,
      "satur": 6975,
      "azul</w>": 6976,
      "familiar</w>": 6977,
      "losing</w>": 6978,
      "afir": 6979,
      "fill</w>": 6980,
      "recru": 6981,
      "acting</w>": 6982,
      "gather": 6983,
      "capable</w>": 6984,
      "kidna": 6985,
      "enter</w>": 6986,
      "lights</w>": 6987,
      "focus</w>": 6988,
      "attorney</w>": 6989,
      "ego</w>": 6990,
      "gla": 6991,
      "council</w>": 6992,
      "dark": 6993,
      "glass</w>": 6994,
      "tour</w>": 6995,
      "enjoy</w>": 6996,
      "weekend</w>": 6997,
      "atri": 6998,
      "ope": 6999,
      "appoin": 7000,
      "bell</w>": 7001,
      "frio</w>": 7002,
      "staff</w>": 7003,
      "igual</w>": 7004,
      "zero</w>": 7005,
      "anne</w>": 7006,
      "analy": 7007,
      "perdido</w>": 7008,
      "california</w>": 7009,
      "ager</w>": 7010,
      "homicídio</w>": 7011,
      "praia</w>": 7012,
      "necessary</w>": 7013,
      "brilhante</w>": 7014,
      "Do": 7015,
      "hic": 7016,
      "esperava</w>": 7017,
      "profis": 7018,
      "entreg": 7019,
      "hero</w>": 7020,
      "thomas</w>": 7021,
      "inimig": 7022,
      "Tr": 7023,
      "terão</w>": 7024,
      "impedir</w>": 7025,
      "196": 7026,
      "teacher</w>": 7027,
      "adolesc": 7028,
      "ctly</w>": 7029,
      "manu": 7030,
      "10": 7031,
      "admir": 7032,
      "conheci</w>": 7033,
      "orders</w>": 7034,
      "parecem</w>": 7035,
      "bel</w>": 7036,
      "agir</w>": 7037,
      "milhão</w>": 7038,
      "embaixo</w>": 7039,
      "tanta</w>": 7040,
      "provide</w>": 7041,
      "pesco": 7042,
      "zi": 7043,
      "arre": 7044,
      "plas": 7045,
      "encar": 7046,
      "comer": 7047,
      "martin</w>": 7048,
      "kitchen</w>": 7049,
      "other": 7050,
      "opin": 7051,
      "197": 7052,
      "empire</w>": 7053,
      "ódio</w>": 7054,
      "rico</w>": 7055,
      "oficiais</w>": 7056,
      "Claro</w>": 7057,
      "aero": 7058,
      "ciência</w>": 7059,
      "gift</w>": 7060,
      "demonstr": 7061,
      "powers</w>": 7062,
      "mond</w>": 7063,
      "tte</w>": 7064,
      "titude</w>": 7065,
      "rom": 7066,
      "sight</w>": 7067,
      "sobreviver</w>": 7068,
      "photogra": 7069,
      "prostitu": 7070,
      "pair</w>": 7071,
      "querida</w>": 7072,
      "yel": 7073,
      "insur": 7074,
      "acontecer": 7075,
      "ality</w>": 7076,
      "establ": 7077,
      "plans</w>": 7078,
      "directly</w>": 7079,
      "leaves</w>": 7080,
      "entrada</w>": 7081,
      "fair": 7082,
      "pacientes</w>": 7083,
      "eding</w>": 7084,
      "express": 7085,
      "acusações</w>": 7086,
      "Durante</w>": 7087,
      "angry</w>": 7088,
      "liga</w>": 7089,
      "neur": 7090,
      "design</w>": 7091,
      "seres</w>": 7092,
      "braços</w>": 7093,
      "struc": 7094,
      "daquela</w>": 7095,
      "authori": 7096,
      "modern</w>": 7097,
      "source</w>": 7098,
      "nis</w>": 7099,
      "ato": 7100,
      "Acre": 7101,
      "gab": 7102,
      "games</w>": 7103,
      "pit</w>": 7104,
      "returned</w>": 7105,
      "notícia</w>": 7106,
      "gações</w>": 7107,
      "assistir</w>": 7108,
      "abra": 7109,
      "lay</w>": 7110,
      "falei</w>": 7111,
      "campanha</w>": 7112,
      "fugir</w>": 7113,
      "jin</w>": 7114,
      "role</w>": 7115,
      "ures</w>": 7116,
      "reading</w>": 7117,
      "period</w>": 7118,
      "drunk</w>": 7119,
      "sor</w>": 7120,
      "closed</w>": 7121,
      "conversation</w>": 7122,
      "anting</w>": 7123,
      "conclu": 7124,
      "imo</w>": 7125,
      "ideas</w>": 7126,
      "recuperar</w>": 7127,
      "attempt</w>": 7128,
      "saved</w>": 7129,
      "partido</w>": 7130,
      "tivity</w>": 7131,
      "giant</w>": 7132,
      "inde": 7133,
      "trade</w>": 7134,
      "francisco</w>": 7135,
      "caiu</w>": 7136,
      "steal</w>": 7137,
      "considered</w>": 7138,
      "push</w>": 7139,
      "managed</w>": 7140,
      "vestido</w>": 7141,
      "spread</w>": 7142,
      ".'.</w>": 7143,
      "lers</w>": 7144,
      "umb": 7145,
      "Às</w>": 7146,
      "diplo": 7147,
      "aula</w>": 7148,
      "cadeira</w>": 7149,
      "pôr</w>": 7150,
      "Veja</w>": 7151,
      "tax": 7152,
      "legi": 7153,
      "comfor": 7154,
      "planos</w>": 7155,
      "empur": 7156,
      "sett": 7157,
      "occu": 7158,
      "damage</w>": 7159,
      "ceis</w>": 7160,
      "command</w>": 7161,
      "eutenant</w>": 7162,
      "issue</w>": 7163,
      "sensação</w>": 7164,
      "doente</w>": 7165,
      "box": 7166,
      "virar</w>": 7167,
      "righ": 7168,
      "camis": 7169,
      "anywhere</w>": 7170,
      "envir": 7171,
      "trig": 7172,
      "topo</w>": 7173,
      "exist</w>": 7174,
      "surpresa</w>": 7175,
      "brown</w>": 7176,
      "coffee</w>": 7177,
      "aé": 7178,
      "wra": 7179,
      "yard</w>": 7180,
      "escur": 7181,
      "patri": 7182,
      "cartas</w>": 7183,
      "lixo</w>": 7184,
      "compreen": 7185,
      "escreveu</w>": 7186,
      "success</w>": 7187,
      "People</w>": 7188,
      "tha</w>": 7189,
      "convince</w>": 7190,
      "gel</w>": 7191,
      "poderoso</w>": 7192,
      "rádio</w>": 7193,
      "rapidamente</w>": 7194,
      "alex": 7195,
      "gaz": 7196,
      "interes": 7197,
      "anyway</w>": 7198,
      "proteção</w>": 7199,
      "fossem</w>": 7200,
      "aix": 7201,
      "ling": 7202,
      "lied</w>": 7203,
      "palco</w>": 7204,
      "movies</w>": 7205,
      "rule</w>": 7206,
      "haverá</w>": 7207,
      "oceano</w>": 7208,
      "environ": 7209,
      "rote": 7210,
      "cirurgia</w>": 7211,
      "compartil": 7212,
      "misteri": 7213,
      "appear</w>": 7214,
      "negros</w>": 7215,
      "usi": 7216,
      "Posso</w>": 7217,
      "mous</w>": 7218,
      "weight</w>": 7219,
      "crito</w>": 7220,
      "selv": 7221,
      "palace</w>": 7222,
      "opinion</w>": 7223,
      "remind</w>": 7224,
      "county</w>": 7225,
      "thi": 7226,
      "diam</w>": 7227,
      "older</w>": 7228,
      "offici": 7229,
      "graça</w>": 7230,
      "quisesse</w>": 7231,
      "alex</w>": 7232,
      "Fal": 7233,
      "europe": 7234,
      "cavalo</w>": 7235,
      "phe": 7236,
      "vivendo</w>": 7237,
      "ofen": 7238,
      "cute</w>": 7239,
      "nidade</w>": 7240,
      "cops</w>": 7241,
      "ports</w>": 7242,
      "horrível</w>": 7243,
      "terms</w>": 7244,
      "presence</w>": 7245,
      "criou</w>": 7246,
      "laboratório</w>": 7247,
      "enfer": 7248,
      "parque</w>": 7249,
      "vermos</w>": 7250,
      "útil</w>": 7251,
      "proof</w>": 7252,
      "peso</w>": 7253,
      "próprios</w>": 7254,
      "leve</w>": 7255,
      "rastre": 7256,
      "rose</w>": 7257,
      "ológ": 7258,
      "cry": 7259,
      "presos</w>": 7260,
      "thor": 7261,
      "gene": 7262,
      "inocente</w>": 7263,
      "cuidado</w>": 7264,
      "pescoço</w>": 7265,
      "finds</w>": 7266,
      "finished</w>": 7267,
      "alimen": 7268,
      "bres</w>": 7269,
      "fellow</w>": 7270,
      "tesouro</w>": 7271,
      "damos</w>": 7272,
      "whit": 7273,
      "condições</w>": 7274,
      "advantage</w>": 7275,
      "Imag": 7276,
      "treasure</w>": 7277,
      "planning</w>": 7278,
      "See</w>": 7279,
      "tery</w>": 7280,
      "cost": 7281,
      "remains</w>": 7282,
      "trus": 7283,
      "descre": 7284,
      "tirou</w>": 7285,
      "ônibus</w>": 7286,
      "keeps</w>": 7287,
      "cous": 7288,
      "acti": 7289,
      "vim</w>": 7290,
      "drag</w>": 7291,
      "oferecer</w>": 7292,
      "conhecida</w>": 7293,
      "22</w>": 7294,
      "kni": 7295,
      "itor": 7296,
      "essão</w>": 7297,
      "ential</w>": 7298,
      "campe": 7299,
      "drinking</w>": 7300,
      "registros</w>": 7301,
      "news": 7302,
      "lac": 7303,
      "jose": 7304,
      "events</w>": 7305,
      "diretamente</w>": 7306,
      "atras": 7307,
      "levando</w>": 7308,
      "gang</w>": 7309,
      "employe": 7310,
      "elé": 7311,
      "campaign</w>": 7312,
      "45</w>": 7313,
      "Is</w>": 7314,
      "rain</w>": 7315,
      "image</w>": 7316,
      "Fi": 7317,
      "scal": 7318,
      "vent</w>": 7319,
      "aten</w>": 7320,
      "cré": 7321,
      "surgery</w>": 7322,
      "toma": 7323,
      "grant</w>": 7324,
      "followed</w>": 7325,
      "cus</w>": 7326,
      "kic": 7327,
      "tiro</w>": 7328,
      "notice</w>": 7329,
      "official</w>": 7330,
      "wide</w>": 7331,
      "harry</w>": 7332,
      "performance</w>": 7333,
      "ji</w>": 7334,
      "extra": 7335,
      "burn</w>": 7336,
      "dim</w>": 7337,
      "estilo</w>": 7338,
      "incredible</w>": 7339,
      "bela</w>": 7340,
      "agentes</w>": 7341,
      "gais</w>": 7342,
      "juli": 7343,
      "showing</w>": 7344,
      "americana</w>": 7345,
      "successful</w>": 7346,
      "diri": 7347,
      "debaixo</w>": 7348,
      "pessoalmente</w>": 7349,
      "observ": 7350,
      "adequ": 7351,
      "lan</w>": 7352,
      "py": 7353,
      "impac": 7354,
      "alco": 7355,
      "ouviu</w>": 7356,
      "papers</w>": 7357,
      "cortar</w>": 7358,
      "chama</w>": 7359,
      "breaking</w>": 7360,
      "cientistas</w>": 7361,
      "montanhas</w>": 7362,
      "comuni": 7363,
      "gava</w>": 7364,
      "americans</w>": 7365,
      "ordens</w>": 7366,
      "ith": 7367,
      "infin": 7368,
      "lic</w>": 7369,
      "Which</w>": 7370,
      "stole</w>": 7371,
      "rise</w>": 7372,
      "centemente</w>": 7373,
      "patients</w>": 7374,
      "night": 7375,
      "Ha": 7376,
      "aper": 7377,
      "itual</w>": 7378,
      "potential</w>": 7379,
      "meter</w>": 7380,
      "ajudou</w>": 7381,
      "langu": 7382,
      "agar</w>": 7383,
      "juntar</w>": 7384,
      "hanging</w>": 7385,
      "fabri": 7386,
      "meninas</w>": 7387,
      "feira</w>": 7388,
      "claramente</w>": 7389,
      "insul": 7390,
      "caç": 7391,
      "fix</w>": 7392,
      "anna</w>": 7393,
      "weal": 7394,
      "seguida</w>": 7395,
      "chinese</w>": 7396,
      "points</w>": 7397,
      "cidos</w>": 7398,
      "fake</w>": 7399,
      "casse</w>": 7400,
      "bilhões</w>": 7401,
      "heavy</w>": 7402,
      "coast</w>": 7403,
      "actions</w>": 7404,
      "amed</w>": 7405,
      "heat</w>": 7406,
      "condition</w>": 7407,
      "jornal</w>": 7408,
      "connected</w>": 7409,
      "coinci": 7410,
      "forest</w>": 7411,
      "gency</w>": 7412,
      "salv": 7413,
      "fazemos</w>": 7414,
      "broad": 7415,
      "região</w>": 7416,
      "rus</w>": 7417,
      "trata</w>": 7418,
      "heaven</w>": 7419,
      "marca</w>": 7420,
      "explosão</w>": 7421,
      "recentemente</w>": 7422,
      "lit</w>": 7423,
      "isted</w>": 7424,
      "garra": 7425,
      "palá": 7426,
      "responder</w>": 7427,
      "released</w>": 7428,
      "tratamento</w>": 7429,
      "program": 7430,
      "ban</w>": 7431,
      "haria</w>": 7432,
      "kins</w>": 7433,
      "taria</w>": 7434,
      "wester": 7435,
      "para": 7436,
      "offen": 7437,
      "trabalha": 7438,
      "massive</w>": 7439,
      "tarefa</w>": 7440,
      "sel</w>": 7441,
      "perspec": 7442,
      "irrit": 7443,
      "mely</w>": 7444,
      "fantas": 7445,
      "convencer</w>": 7446,
      "sleeping</w>": 7447,
      "Don</w>": 7448,
      "disci": 7449,
      "First</w>": 7450,
      "good": 7451,
      "draw</w>": 7452,
      "leading</w>": 7453,
      "statement</w>": 7454,
      "eiras</w>": 7455,
      "sis</w>": 7456,
      "ish": 7457,
      "ami</w>": 7458,
      "mayor</w>": 7459,
      "abeth</w>": 7460,
      "ré": 7461,
      "chegando</w>": 7462,
      "frank": 7463,
      "reports</w>": 7464,
      "Prime": 7465,
      "Apesar</w>": 7466,
      "leis</w>": 7467,
      "toler": 7468,
      "fascin": 7469,
      "beleza</w>": 7470,
      "tipos</w>": 7471,
      "positivo</w>": 7472,
      "hiding</w>": 7473,
      "tence</w>": 7474,
      "máximo</w>": 7475,
      "massa</w>": 7476,
      "fábri": 7477,
      "ply</w>": 7478,
      "traf": 7479,
      "alien</w>": 7480,
      "confiar</w>": 7481,
      "facil": 7482,
      "dará</w>": 7483,
      "zar": 7484,
      "estej": 7485,
      "warm</w>": 7486,
      "pool</w>": 7487,
      "irei</w>": 7488,
      "enty</w>": 7489,
      "descen": 7490,
      "maram</w>": 7491,
      "winter</w>": 7492,
      "leste</w>": 7493,
      "vor</w>": 7494,
      "daddy</w>": 7495,
      "perda</w>": 7496,
      "gain</w>": 7497,
      "berg</w>": 7498,
      "mass</w>": 7499,
      "opening</w>": 7500,
      "inimigos</w>": 7501,
      "loss</w>": 7502,
      "formas</w>": 7503,
      "últimas</w>": 7504,
      "yn</w>": 7505,
      "aspe": 7506,
      "imperi": 7507,
      "acusação</w>": 7508,
      "techni": 7509,
      "vitória</w>": 7510,
      "La": 7511,
      "valley</w>": 7512,
      "solve</w>": 7513,
      "scott</w>": 7514,
      "jim</w>": 7515,
      "behavi": 7516,
      "sending</w>": 7517,
      "rumor": 7518,
      "bath": 7519,
      "current</w>": 7520,
      "max</w>": 7521,
      "solit": 7522,
      "letting</w>": 7523,
      "double</w>": 7524,
      "altura</w>": 7525,
      "cidad": 7526,
      "preocupado</w>": 7527,
      "conexão</w>": 7528,
      "bos</w>": 7529,
      "tough</w>": 7530,
      "sofri": 7531,
      "livrar</w>": 7532,
      "sees</w>": 7533,
      "exchange</w>": 7534,
      "defender</w>": 7535,
      "recursos</w>": 7536,
      "itais</w>": 7537,
      "tine</w>": 7538,
      "templ": 7539,
      "justo</w>": 7540,
      "vey</w>": 7541,
      "bum</w>": 7542,
      "cop</w>": 7543,
      "empty</w>": 7544,
      "arch": 7545,
      "versão</w>": 7546,
      "contract</w>": 7547,
      "throughout</w>": 7548,
      "acaba</w>": 7549,
      "vive</w>": 7550,
      "gary</w>": 7551,
      "species</w>": 7552,
      "issues</w>": 7553,
      "35</w>": 7554,
      "laws</w>": 7555,
      "Today</w>": 7556,
      "dever</w>": 7557,
      "descan": 7558,
      "deserto</w>": 7559,
      "failed</w>": 7560,
      "upset</w>": 7561,
      "ylor</w>": 7562,
      "orgulho</w>": 7563,
      "efore</w>": 7564,
      "fan": 7565,
      "actual</w>": 7566,
      "Alguns</w>": 7567,
      "Sa": 7568,
      "mara</w>": 7569,
      "anced</w>": 7570,
      "reasons</w>": 7571,
      "bor</w>": 7572,
      "driver</w>": 7573,
      "bonita</w>": 7574,
      "excited</w>": 7575,
      "swear</w>": 7576,
      "japon": 7577,
      "lunch</w>": 7578,
      "lif": 7579,
      "sentimento</w>": 7580,
      "Anyway</w>": 7581,
      "hn</w>": 7582,
      "mers</w>": 7583,
      "seat</w>": 7584,
      "stron": 7585,
      "invest": 7586,
      "histori": 7587,
      "pequenas</w>": 7588,
      "daqueles</w>": 7589,
      "acusado</w>": 7590,
      "preocupar</w>": 7591,
      "russian</w>": 7592,
      "immediately</w>": 7593,
      "cun": 7594,
      "moments</w>": 7595,
      "garanti": 7596,
      "identidade</w>": 7597,
      "desert</w>": 7598,
      "pude</w>": 7599,
      "Olhe</w>": 7600,
      "kevin</w>": 7601,
      "plat": 7602,
      "firm</w>": 7603,
      "walls</w>": 7604,
      "pleasure</w>": 7605,
      "avoid</w>": 7606,
      "cat</w>": 7607,
      "fat</w>": 7608,
      "despite</w>": 7609,
      "beauty</w>": 7610,
      "fórnia</w>": 7611,
      "Tw": 7612,
      "cost</w>": 7613,
      "tee</w>": 7614,
      "Although</w>": 7615,
      "square</w>": 7616,
      "value</w>": 7617,
      "closer</w>": 7618,
      "Le": 7619,
      "becoming</w>": 7620,
      "mática</w>": 7621,
      "memories</w>": 7622,
      "manager</w>": 7623,
      "dirty</w>": 7624,
      "practice</w>": 7625,
      "adam</w>": 7626,
      "mmy</w>": 7627,
      "trauma</w>": 7628,
      "craft</w>": 7629,
      "próprias</w>": 7630,
      "xico</w>": 7631,
      "égio</w>": 7632,
      "gui": 7633,
      "união</w>": 7634,
      "suppose</w>": 7635,
      "alunos</w>": 7636,
      "empresas</w>": 7637,
      "elle</w>": 7638,
      "attrac": 7639,
      "velhos</w>": 7640,
      "muni": 7641,
      "habilidade</w>": 7642,
      "poço</w>": 7643,
      "rely</w>": 7644,
      "gus": 7645,
      "éssemos</w>": 7646,
      "worl": 7647,
      "basicamente</w>": 7648,
      "braço</w>": 7649,
      "califórnia</w>": 7650,
      "prêmio</w>": 7651,
      "noticed</w>": 7652,
      "wine</w>": 7653,
      "alty</w>": 7654,
      "doce</w>": 7655,
      "organização</w>": 7656,
      "alvo</w>": 7657,
      "speaking</w>": 7658,
      "ambiente</w>": 7659,
      "vermelho</w>": 7660,
      "grew</w>": 7661,
      "acreditam</w>": 7662,
      "código</w>": 7663,
      "ileg": 7664,
      "boun": 7665,
      "colate</w>": 7666,
      "resour": 7667,
      "lanç": 7668,
      "chef</w>": 7669,
      "metro</w>": 7670,
      "quilô": 7671,
      "ji": 7672,
      "disease</w>": 7673,
      "obviamente</w>": 7674,
      "assume</w>": 7675,
      "literally</w>": 7676,
      "johnson</w>": 7677,
      "incomo": 7678,
      "ruins</w>": 7679,
      "chamou</w>": 7680,
      "acamp": 7681,
      "tirá</w>": 7682,
      "esforço</w>": 7683,
      "alienígen": 7684,
      "ób": 7685,
      "cher": 7686,
      "fortes</w>": 7687,
      "tony</w>": 7688,
      "Nunca</w>": 7689,
      "ku": 7690,
      "âne": 7691,
      "esh</w>": 7692,
      "conte": 7693,
      "cartão</w>": 7694,
      "competition</w>": 7695,
      "scientists</w>": 7696,
      "vamp": 7697,
      "Sem</w>": 7698,
      "acel": 7699,
      "ativo</w>": 7700,
      "dropped</w>": 7701,
      "appears</w>": 7702,
      "designed</w>": 7703,
      "spring</w>": 7704,
      "Tho": 7705,
      "mencion": 7706,
      "permissão</w>": 7707,
      "mina</w>": 7708,
      "fired</w>": 7709,
      "avali": 7710,
      "block</w>": 7711,
      "invited</w>": 7712,
      "segurar</w>": 7713,
      "ski</w>": 7714,
      "foo": 7715,
      "crí": 7716,
      "lack</w>": 7717,
      "íb": 7718,
      "chase</w>": 7719,
      "chocolate</w>": 7720,
      "belon": 7721,
      "Right</w>": 7722,
      "culp": 7723,
      "honor": 7724,
      "construção</w>": 7725,
      "clusive</w>": 7726,
      "foreign</w>": 7727,
      "cava</w>": 7728,
      "mel</w>": 7729,
      "ators</w>": 7730,
      "ativa</w>": 7731,
      "batt": 7732,
      "possibilidade</w>": 7733,
      "storm</w>": 7734,
      "recent</w>": 7735,
      "parou</w>": 7736,
      "tually</w>": 7737,
      "flores</w>": 7738,
      "suspen": 7739,
      "17": 7740,
      "For": 7741,
      "nes</w>": 7742,
      "ene</w>": 7743,
      "redi": 7744,
      "eventos</w>": 7745,
      "legs</w>": 7746,
      "dirigir</w>": 7747,
      "palácio</w>": 7748,
      "efeito</w>": 7749,
      "anese</w>": 7750,
      "cad": 7751,
      "aca</w>": 7752,
      "tebol</w>": 7753,
      "garotos</w>": 7754,
      "população</w>": 7755,
      "sat</w>": 7756,
      "vous</w>": 7757,
      "enjo": 7758,
      "paying</w>": 7759,
      "rescu": 7760,
      "billion</w>": 7761,
      "ficamos</w>": 7762,
      "fit": 7763,
      "nose</w>": 7764,
      "accoun": 7765,
      "boston</w>": 7766,
      "effort</w>": 7767,
      "herói</w>": 7768,
      "yu": 7769,
      "absor": 7770,
      "address</w>": 7771,
      "bando</w>": 7772,
      "tenta</w>": 7773,
      "regular</w>": 7774,
      "estranha</w>": 7775,
      "sentindo</w>": 7776,
      "perfeita</w>": 7777,
      "spoke</w>": 7778,
      "agradecer</w>": 7779,
      "reven": 7780,
      "doors</w>": 7781,
      "lab</w>": 7782,
      "jogando</w>": 7783,
      "queim": 7784,
      "obrigado</w>": 7785,
      "rev": 7786,
      "missed</w>": 7787,
      "target</w>": 7788,
      "subject</w>": 7789,
      "accused</w>": 7790,
      "suicide</w>": 7791,
      "apos": 7792,
      "nick</w>": 7793,
      "ui</w>": 7794,
      "devo": 7795,
      "feed</w>": 7796,
      "mili": 7797,
      "incident</w>": 7798,
      "limpar</w>": 7799,
      "\"?</w>": 7800,
      "pernas</w>": 7801,
      "conseguimos</w>": 7802,
      "receber": 7803,
      "guarante": 7804,
      "comportamento</w>": 7805,
      "wl</w>": 7806,
      "jogos</w>": 7807,
      "vencer</w>": 7808,
      "demia</w>": 7809,
      "provável</w>": 7810,
      "ear</w>": 7811,
      "terei</w>": 7812,
      "grade</w>": 7813,
      "previ": 7814,
      "acontecido</w>": 7815,
      "roubou</w>": 7816,
      "jimmy</w>": 7817,
      "leng": 7818,
      "disposto</w>": 7819,
      "lutando</w>": 7820,
      "avent": 7821,
      "individual</w>": 7822,
      "nove</w>": 7823,
      "olina</w>": 7824,
      "vehic": 7825,
      "nat": 7826,
      "tired</w>": 7827,
      "prejudi": 7828,
      "coloca</w>": 7829,
      "vento</w>": 7830,
      "temporada</w>": 7831,
      "bec": 7832,
      "futebol</w>": 7833,
      "crist": 7834,
      "integr": 7835,
      "greater</w>": 7836,
      "cozin": 7837,
      "tulo</w>": 7838,
      "direction</w>": 7839,
      "felicidade</w>": 7840,
      "neu": 7841,
      "exact</w>": 7842,
      "regis": 7843,
      "deveriam</w>": 7844,
      "documen": 7845,
      "tantas</w>": 7846,
      "tração</w>": 7847,
      "bie</w>": 7848,
      "lago</w>": 7849,
      "nam</w>": 7850,
      "ordered</w>": 7851,
      "manha</w>": 7852,
      "Did</w>": 7853,
      "mico</w>": 7854,
      "ancing</w>": 7855,
      "electri": 7856,
      "emergência</w>": 7857,
      "Primeiro</w>": 7858,
      "aríamos</w>": 7859,
      "vigil": 7860,
      "impul": 7861,
      "twice</w>": 7862,
      "fashi": 7863,
      "infec": 7864,
      "beings</w>": 7865,
      "segura</w>": 7866,
      "indú": 7867,
      "engen": 7868,
      "movement</w>": 7869,
      "enviou</w>": 7870,
      "personagem</w>": 7871,
      "reached</w>": 7872,
      "effect</w>": 7873,
      "400</w>": 7874,
      "Is": 7875,
      "deio</w>": 7876,
      "cement</w>": 7877,
      "famoso</w>": 7878,
      "sudden</w>": 7879,
      "details</w>": 7880,
      "indústr": 7881,
      "festiv": 7882,
      "rant</w>": 7883,
      "tantos</w>": 7884,
      "direct</w>": 7885,
      "billy</w>": 7886,
      "reas</w>": 7887,
      "sphere</w>": 7888,
      "proto": 7889,
      "cancer</w>": 7890,
      "receive</w>": 7891,
      "droga</w>": 7892,
      "pág": 7893,
      "amostr": 7894,
      "lets</w>": 7895,
      "ented</w>": 7896,
      "plus</w>": 7897,
      "chate": 7898,
      "engine": 7899,
      "bala</w>": 7900,
      "professi": 7901,
      "changes</w>": 7902,
      "japanese</w>": 7903,
      "admitir</w>": 7904,
      "ético</w>": 7905,
      "liked</w>": 7906,
      "tenente</w>": 7907,
      "bloque": 7908,
      "mostrou</w>": 7909,
      "habili": 7910,
      "dows</w>": 7911,
      "cargo</w>": 7912,
      "color": 7913,
      "saco</w>": 7914,
      "princess</w>": 7915,
      "surprise</w>": 7916,
      "sic": 7917,
      "swit": 7918,
      "subir</w>": 7919,
      "bird</w>": 7920,
      "daniel</w>": 7921,
      "terras</w>": 7922,
      "fortune</w>": 7923,
      "vantagem</w>": 7924,
      "vei</w>": 7925,
      "certas</w>": 7926,
      "permitir</w>": 7927,
      "Ah</w>": 7928,
      "atamente</w>": 7929,
      "note</w>": 7930,
      "monster</w>": 7931,
      "puta</w>": 7932,
      "conseguia</w>": 7933,
      "otherwise</w>": 7934,
      "ids</w>": 7935,
      "scri": 7936,
      "arrator</w>": 7937,
      "fronteira</w>": 7938,
      "spending</w>": 7939,
      "galá": 7940,
      "império</w>": 7941,
      "cidadãos</w>": 7942,
      "festival</w>": 7943,
      "chair</w>": 7944,
      "generation</w>": 7945,
      "offered</w>": 7946,
      "dita</w>": 7947,
      "vest": 7948,
      "vinho</w>": 7949,
      "anas</w>": 7950,
      "whenever</w>": 7951,
      "motor</w>": 7952,
      "porra</w>": 7953,
      "publ": 7954,
      "números</w>": 7955,
      "23</w>": 7956,
      "cobr": 7957,
      "banda</w>": 7958,
      "receb": 7959,
      "adrões</w>": 7960,
      "cano</w>": 7961,
      "trat": 7962,
      "mates</w>": 7963,
      "lucr": 7964,
      "frequ": 7965,
      "crown</w>": 7966,
      "schedul": 7967,
      "pher</w>": 7968,
      "mess</w>": 7969,
      "Quer": 7970,
      "passe": 7971,
      "geração</w>": 7972,
      "enfrentar</w>": 7973,
      "física</w>": 7974,
      "conqu": 7975,
      "add</w>": 7976,
      "jobs</w>": 7977,
      "sentia</w>": 7978,
      "commander</w>": 7979,
      "nes": 7980,
      "produz": 7981,
      "explain": 7982,
      "transformar</w>": 7983,
      "perigoso</w>": 7984,
      "modelo</w>": 7985,
      "citizens</w>": 7986,
      "cidades</w>": 7987,
      "loves</w>": 7988,
      "heir</w>": 7989,
      "espir": 7990,
      "golden</w>": 7991,
      "paixão</w>": 7992,
      "psycho": 7993,
      "dealing</w>": 7994,
      "gue": 7995,
      "aks</w>": 7996,
      "dating</w>": 7997,
      "poderes</w>": 7998,
      "mble</w>": 7999,
      "portas</w>": 8000,
      "entemente</w>": 8001,
      "interpre": 8002,
      "interview</w>": 8003,
      "fundam": 8004,
      "violent</w>": 8005,
      "ática</w>": 8006,
      "inse": 8007,
      "armed</w>": 8008,
      "aven": 8009,
      "competição</w>": 8010,
      "vege": 8011,
      "incên": 8012,
      "levado</w>": 8013,
      "negra</w>": 8014,
      "personally</w>": 8015,
      "alterna": 8016,
      "cente</w>": 8017,
      "gods</w>": 8018,
      "malu": 8019,
      "expan": 8020,
      "minister</w>": 8021,
      "fresh</w>": 8022,
      "amiz": 8023,
      "teen": 8024,
      "load</w>": 8025,
      "antly</w>": 8026,
      "lau": 8027,
      "audience</w>": 8028,
      "suffering</w>": 8029,
      "tário</w>": 8030,
      "entí": 8031,
      "rate</w>": 8032,
      "navi": 8033,
      "calcul": 8034,
      "encontra</w>": 8035,
      "pod": 8036,
      "distr": 8037,
      "obri": 8038,
      "folks</w>": 8039,
      "testemunhas</w>": 8040,
      "inverno</w>": 8041,
      "nity</w>": 8042,
      "constitu": 8043,
      "entra</w>": 8044,
      "militares</w>": 8045,
      "horror</w>": 8046,
      "daram</w>": 8047,
      "congel": 8048,
      "bolsa</w>": 8049,
      "cachorro</w>": 8050,
      "deuses</w>": 8051,
      "unit</w>": 8052,
      "cientí": 8053,
      "forgive</w>": 8054,
      "terceiro</w>": 8055,
      "mergul": 8056,
      "syn": 8057,
      "silver</w>": 8058,
      "companies</w>": 8059,
      "anterior</w>": 8060,
      "andando</w>": 8061,
      "object</w>": 8062,
      "escapar</w>": 8063,
      "magaz": 8064,
      "ira": 8065,
      "produção</w>": 8066,
      "austr": 8067,
      "ido": 8068,
      "ídos</w>": 8069,
      "vor": 8070,
      "íram</w>": 8071,
      "analis": 8072,
      "financial</w>": 8073,
      "inju": 8074,
      "confron": 8075,
      "jane</w>": 8076,
      "Ouça</w>": 8077,
      "quebrar</w>": 8078,
      "core": 8079,
      "comfortable</w>": 8080,
      "fatos</w>": 8081,
      "persu": 8082,
      "prefeito</w>": 8083,
      "fome</w>": 8084,
      "suppor": 8085,
      "mountains</w>": 8086,
      "eventually</w>": 8087,
      "bon</w>": 8088,
      "diag": 8089,
      "verde</w>": 8090,
      "mbol": 8091,
      "aparece</w>": 8092,
      "aproxim": 8093,
      "eço</w>": 8094,
      "ême": 8095,
      "extin": 8096,
      "bonito</w>": 8097,
      "envolvido</w>": 8098,
      "gás</w>": 8099,
      "zas</w>": 8100,
      "alistas</w>": 8101,
      "tentei</w>": 8102,
      "mari": 8103,
      "encontrá</w>": 8104,
      "aç": 8105,
      "deos</w>": 8106,
      "egy": 8107,
      "artist</w>": 8108,
      "pretend</w>": 8109,
      "arruin": 8110,
      "pregnant</w>": 8111,
      "nari": 8112,
      "lieutenant</w>": 8113,
      "sens": 8114,
      "relev": 8115,
      "charged</w>": 8116,
      "farm</w>": 8117,
      "princesa</w>": 8118,
      "eth</w>": 8119,
      "thri": 8120,
      "enfor": 8121,
      "tadores</w>": 8122,
      "rosa</w>": 8123,
      "teriam</w>": 8124,
      "bobby</w>": 8125,
      "calor</w>": 8126,
      "steph": 8127,
      "devas": 8128,
      "ctor</w>": 8129,
      "pia</w>": 8130,
      "direita</w>": 8131,
      "países</w>": 8132,
      "kan": 8133,
      "pão</w>": 8134,
      "ella</w>": 8135,
      "raised</w>": 8136,
      "faces</w>": 8137,
      "ugh</w>": 8138,
      "emergency</w>": 8139,
      "vera</w>": 8140,
      "dermos</w>": 8141,
      "tically</w>": 8142,
      "discuss</w>": 8143,
      "stands</w>": 8144,
      "western</w>": 8145,
      "lice</w>": 8146,
      "achava</w>": 8147,
      "hol</w>": 8148,
      "existência</w>": 8149,
      "ía</w>": 8150,
      "cheguei</w>": 8151,
      "seriously</w>": 8152,
      "crédito</w>": 8153,
      "scan": 8154,
      "vesse</w>": 8155,
      "iss</w>": 8156,
      "hop</w>": 8157,
      "model</w>": 8158,
      "way": 8159,
      "pray</w>": 8160,
      "estly</w>": 8161,
      "sivo</w>": 8162,
      "anic</w>": 8163,
      "alemanha</w>": 8164,
      "Mais</w>": 8165,
      "itamente</w>": 8166,
      "leg</w>": 8167,
      "fire": 8168,
      "suspi": 8169,
      "vulner": 8170,
      "Di": 8171,
      "padrão</w>": 8172,
      "banho</w>": 8173,
      "attacked</w>": 8174,
      "results</w>": 8175,
      "treatment</w>": 8176,
      "profissional</w>": 8177,
      "Che": 8178,
      "fought</w>": 8179,
      "adm": 8180,
      "estrange": 8181,
      "cumpr": 8182,
      "sin</w>": 8183,
      "predi": 8184,
      "serei</w>": 8185,
      "jump</w>": 8186,
      "miu</w>": 8187,
      "trees</w>": 8188,
      "knife</w>": 8189,
      "pete</w>": 8190,
      "strike</w>": 8191,
      "dono</w>": 8192,
      "hes": 8193,
      "relax": 8194,
      "acabei</w>": 8195,
      "parceiro</w>": 8196,
      "deal": 8197,
      "watched</w>": 8198,
      "roubo</w>": 8199,
      "pressed</w>": 8200,
      "existence</w>": 8201,
      "autoridades</w>": 8202,
      "prints</w>": 8203,
      "listening</w>": 8204,
      "quilômetros</w>": 8205,
      "férias</w>": 8206,
      "protest": 8207,
      "plu": 8208,
      "wave</w>": 8209,
      "bitch</w>": 8210,
      "mystery</w>": 8211,
      "kiss</w>": 8212,
      "dil": 8213,
      "home": 8214,
      "bottle</w>": 8215,
      "esquerda</w>": 8216,
      "pega</w>": 8217,
      "identity</w>": 8218,
      "sarah</w>": 8219,
      "câncer</w>": 8220,
      "desire</w>": 8221,
      "artigo</w>": 8222,
      "Todo</w>": 8223,
      "ava": 8224,
      "coro": 8225,
      "carrying</w>": 8226,
      "difí": 8227,
      "authority</w>": 8228,
      "amy</w>": 8229,
      "bos": 8230,
      "shed</w>": 8231,
      "letters</w>": 8232,
      "orgulho": 8233,
      "Bo": 8234,
      "seriam</w>": 8235,
      "stayed</w>": 8236,
      "jason</w>": 8237,
      "kings</w>": 8238,
      "evit": 8239,
      "houses</w>": 8240,
      "page</w>": 8241,
      "mam</w>": 8242,
      "uras</w>": 8243,
      "aberto</w>": 8244,
      "queima": 8245,
      "matá</w>": 8246,
      "matters</w>": 8247,
      "cruel</w>": 8248,
      "incidente</w>": 8249,
      "mysterious</w>": 8250,
      "jardim</w>": 8251,
      "difíceis</w>": 8252,
      "hoo": 8253,
      "treated</w>": 8254,
      "intenção</w>": 8255,
      "organ": 8256,
      "dation</w>": 8257,
      "garden</w>": 8258,
      "defendant</w>": 8259,
      "ições</w>": 8260,
      "ouve</w>": 8261,
      "troops</w>": 8262,
      "testes</w>": 8263,
      "guardi": 8264,
      "excuse</w>": 8265,
      "distric": 8266,
      "falls</w>": 8267,
      "espacial</w>": 8268,
      "doctors</w>": 8269,
      "procura</w>": 8270,
      "mexico</w>": 8271,
      "An</w>": 8272,
      "edge</w>": 8273,
      "depos": 8274,
      "advis": 8275,
      "querendo</w>": 8276,
      "bury</w>": 8277,
      "estrat": 8278,
      "farei</w>": 8279,
      "candid": 8280,
      "chose</w>": 8281,
      "reported</w>": 8282,
      "emotional</w>": 8283,
      "discutir</w>": 8284,
      "Two</w>": 8285,
      "dança</w>": 8286,
      "lín": 8287,
      "alist</w>": 8288,
      "marty</w>": 8289,
      "relacion": 8290,
      "woods</w>": 8291,
      "atacar</w>": 8292,
      "árvores</w>": 8293,
      "alemães</w>": 8294,
      "levantar</w>": 8295,
      "sentence</w>": 8296,
      "crescer</w>": 8297,
      "registro</w>": 8298,
      "manif": 8299,
      "descoberta</w>": 8300,
      "cooper": 8301,
      "mentes</w>": 8302,
      "enem": 8303,
      "balls</w>": 8304,
      "higher</w>": 8305,
      "pedaços</w>": 8306,
      "adap": 8307,
      "dra</w>": 8308,
      "pse</w>": 8309,
      "lots</w>": 8310,
      "shoes</w>": 8311,
      "darkness</w>": 8312,
      "elétr": 8313,
      "onda</w>": 8314,
      "mbo</w>": 8315,
      "permite</w>": 8316,
      "tural</w>": 8317,
      "secreto</w>": 8318,
      "micro": 8319,
      "monstro</w>": 8320,
      "task</w>": 8321,
      "gigante</w>": 8322,
      "ski": 8323,
      "reci": 8324,
      "portanto</w>": 8325,
      "sinais</w>": 8326,
      "likes</w>": 8327,
      "idiotas</w>": 8328,
      "sad": 8329,
      "mans</w>": 8330,
      "disser</w>": 8331,
      "germany</w>": 8332,
      "complain": 8333,
      "ais": 8334,
      "kick</w>": 8335,
      "smal": 8336,
      "unifor": 8337,
      "understanding</w>": 8338,
      "dras</w>": 8339,
      "jornada</w>": 8340,
      "threw</w>": 8341,
      "conheceu</w>": 8342,
      "chris</w>": 8343,
      "saída</w>": 8344,
      "ryan</w>": 8345,
      "illegal</w>": 8346,
      "veí": 8347,
      "anti</w>": 8348,
      "Quem</w>": 8349,
      "dale</w>": 8350,
      "thur</w>": 8351,
      "demi": 8352,
      "proteg": 8353,
      "câmeras</w>": 8354,
      "assumir</w>": 8355,
      "israel</w>": 8356,
      "mix": 8357,
      "range</w>": 8358,
      "sal</w>": 8359,
      "slow</w>": 8360,
      "tidos</w>": 8361,
      "carried</w>": 8362,
      "atividade</w>": 8363,
      "play": 8364,
      "ideias</w>": 8365,
      "hunt</w>": 8366,
      "comprou</w>": 8367,
      "network</w>": 8368,
      "elizabeth</w>": 8369,
      "ay": 8370,
      "fred</w>": 8371,
      "iremos</w>": 8372,
      "escrito</w>": 8373,
      "dimen": 8374,
      "falo</w>": 8375,
      "visita</w>": 8376,
      "resultados</w>": 8377,
      "declaração</w>": 8378,
      "enemies</w>": 8379,
      "Li": 8380,
      "veter": 8381,
      "phy</w>": 8382,
      "conhecemos</w>": 8383,
      "player</w>": 8384,
      "perguntando</w>": 8385,
      "colega</w>": 8386,
      "autoriz": 8387,
      "protection</w>": 8388,
      "jackson</w>": 8389,
      "min</w>": 8390,
      "teca</w>": 8391,
      "querido</w>": 8392,
      "princí": 8393,
      "sequer</w>": 8394,
      "pada</w>": 8395,
      "grown</w>": 8396,
      "device</w>": 8397,
      "habilidades</w>": 8398,
      "fan</w>": 8399,
      "mad": 8400,
      "irmã": 8401,
      "peito</w>": 8402,
      "steps</w>": 8403,
      "bullet</w>": 8404,
      "highly</w>": 8405,
      "fts</w>": 8406,
      "libr": 8407,
      "atórios</w>": 8408,
      "pertur": 8409,
      "causar</w>": 8410,
      "deliver</w>": 8411,
      "assistente</w>": 8412,
      "tape</w>": 8413,
      "version</w>": 8414,
      "casal</w>": 8415,
      "colocá</w>": 8416,
      "amor": 8417,
      "falling</w>": 8418,
      "buscar</w>": 8419,
      "hired</w>": 8420,
      "danny</w>": 8421,
      "headed</w>": 8422,
      "educação</w>": 8423,
      "viajar</w>": 8424,
      "Sometimes</w>": 8425,
      "fying</w>": 8426,
      "services</w>": 8427,
      "deixei</w>": 8428,
      "easier</w>": 8429,
      "insurance</w>": 8430,
      "professional</w>": 8431,
      "alo": 8432,
      "tras</w>": 8433,
      "conc": 8434,
      "dering</w>": 8435,
      "fundos</w>": 8436,
      "ette</w>": 8437,
      "waste</w>": 8438,
      "owner</w>": 8439,
      "blame</w>": 8440,
      "histórico</w>": 8441,
      "correct</w>": 8442,
      "apologi": 8443,
      "....</w>": 8444,
      "ivo</w>": 8445,
      "soc": 8446,
      "ink</w>": 8447,
      "emper": 8448,
      "bay</w>": 8449,
      "produce</w>": 8450,
      "extremely</w>": 8451,
      "Pelo</w>": 8452,
      "ius</w>": 8453,
      "éis</w>": 8454,
      "ising</w>": 8455,
      "creating</w>": 8456,
      "culas</w>": 8457,
      "méxico</w>": 8458,
      "secrets</w>": 8459,
      "africa</w>": 8460,
      "custody</w>": 8461,
      "therap": 8462,
      "chuva</w>": 8463,
      "objeto</w>": 8464,
      "tropas</w>": 8465,
      "ministro</w>": 8466,
      "language</w>": 8467,
      "cate": 8468,
      "neither</w>": 8469,
      "strang": 8470,
      "mitted</w>": 8471,
      "rios</w>": 8472,
      "contrat": 8473,
      "visitar</w>": 8474,
      "marinha</w>": 8475,
      "Perhaps</w>": 8476,
      "kingdom</w>": 8477,
      "horrible</w>": 8478,
      "wre": 8479,
      "ull</w>": 8480,
      "population</w>": 8481,
      "tour": 8482,
      "bron": 8483,
      "ponte</w>": 8484,
      "imediatamente</w>": 8485,
      "vegas</w>": 8486,
      "process": 8487,
      "ssar": 8488,
      "experien": 8489,
      "descar": 8490,
      "prevent</w>": 8491,
      "decisões</w>": 8492,
      "ilable</w>": 8493,
      "atory</w>": 8494,
      "guas</w>": 8495,
      "countries</w>": 8496,
      "shape</w>": 8497,
      "Toda</w>": 8498,
      "pássar": 8499,
      "una</w>": 8500,
      "proper</w>": 8501,
      "dogs</w>": 8502,
      "ganhou</w>": 8503,
      "perguntou</w>": 8504,
      "ateful</w>": 8505,
      "normalmente</w>": 8506,
      "christian</w>": 8507,
      "football</w>": 8508,
      "glad</w>": 8509,
      "lulas</w>": 8510,
      "ater": 8511,
      "consciência</w>": 8512,
      "ix</w>": 8513,
      "non": 8514,
      "sword</w>": 8515,
      "cade": 8516,
      "occur": 8517,
      "vivos</w>": 8518,
      "servir</w>": 8519,
      "ket": 8520,
      "funcionários</w>": 8521,
      "influence</w>": 8522,
      "tém</w>": 8523,
      "maca": 8524,
      "facts</w>": 8525,
      "virgin": 8526,
      "perfectly</w>": 8527,
      "Those</w>": 8528,
      "ático</w>": 8529,
      "disco": 8530,
      "section</w>": 8531,
      "toward</w>": 8532,
      "cujo</w>": 8533,
      "artista</w>": 8534,
      "bull": 8535,
      "ouvido</w>": 8536,
      "madeira</w>": 8537,
      "criado</w>": 8538,
      "bunda</w>": 8539,
      "industry</w>": 8540,
      "scr": 8541,
      "ishing</w>": 8542,
      "pene": 8543,
      "organization</w>": 8544,
      "saud": 8545,
      "below</w>": 8546,
      "wan</w>": 8547,
      "tril": 8548,
      "ocup": 8549,
      "convid": 8550,
      "estarão</w>": 8551,
      "hel</w>": 8552,
      "decidi</w>": 8553,
      "advice</w>": 8554,
      "committee</w>": 8555,
      "segredos</w>": 8556,
      "available</w>": 8557,
      "Car": 8558,
      "pedras</w>": 8559,
      "agência</w>": 8560,
      "sino</w>": 8561,
      "mula</w>": 8562,
      "geralmente</w>": 8563,
      "therine</w>": 8564,
      "preparar</w>": 8565,
      "conditions</w>": 8566,
      "estrutura</w>": 8567,
      "io": 8568,
      "appli": 8569,
      "clock</w>": 8570,
      "secretary</w>": 8571,
      "licença</w>": 8572,
      "kore": 8573,
      "ender": 8574,
      "perform</w>": 8575,
      "everywhere</w>": 8576,
      "tivessem</w>": 8577,
      "arquivos</w>": 8578,
      "caça</w>": 8579,
      "occa": 8580,
      "joined</w>": 8581,
      "presentes</w>": 8582,
      "mesmas</w>": 8583,
      "pensam</w>": 8584,
      "border</w>": 8585,
      "distance</w>": 8586,
      "hers</w>": 8587,
      "ky": 8588,
      "enfi": 8589,
      "quick</w>": 8590,
      "happiness</w>": 8591,
[...]
