{
  "version": "1.0",
  "truncation": null,
  "padding": null,
  "added_tokens": [
    {
      "id": 0,
      "content": "<PAD>",
      "single_word": false,
      "lstrip": false,
      "rstrip": false,
      "normalized": false,
      "special": true
    },
    {
      "id": 1,
      "content": "<UNK>",
      "single_word": false,
      "lstrip": false,
      "rstrip": false,
      "normalized": false,
      "special": true
    },
    {
      "id": 2,
      "content": "<CLS>",
      "single_word": false,
      "lstrip": false,
      "rstrip": false,
      "normalized": false,
      "special": true
    },
    {
      "id": 3,
      "content": "<SEP>",
      "single_word": false,
      "lstrip": false,
      "rstrip": false,
      "normalized": false,
      "special": true
    },
    {
      "id": 4,
      "content": "<MASK>",
      "single_word": false,
      "lstrip": false,
      "rstrip": false,
      "normalized": false,
      "special": true
    },
    {
      "id": 5,
      "content": "<BOS>",
      "single_word": false,
      "lstrip": false,
      "rstrip": false,
      "normalized": false,
      "special": true
    },
    {
      "id": 6,
      "content": "<EOS>",
      "single_word": false,
      "lstrip": false,
      "rstrip": false,
      "normalized": false,
      "special": true
    }
  ],
  "normalizer": null,
  "pre_tokenizer": {
    "type": "Whitespace"
  },
  "post_processor": {
    "type": "TemplateProcessing",
    "single": [
      {
        "SpecialToken": {
          "id": "<BOS>",
          "type_id": 0
        }
      },
      {
        "Sequence": {
          "id": "A",
          "type_id": 0
        }
      },
      {
        "SpecialToken": {
          "id": "<EOS>",
          "type_id": 0
        }
      }
    ],
    "pair": [
      {
        "SpecialToken": {
          "id": "<BOS>",
          "type_id": 0
        }
      },
      {
        "Sequence": {
          "id": "A",
          "type_id": 0
        }
      },
      {
        "SpecialToken": {
          "id": "<SEP>",
          "type_id": 0
        }
      },
      {
        "Sequence": {
          "id": "B",
          "type_id": 1
        }
      },
      {
        "SpecialToken": {
          "id": "<EOS>",
          "type_id": 1
        }
      }
    ],
    "special_tokens": {
      "<BOS>": {
        "id": "<BOS>",
        "ids": [
          5
        ],
        "tokens": [
          "<BOS>"
        ]
      },
      "<EOS>": {
        "id": "<EOS>",
        "ids": [
          6
        ],
        "tokens": [
          "<EOS>"
        ]
      },
      "<SEP>": {
        "id": "<SEP>",
        "ids": [
          3
        ],
        "tokens": [
          "<SEP>"
        ]
      }
    }
  },
  "decoder": {
    "type": "BPEDecoder",
    "suffix": "</w>"
  },
  "model": {
    "type": "BPE",
    "dropout": null,
    "unk_token": "<UNK>",
    "continuing_subword_prefix": null,
    "end_of_word_suffix": "</w>",
    "fuse_unk": false,
    "byte_fallback": false,
    "ignore_merges": false,
    "vocab": {
      "<PAD>": 0,
      "<UNK>": 1,
      "<CLS>": 2,
      "<SEP>": 3,
      "<MASK>": 4,
      "<BOS>": 5,
      "<EOS>": 6,
      "!": 7,
      "\"": 8,
      "#": 9,
      "$": 10,
      "%": 11,
      "'": 12,
      "(": 13,
      ")": 14,
      "*": 15,
      "+": 16,
      ",": 17,
      "-": 18,
      ".": 19,
      "/": 20,
      "0": 21,
      "1": 22,
      "2": 23,
      "3": 24,
      "4": 25,
      "5": 26,
      "6": 27,
      "7": 28,
      "8": 29,
      "9": 30,
      ":": 31,
      ";": 32,
      "=": 33,
      "?": 34,
      "@": 35,
      "A": 36,
      "B": 37,
      "C": 38,
      "D": 39,
      "E": 40,
      "F": 41,
      "G": 42,
      "H": 43,
      "I": 44,
      "J": 45,
      "K": 46,
      "L": 47,
      "M": 48,
      "N": 49,
      "O": 50,
      "P": 51,
      "Q": 52,
      "R": 53,
      "S": 54,
      "T": 55,
      "U": 56,
      "V": 57,
      "W": 58,
      "X": 59,
      "Y": 60,
      "Z": 61,
      "[": 62,
      "\\": 63,
      "]": 64,
      "^": 65,
      "_": 66,
      "`": 67,
      "a": 68,
      "b": 69,
      "c": 70,
      "d": 71,
      "e": 72,
      "f": 73,
      "g": 74,
      "h": 75,
      "i": 76,
      "j": 77,
      "k": 78,
      "l": 79,
      "m": 80,
      "n": 81,
      "o": 82,
      "p": 83,
      "q": 84,
      "r": 85,
      "s": 86,
      "t": 87,
      "u": 88,
      "v": 89,
      "w": 90,
      "x": 91,
      "y": 92,
      "z": 93,
      "{": 94,
      "|": 95,
      "}": 96,
      "~": 97,
      "": 98,
      "": 99,
      "": 100,
      "": 101,
      "": 102,
      "": 103,
      "": 104,
      "": 105,
      "": 106,
      "": 107,
      "": 108,
      "": 109,
      "": 110,
      "": 111,
      "": 112,
      "": 113,
      "": 114,
      "": 115,
      "": 116,
      "": 117,
      "": 118,
      "": 119,
      "": 120,
      "": 121,
      "¡": 122,
      "¢": 123,
      "£": 124,
      "¤": 125,
      "¥": 126,
      "¦": 127,
      "§": 128,
      "¨": 129,
      "©": 130,
      "ª": 131,
      "¬": 132,
      "­": 133,
      "®": 134,
      "¯": 135,
      "°": 136,
      "±": 137,
      "²": 138,
      "³": 139,
      "´": 140,
      "µ": 141,
      "¶": 142,
      "·": 143,
      "¸": 144,
      "¹": 145,
      "º": 146,
      "¼": 147,
      "½": 148,
      "¾": 149,
      "¿": 150,
      "À": 151,
      "Á": 152,
      "Â": 153,
      "Ã": 154,
      "Ä": 155,
      "Å": 156,
      "Ç": 157,
      "È": 158,
      "É": 159,
      "Ê": 160,
      "Ë": 161,
      "Ì": 162,
      "Í": 163,
      "Î": 164,
      "Ï": 165,
      "Ð": 166,
      "Ñ": 167,
      "Ò": 168,
      "Ó": 169,
      "Ô": 170,
      "Ö": 171,
      "×": 172,
      "Ø": 173,
      "Ú": 174,
      "Ý": 175,
      "ß": 176,
      "à": 177,
      "á": 178,
      "â": 179,
      "ã": 180,
      "ä": 181,
      "å": 182,
      "æ": 183,
      "ç": 184,
      "è": 185,
      "é": 186,
      "ê": 187,
      "ë": 188,
      "ì": 189,
      "í": 190,
      "î": 191,
      "ï": 192,
      "ð": 193,
      "ñ": 194,
      "ò": 195,
      "ó": 196,
      "ô": 197,
      "õ": 198,
      "ö": 199,
      "ø": 200,
      "ù": 201,
      "ú": 202,
      "û": 203,
      "ü": 204,
      "ý": 205,
      "þ": 206,
      "ÿ": 207,
      "ā": 208,
      "ă": 209,
      "ć": 210,
      "č": 211,
      "ď": 212,
      "ē": 213,
      "ė": 214,
      "ę": 215,
      "ě": 216,
      "Ī": 217,
      "ī": 218,
      "İ": 219,
      "ı": 220,
      "ł": 221,
      "ń": 222,
      "ň": 223,
      "ō": 224,
      "ő": 225,
      "Œ": 226,
      "œ": 227,
      "ř": 228,
      "ś": 229,
      "ŝ": 230,
      "Ş": 231,
      "ş": 232,
      "š": 233,
      "ũ": 234,
      "ů": 235,
      "ű": 236,
      "ź": 237,
      "ż": 238,
      "ž": 239,
      "ƒ": 240,
      "ư": 241,
      "ʼ": 242,
      "ˆ": 243,
      "̶": 244,
      "΄": 245,
      "Ώ": 246,
      "Α": 247,
      "Β": 248,
      "Ε": 249,
      "Η": 250,
      "Ι": 251,
      "Κ": 252,
      "Μ": 253,
      "Ν": 254,
      "Τ": 255,
      "Υ": 256,
      "έ": 257,
      "ή": 258,
      "α": 259,
      "β": 260,
      "δ": 261,
      "ε": 262,
      "η": 263,
      "ι": 264,
      "κ": 265,
      "μ": 266,
      "ν": 267,
      "ο": 268,
      "ρ": 269,
      "ς": 270,
      "σ": 271,
      "τ": 272,
      "υ": 273,
      "ϊ": 274,
      "ό": 275,
      "ώ": 276,
      "Ї": 277,
      "Ј": 278,
      "Ў": 279,
      "А": 280,
      "В": 281,
      "Й": 282,
      "М": 283,
      "Н": 284,
      "О": 285,
      "Р": 286,
      "С": 287,
      "Т": 288,
      "У": 289,
      "Ъ": 290,
      "а": 291,
      "б": 292,
      "в": 293,
      "г": 294,
      "д": 295,
      "е": 296,
      "ж": 297,
      "з": 298,
      "и": 299,
      "й": 300,
      "л": 301,
      "м": 302,
      "н": 303,
      "о": 304,
      "п": 305,
      "р": 306,
      "с": 307,
      "т": 308,
      "у": 309,
      "х": 310,
      "ъ": 311,
      "ы": 312,
      "ь": 313,
      "ё": 314,
      "є": 315,
      "ї": 316,
      "ј": 317,
      "њ": 318,
      "ў": 319,
      "Ґ": 320,
      "ґ": 321,
      "ב": 322,
      "י": 323,
      "ب": 324,
      "ـ": 325,
      "م": 326,
      "ن": 327,
      "و": 328,
      "ى": 329,
      "ي": 330,
      "ٌ": 331,
      "ُ": 332,
      "ٹ": 333,
      "ڑ": 334,
      "ẞ": 335,
      "ạ": 336,
      "​": 337,
      "‎": 338,
      "‐": 339,
      "‒": 340,
      "–": 341,
      "—": 342,
      "―": 343,
      "‚": 344,
      "†": 345,
      "•": 346,
      "‪": 347,
      "‬": 348,
      "‭": 349,
      "‰": 350,
      "₤": 351,
      "₩": 352,
      "€": 353,
      "№": 354,
      "™": 355,
      "Ω": 356,
      "⅔": 357,
      "≥": 358,
      "─": 359,
      "│": 360,
      "●": 361,
      "☻": 362,
      "♪": 363,
      "♫": 364,
      "抎": 365,
      "抯": 366,
      "抰": 367,
      "檛": 368,
      "瀽": 369,
      "炄": 370,
      "郀": 371,
      "鈥": 372,
      "": 373,
      "ﬁ": 374,
      "ﬂ": 375,
      "﻿": 376,
      "￡": 377,
      "￩": 378,
      "�": 379,
      "e</w>": 380,
      "s</w>": 381,
      "a</w>": 382,
      "u</w>": 383,
      "r</w>": 384,
      "m</w>": 385,
      "g</w>": 386,
      "l</w>": 387,
      "y</w>": 388,
      "o</w>": 389,
      "i</w>": 390,
      "h</w>": 391,
      "t</w>": 392,
      "n</w>": 393,
      "c</w>": 394,
      "f</w>": 395,
      "é</w>": 396,
      "p</w>": 397,
      "k</w>": 398,
      "d</w>": 399,
      "á</w>": 400,
      "z</w>": 401,
      "4</w>": 402,
      "v</w>": 403,
      "|</w>": 404,
      "b</w>": 405,
      ".</w>": 406,
      "ç</w>": 407,
      "x</w>": 408,
      "0</w>": 409,
      "q</w>": 410,
      "1</w>": 411,
      "±</w>": 412,
      "º</w>": 413,
      "w</w>": 414,
      "ê</w>": 415,
      "2</w>": 416,
      "ô</w>": 417,
      "5</w>": 418,
      "6</w>": 419,
      "8</w>": 420,
      "í</w>": 421,
      "9</w>": 422,
      "è</w>": 423,
      "</w>": 424,
      "?</w>": 425,
      "ã</w>": 426,
      "ª</w>": 427,
      "j</w>": 428,
      "7</w>": 429,
      "ú</w>": 430,
      "3</w>": 431,
      "T</w>": 432,
      "ο</w>": 433,
      "/</w>": 434,
      "â</w>": 435,
      "œ</w>": 436,
      "ö</w>": 437,
      "ó</w>": 438,
      "à</w>": 439,
      "³</w>": 440,
      "#</w>": 441,
      "'</w>": 442,
      "¶</w>": 443,
      "½</w>": 444,
      "ð</w>": 445,
      ",</w>": 446,
      "№</w>": 447,
      "ë</w>": 448,
      "À</w>": 449,
      "</w>": 450,
      "―</w>": 451,
      "î</w>": 452,
      "ü</w>": 453,
      "Ý</w>": 454,
      "¹</w>": 455,
      "E</w>": 456,
      "æ</w>": 457,
      "$</w>": 458,
      "²</w>": 459,
      ")</w>": 460,
      "ρ</w>": 461,
      "!</w>": 462,
      "¯</w>": 463,
      "т</w>": 464,
      "-</w>": 465,
      "─</w>": 466,
      "ï</w>": 467,
      "е</w>": 468,
      "û</w>": 469,
      "¸</w>": 470,
      "(</w>": 471,
      "]</w>": 472,
      "ι</w>": 473,
      "ű</w>": 474,
      "г</w>": 475,
      "´</w>": 476,
      ";</w>": 477,
      "ò</w>": 478,
      "н</w>": 479,
      ":</w>": 480,
      "у</w>": 481,
      "￡</w>": 482,
      "\"</w>": 483,
      "ì</w>": 484,
      "ý</w>": 485,
      "Α</w>": 486,
      "—</w>": 487,
      "й</w>": 488,
      "£</w>": 489,
      "≥</w>": 490,
      "Í</w>": 491,
      "б</w>": 492,
      "š</w>": 493,
      "+</w>": 494,
      "_</w>": 495,
      "р</w>": 496,
      "©</w>": 497,
      "%</w>": 498,
      "¿</w>": 499,
      "о</w>": 500,
      "抰</w>": 501,
      "​</w>": 502,
      "X</w>": 503,
      "‐</w>": 504,
      "°</w>": 505,
      "ñ</w>": 506,
      "õ</w>": 507,
      "а</w>": 508,
      "^</w>": 509,
      "¬</w>": 510,
      "郀</w>": 511,
      "Ä</w>": 512,
      "*</w>": 513,
      "¡</w>": 514,
      "ź</w>": 515,
      "ù</w>": 516,
      "¤</w>": 517,
      "`</w>": 518,
      "ä</w>": 519,
      "﻿</w>": 520,
      "~</w>": 521,
      "W</w>": 522,
      "R</w>": 523,
      "υ</w>": 524,
      "Ë</w>": 525,
      "P</w>": 526,
      "ς</w>": 527,
      "♪</w>": 528,
      "м</w>": 529,
      "檛</w>": 530,
      "Ê</w>": 531,
      "�</w>": 532,
      "Ï</w>": 533,
      "κ</w>": 534,
      "</w>": 535,
      "</w>": 536,
      "Υ</w>": 537,
      "с</w>": 538,
      "‭</w>": 539,
      "و</w>": 540,
      "В</w>": 541,
      "抯</w>": 542,
      "ό</w>": 543,
      "Y</w>": 544,
      "=</w>": 545,
      "в</w>": 546,
      "</w>": 547,
      "[</w>": 548,
      "</w>": 549,
      "†</w>": 550,
      "¨</w>": 551,
      "‬</w>": 552,
      "Â</w>": 553,
      "A</w>": 554,
      "}</w>": 555,
      "ć</w>": 556,
      "¥</w>": 557,
      "–</w>": 558,
      "ś</w>": 559,
      "●</w>": 560,
      "ė</w>": 561,
      "K</w>": 562,
      "ō</w>": 563,
      "</w>": 564,
      "ů</w>": 565,
      "ę</w>": 566,
      "·</w>": 567,
      "B</w>": 568,
      "ø</w>": 569,
      "</w>": 570,
      "\\</w>": 571,
      "ă</w>": 572,
      "ž</w>": 573,
      "O</w>": 574,
      "M</w>": 575,
      "י</w>": 576,
      "L</w>": 577,
      "å</w>": 578,
      "</w>": 579,
      "</w>": 580,
      "⅔</w>": 581,
      "É</w>": 582,
      "D</w>": 583,
      "ß</w>": 584,
      "ő</w>": 585,
      "I</w>": 586,
      "Ç</w>": 587,
      "΄</w>": 588,
      "@</w>": 589,
      "</w>": 590,
      "ב</w>": 591,
      "þ</w>": 592,
      "U</w>": 593,
      "ÿ</w>": 594,
      "‪</w>": 595,
      "Q</w>": 596,
      "¢</w>": 597,
      "­</w>": 598,
      "</w>": 599,
      "♫</w>": 600,
      "G</w>": 601,
      "®</w>": 602,
      "抎</w>": 603,
      "ى</w>": 604,
      "F</w>": 605,
      "ı</w>": 606,
      "</w>": 607,
      "‚</w>": 608,
      "</w>": 609,
      "₤</w>": 610,
      "ή</w>": 611,
      "ـ</w>": 612,
      "{</w>": 613,
      "S</w>": 614,
      "H</w>": 615,
      "</w>": 616,
      "</w>": 617,
      "™</w>": 618,
      "¦</w>": 619,
      "Й</w>": 620,
      "Á</w>": 621,
      "ب</w>": 622,
      "ạ</w>": 623,
      "¾</w>": 624,
      "х</w>": 625,
      "α</w>": 626,
      "È</w>": 627,
      "ī</w>": 628,
      "§</w>": 629,
      "ē</w>": 630,
      "N</w>": 631,
      "</w>": 632,
      "ь</w>": 633,
      "J</w>": 634,
      "</w>": 635,
      "δ</w>": 636,
      "Z</w>": 637,
      "Ω</w>": 638,
      "</w>": 639,
      "¼</w>": 640,
      "̶</w>": 641,
      "п</w>": 642,
      "ي</w>": 643,
      "Ў</w>": 644,
      "</w>": 645,
      "Ó</w>": 646,
      "Ô</w>": 647,
      "‒</w>": 648,
      "</w>": 649,
      "Ã</w>": 650,
      "</w>": 651,
      "V</w>": 652,
      "µ</w>": 653,
      "є</w>": 654,
      "</w>": 655,
      "ٹ</w>": 656,
      "Μ</w>": 657,
      "ڑ</w>": 658,
      "C</w>": 659,
      "σ</w>": 660,
      "ъ</w>": 661,
      "‰</w>": 662,
      "€</w>": 663,
      "￩</w>": 664,
      "Ñ</w>": 665,
      "ﬂ</w>": 666,
      "ϊ</w>": 667,
      "</w>": 668,
      "م</w>": 669,
      "‎</w>": 670,
      "•</w>": 671,
      "th": 672,
      "in": 673,
      "an": 674,
      "er": 675,
      "ar": 676,
      "qu": 677,
      "ou</w>": 678,
      "es": 679,
      "en": 680,
      "co": 681,
      "er</w>": 682,
      "to</w>": 683,
      "ão</w>": 684,
      "ou": 685,
      "el": 686,
      "do</w>": 687,
      "as</w>": 688,
      "or": 689,
      "al": 690,
      "you</w>": 691,
      "de</w>": 692,
      "que</w>": 693,
      "os</w>": 694,
      "the</w>": 695,
      "is</w>": 696,
      "is": 697,
      "me</w>": 698,
      "ar</w>": 699,
      "re": 700,
      "ha": 701,
      "or</w>": 702,
      "on": 703,
      "em</w>": 704,
      "oc": 705,
      "ing</w>": 706,
      "es</w>": 707,
      "est": 708,
      "se</w>": 709,
      "on</w>": 710,
      "it": 711,
      "ve</w>": 712,
      "no": 713,
      "ca": 714,
      "ma": 715,
      "st": 716,
      "se": 717,
      "ri": 718,
      "di": 719,
      "ocê</w>": 720,
      "não</w>": 721,
      "ra": 722,
      "ti": 723,
      "de": 724,
      "par": 725,
      "da</w>": 726,
      "at</w>": 727,
      "am": 728,
      "in</w>": 729,
      "ro": 730,
      "me": 731,
      "it</w>": 732,
      "il": 733,
      "te</w>": 734,
      "he</w>": 735,
      "ed</w>": 736,
      "ch": 737,
      "..": 738,
      "li": 739,
      "so</w>": 740,
      "um</w>": 741,
      "sa": 742,
      "ma</w>": 743,
      "...</w>": 744,
      "le": 745,
      "re</w>": 746,
      "po": 747,
      "você</w>": 748,
      "and</w>": 749,
      "ere</w>": 750,
      "gu": 751,
      "of</w>": 752,
      "en</w>": 753,
      "eu</w>": 754,
      "ia</w>": 755,
      "su": 756,
      "con": 757,
      "go": 758,
      "as": 759,
      "that</w>": 760,
      "ho": 761,
      "ic": 762,
      "ac": 763,
      "so": 764,
      "para</w>": 765,
      "le</w>": 766,
      "at": 767,
      "ir": 768,
      "un": 769,
      "im</w>": 770,
      "be</w>": 771,
      "be": 772,
      "to": 773,
      "ke</w>": 774,
      "our</w>": 775,
      "us": 776,
      "lo": 777,
      "hat</w>": 778,
      "gh": 779,
      "com": 780,
      "da": 781,
      "tr": 782,
      "te": 783,
      "uma</w>": 784,
      "go</w>": 785,
      "for</w>": 786,
      "ho</w>": 787,
      "You</w>": 788,
      "com</w>": 789,
      "he": 790,
      "ld</w>": 791,
      "fa": 792,
      "pe": 793,
      "bo": 794,
      "ver": 795,
      "ando</w>": 796,
      "out</w>": 797,
      "vi": 798,
      "ght</w>": 799,
      "ta": 800,
      "ha</w>": 801,
      "ver</w>": 802,
      "et</w>": 803,
      "now</w>": 804,
      "mu": 805,
      "ne": 806,
      "have</w>": 807,
      "pr": 808,
      "no</w>": 809,
      "here</w>": 810,
      "my</w>": 811,
      "per": 812,
      "ele</w>": 813,
      "ut</w>": 814,
      "ur": 815,
      "do": 816,
      "this</w>": 817,
      "pa": 818,
      "your</w>": 819,
      "ll</w>": 820,
      "ent": 821,
      "ell</w>": 822,
      "ab": 823,
      "an</w>": 824,
      "al</w>": 825,
      "min": 826,
      "está</w>": 827,
      "one</w>": 828,
      "ta</w>": 829,
      "ter</w>": 830,
      "we</w>": 831,
      "Não</w>": 832,
      "mp": 833,
      "na</w>": 834,
      "ve": 835,
      "ce</w>": 836,
      "ith</w>": 837,
      "ag": 838,
      "mos</w>": 839,
      "ly</w>": 840,
      "isso</w>": 841,
      "was</w>": 842,
      "si": 843,
      "all</w>": 844,
      "Eu</w>": 845,
      "ci": 846,
      "us</w>": 847,
      "am</w>": 848,
      "with</w>": 849,
      "sa</w>": 850,
      "ust</w>": 851,
      "mo": 852,
      "por</w>": 853,
      "don</w>": 854,
      "for": 855,
      "Você</w>": 856,
      "are</w>": 857,
      "ol": 858,
      "not</w>": 859,
      "mor": 860,
      "ill</w>": 861,
      "ey</w>": 862,
      "can</w>": 863,
      "ente</w>": 864,
      "amos</w>": 865,
      "ito</w>": 866,
      "la": 867,
      "wa": 868,
      "what</w>": 869,
      "know</w>": 870,
      "aqu": 871,
      "nd</w>": 872,
      "ela</w>": 873,
      "thing</w>": 874,
      "pro": 875,
      "ir</w>": 876,
      "wan": 877,
      "ther</w>": 878,
      "ora</w>": 879,
      "ul": 880,
      "car": 881,
      "fe": 882,
      "va</w>": 883,
      "ad": 884,
      "mas</w>": 885,
      "zer</w>": 886,
      "pen": 887,
      "mais</w>": 888,
      "get</w>": 889,
      "fo": 890,
      "pre": 891,
      "like</w>": 892,
      "ter": 893,
      "wh": 894,
      "ex": 895,
      "thin": 896,
      "ten": 897,
      "man": 898,
      "sh": 899,
      "him</w>": 900,
      "his</w>": 901,
      "her</w>": 902,
      "va": 903,
      "It</w>": 904,
      "ran": 905,
      "dos</w>": 906,
      "fi": 907,
      "des": 908,
      "tra": 909,
      "men": 910,
      "Qu": 911,
      "como</w>": 912,
      "mb": 913,
      "ch</w>": 914,
      "aqui</w>": 915,
      "tem</w>": 916,
      "just</w>": 917,
      "dis": 918,
      "ém</w>": 919,
      "mo</w>": 920,
      "seu</w>": 921,
      "sen": 922,
      "fic": 923,
      "na": 924,
      "about</w>": 925,
      "lu": 926,
      "co</w>": 927,
      "mar": 928,
      "up</w>": 929,
      "The</w>": 930,
      "man</w>": 931,
      "der": 932,
      "quer": 933,
      "Est": 934,
      "And</w>": 935,
      "tu": 936,
      "wor": 937,
      "ould</w>": 938,
      "ça</w>": 939,
      "ei</w>": 940,
      "muito</w>": 941,
      "ix": 942,
      "sua</w>": 943,
      "ra</w>": 944,
      "We</w>": 945,
      "there</w>": 946,
      "got</w>": 947,
      "jo": 948,
      "ru": 949,
      "but</w>": 950,
      "sso</w>": 951,
      "la</w>": 952,
      "ca</w>": 953,
      "will</w>": 954,
      "gi": 955,
      "dn</w>": 956,
      "ção</w>": 957,
      "want</w>": 958,
      "id</w>": 959,
      "meu</w>": 960,
      "vai</w>": 961,
      "king</w>": 962,
      "od</w>": 963,
      "res": 964,
      "they</w>": 965,
      "ado</w>": 966,
      "fu": 967,
      "bem</w>": 968,
      "He</w>": 969,
      "dy</w>": 970,
      "ite</w>": 971,
      "ok</w>": 972,
      "ack</w>": 973,
      "think</w>": 974,
      "fal": 975,
      "ys</w>": 976,
      "ni": 977,
      "ts</w>": 978,
      "ds</w>": 979,
      "der</w>": 980,
      "\".</w>": 981,
      "right</w>": 982,
      "gar</w>": 983,
      "way</w>": 984,
      "tão</w>": 985,
      "wn</w>": 986,
      "cor": 987,
      "st</w>": 988,
      "if</w>": 989,
      "pl": 990,
      "ser": 991,
      "cu": 992,
      "iro</w>": 993,
      "Mas</w>": 994,
      "cer": 995,
      "she</w>": 996,
      "che": 997,
      "tar</w>": 998,
      "cois": 999,
      "por": 1000,
      "see</w>": 1001,
      "ser</w>": 1002,
      "ad</w>": 1003,
      "ge</w>": 1004,
      "ass": 1005,
      "ry</w>": 1006,
      "some": 1007,
      "hor</w>": 1008,
      "ro</w>": 1009,
      "Well</w>": 1010,
      "fin": 1011,
      "how</w>": 1012,
      "But</w>": 1013,
      "time</w>": 1014,
      "rom</w>": 1015,
      "Ele</w>": 1016,
      "ach": 1017,
      "tal": 1018,
      "minha</w>": 1019,
      "ava</w>": 1020,
      "foi</w>": 1021,
      "Co": 1022,
      "mes": 1023,
      "pode</w>": 1024,
      "mon": 1025,
      "vez</w>": 1026,
      "from</w>": 1027,
      "cis": 1028,
      "mi": 1029,
      "ow</w>": 1030,
      "lo</w>": 1031,
      "ce": 1032,
      "has</w>": 1033,
      "gar": 1034,
      "fazer</w>": 1035,
      "Oh</w>": 1036,
      "pi": 1037,
      "come</w>": 1038,
      "of": 1039,
      "dade</w>": 1040,
      "ju": 1041,
      "el</w>": 1042,
      "dar</w>": 1043,
      "eles</w>": 1044,
      "op": 1045,
      "ess</w>": 1046,
      "ga</w>": 1047,
      "th</w>": 1048,
      "algu": 1049,
      "vol": 1050,
      "quer</w>": 1051,
      "What</w>": 1052,
      "fe</w>": 1053,
      "we": 1054,
      "lea": 1055,
      "esse</w>": 1056,
      "vo</w>": 1057,
      "cha": 1058,
      "ent</w>": 1059,
      "ks</w>": 1060,
      "ós</w>": 1061,
      "ês</w>": 1062,
      "vou</w>": 1063,
      "That</w>": 1064,
      "tin": 1065,
      "ge": 1066,
      "endo</w>": 1067,
      "back</w>": 1068,
      "ong</w>": 1069,
      "cou": 1070,
      "mis": 1071,
      "tes</w>": 1072,
      "them</w>": 1073,
      "take</w>": 1074,
      "nos</w>": 1075,
      "du": 1076,
      "esta</w>": 1077,
      "very</w>": 1078,
      "ev": 1079,
      "sei</w>": 1080,
      "any": 1081,
      "são</w>": 1082,
      "segu": 1083,
      "day</w>": 1084,
      "bre</w>": 1085,
      "ard</w>": 1086,
      "been</w>": 1087,
      "pri": 1088,
      "eli": 1089,
      "had</w>": 1090,
      "Se</w>": 1091,
      "ao</w>": 1092,
      "itt": 1093,
      "did</w>": 1094,
      "ba": 1095,
      "ga": 1096,
      "mel": 1097,
      "temp": 1098,
      "das</w>": 1099,
      "br": 1100,
      "outr": 1101,
      "good</w>": 1102,
      "disse</w>": 1103,
      "Wh": 1104,
      "by</w>": 1105,
      "real": 1106,
      "agora</w>": 1107,
      "pres": 1108,
      "deix": 1109,
      "tudo</w>": 1110,
      "era</w>": 1111,
      "were</w>": 1112,
      "ja</w>": 1113,
      "hey</w>": 1114,
      "gh</w>": 1115,
      "use</w>": 1116,
      "ast</w>": 1117,
      "ted</w>": 1118,
      "more</w>": 1119,
      "Bem</w>": 1120,
      "En": 1121,
      "aria</w>": 1122,
      "tt": 1123,
      "tion</w>": 1124,
      "só</w>": 1125,
      "tan": 1126,
      "tell</w>": 1127,
      "col": 1128,
      "going</w>": 1129,
      "quando</w>": 1130,
      "hap": 1131,
      "gs</w>": 1132,
      "fil": 1133,
      "gra": 1134,
      "sin": 1135,
      "would</w>": 1136,
      "ay</w>": 1137,
      "when</w>": 1138,
      "dizer</w>": 1139,
      "mim</w>": 1140,
      "bu": 1141,
      "bri": 1142,
      "pe</w>": 1143,
      "pes": 1144,
      "bal": 1145,
      "didn</w>": 1146,
      "could</w>": 1147,
      "who</w>": 1148,
      "estava</w>": 1149,
      "gon": 1150,
      "son</w>": 1151,
      "sobre</w>": 1152,
      "sel": 1153,
      "tos</w>": 1154,
      "amb": 1155,
      "No</w>": 1156,
      "cre": 1157,
      "fri": 1158,
      "estou</w>": 1159,
      "never</w>": 1160,
      "fer": 1161,
      "io</w>": 1162,
      "est</w>": 1163,
      "este</w>": 1164,
      "unca</w>": 1165,
      "ira</w>": 1166,
      "say</w>": 1167,
      "ound</w>": 1168,
      "tenho</w>": 1169,
      "precis": 1170,
      "coisa</w>": 1171,
      "lá</w>": 1172,
      "They</w>": 1173,
      "les</w>": 1174,
      "let</w>": 1175,
      "lhe</w>": 1176,
      "ess": 1177,
      "some</w>": 1178,
      "tter</w>": 1179,
      "dia</w>": 1180,
      "ye": 1181,
      "If</w>": 1182,
      "ace</w>": 1183,
      "can": 1184,
      "bi": 1185,
      "inda</w>": 1186,
      "que": 1187,
      "vamos</w>": 1188,
      "igo</w>": 1189,
      "av": 1190,
      "too</w>": 1191,
      "ah</w>": 1192,
      "Por</w>": 1193,
      "ço</w>": 1194,
      "tur": 1195,
      "This</w>": 1196,
      "af": 1197,
      "hor": 1198,
      "gonna</w>": 1199,
      "nada</w>": 1200,
      "cul": 1201,
      "ck</w>": 1202,
      "lar": 1203,
      "cia</w>": 1204,
      "sabe</w>": 1205,
      "ying</w>": 1206,
      "where</w>": 1207,
      "emos</w>": 1208,
      "tempo</w>": 1209,
      "ers</w>": 1210,
      "há</w>": 1211,
      "ittle</w>": 1212,
      "im": 1213,
      "sr</w>": 1214,
      "ke": 1215,
      "ine</w>": 1216,
      "mr</w>": 1217,
      "body</w>": 1218,
      "other</w>": 1219,
      "ap": 1220,
      "De": 1221,
      "cal": 1222,
      "ked</w>": 1223,
      "ought</w>": 1224,
      "tor</w>": 1225,
      "Es": 1226,
      "little</w>": 1227,
      "mã": 1228,
      "quero</w>": 1229,
      "pu": 1230,
      "make</w>": 1231,
      "our": 1232,
      "pos": 1233,
      "ist": 1234,
      "noite</w>": 1235,
      "Th": 1236,
      "casa</w>": 1237,
      "ita</w>": 1238,
      "She</w>": 1239,
      "din": 1240,
      "ough</w>": 1241,
      "gre": 1242,
      "cri": 1243,
      "ep</w>": 1244,
      "elo</w>": 1245,
      "dan": 1246,
      "sed</w>": 1247,
      "pare": 1248,
      "imp": 1249,
      "já</w>": 1250,
      "something</w>": 1251,
      "nic": 1252,
      "nós</w>": 1253,
      "sab": 1254,
      "bar": 1255,
      "only</w>": 1256,
      "id": 1257,
      "tw": 1258,
      "any</w>": 1259,
      "cause</w>": 1260,
      "sou</w>": 1261,
      "estão</w>": 1262,
      "ain</w>": 1263,
      "ven": 1264,
      "hel": 1265,
      "indo</w>": 1266,
      "melhor</w>": 1267,
      "pai</w>": 1268,
      "vel</w>": 1269,
      "well</w>": 1270,
      "onde</w>": 1271,
      "mil": 1272,
      "rio</w>": 1273,
      "hom": 1274,
      "hu": 1275,
      "sor": 1276,
      "00</w>": 1277,
      "down</w>": 1278,
      "Po": 1279,
      "je": 1280,
      "nunca</w>": 1281,
      "end</w>": 1282,
      "ambém</w>": 1283,
      "chan": 1284,
      "Então</w>": 1285,
      "wi": 1286,
      "said</w>": 1287,
      "essa</w>": 1288,
      "pesso": 1289,
      "why</w>": 1290,
      "esper": 1291,
      "prob": 1292,
      "give</w>": 1293,
      "pou": 1294,
      "até</w>": 1295,
      "Ela</w>": 1296,
      "mesmo</w>": 1297,
      "tor": 1298,
      "tri": 1299,
      "vida</w>": 1300,
      "minu": 1301,
      "over</w>": 1302,
      "look</w>": 1303,
      "ocês</w>": 1304,
      "fav": 1305,
      "ble</w>": 1306,
      "vo": 1307,
      "tar": 1308,
      "very": 1309,
      "esti": 1310,
      "posso</w>": 1311,
      "mpre</w>": 1312,
      "cer</w>": 1313,
      "ria</w>": 1314,
      "led</w>": 1315,
      "homem</w>": 1316,
      "ese</w>": 1317,
      "must</w>": 1318,
      "off</w>": 1319,
      ".\".</w>": 1320,
      "So</w>": 1321,
      "should</w>": 1322,
      "quem</w>": 1323,
      "new</w>": 1324,
      "Now</w>": 1325,
      "anto</w>": 1326,
      "ada</w>": 1327,
      "trabal": 1328,
      "spe": 1329,
      "ber": 1330,
      "There</w>": 1331,
      "Sim</w>": 1332,
      "assim</w>": 1333,
      "mente</w>": 1334,
      "cap": 1335,
      "au": 1336,
      "ty</w>": 1337,
      "contr": 1338,
      "sim</w>": 1339,
      "também</w>": 1340,
      "har": 1341,
      "ople</w>": 1342,
      "ante</w>": 1343,
      "inha</w>": 1344,
      "gost": 1345,
      "car</w>": 1346,
      "mer": 1347,
      "ling</w>": 1348,
      "algo</w>": 1349,
      "guém</w>": 1350,
      "pra</w>": 1351,
      "gran": 1352,
      "ficar</w>": 1353,
      "om</w>": 1354,
      "ig": 1355,
      "wo": 1356,
      "need</w>": 1357,
      "vis": 1358,
      "ões</w>": 1359,
      "todos</w>": 1360,
      "self</w>": 1361,
      "eve</w>": 1362,
      "antes</w>": 1363,
      "much</w>": 1364,
      "fir": 1365,
      "ving</w>": 1366,
      "ever</w>": 1367,
      "love</w>": 1368,
      "then</w>": 1369,
      "ele": 1370,
      "conhe": 1371,
      "anos</w>": 1372,
      "gen": 1373,
      "conte": 1374,
      "bom</w>": 1375,
      "impor": 1376,
      "vel": 1377,
      "into</w>": 1378,
      "faz": 1379,
      "the": 1380,
      "really</w>": 1381,
      "fam": 1382,
      "than</w>": 1383,
      "two</w>": 1384,
      "tas</w>": 1385,
      "night</w>": 1386,
      "aju": 1387,
      "people</w>": 1388,
      "pla": 1389,
      "mul": 1390,
      "ainda</w>": 1391,
      "ger</w>": 1392,
      "Ach": 1393,
      "fore</w>": 1394,
      "po</w>": 1395,
      "sal": 1396,
      "loo": 1397,
      "stu": 1398,
      "poder": 1399,
      "falar</w>": 1400,
      "ct</w>": 1401,
      "pas": 1402,
      "han": 1403,
      "sho": 1404,
      "sempre</w>": 1405,
      "Why</w>": 1406,
      "Ma": 1407,
      "ons</w>": 1408,
      "mun": 1409,
      "mber</w>": 1410,
      "ous</w>": 1411,
      "senhor</w>": 1412,
      "ars</w>": 1413,
      "come": 1414,
      "ind</w>": 1415,
      "ways</w>": 1416,
      "gan": 1417,
      "heiro</w>": 1418,
      "cont": 1419,
      "favor</w>": 1420,
      "How</w>": 1421,
      "fr": 1422,
      "hou": 1423,
      "ves</w>": 1424,
      "mãe</w>": 1425,
      "ning</w>": 1426,
      "Ag": 1427,
      "Vamos</w>": 1428,
      "den": 1429,
      "aconte": 1430,
      "nos": 1431,
      "ban": 1432,
      "hos</w>": 1433,
      "Al": 1434,
      "acho</w>": 1435,
      "ybe</w>": 1436,
      "val": 1437,
      "better</w>": 1438,
      "za</w>": 1439,
      "every": 1440,
      "life</w>": 1441,
      "oun": 1442,
      "pouco</w>": 1443,
      "still</w>": 1444,
      "Como</w>": 1445,
      "dre": 1446,
      "ido</w>": 1447,
      "ding</w>": 1448,
      "ot</w>": 1449,
      "before</w>": 1450,
      "won</w>": 1451,
      "bre": 1452,
      "sure</w>": 1453,
      "Agora</w>": 1454,
      "star": 1455,
      "pois</w>": 1456,
      "ree</w>": 1457,
      "seus</w>": 1458,
      "coisas</w>": 1459,
      "Par": 1460,
      "even</w>": 1461,
      "hi": 1462,
      "bro": 1463,
      "deve</w>": 1464,
      "cab": 1465,
      "lease</w>": 1466,
      "gir": 1467,
      "old</w>": 1468,
      "sp": 1469,
      "rá": 1470,
      "ft</w>": 1471,
      "men</w>": 1472,
      "Don</w>": 1473,
      "vocês</w>": 1474,
      "dele</w>": 1475,
      "lugar</w>": 1476,
      "ish</w>": 1477,
      "gun": 1478,
      "então</w>": 1479,
      "lon": 1480,
      "again</w>": 1481,
      "On": 1482,
      "penas</w>": 1483,
      "ting</w>": 1484,
      "lev": 1485,
      "ight</w>": 1486,
      "hora</w>": 1487,
      "ina</w>": 1488,
      "Isso</w>": 1489,
      "first</w>": 1490,
      "My</w>": 1491,
      "pon": 1492,
      "talk</w>": 1493,
      "zes</w>": 1494,
      "estar</w>": 1495,
      "ck": 1496,
      "inguém</w>": 1497,
      "ny</w>": 1498,
      "ose</w>": 1499,
      "plan": 1500,
      "mean</w>": 1501,
      "ven</w>": 1502,
      "isto</w>": 1503,
      "thought</w>": 1504,
      "cr": 1505,
      "gue</w>": 1506,
      "ls</w>": 1507,
      "told</w>": 1508,
      "always</w>": 1509,
      "sem</w>": 1510,
      "Um</w>": 1511,
      "cara</w>": 1512,
      "quanto</w>": 1513,
      "sar</w>": 1514,
      "sto": 1515,
      "ment</w>": 1516,
      "hã</w>": 1517,
      "ceu</w>": 1518,
      "her": 1519,
      "wr": 1520,
      "last</w>": 1521,
      "rar</w>": 1522,
      "ws</w>": 1523,
      "ento</w>": 1524,
      "proble": 1525,
      "anything</w>": 1526,
      "oul": 1527,
      "gado</w>": 1528,
      "ful</w>": 1529,
      "certo</w>": 1530,
      "emb": 1531,
      "away</w>": 1532,
      "ida</w>": 1533,
      "garo": 1534,
      "ên": 1535,
      "Eles</w>": 1536,
      "find</w>": 1537,
      "porque</w>": 1538,
      "help</w>": 1539,
      "long</w>": 1540,
      "ará</w>": 1541,
      "Lo": 1542,
      "alguém</w>": 1543,
      "yes</w>": 1544,
      "work</w>": 1545,
      "mes</w>": 1546,
      "ocu": 1547,
      "tinha</w>": 1548,
      "Do</w>": 1549,
      "temos</w>": 1550,
      "these</w>": 1551,
      "call</w>": 1552,
      "dois</w>": 1553,
      "place</w>": 1554,
      "sto</w>": 1555,
      "ity</w>": 1556,
      "je</w>": 1557,
      "dire": 1558,
      "bra": 1559,
      "row</w>": 1560,
      "To": 1561,
      "ick</w>": 1562,
      "ton": 1563,
      "prime": 1564,
      "Quer": 1565,
      "red</w>": 1566,
      "tent": 1567,
      "home</w>": 1568,
      "things</w>": 1569,
      "har</w>": 1570,
      "ved</w>": 1571,
      "mar</w>": 1572,
      "ms</w>": 1573,
      "ant</w>": 1574,
      "verdade</w>": 1575,
      "ice</w>": 1576,
      "dr": 1577,
      "hon": 1578,
      "Estou</w>": 1579,
      "char": 1580,
      "cho": 1581,
      "Está</w>": 1582,
      "name</w>": 1583,
      "vi</w>": 1584,
      "tru": 1585,
      "dinheiro</w>": 1586,
      "ouldn</w>": 1587,
      "dor": 1588,
      "Que</w>": 1589,
      "iti": 1590,
      "sir</w>": 1591,
      "read": 1592,
      "pa</w>": 1593,
      "So": 1594,
      "father</w>": 1595,
      "bl": 1596,
      "Vou</w>": 1597,
      "amente</w>": 1598,
      "san": 1599,
      "wat": 1600,
      "todo</w>": 1601,
      "kay</w>": 1602,
      "comp": 1603,
      "put</w>": 1604,
      "pal": 1605,
      "comigo</w>": 1606,
      "dif": 1607,
      "fran": 1608,
      "tre": 1609,
      "sur": 1610,
      "mag": 1611,
      "Ye": 1612,
      "cl": 1613,
      "rou": 1614,
      "vem</w>": 1615,
      "those</w>": 1616,
      "nothing</w>": 1617,
      "cur": 1618,
      "Acho</w>": 1619,
      "demos</w>": 1620,
      "pelo</w>": 1621,
      "Tal": 1622,
      "ton</w>": 1623,
      "money</w>": 1624,
      "Yeah</w>": 1625,
      "bus": 1626,
      "ol</w>": 1627,
      "apenas</w>": 1628,
      "friend</w>": 1629,
      "cra": 1630,
      "try</w>": 1631,
      "mal": 1632,
      "fun": 1633,
      "Se": 1634,
      "years</w>": 1635,
      "dar": 1636,
      "jo</w>": 1637,
      "qui</w>": 1638,
      "nome</w>": 1639,
      "lor": 1640,
      "leave</w>": 1641,
      "fora</w>": 1642,
      "novo</w>": 1643,
      "after</w>": 1644,
      "ação</w>": 1645,
      "doing</w>": 1646,
      "inho</w>": 1647,
      "wal": 1648,
      "mat": 1649,
      "mundo</w>": 1650,
      "mão</w>": 1651,
      "pessoas</w>": 1652,
      "ph": 1653,
      "All</w>": 1654,
      "oh</w>": 1655,
      "happen": 1656,
      "fez</w>": 1657,
      "beli": 1658,
      "Be": 1659,
      "because</w>": 1660,
      "age</w>": 1661,
      "Su": 1662,
      "around</w>": 1663,
      "esn</w>": 1664,
      "disso</w>": 1665,
      "pp": 1666,
      "Talvez</w>": 1667,
      "encontr": 1668,
      "Ten": 1669,
      "happ": 1670,
      "Quando</w>": 1671,
      "ie</w>": 1672,
      "outro</w>": 1673,
      "ob": 1674,
      "ide": 1675,
      "grande</w>": 1676,
      "consegu": 1677,
      "please</w>": 1678,
      "deu</w>": 1679,
      "tir</w>": 1680,
      "ris": 1681,
      "kes</w>": 1682,
      "keep</w>": 1683,
      "acha</w>": 1684,
      "jun": 1685,
      "poderia</w>": 1686,
      "deus</w>": 1687,
      "house</w>": 1688,
      "side</w>": 1689,
      "ate</w>": 1690,
      "As</w>": 1691,
      "ível</w>": 1692,
      "ded</w>": 1693,
      "inter": 1694,
      "kil": 1695,
      "member</w>": 1696,
      "tting</w>": 1697,
      "faz</w>": 1698,
      "Let</w>": 1699,
      "dor</w>": 1700,
      "Yes</w>": 1701,
      "Hey</w>": 1702,
      "alguma</w>": 1703,
      "was": 1704,
      "parece</w>": 1705,
      "ste": 1706,
      "ner</w>": 1707,
      "ças</w>": 1708,
      "pass": 1709,
      "ak</w>": 1710,
      "Sa": 1711,
      "ing": 1712,
      "ready</w>": 1713,
      "iz": 1714,
      "room</w>": 1715,
      "stand</w>": 1716,
      "amento</w>": 1717,
      "mento</w>": 1718,
      "nem</w>": 1719,
      "queria</w>": 1720,
      "doesn</w>": 1721,
      "depois</w>": 1722,
      "clar": 1723,
      "came</w>": 1724,
      "Só</w>": 1725,
      "lemb": 1726,
      "saber</w>": 1727,
      "their</w>": 1728,
      "pra": 1729,
      "mal</w>": 1730,
      "hoje</w>": 1731,
      "mulher</w>": 1732,
      "vir</w>": 1733,
      "sig": 1734,
      "ach</w>": 1735,
      "lie</w>": 1736,
      "cos</w>": 1737,
      "ns</w>": 1738,
      "your": 1739,
      "ninguém</w>": 1740,
      "pró": 1741,
      "rei</w>": 1742,
      ":.</w>": 1743,
      "wanted</w>": 1744,
      "cen": 1745,
      "clo": 1746,
      "doc": 1747,
      "made</w>": 1748,
      "ise</w>": 1749,
      "acre": 1750,
      "low</w>": 1751,
      "lan": 1752,
      "il</w>": 1753,
      "bat": 1754,
      "left</w>": 1755,
      "seja</w>": 1756,
      "tive</w>": 1757,
      "suas</w>": 1758,
      "wer</w>": 1759,
      "isn</w>": 1760,
      "ica</w>": 1761,
      "When</w>": 1762,
      "ive</w>": 1763,
      "ano</w>": 1764,
      "ff</w>": 1765,
      "arei</w>": 1766,
      "pergun": 1767,
      "Your</w>": 1768,
      "aram</w>": 1769,
      "nor": 1770,
      "mother</w>": 1771,
      "Os</w>": 1772,
      "trabalho</w>": 1773,
      "cour": 1774,
      "ned</w>": 1775,
      "ler</w>": 1776,
      "amigo</w>": 1777,
      "lot</w>": 1778,
      "feel</w>": 1779,
      "coun": 1780,
      "estamos</w>": 1781,
      "pol": 1782,
      "ally</w>": 1783,
      "dest": 1784,
      "tain</w>": 1785,
      "cas": 1786,
      "tal</w>": 1787,
      "outra</w>": 1788,
      "guy</w>": 1789,
      "big</w>": 1790,
      "Por": 1791,
      "girl</w>": 1792,
      "via</w>": 1793,
      "chil": 1794,
      "believe</w>": 1795,
      "itar</w>": 1796,
      "dever": 1797,
      "gou</w>": 1798,
      "boa</w>": 1799,
      "íci": 1800,
      "gr": 1801,
      "enh": 1802,
      "Then</w>": 1803,
      "dem</w>": 1804,
      "another</w>": 1805,
      "ece</w>": 1806,
      "bor": 1807,
      "ger": 1808,
      "gum</w>": 1809,
      "cle": 1810,
      "wee": 1811,
      "rel": 1812,
      "under": 1813,
      "til</w>": 1814,
      "son": 1815,
      "jan": 1816,
      "dur": 1817,
      "enten": 1818,
      "bon": 1819,
      "ência</w>": 1820,
      "head</w>": 1821,
      "ile</w>": 1822,
      "Nós</w>": 1823,
      "Di": 1824,
      "show</w>": 1825,
      "fazendo</w>": 1826,
      "começ": 1827,
      "trou": 1828,
      "great</w>": 1829,
      "sol": 1830,
      "stay</w>": 1831,
      "kind</w>": 1832,
      "dela</w>": 1833,
      "importan": 1834,
      "Go": 1835,
      "quis": 1836,
      "aman": 1837,
      "ins</w>": 1838,
      "Look</w>": 1839,
      "Tenho</w>": 1840,
      "ário</w>": 1841,
      "ock</w>": 1842,
      "boy</w>": 1843,
      "ps</w>": 1844,
      "Just</w>": 1845,
      "die</w>": 1846,
      "será</w>": 1847,
      "ne</w>": 1848,
      "pedi": 1849,
      "tro</w>": 1850,
      "dr</w>": 1851,
      "lou": 1852,
      "sta": 1853,
      "might</w>": 1854,
      "bur": 1855,
      "kill</w>": 1856,
      "qui": 1857,
      "war": 1858,
      "pela</w>": 1859,
      "does</w>": 1860,
      "quar": 1861,
      "hear</w>": 1862,
      "des</w>": 1863,
      "iu</w>": 1864,
      "sorry</w>": 1865,
      "rough</w>": 1866,
      "uh</w>": 1867,
      "bab": 1868,
      "feli": 1869,
      "ss</w>": 1870,
      "nu": 1871,
      "ley</w>": 1872,
      "kno": 1873,
      "proc": 1874,
      "Re": 1875,
      "sair</w>": 1876,
      "dado</w>": 1877,
      "xi": 1878,
      "joh": 1879,
      "acab": 1880,
      "cial</w>": 1881,
      "mind</w>": 1882,
      "menos</w>": 1883,
      "ans": 1884,
      "precisa</w>": 1885,
      "sse</w>": 1886,
      "filho</w>": 1887,
      "elas</w>": 1888,
      "uni": 1889,
      "who": 1890,
      "may</w>": 1891,
      "Meu</w>": 1892,
      "itu": 1893,
      "lti": 1894,
      "meus</w>": 1895,
      "most</w>": 1896,
      "chance</w>": 1897,
      "nosso</w>": 1898,
      "Fo": 1899,
      "wouldn</w>": 1900,
      "lia</w>": 1901,
      "world</w>": 1902,
      "remember</w>": 1903,
      "fica</w>": 1904,
      "liv": 1905,
      "own</w>": 1906,
      "voltar</w>": 1907,
      "viu</w>": 1908,
      "No": 1909,
      "vão</w>": 1910,
      "cabe": 1911,
      "entr": 1912,
      "tel": 1913,
      "ence</w>": 1914,
      "shi": 1915,
      "ino</w>": 1916,
      "rado</w>": 1917,
      "woman</w>": 1918,
      "algum</w>": 1919,
      "ank</w>": 1920,
      "dio</w>": 1921,
      "same</w>": 1922,
      "qual": 1923,
      "últi": 1924,
      "Porque</w>": 1925,
      "ily</w>": 1926,
      "toda</w>": 1927,
      "Maybe</w>": 1928,
      "Come</w>": 1929,
      "lat": 1930,
      "wil": 1931,
      "miss</w>": 1932,
      "sis": 1933,
      "ask</w>": 1934,
      "my": 1935,
      "sado</w>": 1936,
      "else</w>": 1937,
      "care</w>": 1938,
      "volta</w>": 1939,
      "In</w>": 1940,
      "tinu": 1941,
      "sos</w>": 1942,
      "..</w>": 1943,
      "Con": 1944,
      "saw</w>": 1945,
      "pat": 1946,
      "vezes</w>": 1947,
      "esque": 1948,
      "ses</w>": 1949,
      "real</w>": 1950,
      "coming</w>": 1951,
      "teza</w>": 1952,
      "with": 1953,
      "itos</w>": 1954,
      "rs</w>": 1955,
      "sta</w>": 1956,
      "talvez</w>": 1957,
      "tta</w>": 1958,
      "happened</w>": 1959,
      "ans</w>": 1960,
      "bad</w>": 1961,
      "through</w>": 1962,
      "done</w>": 1963,
      "being</w>": 1964,
      "quen": 1965,
      "nenh": 1966,
      "three</w>": 1967,
      "sk": 1968,
      "Pre": 1969,
      "aquele</w>": 1970,
      "stop</w>": 1971,
      "di</w>": 1972,
      "ear": 1973,
      "diz</w>": 1974,
      "times</w>": 1975,
      "ções</w>": 1976,
      "tenha</w>": 1977,
      "sou": 1978,
      "ati": 1979,
      "preocu": 1980,
      "ais</w>": 1981,
      "Tem</w>": 1982,
      "esp": 1983,
      "tipo</w>": 1984,
      "ink</w>": 1985,
      "everything</w>": 1986,
      "emp": 1987,
      "sup": 1988,
      "eri": 1989,
      "problema</w>": 1990,
      "poli": 1991,
      "preciso</w>": 1992,
      "god</w>": 1993,
      "cin": 1994,
      "ried</w>": 1995,
      "fac": 1996,
      "An": 1997,
      "exp": 1998,
      "tty</w>": 1999,
      "vê</w>": 2000,
      "dou": 2001,
      "diz": 2002,
      "ai</w>": 2003,
      "Quero</w>": 2004,
      "los</w>": 2005,
      "podemos</w>": 2006,
      "dá</w>": 2007,
      "pt</w>": 2008,
      "art</w>": 2009,
      "eu": 2010,
      "rece": 2011,
      "nice</w>": 2012,
      "nossa</w>": 2013,
      "ster</w>": 2014,
      "entes</w>": 2015,
      "enough</w>": 2016,
      "crian": 2017,
      "Uma</w>": 2018,
      "10</w>": 2019,
      "inc": 2020,
      "every</w>": 2021,
      "dro": 2022,
      "Is</w>": 2023,
      "Foi</w>": 2024,
      "able</w>": 2025,
      "isten</w>": 2026,
      "brigado</w>": 2027,
      "udo</w>": 2028,
      "amor</w>": 2029,
      "getting</w>": 2030,
      "deveria</w>": 2031,
      "live</w>": 2032,
      "Ah</w>": 2033,
      "Ou": 2034,
      "ory</w>": 2035,
      "cy</w>": 2036,
      "carro</w>": 2037,
      "today</w>": 2038,
      "days</w>": 2039,
      "someone</w>": 2040,
      "000</w>": 2041,
      "ents</w>": 2042,
      "bel": 2043,
      "its</w>": 2044,
      "wasn</w>": 2045,
      "aí</w>": 2046,
      "str": 2047,
      "sas</w>": 2048,
      "tado</w>": 2049,
      "pic": 2050,
      "feito</w>": 2051,
      "sle": 2052,
      "três</w>": 2053,
      "ase</w>": 2054,
      "neg": 2055,
      "dias</w>": 2056,
      "hist": 2057,
      "ham</w>": 2058,
      "ados</w>": 2059,
      "morrow</w>": 2060,
      "fici": 2061,
      "fre": 2062,
      "frien": 2063,
      "tou</w>": 2064,
      "mé": 2065,
      "went</w>": 2066,
      "wanna</w>": 2067,
      "paz</w>": 2068,
      "deixar</w>": 2069,
      "pequen": 2070,
      "many</w>": 2071,
      "horas</w>": 2072,
      "maybe</w>": 2073,
      "manhã</w>": 2074,
      "certeza</w>": 2075,
      "realmente</w>": 2076,
      "ória</w>": 2077,
      "best</w>": 2078,
      "wrong</w>": 2079,
      "dead</w>": 2080,
      "found</w>": 2081,
      "camin": 2082,
      "Sabe</w>": 2083,
      "sion</w>": 2084,
      "gg": 2085,
      "wife</w>": 2086,
      "cidade</w>": 2087,
      "don": 2088,
      "dri": 2089,
      "cora": 2090,
      "únic": 2091,
      "qualquer</w>": 2092,
      "iness</w>": 2093,
      "feliz</w>": 2094,
      "int</w>": 2095,
      "ja": 2096,
      "heard</w>": 2097,
      "Did</w>": 2098,
      "land</w>": 2099,
      "tanto</w>": 2100,
      "continu": 2101,
      "okay</w>": 2102,
      "Este</w>": 2103,
      "morr": 2104,
      "lis": 2105,
      "eral</w>": 2106,
      "Pe": 2107,
      "ável</w>": 2108,
      "aconteceu</w>": 2109,
      "tonight</w>": 2110,
      "cada</w>": 2111,
      "ken</w>": 2112,
      "lado</w>": 2113,
      "acred": 2114,
      "dito</w>": 2115,
      "assu": 2116,
      "Des": 2117,
      "íamos</w>": 2118,
      "vesse</w>": 2119,
      "Tudo</w>": 2120,
      "mens</w>": 2121,
      "amig": 2122,
      "nas</w>": 2123,
      "ador</w>": 2124,
      "sabia</w>": 2125,
      "primeiro</w>": 2126,
      "eja</w>": 2127,
      "tele": 2128,
      "wait</w>": 2129,
      "ary</w>": 2130,
      "turn</w>": 2131,
      "far": 2132,
      "sha": 2133,
      "rás</w>": 2134,
      "iting</w>": 2135,
      "hur": 2136,
      "Há</w>": 2137,
      "diga</w>": 2138,
      "idade</w>": 2139,
      "atrás</w>": 2140,
      "parte</w>": 2141,
      "seen</w>": 2142,
      "ram</w>": 2143,
      "pren": 2144,
      "looking</w>": 2145,
      "ki": 2146,
      "coloc": 2147,
      "haven</w>": 2148,
      "seman": 2149,
      "sing</w>": 2150,
      "hal": 2151,
      "dou</w>": 2152,
      "fosse</w>": 2153,
      "see": 2154,
      "understand</w>": 2155,
      "sra</w>": 2156,
      "xt</w>": 2157,
      "Para</w>": 2158,
      "ath</w>": 2159,
      "fol": 2160,
      "trying</w>": 2161,
      "gether</w>": 2162,
      "ker</w>": 2163,
      "killed</w>": 2164,
      "course</w>": 2165,
      "alone</w>": 2166,
      "beb": 2167,
      "eram</w>": 2168,
      "yeah</w>": 2169,
      "guys</w>": 2170,
      "êm</w>": 2171,
      "dra": 2172,
      "cel": 2173,
      "together</w>": 2174,
      "Já</w>": 2175,
      "without</w>": 2176,
      "ic</w>": 2177,
      "guar": 2178,
      "deci": 2179,
      "wants</w>": 2180,
      "itão</w>": 2181,
      "wing</w>": 2182,
      "next</w>": 2183,
      "Me</w>": 2184,
      "vemos</w>": 2185,
      "fess": 2186,
      "chu": 2187,
      "-.</w>": 2188,
      "procur": 2189,
      "ago</w>": 2190,
      "fel": 2191,
      "ture</w>": 2192,
      "atu": 2193,
      "Are</w>": 2194,
      "homens</w>": 2195,
      "onel</w>": 2196,
      "aquela</w>": 2197,
      "ich</w>": 2198,
      "morning</w>": 2199,
      "Some": 2200,
      "guess</w>": 2201,
      "Ei</w>": 2202,
      "vos</w>": 2203,
      "soz": 2204,
      "tarde</w>": 2205,
      "daqui</w>": 2206,
      "Mr</w>": 2207,
      "mit": 2208,
      "used</w>": 2209,
      "Not</w>": 2210,
      "chi": 2211,
      "knew</w>": 2212,
      "tomorrow</w>": 2213,
      "yourself</w>": 2214,
      "doctor</w>": 2215,
      "Quem</w>": 2216,
      "amanhã</w>": 2217,
      "Pode</w>": 2218,
      "cio</w>": 2219,
      "eng": 2220,
      "sar": 2221,
      "nam": 2222,
      "mrs</w>": 2223,
      "myself</w>": 2224,
      "cli": 2225,
      "baby</w>": 2226,
      "ior</w>": 2227,
      "agem</w>": 2228,
      "fl": 2229,
      "pegar</w>": 2230,
      "famí": 2231,
      "gem</w>": 2232,
      "huh</w>": 2233,
      "talking</w>": 2234,
      "gostaria</w>": 2235,
      "took</w>": 2236,
      "contro": 2237,
      "iam</w>": 2238,
      "ugh": 2239,
      "coul": 2240,
      "ings</w>": 2241,
      "face</w>": 2242,
      "happy</w>": 2243,
      "cui": 2244,
      "cabeça</w>": 2245,
      "gotta</w>": 2246,
      "tei</w>": 2247,
      "Because</w>": 2248,
      "hope</w>": 2249,
      "while</w>": 2250,
      "Can</w>": 2251,
      "family</w>": 2252,
      "ation</w>": 2253,
      "play</w>": 2254,
      "imag": 2255,
      "vir": 2256,
      "caso</w>": 2257,
      "ital</w>": 2258,
      "usa</w>": 2259,
      "job</w>": 2260,
      "ed": 2261,
      "ion</w>": 2262,
      "few</w>": 2263,
      "pris": 2264,
      "ack": 2265,
      "whole</w>": 2266,
      "friends</w>": 2267,
      "couldn</w>": 2268,
      "termin": 2269,
      "oso</w>": 2270,
      "band</w>": 2271,
      "amigos</w>": 2272,
      "hun": 2273,
      "duas</w>": 2274,
      "ico</w>": 2275,
      "says</w>": 2276,
      "às</w>": 2277,
      "gente</w>": 2278,
      "called</w>": 2279,
      "em": 2280,
      "sub": 2281,
      "itas</w>": 2282,
      "ye</w>": 2283,
      "ang": 2284,
      "youn": 2285,
      "cal</w>": 2286,
      "pido</w>": 2287,
      "brother</w>": 2288,
      "claro</w>": 2289,
      "qual</w>": 2290,
      "res</w>": 2291,
      "idi": 2292,
      "late</w>": 2293,
      "fra": 2294,
      "medo</w>": 2295,
      "loc": 2296,
      "20</w>": 2297,
      "tt</w>": 2298,
      "vá</w>": 2299,
      "offic": 2300,
      "consi": 2301,
      "falando</w>": 2302,
      "business</w>": 2303,
      "seria</w>": 2304,
      "prote": 2305,
      "gosto</w>": 2306,
      "ze</w>": 2307,
      "ixo</w>": 2308,
      "deixe</w>": 2309,
      "ajudar</w>": 2310,
      "garota</w>": 2311,
      "família</w>": 2312,
      "per</w>": 2313,
      "querida</w>": 2314,
      "Per": 2315,
      "such</w>": 2316,
      "Where</w>": 2317,
      "tro": 2318,
      "ass</w>": 2319,
      "alguns</w>": 2320,
      "ícia</w>": 2321,
      "quarto</w>": 2322,
      "momento</w>": 2323,
      "Who</w>": 2324,
      "Seu</w>": 2325,
      "bring</w>": 2326,
      "vil": 2327,
      "start</w>": 2328,
      "sm": 2329,
      "pretty</w>": 2330,
      "atra": 2331,
      "caval": 2332,
      "maj": 2333,
      "ale": 2334,
      "ours</w>": 2335,
      "dam": 2336,
      "Ex": 2337,
      "blo": 2338,
      "outros</w>": 2339,
      "yet</w>": 2340,
      "oca</w>": 2341,
      "embora</w>": 2342,
      "case</w>": 2343,
      "hus": 2344,
      "raid</w>": 2345,
      "questi": 2346,
      "irmão</w>": 2347,
      "Com</w>": 2348,
      "ple</w>": 2349,
      "pul": 2350,
      "Esta</w>": 2351,
      "deles</w>": 2352,
      "frente</w>": 2353,
      "Li": 2354,
      "cado</w>": 2355,
      "town</w>": 2356,
      "entre</w>": 2357,
      "esses</w>": 2358,
      "parar</w>": 2359,
      "less</w>": 2360,
      "ave</w>": 2361,
      "las</w>": 2362,
      "levar</w>": 2363,
      "lin": 2364,
      "Temos</w>": 2365,
      "má": 2366,
      "Parece</w>": 2367,
      "jeito</w>": 2368,
      "gua</w>": 2369,
      "scho": 2370,
      "Nunca</w>": 2371,
      "tel</w>": 2372,
      "mer</w>": 2373,
      "suppo": 2374,
      "dê</w>": 2375,
      "sy": 2376,
      "poss": 2377,
      "rest</w>": 2378,
      "win": 2379,
      "bit</w>": 2380,
      "inv": 2381,
      "cro": 2382,
      "set</w>": 2383,
      "rada</w>": 2384,
      "afraid</w>": 2385,
      "ish": 2386,
      "minutos</w>": 2387,
      "once</w>": 2388,
      "ore</w>": 2389,
      "fessor</w>": 2390,
      "ista</w>": 2391,
      "quiser</w>": 2392,
      "quê</w>": 2393,
      "matar</w>": 2394,
      "den</w>": 2395,
      "minutes</w>": 2396,
      "part</w>": 2397,
      "teria</w>": 2398,
      "until</w>": 2399,
      "tly</w>": 2400,
      "Precis": 2401,
      "ani": 2402,
      "ros</w>": 2403,
      "var</w>": 2404,
      "cion": 2405,
      "beau": 2406,
      "chegar</w>": 2407,
      "bed</w>": 2408,
      "velho</w>": 2409,
      "pensar</w>": 2410,
      "soon</w>": 2411,
      "posa</w>": 2412,
      "Quer</w>": 2413,
      "guer": 2414,
      "teve</w>": 2415,
      "secre": 2416,
      "chama": 2417,
      "têm</w>": 2418,
      "entar</w>": 2419,
      "tido</w>": 2420,
      "already</w>": 2421,
      "ân": 2422,
      "Mu": 2423,
      "essas</w>": 2424,
      "pens": 2425,
      "hard</w>": 2426,
      "segun": 2427,
      "lha</w>": 2428,
      "hand</w>": 2429,
      "year</w>": 2430,
      "secon": 2431,
      "pron": 2432,
      "fan": 2433,
      "idea</w>": 2434,
      "gone</w>": 2435,
      "ason</w>": 2436,
      "primeira</w>": 2437,
      "bil": 2438,
      "porta</w>": 2439,
      "gave</w>": 2440,
      "ín": 2441,
      "One</w>": 2442,
      "leg": 2443,
      "Em</w>": 2444,
      "clu": 2445,
      "marido</w>": 2446,
      "bast": 2447,
      "capitão</w>": 2448,
      "husband</w>": 2449,
      "sil": 2450,
      "gan</w>": 2451,
      "desse</w>": 2452,
      "faça</w>": 2453,
      "young</w>": 2454,
      "vindo</w>": 2455,
      "ório</w>": 2456,
      "Deix": 2457,
      "próxi": 2458,
      "john</w>": 2459,
      "acor": 2460,
      "aci": 2461,
      "school</w>": 2462,
      "sam</w>": 2463,
      "ction</w>": 2464,
      "mãos</w>": 2465,
      "todas</w>": 2466,
      "palav": 2467,
      "run</w>": 2468,
      "Jo": 2469,
      "Pen": 2470,
      "dge</w>": 2471,
      "perto</w>": 2472,
      "pessoa</w>": 2473,
      "For</w>": 2474,
      "esposa</w>": 2475,
      "meet</w>": 2476,
      "nenhum</w>": 2477,
      "port</w>": 2478,
      "contra": 2479,
      "difer": 2480,
      "word</w>": 2481,
      "ff": 2482,
      "door</w>": 2483,
      "hosp": 2484,
      "raz": 2485,
      "vic": 2486,
      "ores</w>": 2487,
      "vin": 2488,
      "dentro</w>": 2489,
      "dad</w>": 2490,
      "encontrar</w>": 2491,
      "contra</w>": 2492,
      "sinto</w>": 2493,
      "eas": 2494,
      "ura</w>": 2495,
      "Na</w>": 2496,
      "cle</w>": 2497,
      "tentando</w>": 2498,
      "anyone</w>": 2499,
      "eira</w>": 2500,
      "Esse</w>": 2501,
      "knows</w>": 2502,
      "difíci": 2503,
      "culpe</w>": 2504,
      "ner": 2505,
      "captain</w>": 2506,
      "Aqui</w>": 2507,
      "desco": 2508,
      "Sou</w>": 2509,
      "De</w>": 2510,
      "thers</w>": 2511,
      "ás</w>": 2512,
      "sido</w>": 2513,
      "caminho</w>": 2514,
      "hol": 2515,
      "exis": 2516,
      "Onde</w>": 2517,
      "matter</w>": 2518,
      "asse</w>": 2519,
      "fine</w>": 2520,
      "ras</w>": 2521,
      "estran": 2522,
      "escol": 2523,
      "ping</w>": 2524,
      "lost</w>": 2525,
      "wish</w>": 2526,
      "cru": 2527,
      "ated</w>": 2528,
      "ters</w>": 2529,
      "lady</w>": 2530,
      "won": 2531,
      "pay</w>": 2532,
      "differ": 2533,
      "final</w>": 2534,
      "trouble</w>": 2535,
      "ward</w>": 2536,
      "simp": 2537,
      "move</w>": 2538,
      "juntos</w>": 2539,
      "change</w>": 2540,
      "própri": 2541,
      "dres": 2542,
      "light</w>": 2543,
      "ci</w>": 2544,
      "Uh</w>": 2545,
      "nov": 2546,
      "od": 2547,
      "since</w>": 2548,
      "peri": 2549,
      "cla": 2550,
      "podem</w>": 2551,
      "entrar</w>": 2552,
      "far</w>": 2553,
      "Ser": 2554,
      "ely</w>": 2555,
      "nova</w>": 2556,
      "30</w>": 2557,
      "Fa": 2558,
      "heart</w>": 2559,
      "tch</w>": 2560,
      "ddy</w>": 2561,
      "ace": 2562,
      "swe": 2563,
      "cil</w>": 2564,
      "mic": 2565,
      "med</w>": 2566,
      "bun": 2567,
      "médi": 2568,
      "oper": 2569,
      "reg": 2570,
      "ba</w>": 2571,
      "hospital</w>": 2572,
      "demais</w>": 2573,
      "lem</w>": 2574,
      "♪.</w>": 2575,
      "ali": 2576,
      "Okay</w>": 2577,
      "Vocês</w>": 2578,
      "ouvir</w>": 2579,
      "minute</w>": 2580,
      "morte</w>": 2581,
      "ak": 2582,
      "esco": 2583,
      "stre": 2584,
      "del": 2585,
      "mir</w>": 2586,
      "death</w>": 2587,
      "50</w>": 2588,
      "dando</w>": 2589,
      "compr": 2590,
      "gada</w>": 2591,
      "mine</w>": 2592,
      "negó": 2593,
      "importa</w>": 2594,
      "idio": 2595,
      "ces</w>": 2596,
      "errado</w>": 2597,
      "both</w>": 2598,
      "ej": 2599,
      "ness</w>": 2600,
      "forget</w>": 2601,
      "flo": 2602,
      "mur": 2603,
      "least</w>": 2604,
      "tando</w>": 2605,
      "óti": 2606,
      "apo": 2607,
      "história</w>": 2608,
      "pensei</w>": 2609,
      "Diga</w>": 2610,
      "len": 2611,
      "respe": 2612,
      "professor</w>": 2613,
      "Do": 2614,
      "bli": 2615,
      "meio</w>": 2616,
      "Tell</w>": 2617,
      "ship</w>": 2618,
      "ther": 2619,
      "bar</w>": 2620,
      "ren": 2621,
      "contar</w>": 2622,
      "ana</w>": 2623,
      "usar</w>": 2624,
      "kid</w>": 2625,
      "Sr</w>": 2626,
      "bran": 2627,
      "forma</w>": 2628,
      "mesma</w>": 2629,
      "married</w>": 2630,
      "telef": 2631,
      "ama": 2632,
      "spen": 2633,
      "waiting</w>": 2634,
      "ain": 2635,
      "filha</w>": 2636,
      "ition</w>": 2637,
      "Sen": 2638,
      "ment": 2639,
      "out": 2640,
      "most": 2641,
      "lar</w>": 2642,
      "olhos</w>": 2643,
      "key</w>": 2644,
      "polícia</w>": 2645,
      "orge</w>": 2646,
      "gosta</w>": 2647,
      "Esper": 2648,
      "tou": 2649,
      "up": 2650,
      "Vai</w>": 2651,
      "shall</w>": 2652,
      "assa": 2653,
      "mus": 2654,
      "fui</w>": 2655,
      "sé": 2656,
      "thank</w>": 2657,
      "Posso</w>": 2658,
      "general</w>": 2659,
      "fron": 2660,
      "difícil</w>": 2661,
      "dear</w>": 2662,
      "water</w>": 2663,
      "desde</w>": 2664,
      "ither</w>": 2665,
      "aren</w>": 2666,
      "drink</w>": 2667,
      "gal": 2668,
      "aos</w>": 2669,
      "expe": 2670,
      "phone</w>": 2671,
      "importante</w>": 2672,
      "veio</w>": 2673,
      "viver</w>": 2674,
      "open</w>": 2675,
      "nie</w>": 2676,
      "algumas</w>": 2677,
      "stan": 2678,
      "escre": 2679,
      "cima</w>": 2680,
      "Estamos</w>": 2681,
      "sleep</w>": 2682,
      "To</w>": 2683,
      "problem</w>": 2684,
      "zy</w>": 2685,
      "pé": 2686,
      "eat</w>": 2687,
      "Sua</w>": 2688,
      "passar</w>": 2689,
      "eyes</w>": 2690,
      "semana</w>": 2691,
      "dam</w>": 2692,
      "Bo": 2693,
      "Here</w>": 2694,
      "erto</w>": 2695,
      "dren</w>": 2696,
      "fá": 2697,
      "sorte</w>": 2698,
      "Get</w>": 2699,
      "nee": 2700,
      "hotel</w>": 2701,
      "ney</w>": 2702,
      "yed</w>": 2703,
      "ult</w>": 2704,
      "xe</w>": 2705,
      "fique</w>": 2706,
      "senhora</w>": 2707,
      "under</w>": 2708,
      "morrer</w>": 2709,
      "ya</w>": 2710,
      "minhas</w>": 2711,
      "hours</w>": 2712,
      "toc": 2713,
      "Essa</w>": 2714,
      "crianças</w>": 2715,
      "conver": 2716,
      "Ainda</w>": 2717,
      "comes</w>": 2718,
      "ús": 2719,
      "obrigado</w>": 2720,
      "hold</w>": 2721,
      "morto</w>": 2722,
      "somebody</w>": 2723,
      "quase</w>": 2724,
      "água</w>": 2725,
      "num</w>": 2726,
      "última</w>": 2727,
      "anks</w>": 2728,
      "police</w>": 2729,
      "hell</w>": 2730,
      "van": 2731,
      "bo</w>": 2732,
      "ici": 2733,
      "def": 2734,
      "longe</w>": 2735,
      "again": 2736,
      "promis": 2737,
      "iss</w>": 2738,
      "problemas</w>": 2739,
      "atro</w>": 2740,
      "against</w>": 2741,
      "oci": 2742,
      "rápido</w>": 2743,
      "cky</w>": 2744,
      "gas</w>": 2745,
      "rta</w>": 2746,
      "ens</w>": 2747,
      "esperar</w>": 2748,
      "foram</w>": 2749,
      "uns</w>": 2750,
      "Mar": 2751,
      "nisso</w>": 2752,
      "looks</w>": 2753,
      "five</w>": 2754,
      "fiz</w>": 2755,
      "fé</w>": 2756,
      "ten</w>": 2757,
      "thinking</w>": 2758,
      "worry</w>": 2759,
      "lear": 2760,
      "ral</w>": 2761,
      "logo</w>": 2762,
      "wer": 2763,
      "sco": 2764,
      "important</w>": 2765,
      "coração</w>": 2766,
      "having</w>": 2767,
      "çar</w>": 2768,
      "espe": 2769,
      "daugh": 2770,
      "children</w>": 2771,
      "city</w>": 2772,
      "listen</w>": 2773,
      "quei</w>": 2774,
      "bert</w>": 2775,
      "esperando</w>": 2776,
      "taking</w>": 2777,
      "hes</w>": 2778,
      "Minha</w>": 2779,
      "parti": 2780,
      "ged</w>": 2781,
      "par</w>": 2782,
      "hands</w>": 2783,
      "speak</w>": 2784,
      "pan": 2785,
      "gando</w>": 2786,
      "ating</w>": 2787,
      "camp": 2788,
      "hando</w>": 2789,
      "cido</w>": 2790,
      "ama</w>": 2791,
      "confi": 2792,
      "adi": 2793,
      "tiful</w>": 2794,
      "later</w>": 2795,
      "hit</w>": 2796,
      "\"?</w>": 2797,
      "pare</w>": 2798,
      "ies</w>": 2799,
      "escu": 2800,
      "guei</w>": 2801,
      "dei</w>": 2802,
      "dizendo</w>": 2803,
      "Ho": 2804,
      "ake</w>": 2805,
      "diver": 2806,
      "act</w>": 2807,
      "abri": 2808,
      "makes</w>": 2809,
      "mp</w>": 2810,
      "Fi": 2811,
      "começar</w>": 2812,
      "ontem</w>": 2813,
      "guerra</w>": 2814,
      "pedir</w>": 2815,
      "hores</w>": 2816,
      "asked</w>": 2817,
      "terr": 2818,
      "child</w>": 2819,
      "tirar</w>": 2820,
      "úmer": 2821,
      "corre": 2822,
      "part": 2823,
      "spo": 2824,
      "arma</w>": 2825,
      "'.</w>": 2826,
      "fight</w>": 2827,
      "gets</w>": 2828,
      "ef</w>": 2829,
      "hael</w>": 2830,
      "ste</w>": 2831,
      "read</w>": 2832,
      "ul</w>": 2833,
      "gent": 2834,
      "happen</w>": 2835,
      "ben": 2836,
      "idente</w>": 2837,
      "terra</w>": 2838,
      "half</w>": 2839,
      "gun</w>": 2840,
      "Car": 2841,
      "wed</w>": 2842,
      "mã</w>": 2843,
      "war</w>": 2844,
      "human": 2845,
      "ist</w>": 2846,
      "respon": 2847,
      "stuff</w>": 2848,
      "pas</w>": 2849,
      "ali</w>": 2850,
      "beautiful</w>": 2851,
      "cas</w>": 2852,
      "infor": 2853,
      "feel": 2854,
      "dle</w>": 2855,
      "Ninguém</w>": 2856,
      "enquanto</w>": 2857,
      "conhece</w>": 2858,
      "daughter</w>": 2859,
      "As": 2860,
      "fer</w>": 2861,
      "avi": 2862,
      "ias</w>": 2863,
      "ths</w>": 2864,
      "till</w>": 2865,
      "tin</w>": 2866,
      "tentar</w>": 2867,
      "ajuda</w>": 2868,
      "truth</w>": 2869,
      "jogo</w>": 2870,
      "única</w>": 2871,
      "also</w>": 2872,
      "line</w>": 2873,
      "cted</w>": 2874,
      "week</w>": 2875,
      "stra": 2876,
      "each</w>": 2877,
      "haps</w>": 2878,
      "sible</w>": 2879,
      "desta</w>": 2880,
      "ped</w>": 2881,
      "conta</w>": 2882,
      "culpa</w>": 2883,
      "--</w>": 2884,
      "saying</w>": 2885,
      "somos</w>": 2886,
      "medi": 2887,
      "aremos</w>": 2888,
      "cé": 2889,
      "escola</w>": 2890,
      "At</w>": 2891,
      "aten": 2892,
      "sada</w>": 2893,
      "att": 2894,
      "amer": 2895,
      "torn": 2896,
      "possível</w>": 2897,
      "star</w>": 2898,
      "ird</w>": 2899,
      "ky</w>": 2900,
      "gover": 2901,
      "cem</w>": 2902,
      "hurt</w>": 2903,
      "chefe</w>": 2904,
      "gor": 2905,
      "tually</w>": 2906,
      "ef": 2907,
      "tivesse</w>": 2908,
      "thy</w>": 2909,
      "sister</w>": 2910,
      "signi": 2911,
      "tun": 2912,
      "tic</w>": 2913,
      "ador": 2914,
      "ilo</w>": 2915,
      "gia</w>": 2916,
      "númer": 2917,
      "chor": 2918,
      "Every": 2919,
      "ders</w>": 2920,
      "ber</w>": 2921,
      "papai</w>": 2922,
      "vejo</w>": 2923,
      "moment</w>": 2924,
      "rest": 2925,
      "Aqu": 2926,
      "second</w>": 2927,
      "four</w>": 2928,
      "fim</w>": 2929,
      "watch</w>": 2930,
      "eta</w>": 2931,
      "garoto</w>": 2932,
      "ini": 2933,
      "Todos</w>": 2934,
      "avam</w>": 2935,
      "dido</w>": 2936,
      "apren": 2937,
      "close</w>": 2938,
      "number</w>": 2939,
      "story</w>": 2940,
      "?\".</w>": 2941,
      "len</w>": 2942,
      "figu": 2943,
      "jantar</w>": 2944,
      "vendo</w>": 2945,
      "died</w>": 2946,
      "als</w>": 2947,
      "party</w>": 2948,
      "heres</w>": 2949,
      "fire</w>": 2950,
      "anymore</w>": 2951,
      "descobri": 2952,
      "shot</w>": 2953,
      "novamente</w>": 2954,
      "Ok</w>": 2955,
      "razão</w>": 2956,
      "irá</w>": 2957,
      "jovem</w>": 2958,
      "esa</w>": 2959,
      "major</w>": 2960,
      "Clar": 2961,
      "quite</w>": 2962,
      "Isto</w>": 2963,
      "srta</w>": 2964,
      "brought</w>": 2965,
      "comer</w>": 2966,
      "tomar</w>": 2967,
      "ko": 2968,
      "point</w>": 2969,
      "which</w>": 2970,
      "veja</w>": 2971,
      "send</w>": 2972,
      "Have</w>": 2973,
      "wel": 2974,
      "pensando</w>": 2975,
      "pel": 2976,
      "fiz": 2977,
      "stru": 2978,
      "mús": 2979,
      "hour</w>": 2980,
      "adas</w>": 2981,
      "19": 2982,
      "irmã</w>": 2983,
      "agra": 2984,
      "dormir</w>": 2985,
      "Ou</w>": 2986,
      "apa": 2987,
      "poder</w>": 2988,
      "kids</w>": 2989,
      "causa</w>": 2990,
      "different</w>": 2991,
      "Olha</w>": 2992,
      "pin": 2993,
      "crit": 2994,
      "ited</w>": 2995,
      "devo</w>": 2996,
      "Bom</w>": 2997,
      "Please</w>": 2998,
      "tried</w>": 2999,
      "conf": 3000,
      "game</w>": 3001,
      "neste</w>": 3002,
      "tivo</w>": 3003,
      "Deve</w>": 3004,
      "itch</w>": 3005,
      "15</w>": 3006,
      "iria</w>": 3007,
      "almente</w>": 3008,
      "comple": 3009,
      "aw": 3010,
      "jack</w>": 3011,
      "anybody</w>": 3012,
      "--.</w>": 3013,
      "Le": 3014,
      "test": 3015,
      "éia</w>": 3016,
      "met</w>": 3017,
      "san</w>": 3018,
      "corr": 3019,
      "deal</w>": 3020,
      "mon</w>": 3021,
      "Alguém</w>": 3022,
      "tte</w>": 3023,
      "mc": 3024,
      "In": 3025,
      "bul": 3026,
      "cut</w>": 3027,
      "pado</w>": 3028,
      "ficou</w>": 3029,
      "goes</w>": 3030,
      "oks</w>": 3031,
      "jor": 3032,
      "boys</w>": 3033,
      "cks</w>": 3034,
      "ween</w>": 3035,
      "pil": 3036,
      "sn</w>": 3037,
      "cept</w>": 3038,
      "reason</w>": 3039,
      "ctor</w>": 3040,
      "joe</w>": 3041,
      "hind</w>": 3042,
      "posto</w>": 3043,
      "rus": 3044,
      "tá": 3045,
      "cus": 3046,
      "irs</w>": 3047,
      "tura</w>": 3048,
      "easy</w>": 3049,
      "gos</w>": 3050,
      "actly</w>": 3051,
      "trabalhar</w>": 3052,
      "Qual</w>": 3053,
      "pped</w>": 3054,
      "break</w>": 3055,
      "dão</w>": 3056,
      "xo</w>": 3057,
      "rias</w>": 3058,
      "mulheres</w>": 3059,
      "check</w>": 3060,
      "ssin": 3061,
      "true</w>": 3062,
      "cama</w>": 3063,
      "cking</w>": 3064,
      "scar": 3065,
      "var": 3066,
      "front</w>": 3067,
      "ly": 3068,
      "george</w>": 3069,
      "prin": 3070,
      "fast</w>": 3071,
      "Dis": 3072,
      "terá</w>": 3073,
      "perfe": 3074,
      "corpo</w>": 3075,
      "ghts</w>": 3076,
      "pensa</w>": 3077,
      "vido</w>": 3078,
      "az": 3079,
      "yours</w>": 3080,
      "cham": 3081,
      "hen": 3082,
      "ones</w>": 3083,
      "dessa</w>": 3084,
      "amo</w>": 3085,
      "deixou</w>": 3086,
      "situ": 3087,
      "cade": 3088,
      "arran": 3089,
      "vil</w>": 3090,
      "yor": 3091,
      "person</w>": 3092,
      "sit</w>": 3093,
      "destru": 3094,
      "crazy</w>": 3095,
      "cess": 3096,
      "gla": 3097,
      "iros</w>": 3098,
      "ficiente</w>": 3099,
      "tom</w>": 3100,
      "cinco</w>": 3101,
      "girls</w>": 3102,
      "either</w>": 3103,
      "yer</w>": 3104,
      "anti": 3105,
      "Pro": 3106,
      "sent": 3107,
      "idiota</w>": 3108,
      "gin": 3109,
      "mom</w>": 3110,
      "possa</w>": 3111,
      "sozinho</w>": 3112,
      "matou</w>": 3113,
      "Take</w>": 3114,
      "atamente</w>": 3115,
      "morre": 3116,
      "office</w>": 3117,
      "íti": 3118,
      "havia</w>": 3119,
      "behind</w>": 3120,
      "escon": 3121,
      "everybody</w>": 3122,
      "ching</w>": 3123,
      "ka</w>": 3124,
      "answer</w>": 3125,
      "café</w>": 3126,
      "question</w>": 3127,
      "digo</w>": 3128,
      "bet": 3129,
      "mmy</w>": 3130,
      "john": 3131,
      "buy</w>": 3132,
      "dó": 3133,
      "pequeno</w>": 3134,
      "apare": 3135,
      "flor": 3136,
      "ames</w>": 3137,
      "walk</w>": 3138,
      "fácil</w>": 3139,
      "blood</w>": 3140,
      "run": 3141,
      "dol": 3142,
      "pun": 3143,
      "Go</w>": 3144,
      "gro": 3145,
      "casamento</w>": 3146,
      "devia</w>": 3147,
      "damn</w>": 3148,
      "dante</w>": 3149,
      "women</w>": 3150,
      "alive</w>": 3151,
      "dinner</w>": 3152,
      "Era</w>": 3153,
      "explo": 3154,
      "trans": 3155,
      "bemos</w>": 3156,
      "médico</w>": 3157,
      "bi</w>": 3158,
      "podia</w>": 3159,
      "liber": 3160,
      "minuto</w>": 3161,
      "assassin": 3162,
      "ade</w>": 3163,
      "Deixe</w>": 3164,
      "inside</w>": 3165,
      "entre": 3166,
      "ous": 3167,
      "ball</w>": 3168,
      "indi": 3169,
      "tir": 3170,
      "pagar</w>": 3171,
      "means</w>": 3172,
      "making</w>": 3173,
      "roc": 3174,
      "lose</w>": 3175,
      "ced</w>": 3176,
      "consigo</w>": 3177,
      "gri": 3178,
      "fiel": 3179,
      "paris</w>": 3180,
      "almost</w>": 3181,
      "Claro</w>": 3182,
      "si</w>": 3183,
      "Listen</w>": 3184,
      "power</w>": 3185,
      "started</w>": 3186,
      "couple</w>": 3187,
      "bastante</w>": 3188,
      "decis": 3189,
      "daqu": 3190,
      "cau": 3191,
      "exactly</w>": 3192,
      "top</w>": 3193,
      "His</w>": 3194,
      "osa</w>": 3195,
      "cir": 3196,
      "legal</w>": 3197,
      "brin": 3198,
      "Good</w>": 3199,
      "Muito</w>": 3200,
      "ko</w>": 3201,
      "natu": 3202,
      "número</w>": 3203,
      "gl": 3204,
      "estu": 3205,
      "cuse</w>": 3206,
      "everyone</w>": 3207,
      "stran": 3208,
      "dies</w>": 3209,
      "Olhe</w>": 3210,
      "white</w>": 3211,
      "sent</w>": 3212,
      "fle": 3213,
      "envi": 3214,
      "Or</w>": 3215,
      "presa</w>": 3216,
      "buil": 3217,
      "ches</w>": 3218,
      "lembra</w>": 3219,
      "york</w>": 3220,
      "book</w>": 3221,
      "Depois</w>": 3222,
      "suficiente</w>": 3223,
      "teu</w>": 3224,
      "along</w>": 3225,
      "jer": 3226,
      "acabou</w>": 3227,
      "festa</w>": 3228,
      "tade</w>": 3229,
      "Estava</w>": 3230,
      "criança</w>": 3231,
      "pis": 3232,
      "charlie</w>": 3233,
      "cá</w>": 3234,
      "ér": 3235,
      "hate": 3236,
      "numa</w>": 3237,
      "ty": 3238,
      "costu": 3239,
      "bby</w>": 3240,
      "quatro</w>": 3241,
      "tran": 3242,
      "pessoal</w>": 3243,
      "ços</w>": 3244,
      "meses</w>": 3245,
      "pais</w>": 3246,
      "seems</w>": 3247,
      "ford</w>": 3248,
      "telling</w>": 3249,
      "ata</w>": 3250,
      "muita</w>": 3251,
      "hate</w>": 3252,
      "sangue</w>": 3253,
      "venha</w>": 3254,
      "Obrigado</w>": 3255,
      "perder</w>": 3256,
      "cent": 3257,
      "limp": 3258,
      "querido</w>": 3259,
      "ire</w>": 3260,
      "ideia</w>": 3261,
      "ors</w>": 3262,
      "working</w>": 3263,
      "Ven": 3264,
      "gir</w>": 3265,
      "lun": 3266,
      "ouvi</w>": 3267,
      "procurando</w>": 3268,
      "shit</w>": 3269,
      "telefone</w>": 3270,
      "hatever</w>": 3271,
      "sh</w>": 3272,
      "gol": 3273,
      "escrit": 3274,
      "At": 3275,
      "bla": 3276,
      "direito</w>": 3277,
      "Sei</w>": 3278,
      "ces": 3279,
      "exatamente</w>": 3280,
      "movi": 3281,
      "ti</w>": 3282,
      "nobody</w>": 3283,
      "compan": 3284,
      "maneira</w>": 3285,
      "rob": 3286,
      "Will</w>": 3287,
      "country</w>": 3288,
      "Would</w>": 3289,
      "lion</w>": 3290,
      "months</w>": 3291,
      "ery</w>": 3292,
      "nas": 3293,
      "engan": 3294,
      "With</w>": 3295,
      "Espero</w>": 3296,
      "querem</w>": 3297,
      "che</w>": 3298,
      "taken</w>": 3299,
      "gentle": 3300,
      "ams</w>": 3301,
      "lord</w>": 3302,
      "tam</w>": 3303,
      "high</w>": 3304,
      "idéia</w>": 3305,
      "único</w>": 3306,
      "12</w>": 3307,
      "ring</w>": 3308,
      "dent</w>": 3309,
      "dal": 3310,
      "tra</w>": 3311,
      "ges</w>": 3312,
      "morreu</w>": 3313,
      "possible</w>": 3314,
      "free</w>": 3315,
      "baixo</w>": 3316,
      "Thank</w>": 3317,
      "palavra</w>": 3318,
      "between</w>": 3319,
      "though</w>": 3320,
      "expli": 3321,
      "prome": 3322,
      "nossos</w>": 3323,
      "sente</w>": 3324,
      "Lemb": 3325,
      "música</w>": 3326,
      "just": 3327,
      "sul": 3328,
      "sala</w>": 3329,
      "diab": 3330,
      "nesta</w>": 3331,
      "six</w>": 3332,
      "full</w>": 3333,
      "filhos</w>": 3334,
      "recor": 3335,
      "ined</w>": 3336,
      "arri": 3337,
      "acontecer</w>": 3338,
      "frank</w>": 3339,
      "forte</w>": 3340,
      "tia</w>": 3341,
      "Certo</w>": 3342,
      "nal</w>": 3343,
      "deli": 3344,
      "dress</w>": 3345,
      "vice</w>": 3346,
      "muitas</w>": 3347,
      "worth</w>": 3348,
      "clear</w>": 3349,
      "mary</w>": 3350,
      "casar</w>": 3351,
      "significa</w>": 3352,
      "wers</w>": 3353,
      "Of</w>": 3354,
      "pó": 3355,
      "acredito</w>": 3356,
      "chegou</w>": 3357,
      "bei": 3358,
      "ast": 3359,
      "ensin": 3360,
      "dete": 3361,
      "sentir</w>": 3362,
      "aring</w>": 3363,
      "fun</w>": 3364,
      "viol": 3365,
      "bebê</w>": 3366,
      "save</w>": 3367,
      "trouxe</w>": 3368,
      "Cap": 3369,
      "order</w>": 3370,
      "ance</w>": 3371,
      "ph</w>": 3372,
      "seri": 3373,
      "funcion": 3374,
      "esteja</w>": 3375,
      "shouldn</w>": 3376,
      "doutor</w>": 3377,
      "muitos</w>": 3378,
      "ging</w>": 3379,
      "chr": 3380,
      "estes</w>": 3381,
      "maior</w>": 3382,
      "preocupe</w>": 3383,
      "dog</w>": 3384,
      "hão</w>": 3385,
      "ished</w>": 3386,
      "bra</w>": 3387,
      "michael</w>": 3388,
      "ena</w>": 3389,
      "dance</w>": 3390,
      "tio</w>": 3391,
      "street</w>": 3392,
      "hou</w>": 3393,
      "pick</w>": 3394,
      "sendo</w>": 3395,
      "pid</w>": 3396,
      "terri": 3397,
      "win</w>": 3398,
      "cost": 3399,
      "black</w>": 3400,
      "mou": 3401,
      "tê</w>": 3402,
      "ttle</w>": 3403,
      "dez</w>": 3404,
      "sy</w>": 3405,
      "perce": 3406,
      "nenhuma</w>": 3407,
      "mamãe</w>": 3408,
      "bol": 3409,
      "licen": 3410,
      "tenant</w>": 3411,
      "Desculpe</w>": 3412,
      "bru": 3413,
      "conheço</w>": 3414,
      "Tra": 3415,
      "fala</w>": 3416,
      "conseguir</w>": 3417,
      "rem</w>": 3418,
      "him": 3419,
      "quis</w>": 3420,
      "namor": 3421,
      "seis</w>": 3422,
      "inte": 3423,
      "ched</w>": 3424,
      "others</w>": 3425,
      "nat": 3426,
      "lin</w>": 3427,
      "pá": 3428,
      "ona</w>": 3429,
      "super": 3430,
      "Af": 3431,
      "estranho</w>": 3432,
      "Me": 3433,
      "prepar": 3434,
      "dre</w>": 3435,
      "Ro": 3436,
      "chamar</w>": 3437,
      "ounds</w>": 3438,
      "ili": 3439,
      "scre": 3440,
      "ença</w>": 3441,
      "suppose</w>": 3442,
      "suspe": 3443,
      "These</w>": 3444,
      "cast": 3445,
      "missão</w>": 3446,
      "outside</w>": 3447,
      "honey</w>": 3448,
      "nele</w>": 3449,
      "negócio</w>": 3450,
      "avis": 3451,
      "\",</w>": 3452,
      "not": 3453,
      "deser": 3454,
      "ato</w>": 3455,
      "pur": 3456,
      "tire</w>": 3457,
      "çado</w>": 3458,
      "eutenant</w>": 3459,
      "lares</w>": 3460,
      "ates</w>": 3461,
      "sun": 3462,
      "eg": 3463,
      "lives</w>": 3464,
      "100</w>": 3465,
      "pena</w>": 3466,
      "mb</w>": 3467,
      "sw": 3468,
      "Pelo</w>": 3469,
      "convi": 3470,
      "plain</w>": 3471,
      "...": 3472,
      "living</w>": 3473,
      "coman": 3474,
      "Gost": 3475,
      "blu": 3476,
      "supposed</w>": 3477,
      "ejo</w>": 3478,
      "pper</w>": 3479,
      "tá</w>": 3480,
      "kin</w>": 3481,
      "glad</w>": 3482,
      "nio</w>": 3483,
      "tie</w>": 3484,
      "company</w>": 3485,
      "yl": 3486,
      "destro": 3487,
      "pergunta</w>": 3488,
      "deixa</w>": 3489,
      "vivo</w>": 3490,
      "iga</w>": 3491,
      "Até</w>": 3492,
      "menti": 3493,
      "posta</w>": 3494,
      "longer</w>": 3495,
      "espa": 3496,
      "seem</w>": 3497,
      "spi": 3498,
      "vas</w>": 3499,
      "mas": 3500,
      "cti": 3501,
      "Poder": 3502,
      "Mo": 3503,
      "inten": 3504,
      "cof": 3505,
      "dra</w>": 3506,
      "post": 3507,
      "crime</w>": 3508,
      "Nem</w>": 3509,
      "field</w>": 3510,
      "Che": 3511,
      "faria</w>": 3512,
      "ávamos</w>": 3513,
      "voc": 3514,
      "diferente</w>": 3515,
      "stupid</w>": 3516,
      "ka": 3517,
      "cha</w>": 3518,
      "deste</w>": 3519,
      "himself</w>": 3520,
      "hada</w>": 3521,
      "ofer": 3522,
      "inar</w>": 3523,
      "cendo</w>": 3524,
      "sense</w>": 3525,
      "Veja</w>": 3526,
      "São</w>": 3527,
      "davi": 3528,
      "outras</w>": 3529,
      "count</w>": 3530,
      "ming</w>": 3531,
      "mm</w>": 3532,
      "pronto</w>": 3533,
      "ester": 3534,
      "gul": 3535,
      "Ter": 3536,
      "estavam</w>": 3537,
      "comida</w>": 3538,
      "iz</w>": 3539,
      "dados</w>": 3540,
      "After</w>": 3541,
      "inst": 3542,
      "Fal": 3543,
      "mudar</w>": 3544,
      "Preciso</w>": 3545,
      "stri": 3546,
      "Sempre</w>": 3547,
      "inspe": 3548,
      "ligar</w>": 3549,
      "dame</w>": 3550,
      "caix": 3551,
      "special</w>": 3552,
      "Apenas</w>": 3553,
      "Give</w>": 3554,
      "resol": 3555,
      "ótimo</w>": 3556,
      "estará</w>": 3557,
      "dendo</w>": 3558,
      "bet</w>": 3559,
      "preci": 3560,
      "Like</w>": 3561,
      "pô": 3562,
      "orden": 3563,
      "és</w>": 3564,
      "filme</w>": 3565,
      "colocar</w>": 3566,
      "mostrar</w>": 3567,
      "necess": 3568,
      "hamos</w>": 3569,
      "espero</w>": 3570,
      "saí": 3571,
      "ouro</w>": 3572,
      "ança</w>": 3573,
      "dir</w>": 3574,
      "news</w>": 3575,
      "gru": 3576,
      "nia</w>": 3577,
      "ator</w>": 3578,
      "leaving</w>": 3579,
      "gio</w>": 3580,
      "acreditar</w>": 3581,
      "bill</w>": 3582,
      "durante</w>": 3583,
      "care": 3584,
      "normal</w>": 3585,
      "ket</w>": 3586,
      "even": 3587,
      "resto</w>": 3588,
      "road</w>": 3589,
      "ington</w>": 3590,
      "food</w>": 3591,
      "table</w>": 3592,
      "pequena</w>": 3593,
      "excel": 3594,
      "cedo</w>": 3595,
      "arru": 3596,
      "mesa</w>": 3597,
      "progra": 3598,
      "noti": 3599,
      "ficial</w>": 3600,
      "comprar</w>": 3601,
      "realiz": 3602,
      "Dr</w>": 3603,
      "cuidar</w>": 3604,
      "lau": 3605,
      "touch</w>": 3606,
      "mid": 3607,
      "estiver</w>": 3608,
      "dly</w>": 3609,
      "esca": 3610,
      "Only</w>": 3611,
      "sick</w>": 3612,
      "dólares</w>": 3613,
      "especial</w>": 3614,
      "mil</w>": 3615,
      "tendo</w>": 3616,
      "coronel</w>": 3617,
      "jar</w>": 3618,
      "darling</w>": 3619,
      "jogar</w>": 3620,
      "uncle</w>": 3621,
      "board</w>": 3622,
      "rather</w>": 3623,
      "escritório</w>": 3624,
      "tamente</w>": 3625,
      "descobrir</w>": 3626,
      "Pensei</w>": 3627,
      "mee": 3628,
      "nar": 3629,
      "appe": 3630,
      "soci": 3631,
      "culo</w>": 3632,
      "hair</w>": 3633,
      "conta": 3634,
      "olhar</w>": 3635,
      "Assim</w>": 3636,
      "wood</w>": 3637,
      "Any": 3638,
      "vie": 3639,
      "See</w>": 3640,
      "ruim</w>": 3641,
      "govern": 3642,
      "adm": 3643,
      "equi": 3644,
      "paí": 3645,
      "força</w>": 3646,
      "trust</w>": 3647,
      "heav": 3648,
      "Even</w>": 3649,
      "earth</w>": 3650,
      "ouviu</w>": 3651,
      "actually</w>": 3652,
      "rich": 3653,
      "cannot</w>": 3654,
      "gy</w>": 3655,
      "último</w>": 3656,
      "takes</w>": 3657,
      "dow</w>": 3658,
      "apro": 3659,
      "passado</w>": 3660,
      "tv</w>": 3661,
      "eiro</w>": 3662,
      "produ": 3663,
      "drive</w>": 3664,
      "próxima</w>": 3665,
      "cuidado</w>": 3666,
      "sai": 3667,
      "princ": 3668,
      "ki</w>": 3669,
      "faço</w>": 3670,
      "born</w>": 3671,
      "rios</w>": 3672,
      "esteve</w>": 3673,
      "poor</w>": 3674,
      "querer</w>": 3675,
      "ata": 3676,
      "ides</w>": 3677,
      "shor": 3678,
      "Vá</w>": 3679,
      "anyway</w>": 3680,
      "write</w>": 3681,
      "Our</w>": 3682,
      "david</w>": 3683,
      "are": 3684,
      "precisamos</w>": 3685,
      "vista</w>": 3686,
      "livro</w>": 3687,
      "louco</w>": 3688,
      "lucky</w>": 3689,
      "boca</w>": 3690,
      "certa</w>": 3691,
      "vesti": 3692,
      "sell</w>": 3693,
      "hein</w>": 3694,
      "Man": 3695,
      "estado</w>": 3696,
      "running</w>": 3697,
      "ii</w>": 3698,
      "vag": 3699,
      "parents</w>": 3700,
      "return</w>": 3701,
      "colonel</w>": 3702,
      "fica": 3703,
      "learn</w>": 3704,
      "ór": 3705,
      "arão</w>": 3706,
      "carta</w>": 3707,
      "sagem</w>": 3708,
      "nosco</w>": 3709,
      "dream</w>": 3710,
      "noc": 3711,
      "continuar</w>": 3712,
      "music</w>": 3713,
      "aixo</w>": 3714,
      "levá</w>": 3715,
      "machu": 3716,
      "enta</w>": 3717,
      "americ": 3718,
      "paul</w>": 3719,
      "fur": 3720,
      "senti": 3721,
      "vio</w>": 3722,
      "carre": 3723,
      "plan</w>": 3724,
      "chin": 3725,
      "Un": 3726,
      "dir": 3727,
      "shoot</w>": 3728,
      "ponto</w>": 3729,
      "turned</w>": 3730,
      "sign</w>": 3731,
      "jack": 3732,
      "rela": 3733,
      "diri": 3734,
      "sério</w>": 3735,
      "devemos</w>": 3736,
      "estú": 3737,
      "coz": 3738,
      "favor": 3739,
      "posi": 3740,
      "Acha</w>": 3741,
      "bir": 3742,
      "hot</w>": 3743,
      "visto</w>": 3744,
      "arem</w>": 3745,
      "kee": 3746,
      "happens</w>": 3747,
      "pazes</w>": 3748,
      "ctive</w>": 3749,
      "human</w>": 3750,
      "segundo</w>": 3751,
      "bs</w>": 3752,
      "fee</w>": 3753,
      "sage</w>": 3754,
      "needs</w>": 3755,
      "trás</w>": 3756,
      "defen": 3757,
      "rapaz</w>": 3758,
      "air</w>": 3759,
      "jur": 3760,
      "itting</w>": 3761,
      "bye</w>": 3762,
      "falou</w>": 3763,
      "cold</w>": 3764,
      "inas</w>": 3765,
      "sse": 3766,
      "she": 3767,
      "thanks</w>": 3768,
      "usu": 3769,
      "div": 3770,
      "catch</w>": 3771,
      "luz</w>": 3772,
      "veis</w>": 3773,
      "control</w>": 3774,
      "marry</w>": 3775,
      "servi": 3776,
      "roub": 3777,
      "acabar</w>": 3778,
      "become</w>": 3779,
      "mission</w>": 3780,
      "Sinto</w>": 3781,
      "Sh": 3782,
      "conosco</w>": 3783,
      "expect</w>": 3784,
      "igu": 3785,
      "país</w>": 3786,
      "tenente</w>": 3787,
      "estas</w>": 3788,
      "known</w>": 3789,
      "ur</w>": 3790,
      "assun": 3791,
      "chris": 3792,
      "Gostaria</w>": 3793,
      "rep": 3794,
      "mado</w>": 3795,
      "pior</w>": 3796,
      "feeling</w>": 3797,
      "stairs</w>": 3798,
      "ane</w>": 3799,
      "promise</w>": 3800,
      "picture</w>": 3801,
      "achar</w>": 3802,
      "horse</w>": 3803,
      "espera</w>": 3804,
      "caras</w>": 3805,
      "chegar": 3806,
      "ray</w>": 3807,
      "words</w>": 3808,
      "sozinha</w>": 3809,
      "Disse</w>": 3810,
      "ross</w>": 3811,
      "small</w>": 3812,
      "empre": 3813,
      "casa": 3814,
      "ick": 3815,
      "ância</w>": 3816,
      "escap": 3817,
      "Nada</w>": 3818,
      "squ": 3819,
      "bus</w>": 3820,
      "van</w>": 3821,
      "cho</w>": 3822,
      "stop": 3823,
      "immy</w>": 3824,
      "té": 3825,
      "Quanto</w>": 3826,
      "fres": 3827,
      "evening</w>": 3828,
      "law</w>": 3829,
      "harry</w>": 3830,
      "#.</w>": 3831,
      "wonder": 3832,
      "smo": 3833,
      "dan</w>": 3834,
      "sort</w>": 3835,
      "master</w>": 3836,
      "dem": 3837,
      "playing</w>": 3838,
      "ssa</w>": 3839,
      "brigada</w>": 3840,
      "nave</w>": 3841,
      "wear</w>": 3842,
      "safe</w>": 3843,
      "weeks</w>": 3844,
      "aking</w>": 3845,
      "iste</w>": 3846,
      "incom": 3847,
      "cam": 3848,
      "encont": 3849,
      "mex": 3850,
      "paci": 3851,
      "val</w>": 3852,
      "enter": 3853,
      "ben</w>": 3854,
      "hões</w>": 3855,
      "cios</w>": 3856,
      "mike</w>": 3857,
      "fico</w>": 3858,
      "semanas</w>": 3859,
      "tico</w>": 3860,
      "wonder</w>": 3861,
      "daddy</w>": 3862,
      "paper</w>": 3863,
      "ahead</w>": 3864,
      "ganhar</w>": 3865,
      "manter</w>": 3866,
      "gento</w>": 3867,
      "yle</w>": 3868,
      "sex": 3869,
      "jul": 3870,
      "sound</w>": 3871,
      "fact</w>": 3872,
      "ites</w>": 3873,
      "sabem</w>": 3874,
      "cres": 3875,
      "sli": 3876,
      "sob</w>": 3877,
      "fogo</w>": 3878,
      "olhe</w>": 3879,
      "hil": 3880,
      "solu": 3881,
      "voltar": 3882,
      "!\".</w>": 3883,
      "boat</w>": 3884,
      "pé</w>": 3885,
      "Podemos</w>": 3886,
      "leve</w>": 3887,
      "pus": 3888,
      "lhes</w>": 3889,
      "nessa</w>": 3890,
      "pati": 3891,
      "iva</w>": 3892,
      "alto</w>": 3893,
      "pping</w>": 3894,
      "fucking</w>": 3895,
      "head": 3896,
      "tten</w>": 3897,
      "pers</w>": 3898,
      "gie</w>": 3899,
      "cked</w>": 3900,
      "ula</w>": 3901,
      "ride</w>": 3902,
      "verá</w>": 3903,
      "funny</w>": 3904,
      "sabemos</w>": 3905,
      "tho": 3906,
      "nossas</w>": 3907,
      "amar": 3908,
      "veu</w>": 3909,
      "precisar</w>": 3910,
      "dig": 3911,
      "onal</w>": 3912,
      "devem</w>": 3913,
      "hose</w>": 3914,
      "mol": 3915,
      "conhecer</w>": 3916,
      "Ge": 3917,
      "bonita</w>": 3918,
      "loved</w>": 3919,
      "gers</w>": 3920,
      "ár": 3921,
      "elle</w>": 3922,
      "Ar": 3923,
      "presente</w>": 3924,
      "drin": 3925,
      "saiu</w>": 3926,
      "letter</w>": 3927,
      "Some</w>": 3928,
      "cavalo</w>": 3929,
      "linda</w>": 3930,
      "pediu</w>": 3931,
      "sito</w>": 3932,
      "comandante</w>": 3933,
      "Venha</w>": 3934,
      "Estão</w>": 3935,
      "eye</w>": 3936,
      "fair</w>": 3937,
      "bas": 3938,
      "conseguiu</w>": 3939,
      "vim</w>": 3940,
      "luck</w>": 3941,
      "horr": 3942,
      "wash": 3943,
      "weren</w>": 3944,
      "mentos</w>": 3945,
      "rança</w>": 3946,
      "secret</w>": 3947,
      "preso</w>": 3948,
      "acordo</w>": 3949,
      "past</w>": 3950,
      "comman": 3951,
      "armos</w>": 3952,
      "dom</w>": 3953,
      "licença</w>": 3954,
      "les": 3955,
      "looked</w>": 3956,
      "domin": 3957,
      "bomb": 3958,
      "advo": 3959,
      "hei</w>": 3960,
      "Será</w>": 3961,
      "rua</w>": 3962,
      "tes": 3963,
      "andar</w>": 3964,
      "chama</w>": 3965,
      "iras</w>": 3966,
      "entender</w>": 3967,
      "partir</w>": 3968,
      "prazer</w>": 3969,
      "próprio</w>": 3970,
      "elly</w>": 3971,
      "barco</w>": 3972,
      "rosto</w>": 3973,
      "cute</w>": 3974,
      "tis": 3975,
      "roman": 3976,
      "viagem</w>": 3977,
      "exc": 3978,
      "velha</w>": 3979,
      "colle": 3980,
      "posição</w>": 3981,
      "dding</w>": 3982,
      "respeito</w>": 3983,
      "Fu": 3984,
      "modo</w>": 3985,
      "jar": 3986,
      "bebi": 3987,
      "train</w>": 3988,
      "cher</w>": 3989,
      "ene": 3990,
      "Perhaps</w>": 3991,
      "person": 3992,
      "esus</w>": 3993,
      "tired</w>": 3994,
      "bril": 3995,
      "ian</w>": 3996,
      "armas</w>": 3997,
      "pal</w>": 3998,
      "au</w>": 3999,
      "beat</w>": 4000,
      "Hel": 4001,
      "good": 4002,
      "prisão</w>": 4003,
      "ide</w>": 4004,
      "estra": 4005,
      "trazer</w>": 4006,
      "For": 4007,
      "ener": 4008,
      "ajudá</w>": 4009,
      "Mais</w>": 4010,
      "ãe</w>": 4011,
      "tas": 4012,
      "million</w>": 4013,
      "consegue</w>": 4014,
      "chamado</w>": 4015,
      "over": 4016,
      "além</w>": 4017,
      "40</w>": 4018,
      "By</w>": 4019,
      "ição</w>": 4020,
      "memb": 4021,
      "nesse</w>": 4022,
      "date</w>": 4023,
      "sch": 4024,
      "Sor": 4025,
      "Wa": 4026,
      "lieutenant</w>": 4027,
      "bobby</w>": 4028,
      "Cor": 4029,
      "whatever</w>": 4030,
      "mark</w>": 4031,
      "fall</w>": 4032,
      "mor</w>": 4033,
      "tha</w>": 4034,
      "emer": 4035,
      "deira</w>": 4036,
      "johnny</w>": 4037,
      "perguntar</w>": 4038,
      "esterday</w>": 4039,
      "estre</w>": 4040,
      "colo": 4041,
      "cabelo</w>": 4042,
      "entendo</w>": 4043,
      "mai": 4044,
      "enjo": 4045,
      "depen": 4046,
      "unt</w>": 4047,
      "coffee</w>": 4048,
      "achei</w>": 4049,
      "meeting</w>": 4050,
      "lembro</w>": 4051,
      "fa</w>": 4052,
      "gil": 4053,
      "tain": 4054,
      "feet</w>": 4055,
      "presidente</w>": 4056,
      "strong</w>": 4057,
      "fazem</w>": 4058,
      "ston</w>": 4059,
      "obje": 4060,
      "test</w>": 4061,
      "geant</w>": 4062,
      "encontro</w>": 4063,
      "ran</w>": 4064,
      "turo</w>": 4065,
      "fortun": 4066,
      "acu": 4067,
      "thes</w>": 4068,
      "sol</w>": 4069,
      "zo</w>": 4070,
      "deixá</w>": 4071,
      "começou</w>": 4072,
      "ramos</w>": 4073,
      "boo": 4074,
      "ats</w>": 4075,
      "west</w>": 4076,
      "clean</w>": 4077,
      "abe": 4078,
      "thinks</w>": 4079,
      "prise</w>": 4080,
      "tica</w>": 4081,
      "perfect</w>": 4082,
      "pho": 4083,
      "hasn</w>": 4084,
      "asking</w>": 4085,
      "esides</w>": 4086,
      "pel</w>": 4087,
      "engra": 4088,
      "publi": 4089,
      "merda</w>": 4090,
      "pag": 4091,
      "estivesse</w>": 4092,
      "ri</w>": 4093,
      "plac": 4094,
      "Sab": 4095,
      "comm": 4096,
      "Sem</w>": 4097,
      "falta</w>": 4098,
      "acontece</w>": 4099,
      "ode": 4100,
      "próximo</w>": 4101,
      "jim</w>": 4102,
      "cing</w>": 4103,
      "umas</w>": 4104,
      "plano</w>": 4105,
      "jen": 4106,
      "palavras</w>": 4107,
      "whe": 4108,
      "memor": 4109,
      "espere</w>": 4110,
      "peter</w>": 4111,
      "Nobody</w>": 4112,
      "Gu": 4113,
      "Nothing</w>": 4114,
      "consel": 4115,
      "apaix": 4116,
      "meia</w>": 4117,
      "ício</w>": 4118,
      "hi</w>": 4119,
      "houve</w>": 4120,
      "ren</w>": 4121,
      "flu": 4122,
      "calling</w>": 4123,
      "bob</w>": 4124,
      "amiga</w>": 4125,
      "law": 4126,
      "li</w>": 4127,
      "evi": 4128,
      "lei</w>": 4129,
      "conversar</w>": 4130,
      "fish</w>": 4131,
      "pegou</w>": 4132,
      "ís": 4133,
      "cigar": 4134,
      "hy": 4135,
      "desculpe</w>": 4136,
      "conven": 4137,
      "explain</w>": 4138,
      "somewhere</w>": 4139,
      "reuni": 4140,
      "selves</w>": 4141,
      "form</w>": 4142,
      "kiss</w>": 4143,
      "aban": 4144,
      "preten": 4145,
      "fool</w>": 4146,
      "questão</w>": 4147,
      "Joh": 4148,
      "menina</w>": 4149,
      "bis": 4150,
      ".\"</w>": 4151,
      "rul": 4152,
      "entos</w>": 4153,
      "livre</w>": 4154,
      "smith</w>": 4155,
      "estaria</w>": 4156,
      "felt</w>": 4157,
      "deiro</w>": 4158,
      "controle</w>": 4159,
      "segre": 4160,
      "figh": 4161,
      "alma</w>": 4162,
      "clothes</w>": 4163,
      "resposta</w>": 4164,
      "queremos</w>": 4165,
      "grand": 4166,
      "quad": 4167,
      "hado</w>": 4168,
      "ficando</w>": 4169,
      "ial</w>": 4170,
      "inimi": 4171,
      "report</w>": 4172,
      "mate</w>": 4173,
      "bro</w>": 4174,
      "ining</w>": 4175,
      "seguro</w>": 4176,
      "base</w>": 4177,
      "vale</w>": 4178,
      "worked</w>": 4179,
      "yo": 4180,
      "pass</w>": 4181,
      "officer</w>": 4182,
      "Ouça</w>": 4183,
      "questions</w>": 4184,
      "dizem</w>": 4185,
      "irr": 4186,
      "informa": 4187,
      "serve</w>": 4188,
      "On</w>": 4189,
      "Tw": 4190,
      "piece</w>": 4191,
      "inhos</w>": 4192,
      "ow": 4193,
      "có": 4194,
      "willi": 4195,
      "istas</w>": 4196,
      "existe</w>": 4197,
      "ident</w>": 4198,
      "dí": 4199,
      "rapazes</w>": 4200,
      "franc": 4201,
      "plea": 4202,
      "follow</w>": 4203,
      "terminar</w>": 4204,
      "maria</w>": 4205,
      "trem</w>": 4206,
      "linha</w>": 4207,
      "vado</w>": 4208,
      "Could</w>": 4209,
      "sci": 4210,
      "future</w>": 4211,
      "mistake</w>": 4212,
      "apres": 4213,
      "sometimes</w>": 4214,
      "pressão</w>": 4215,
      "Lu": 4216,
      "strange</w>": 4217,
      "chief</w>": 4218,
      "quebr": 4219,
      "scared</w>": 4220,
      "ordem</w>": 4221,
      "boss</w>": 4222,
      "cole": 4223,
      "Poderia</w>": 4224,
      "gentlemen</w>": 4225,
      "pere</w>": 4226,
      "olho</w>": 4227,
      "Achei</w>": 4228,
      "gin</w>": 4229,
      "garotas</w>": 4230,
      "senhores</w>": 4231,
      "court</w>": 4232,
      "pressa</w>": 4233,
      "lead": 4234,
      "guns</w>": 4235,
      "olhada</w>": 4236,
      "giving</w>": 4237,
      "Those</w>": 4238,
      "apaixon": 4239,
      "peg": 4240,
      "enda</w>": 4241,
      "steve</w>": 4242,
      "cover</w>": 4243,
      "reli": 4244,
      "given</w>": 4245,
      "assis": 4246,
      "Mes": 4247,
      "11</w>": 4248,
      "vam</w>": 4249,
      "câ": 4250,
      "cito</w>": 4251,
      "billy</w>": 4252,
      "povo</w>": 4253,
      "Todo</w>": 4254,
      "throw</w>": 4255,
      "vely</w>": 4256,
      "club</w>": 4257,
      "haver</w>": 4258,
      "els</w>": 4259,
      "stor": 4260,
      "atten": 4261,
      "cident</w>": 4262,
      "Cu": 4263,
      "riage</w>": 4264,
      "sau": 4265,
      "menino</w>": 4266,
      "sla": 4267,
      "çam</w>": 4268,
      "concer": 4269,
      "igh": 4270,
      "mouth</w>": 4271,
      "ponho</w>": 4272,
      "hia</w>": 4273,
      "max</w>": 4274,
      "seram</w>": 4275,
      "negócios</w>": 4276,
      "von": 4277,
      "campo</w>": 4278,
      "thre": 4279,
      "sweet</w>": 4280,
      "dru": 4281,
      "present</w>": 4282,
      "proje": 4283,
      "futuro</w>": 4284,
      "blue</w>": 4285,
      "abor": 4286,
      "fazê</w>": 4287,
      "pain</w>": 4288,
      "terrible</w>": 4289,
      "changed</w>": 4290,
      "Vol": 4291,
      "verda": 4292,
      "gold</w>": 4293,
      "Pri": 4294,
      "discus": 4295,
      "tada</w>": 4296,
      "aqueles</w>": 4297,
      "cover": 4298,
      "perigo": 4299,
      "shut</w>": 4300,
      "moun": 4301,
      "bado</w>": 4302,
      "bonito</w>": 4303,
      "passou</w>": 4304,
      "ron": 4305,
      "worse</w>": 4306,
      "fault</w>": 4307,
      "sam": 4308,
      "xa</w>": 4309,
      "noon</w>": 4310,
      "pose</w>": 4311,
      "hole</w>": 4312,
      "station</w>": 4313,
      "mad</w>": 4314,
      "sky</w>": 4315,
      "infer": 4316,
      "pro</w>": 4317,
      "sum": 4318,
      "animal</w>": 4319,
      "high": 4320,
      "Right</w>": 4321,
      "Também</w>": 4322,
      "cts</w>": 4323,
      "drop</w>": 4324,
      "after": 4325,
      "tiver</w>": 4326,
      "troc": 4327,
      "pain": 4328,
      "local</w>": 4329,
      "tions</w>": 4330,
      "finish</w>": 4331,
      "kin": 4332,
      "tainly</w>": 4333,
      "própria</w>": 4334,
      "puta": 4335,
      "thro": 4336,
      "padre</w>": 4337,
      "roupas</w>": 4338,
      "Ac": 4339,
      "caught</w>": 4340,
      "exam": 4341,
      "voltou</w>": 4342,
      "sinal</w>": 4343,
      "banco</w>": 4344,
      "army</w>": 4345,
      "vidas</w>": 4346,
      "sie</w>": 4347,
      "god": 4348,
      "month</w>": 4349,
      "serious</w>": 4350,
      "contou</w>": 4351,
      "Além</w>": 4352,
      "ken": 4353,
      "natal</w>": 4354,
      "rich</w>": 4355,
      "pósito</w>": 4356,
      "Pa": 4357,
      "cent</w>": 4358,
      "wit": 4359,
      "Espere</w>": 4360,
      "pelos</w>": 4361,
      "henry</w>": 4362,
      "envol": 4363,
      "finished</w>": 4364,
      "almo": 4365,
      "ously</w>": 4366,
      "assunto</w>": 4367,
      "apart": 4368,
      "near</w>": 4369,
      "exér": 4370,
      "quente</w>": 4371,
      "dark</w>": 4372,
      "chur": 4373,
      "sonho</w>": 4374,
      "segurança</w>": 4375,
      "madame</w>": 4376,
      "tros</w>": 4377,
      "enty</w>": 4378,
      "works</w>": 4379,
      "curso</w>": 4380,
      "ested</w>": 4381,
      "tom": 4382,
      "25</w>": 4383,
      "irst</w>": 4384,
      "itor</w>": 4385,
      "yesterday</w>": 4386,
      "simples</w>": 4387,
      "team</w>": 4388,
      "hang</w>": 4389,
      "levan": 4390,
      "remos</w>": 4391,
      "diabos</w>": 4392,
      "beber</w>": 4393,
      "ght": 4394,
      "fantas": 4395,
      "straight</w>": 4396,
      "estive</w>": 4397,
      "cão</w>": 4398,
      "anne</w>": 4399,
      "acredit": 4400,
      "fuck</w>": 4401,
      "dição</w>": 4402,
      "tua</w>": 4403,
      "rou</w>": 4404,
      "seguir</w>": 4405,
      "kept</w>": 4406,
      "ot": 4407,
      "plane</w>": 4408,
      "ils</w>": 4409,
      "perdeu</w>": 4410,
      "sey</w>": 4411,
      "weap": 4412,
      "entende</w>": 4413,
      "esqueça</w>": 4414,
      "atenção</w>": 4415,
      "avião</w>": 4416,
      "danger": 4417,
      "early</w>": 4418,
      "olha</w>": 4419,
      "encontra": 4420,
      "irei</w>": 4421,
      "attack</w>": 4422,
      "assassino</w>": 4423,
      "cou</w>": 4424,
      "soldi": 4425,
      "erro</w>": 4426,
      "gate</w>": 4427,
      "Aquele</w>": 4428,
      "Senhor</w>": 4429,
      "os": 4430,
      "vive</w>": 4431,
      "dança</w>": 4432,
      "lembrar</w>": 4433,
      "class</w>": 4434,
      "sargento</w>": 4435,
      "figure</w>": 4436,
      "eh</w>": 4437,
      "ble": 4438,
      "corri": 4439,
      "separ": 4440,
      "boas</w>": 4441,
      "dered</w>": 4442,
      "pada</w>": 4443,
      "doente</w>": 4444,
      "discu": 4445,
      "miles</w>": 4446,
      "situação</w>": 4447,
      "incomo": 4448,
      "wake</w>": 4449,
      "Wait</w>": 4450,
      "voz</w>": 4451,
      "ordens</w>": 4452,
      "Har": 4453,
      "eur</w>": 4454,
      "ecer</w>": 4455,
      "christ": 4456,
      "fale</w>": 4457,
      "president</w>": 4458,
      "salvar</w>": 4459,
      "Mesmo</w>": 4460,
      "gger</w>": 4461,
      "tony</w>": 4462,
      "rea</w>": 4463,
      "exército</w>": 4464,
      "Às</w>": 4465,
      "hand": 4466,
      "atrav": 4467,
      "majest": 4468,
      "acredita</w>": 4469,
      "dence</w>": 4470,
      "seeing</w>": 4471,
      "spend</w>": 4472,
      "ôni": 4473,
      "vis</w>": 4474,
      "gotten</w>": 4475,
      "rica</w>": 4476,
      "tocar</w>": 4477,
      "Thanks</w>": 4478,
      "position</w>": 4479,
      "prove</w>": 4480,
      "dades</w>": 4481,
      "wedding</w>": 4482,
      "orders</w>": 4483,
      "bank</w>": 4484,
      "gle</w>": 4485,
      "ques</w>": 4486,
      "perdo": 4487,
      "cool</w>": 4488,
      "pegue</w>": 4489,
      "ações</w>": 4490,
      "follo": 4491,
      "perguntas</w>": 4492,
      "pes</w>": 4493,
      "rid</w>": 4494,
      "perhaps</w>": 4495,
      "crimin": 4496,
      "agu": 4497,
      "atac": 4498,
      "force</w>": 4499,
      "total": 4500,
      "arti": 4501,
      "sea</w>": 4502,
      "shar": 4503,
      "abrir</w>": 4504,
      "air": 4505,
      "Ju": 4506,
      "stone</w>": 4507,
      "dú": 4508,
      "sun</w>": 4509,
      "Fran": 4510,
      "dow": 4511,
      "dangerous</w>": 4512,
      "exe": 4513,
      "box</w>": 4514,
      "han</w>": 4515,
      "sieur</w>": 4516,
      "state</w>": 4517,
      "500</w>": 4518,
      "recu": 4519,
      "stick</w>": 4520,
      "mi</w>": 4521,
      "ester</w>": 4522,
      "Remember</w>": 4523,
      "esquecer</w>": 4524,
      "Sorry</w>": 4525,
      "lunch</w>": 4526,
      "Acre": 4527,
      "mês</w>": 4528,
      "message</w>": 4529,
      "ceiro</w>": 4530,
      "Char": 4531,
      "ame": 4532,
      "advogado</w>": 4533,
      "cting</w>": 4534,
      "quan": 4535,
      "emprego</w>": 4536,
      "naquela</w>": 4537,
      "Say</w>": 4538,
      "gener": 4539,
      "vit": 4540,
      "Dê</w>": 4541,
      "edu": 4542,
      "talked</w>": 4543,
      "jam</w>": 4544,
      "lies</w>": 4545,
      "paid</w>": 4546,
      "guarda</w>": 4547,
      "peda": 4548,
      "ze": 4549,
      "serviço</w>": 4550,
      "ful": 4551,
      "lock</w>": 4552,
      "Ke": 4553,
      "levou</w>": 4554,
      "mortos</w>": 4555,
      "oud</w>": 4556,
      "rie</w>": 4557,
      "Cha": 4558,
      "assust": 4559,
      "companhia</w>": 4560,
      "acidente</w>": 4561,
      "saber": 4562,
      "ry": 4563,
      "heal": 4564,
      "vin</w>": 4565,
      "thor": 4566,
      "horita</w>": 4567,
      "tim</w>": 4568,
      "via": 4569,
      "bag": 4570,
      "terrível</w>": 4571,
      "arma": 4572,
      "orgul": 4573,
      "sen</w>": 4574,
      ".,</w>": 4575,
      "eddie</w>": 4576,
      "ema</w>": 4577,
      "ual</w>": 4578,
      "fly</w>": 4579,
      "Looks</w>": 4580,
      "pos</w>": 4581,
      "foto</w>": 4582,
      "montan": 4583,
      "peace</w>": 4584,
      "Every</w>": 4585,
      "bons</w>": 4586,
      "ond</w>": 4587,
      "fit</w>": 4588,
      "morar</w>": 4589,
      "Does</w>": 4590,
      "perten": 4591,
      "pudesse</w>": 4592,
      "aquilo</w>": 4593,
      "Ti": 4594,
      "Two</w>": 4595,
      "God</w>": 4596,
      "fru": 4597,
      "fren": 4598,
      "kar": 4599,
      "unk</w>": 4600,
      "sex</w>": 4601,
      "ku": 4602,
      "fato</w>": 4603,
      "leo</w>": 4604,
      "ficará</w>": 4605,
      "First</w>": 4606,
      "bought</w>": 4607,
      "motivo</w>": 4608,
      "surpresa</w>": 4609,
      "...?</w>": 4610,
      "procurar</w>": 4611,
      "úbli": 4612,
      "vá": 4613,
      "voice</w>": 4614,
      "árv": 4615,
      "park</w>": 4616,
      "regis": 4617,
      "jap": 4618,
      "art": 4619,
      "ios</w>": 4620,
      "lam": 4621,
      "atos</w>": 4622,
      "worried</w>": 4623,
      "descul": 4624,
      "caixa</w>": 4625,
      "daria</w>": 4626,
      "inoc": 4627,
      "rock</w>": 4628,
      "alha</w>": 4629,
      "cali": 4630,
      "usando</w>": 4631,
      "sted</w>": 4632,
      "vontade</w>": 4633,
      "new": 4634,
      "Dev": 4635,
      "zo": 4636,
      "lutar</w>": 4637,
      "experi": 4638,
      "race</w>": 4639,
      "itado</w>": 4640,
      "breve</w>": 4641,
      "bebida</w>": 4642,
      "abandon": 4643,
      "christmas</w>": 4644,
      "zinho</w>": 4645,
      "step</w>": 4646,
      "descan": 4647,
      "ssemos</w>": 4648,
      "ale</w>": 4649,
      "explicar</w>": 4650,
      "devol": 4651,
      "deram</w>": 4652,
      "cular</w>": 4653,
      "excuse</w>": 4654,
      "open": 4655,
      "saia</w>": 4656,
      "guil": 4657,
      "nel</w>": 4658,
      "decided</w>": 4659,
      "nervo": 4660,
      "monte</w>": 4661,
      "itude</w>": 4662,
      "estrada</w>": 4663,
      "cê</w>": 4664,
      "exce": 4665,
      "commander</w>": 4666,
      "ero": 4667,
      "seven</w>": 4668,
      "taram</w>": 4669,
      "cele": 4670,
      "inos</w>": 4671,
      "buscar</w>": 4672,
      "kie</w>": 4673,
      "capaz</w>": 4674,
      "ameri": 4675,
      "pés</w>": 4676,
      "itch": 4677,
      "pobre</w>": 4678,
      "using</w>": 4679,
      "slee": 4680,
      "vestido</w>": 4681,
      "loja</w>": 4682,
      "handle</w>": 4683,
      "fro": 4684,
      "melhores</w>": 4685,
      "soul</w>": 4686,
      "american</w>": 4687,
      "oria</w>": 4688,
      "tz</w>": 4689,
      "certainly</w>": 4690,
      "erife</w>": 4691,
      "tema</w>": 4692,
      "nica</w>": 4693,
      "agrade": 4694,
      "200</w>": 4695,
      "oficial</w>": 4696,
      "ably</w>": 4697,
      "mestre</w>": 4698,
      "gn": 4699,
      "charles</w>": 4700,
      "chi</w>": 4701,
      "atório</w>": 4702,
      "Ca": 4703,
      "From</w>": 4704,
      "swee": 4705,
      "quei": 4706,
      "Her</w>": 4707,
      "fred</w>": 4708,
      "smar": 4709,
      "imagin": 4710,
      "quiet</w>": 4711,
      "hurry</w>": 4712,
      "moon</w>": 4713,
      "chão</w>": 4714,
      "quina</w>": 4715,
      "lovely</w>": 4716,
      "embaixo</w>": 4717,
      "Conhe": 4718,
      "gel": 4719,
      "ris</w>": 4720,
      "pete</w>": 4721,
      "cabei</w>": 4722,
      "acer": 4723,
      "Something</w>": 4724,
      "ony</w>": 4725,
      "sava</w>": 4726,
      "sear": 4727,
      "doub": 4728,
      "jimmy</w>": 4729,
      "tente</w>": 4730,
      "loves</w>": 4731,
      "ilha</w>": 4732,
      "Algu": 4733,
      "vill": 4734,
      "lead</w>": 4735,
      "trip</w>": 4736,
      "richard</w>": 4737,
      "anna</w>": 4738,
      "veria</w>": 4739,
      "papel</w>": 4740,
      "olhando</w>": 4741,
      "main</w>": 4742,
      "princi": 4743,
      "milhões</w>": 4744,
      "gic</w>": 4745,
      "arm</w>": 4746,
      "choice</w>": 4747,
      "finally</w>": 4748,
      "escrever</w>": 4749,
      "roupa</w>": 4750,
      "blow</w>": 4751,
      "aprender</w>": 4752,
      "Vi": 4753,
      "ater</w>": 4754,
      "enti": 4755,
      "stopped</w>": 4756,
      "ek</w>": 4757,
      "Col": 4758,
      "volte</w>": 4759,
      "obvi": 4760,
      "vermel": 4761,
      "tentou</w>": 4762,
      "sergeant</w>": 4763,
      "vaz": 4764,
      "firo</w>": 4765,
      "song</w>": 4766,
      "lim": 4767,
      "marriage</w>": 4768,
      "Hav": 4769,
      "dev": 4770,
      "mei</w>": 4771,
      "nico</w>": 4772,
      "forgot</w>": 4773,
      "broke</w>": 4774,
      "diria</w>": 4775,
      "leva</w>": 4776,
      "grandes</w>": 4777,
      "quin": 4778,
      "conheci</w>": 4779,
      "sake</w>": 4780,
      "tava</w>": 4781,
      "fundo</w>": 4782,
      "fará</w>": 4783,
      "grupo</w>": 4784,
      "careful</w>": 4785,
      "culos</w>": 4786,
      "martin</w>": 4787,
      "bb": 4788,
      "suc": 4789,
      "james</w>": 4790,
      "puder</w>": 4791,
      "Sir</w>": 4792,
      "washington</w>": 4793,
      "rose</w>": 4794,
      "accident</w>": 4795,
      "pull</w>": 4796,
      "anda</w>": 4797,
      "tindo</w>": 4798,
      "matá</w>": 4799,
      "stem</w>": 4800,
      "roo": 4801,
      "traz": 4802,
      "sentido</w>": 4803,
      "coo": 4804,
      "rico</w>": 4805,
      "veri": 4806,
      "Queria</w>": 4807,
      "Put</w>": 4808,
      "Hoje</w>": 4809,
      "short</w>": 4810,
      "visit</w>": 4811,
      "bater</w>": 4812,
      "May</w>": 4813,
      "Devo</w>": 4814,
      "policial</w>": 4815,
      "dition</w>": 4816,
      "Mrs</w>": 4817,
      "fiquei</w>": 4818,
      "tle</w>": 4819,
      "peça</w>": 4820,
      "aber": 4821,
      "wall</w>": 4822,
      "aca": 4823,
      "céu</w>": 4824,
      "sue</w>": 4825,
      "fen": 4826,
      "cy": 4827,
      "fecha": 4828,
      "bag</w>": 4829,
      "cemos</w>": 4830,
      "Prime": 4831,
      "encontrou</w>": 4832,
      "Tr": 4833,
      "Fe": 4834,
      "execu": 4835,
      "thin</w>": 4836,
      "continue</w>": 4837,
      "round</w>": 4838,
      "conselho</w>": 4839,
      "Du": 4840,
      "ero</w>": 4841,
      "green</w>": 4842,
      "correr</w>": 4843,
      "naquele</w>": 4844,
      "24</w>": 4845,
      "quil": 4846,
      "esquer": 4847,
      "junto</w>": 4848,
      "moving</w>": 4849,
      "ataque</w>": 4850,
      "robert</w>": 4851,
      "fear</w>": 4852,
      "island</w>": 4853,
      "oner</w>": 4854,
      "sheri": 4855,
      "desses</w>": 4856,
      "euro": 4857,
      "imagine</w>": 4858,
      "sounds</w>": 4859,
      "forever</w>": 4860,
      "fizeram</w>": 4861,
      "tex": 4862,
      "press</w>": 4863,
      "ground</w>": 4864,
      "sete</w>": 4865,
      "lived</w>": 4866,
      "Deus</w>": 4867,
      "concor": 4868,
      "wise</w>": 4869,
      "stead</w>": 4870,
      "públi": 4871,
      "free": 4872,
      "mond</w>": 4873,
      "elho</w>": 4874,
      "rol": 4875,
      "mama</w>": 4876,
      "ícias</w>": 4877,
      "ald</w>": 4878,
      "cat</w>": 4879,
      "dessas</w>": 4880,
      "bitch</w>": 4881,
      "vate</w>": 4882,
      "wards</w>": 4883,
      "probably</w>": 4884,
      "vest": 4885,
      "dores</w>": 4886,
      "costas</w>": 4887,
      "admi": 4888,
      "space</w>": 4889,
      "teach": 4890,
      "mava</w>": 4891,
      "sobre": 4892,
      "mensagem</w>": 4893,
      "offer</w>": 4894,
      "fé": 4895,
      "reunião</w>": 4896,
      "Sometimes</w>": 4897,
      "laugh": 4898,
      "jam": 4899,
      "frio</w>": 4900,
      "desej": 4901,
      "encontrei</w>": 4902,
      "xi</w>": 4903,
      "lars</w>": 4904,
      "zz": 4905,
      "teach</w>": 4906,
      "vens</w>": 4907,
      "boy": 4908,
      "luta</w>": 4909,
      "escolha</w>": 4910,
      "floor</w>": 4911,
      "14</w>": 4912,
      "illi": 4913,
      "gostar</w>": 4914,
      "taria</w>": 4915,
      "Besides</w>": 4916,
      "Mi": 4917,
      "charge</w>": 4918,
      "meant</w>": 4919,
      "promised</w>": 4920,
      "cie</w>": 4921,
      "ash</w>": 4922,
      "window</w>": 4923,
      "judge</w>": 4924,
      "afternoon</w>": 4925,
      "passa</w>": 4926,
      "ement</w>": 4927,
      "propósito</w>": 4928,
      "tina</w>": 4929,
      "honra</w>": 4930,
      "sia</w>": 4931,
      "ladies</w>": 4932,
      "An</w>": 4933,
      "lee</w>": 4934,
      "simple</w>": 4935,
      "Bu": 4936,
      "orig": 4937,
      "inhas</w>": 4938,
      "duro</w>": 4939,
      "pac": 4940,
      "scen": 4941,
      "problems</w>": 4942,
      "sive</w>": 4943,
      "mandar</w>": 4944,
      "kid": 4945,
      "vy</w>": 4946,
      ",\"</w>": 4947,
      "ash": 4948,
      "service</w>": 4949,
      "lish</w>": 4950,
      "fic</w>": 4951,
      "del</w>": 4952,
      "building</w>": 4953,
      "porto</w>": 4954,
      "procu": 4955,
      "banho</w>": 4956,
      "Desde</w>": 4957,
      "falei</w>": 4958,
      "movie</w>": 4959,
      "chave</w>": 4960,
      "mitir</w>": 4961,
      "insis": 4962,
      "segredo</w>": 4963,
      "cker</w>": 4964,
      "....</w>": 4965,
      "cachor": 4966,
      "mile</w>": 4967,
      "Didn</w>": 4968,
      "fugir</w>": 4969,
      "nick</w>": 4970,
      "dável</w>": 4971,
      "extra</w>": 4972,
      "rick</w>": 4973,
      "view</w>": 4974,
      "xerife</w>": 4975,
      "ang</w>": 4976,
      "Fique</w>": 4977,
      "constru": 4978,
      "surprise</w>": 4979,
      "vous</w>": 4980,
      "sá": 4981,
      "sugg": 4982,
      "passada</w>": 4983,
      "eço</w>": 4984,
      "dente</w>": 4985,
      "rir</w>": 4986,
      "diffic": 4987,
      "Miss</w>": 4988,
      "fort</w>": 4989,
      "queen</w>": 4990,
      "church</w>": 4991,
      "hid": 4992,
      "cartas</w>": 4993,
      "trabalha</w>": 4994,
      "18</w>": 4995,
      "cair</w>": 4996,
      "horrível</w>": 4997,
      "iled</w>": 4998,
      "segunda</w>": 4999
    },
    "merges": [
      [
        "t",
        "h"
      ],
      [
        "i",
        "n"
      ],
      [
        "a",
        "n"
      ],
      [
        "e",
        "r"
      ],
      [
        "a",
        "r"
      ],
      [
        "q",
        "u"
      ],
      [
        "o",
        "u</w>"
      ],
      [
        "e",
        "s"
      ],
      [
        "e",
        "n"
      ],
      [
        "c",
        "o"
      ],
      [
        "e",
        "r</w>"
      ],
      [
        "t",
        "o</w>"
      ],
      [
        "ã",
        "o</w>"
      ],
      [
        "o",
        "u"
      ],
      [
        "e",
        "l"
      ],
      [
        "d",
        "o</w>"
      ],
      [
        "a",
        "s</w>"
      ],
      [
        "o",
        "r"
      ],
      [
        "a",
        "l"
      ],
      [
        "y",
        "ou</w>"
      ],
      [
        "d",
        "e</w>"
      ],
      [
        "qu",
        "e</w>"
      ],
      [
        "o",
        "s</w>"
      ],
      [
        "th",
        "e</w>"
      ],
      [
        "i",
        "s</w>"
      ],
      [
        "i",
        "s"
      ],
      [
        "m",
        "e</w>"
      ],
      [
        "a",
        "r</w>"
      ],
      [
        "r",
        "e"
      ],
      [
        "h",
        "a"
      ],
      [
        "o",
        "r</w>"
      ],
      [
        "o",
        "n"
      ],
      [
        "e",
        "m</w>"
      ],
      [
        "o",
        "c"
      ],
      [
        "in",
        "g</w>"
      ],
      [
        "e",
        "s</w>"
      ],
      [
        "es",
        "t"
      ],
      [
        "s",
        "e</w>"
      ],
      [
        "o",
        "n</w>"
      ],
      [
        "i",
        "t"
      ],
      [
        "v",
        "e</w>"
      ],
      [
        "n",
        "o"
      ],
      [
        "c",
        "a"
      ],
      [
        "m",
        "a"
      ],
      [
        "s",
        "t"
      ],
      [
        "s",
        "e"
      ],
      [
        "r",
        "i"
      ],
      [
        "d",
        "i"
      ],
      [
        "oc",
        "ê</w>"
      ],
      [
        "n",
        "ão</w>"
      ],
      [
        "r",
        "a"
      ],
      [
        "t",
        "i"
      ],
      [
        "d",
        "e"
      ],
      [
        "p",
        "ar"
      ],
      [
        "d",
        "a</w>"
      ],
      [
        "a",
        "t</w>"
      ],
      [
        "a",
        "m"
      ],
      [
        "i",
        "n</w>"
      ],
      [
        "r",
        "o"
      ],
      [
        "m",
        "e"
      ],
      [
        "i",
        "t</w>"
      ],
      [
        "i",
        "l"
      ],
      [
        "t",
        "e</w>"
      ],
      [
        "h",
        "e</w>"
      ],
      [
        "e",
        "d</w>"
      ],
      [
        "c",
        "h"
      ],
      [
        ".",
        "."
      ],
      [
        "l",
        "i"
      ],
      [
        "s",
        "o</w>"
      ],
      [
        "u",
        "m</w>"
      ],
      [
        "s",
        "a"
      ],
      [
        "m",
        "a</w>"
      ],
      [
        "..",
        ".</w>"
      ],
      [
        "l",
        "e"
      ],
      [
        "r",
        "e</w>"
      ],
      [
        "p",
        "o"
      ],
      [
        "v",
        "ocê</w>"
      ],
      [
        "an",
        "d</w>"
      ],
      [
        "er",
        "e</w>"
      ],
      [
        "g",
        "u"
      ],
      [
        "o",
        "f</w>"
      ],
      [
        "e",
        "n</w>"
      ],
      [
        "e",
        "u</w>"
      ],
      [
        "i",
        "a</w>"
      ],
      [
        "s",
        "u"
      ],
      [
        "co",
        "n"
      ],
      [
        "g",
        "o"
      ],
      [
        "a",
        "s"
      ],
      [
        "th",
        "at</w>"
      ],
      [
        "h",
        "o"
      ],
      [
        "i",
        "c"
      ],
      [
        "a",
        "c"
      ],
      [
        "s",
        "o"
      ],
      [
        "par",
        "a</w>"
      ],
      [
        "l",
        "e</w>"
      ],
      [
        "a",
        "t"
      ],
      [
        "i",
        "r"
      ],
      [
        "u",
        "n"
      ],
      [
        "i",
        "m</w>"
      ],
      [
        "b",
        "e</w>"
      ],
      [
        "b",
        "e"
      ],
      [
        "t",
        "o"
      ],
      [
        "k",
        "e</w>"
      ],
      [
        "ou",
        "r</w>"
      ],
      [
        "u",
        "s"
      ],
      [
        "l",
        "o"
      ],
      [
        "ha",
        "t</w>"
      ],
      [
        "g",
        "h"
      ],
      [
        "co",
        "m"
      ],
      [
        "d",
        "a"
      ],
      [
        "t",
        "r"
      ],
      [
        "t",
        "e"
      ],
      [
        "u",
        "ma</w>"
      ],
      [
        "g",
        "o</w>"
      ],
      [
        "f",
        "or</w>"
      ],
      [
        "h",
        "o</w>"
      ],
      [
        "Y",
        "ou</w>"
      ],
      [
        "co",
        "m</w>"
      ],
      [
        "h",
        "e"
      ],
      [
        "l",
        "d</w>"
      ],
      [
        "f",
        "a"
      ],
      [
        "p",
        "e"
      ],
      [
        "b",
        "o"
      ],
      [
        "v",
        "er"
      ],
      [
        "an",
        "do</w>"
      ],
      [
        "ou",
        "t</w>"
      ],
      [
        "v",
        "i"
      ],
      [
        "gh",
        "t</w>"
      ],
      [
        "t",
        "a"
      ],
      [
        "h",
        "a</w>"
      ],
      [
        "v",
        "er</w>"
      ],
      [
        "e",
        "t</w>"
      ],
      [
        "no",
        "w</w>"
      ],
      [
        "m",
        "u"
      ],
      [
        "n",
        "e"
      ],
      [
        "ha",
        "ve</w>"
      ],
      [
        "p",
        "r"
      ],
      [
        "n",
        "o</w>"
      ],
      [
        "h",
        "ere</w>"
      ],
      [
        "m",
        "y</w>"
      ],
      [
        "p",
        "er"
      ],
      [
        "el",
        "e</w>"
      ],
      [
        "u",
        "t</w>"
      ],
      [
        "u",
        "r"
      ],
      [
        "d",
        "o"
      ],
      [
        "th",
        "is</w>"
      ],
      [
        "p",
        "a"
      ],
      [
        "y",
        "our</w>"
      ],
      [
        "l",
        "l</w>"
      ],
      [
        "en",
        "t"
      ],
      [
        "el",
        "l</w>"
      ],
      [
        "a",
        "b"
      ],
      [
        "a",
        "n</w>"
      ],
      [
        "a",
        "l</w>"
      ],
      [
        "m",
        "in"
      ],
      [
        "est",
        "á</w>"
      ],
      [
        "on",
        "e</w>"
      ],
      [
        "t",
        "a</w>"
      ],
      [
        "t",
        "er</w>"
      ],
      [
        "w",
        "e</w>"
      ],
      [
        "N",
        "ão</w>"
      ],
      [
        "m",
        "p"
      ],
      [
        "n",
        "a</w>"
      ],
      [
        "v",
        "e"
      ],
      [
        "c",
        "e</w>"
      ],
      [
        "it",
        "h</w>"
      ],
      [
        "a",
        "g"
      ],
      [
        "m",
        "os</w>"
      ],
      [
        "l",
        "y</w>"
      ],
      [
        "is",
        "so</w>"
      ],
      [
        "w",
        "as</w>"
      ],
      [
        "s",
        "i"
      ],
      [
        "al",
        "l</w>"
      ],
      [
        "E",
        "u</w>"
      ],
      [
        "c",
        "i"
      ],
      [
        "u",
        "s</w>"
      ],
      [
        "a",
        "m</w>"
      ],
      [
        "w",
        "ith</w>"
      ],
      [
        "s",
        "a</w>"
      ],
      [
        "us",
        "t</w>"
      ],
      [
        "m",
        "o"
      ],
      [
        "p",
        "or</w>"
      ],
      [
        "d",
        "on</w>"
      ],
      [
        "f",
        "or"
      ],
      [
        "V",
        "ocê</w>"
      ],
      [
        "ar",
        "e</w>"
      ],
      [
        "o",
        "l"
      ],
      [
        "no",
        "t</w>"
      ],
      [
        "m",
        "or"
      ],
      [
        "il",
        "l</w>"
      ],
      [
        "e",
        "y</w>"
      ],
      [
        "ca",
        "n</w>"
      ],
      [
        "en",
        "te</w>"
      ],
      [
        "am",
        "os</w>"
      ],
      [
        "i",
        "to</w>"
      ],
      [
        "l",
        "a"
      ],
      [
        "w",
        "a"
      ],
      [
        "w",
        "hat</w>"
      ],
      [
        "k",
        "now</w>"
      ],
      [
        "a",
        "qu"
      ],
      [
        "n",
        "d</w>"
      ],
      [
        "el",
        "a</w>"
      ],
      [
        "th",
        "ing</w>"
      ],
      [
        "p",
        "ro"
      ],
      [
        "i",
        "r</w>"
      ],
      [
        "w",
        "an"
      ],
      [
        "th",
        "er</w>"
      ],
      [
        "or",
        "a</w>"
      ],
      [
        "u",
        "l"
      ],
      [
        "c",
        "ar"
      ],
      [
        "f",
        "e"
      ],
      [
        "v",
        "a</w>"
      ],
      [
        "a",
        "d"
      ],
      [
        "m",
        "as</w>"
      ],
      [
        "z",
        "er</w>"
      ],
      [
        "p",
        "en"
      ],
      [
        "ma",
        "is</w>"
      ],
      [
        "g",
        "et</w>"
      ],
      [
        "f",
        "o"
      ],
      [
        "p",
        "re"
      ],
      [
        "li",
        "ke</w>"
      ],
      [
        "t",
        "er"
      ],
      [
        "w",
        "h"
      ],
      [
        "e",
        "x"
      ],
      [
        "th",
        "in"
      ],
      [
        "t",
        "en"
      ],
      [
        "m",
        "an"
      ],
      [
        "s",
        "h"
      ],
      [
        "h",
        "im</w>"
      ],
      [
        "h",
        "is</w>"
      ],
      [
        "h",
        "er</w>"
      ],
      [
        "v",
        "a"
      ],
      [
        "I",
        "t</w>"
      ],
      [
        "r",
        "an"
      ],
      [
        "d",
        "os</w>"
      ],
      [
        "f",
        "i"
      ],
      [
        "d",
        "es"
      ],
      [
        "t",
        "ra"
      ],
      [
        "m",
        "en"
      ],
      [
        "Q",
        "u"
      ],
      [
        "com",
        "o</w>"
      ],
      [
        "m",
        "b"
      ],
      [
        "c",
        "h</w>"
      ],
      [
        "aqu",
        "i</w>"
      ],
      [
        "t",
        "em</w>"
      ],
      [
        "j",
        "ust</w>"
      ],
      [
        "d",
        "is"
      ],
      [
        "é",
        "m</w>"
      ],
      [
        "m",
        "o</w>"
      ],
      [
        "se",
        "u</w>"
      ],
      [
        "s",
        "en"
      ],
      [
        "f",
        "ic"
      ],
      [
        "n",
        "a"
      ],
      [
        "ab",
        "out</w>"
      ],
      [
        "l",
        "u"
      ],
      [
        "c",
        "o</w>"
      ],
      [
        "m",
        "ar"
      ],
      [
        "u",
        "p</w>"
      ],
      [
        "T",
        "he</w>"
      ],
      [
        "ma",
        "n</w>"
      ],
      [
        "d",
        "er"
      ],
      [
        "qu",
        "er"
      ],
      [
        "E",
        "st"
      ],
      [
        "A",
        "nd</w>"
      ],
      [
        "t",
        "u"
      ],
      [
        "w",
        "or"
      ],
      [
        "ou",
        "ld</w>"
      ],
      [
        "ç",
        "a</w>"
      ],
      [
        "e",
        "i</w>"
      ],
      [
        "mu",
        "ito</w>"
      ],
      [
        "i",
        "x"
      ],
      [
        "su",
        "a</w>"
      ],
      [
        "r",
        "a</w>"
      ],
      [
        "W",
        "e</w>"
      ],
      [
        "th",
        "ere</w>"
      ],
      [
        "go",
        "t</w>"
      ],
      [
        "j",
        "o"
      ],
      [
        "r",
        "u"
      ],
      [
        "b",
        "ut</w>"
      ],
      [
        "s",
        "so</w>"
      ],
      [
        "l",
        "a</w>"
      ],
      [
        "c",
        "a</w>"
      ],
      [
        "w",
        "ill</w>"
      ],
      [
        "g",
        "i"
      ],
      [
        "d",
        "n</w>"
      ],
      [
        "ç",
        "ão</w>"
      ],
      [
        "wan",
        "t</w>"
      ],
      [
        "i",
        "d</w>"
      ],
      [
        "me",
        "u</w>"
      ],
      [
        "va",
        "i</w>"
      ],
      [
        "k",
        "ing</w>"
      ],
      [
        "o",
        "d</w>"
      ],
      [
        "r",
        "es"
      ],
      [
        "th",
        "ey</w>"
      ],
      [
        "a",
        "do</w>"
      ],
      [
        "f",
        "u"
      ],
      [
        "b",
        "em</w>"
      ],
      [
        "H",
        "e</w>"
      ],
      [
        "d",
        "y</w>"
      ],
      [
        "it",
        "e</w>"
      ],
      [
        "o",
        "k</w>"
      ],
      [
        "ac",
        "k</w>"
      ],
      [
        "thin",
        "k</w>"
      ],
      [
        "f",
        "al"
      ],
      [
        "y",
        "s</w>"
      ],
      [
        "n",
        "i"
      ],
      [
        "t",
        "s</w>"
      ],
      [
        "d",
        "s</w>"
      ],
      [
        "d",
        "er</w>"
      ],
      [
        "\"",
        ".</w>"
      ],
      [
        "ri",
        "ght</w>"
      ],
      [
        "g",
        "ar</w>"
      ],
      [
        "wa",
        "y</w>"
      ],
      [
        "t",
        "ão</w>"
      ],
      [
        "w",
        "n</w>"
      ],
      [
        "co",
        "r"
      ],
      [
        "s",
        "t</w>"
      ],
      [
        "i",
        "f</w>"
      ],
      [
        "p",
        "l"
      ],
      [
        "s",
        "er"
      ],
      [
        "c",
        "u"
      ],
      [
        "ir",
        "o</w>"
      ],
      [
        "M",
        "as</w>"
      ],
      [
        "c",
        "er"
      ],
      [
        "s",
        "he</w>"
      ],
      [
        "ch",
        "e"
      ],
      [
        "t",
        "ar</w>"
      ],
      [
        "co",
        "is"
      ],
      [
        "p",
        "or"
      ],
      [
        "se",
        "e</w>"
      ],
      [
        "s",
        "er</w>"
      ],
      [
        "a",
        "d</w>"
      ],
      [
        "g",
        "e</w>"
      ],
      [
        "as",
        "s"
      ],
      [
        "r",
        "y</w>"
      ],
      [
        "so",
        "me"
      ],
      [
        "h",
        "or</w>"
      ],
      [
        "r",
        "o</w>"
      ],
      [
        "W",
        "ell</w>"
      ],
      [
        "f",
        "in"
      ],
      [
        "ho",
        "w</w>"
      ],
      [
        "B",
        "ut</w>"
      ],
      [
        "ti",
        "me</w>"
      ],
      [
        "ro",
        "m</w>"
      ],
      [
        "E",
        "le</w>"
      ],
      [
        "a",
        "ch"
      ],
      [
        "t",
        "al"
      ],
      [
        "min",
        "ha</w>"
      ],
      [
        "a",
        "va</w>"
      ],
      [
        "fo",
        "i</w>"
      ],
      [
        "C",
        "o"
      ],
      [
        "m",
        "es"
      ],
      [
        "po",
        "de</w>"
      ],
      [
        "m",
        "on"
      ],
      [
        "ve",
        "z</w>"
      ],
      [
        "f",
        "rom</w>"
      ],
      [
        "c",
        "is"
      ],
      [
        "m",
        "i"
      ],
      [
        "o",
        "w</w>"
      ],
      [
        "l",
        "o</w>"
      ],
      [
        "c",
        "e"
      ],
      [
        "h",
        "as</w>"
      ],
      [
        "g",
        "ar"
      ],
      [
        "fa",
        "zer</w>"
      ],
      [
        "O",
        "h</w>"
      ],
      [
        "p",
        "i"
      ],
      [
        "co",
        "me</w>"
      ],
      [
        "o",
        "f"
      ],
      [
        "da",
        "de</w>"
      ],
      [
        "j",
        "u"
      ],
      [
        "e",
        "l</w>"
      ],
      [
        "d",
        "ar</w>"
      ],
      [
        "el",
        "es</w>"
      ],
      [
        "o",
        "p"
      ],
      [
        "es",
        "s</w>"
      ],
      [
        "g",
        "a</w>"
      ],
      [
        "t",
        "h</w>"
      ],
      [
        "al",
        "gu"
      ],
      [
        "v",
        "ol"
      ],
      [
        "qu",
        "er</w>"
      ],
      [
        "W",
        "hat</w>"
      ],
      [
        "f",
        "e</w>"
      ],
      [
        "w",
        "e"
      ],
      [
        "le",
        "a"
      ],
      [
        "es",
        "se</w>"
      ],
      [
        "v",
        "o</w>"
      ],
      [
        "c",
        "ha"
      ],
      [
        "en",
        "t</w>"
      ],
      [
        "k",
        "s</w>"
      ],
      [
        "ó",
        "s</w>"
      ],
      [
        "ê",
        "s</w>"
      ],
      [
        "v",
        "ou</w>"
      ],
      [
        "T",
        "hat</w>"
      ],
      [
        "t",
        "in"
      ],
      [
        "g",
        "e"
      ],
      [
        "en",
        "do</w>"
      ],
      [
        "b",
        "ack</w>"
      ],
      [
        "on",
        "g</w>"
      ],
      [
        "co",
        "u"
      ],
      [
        "m",
        "is"
      ],
      [
        "t",
        "es</w>"
      ],
      [
        "th",
        "em</w>"
      ],
      [
        "ta",
        "ke</w>"
      ],
      [
        "n",
        "os</w>"
      ],
      [
        "d",
        "u"
      ],
      [
        "est",
        "a</w>"
      ],
      [
        "ver",
        "y</w>"
      ],
      [
        "e",
        "v"
      ],
      [
        "se",
        "i</w>"
      ],
      [
        "an",
        "y"
      ],
      [
        "s",
        "ão</w>"
      ],
      [
        "se",
        "gu"
      ],
      [
        "da",
        "y</w>"
      ],
      [
        "b",
        "re</w>"
      ],
      [
        "ar",
        "d</w>"
      ],
      [
        "be",
        "en</w>"
      ],
      [
        "p",
        "ri"
      ],
      [
        "el",
        "i"
      ],
      [
        "ha",
        "d</w>"
      ],
      [
        "S",
        "e</w>"
      ],
      [
        "a",
        "o</w>"
      ],
      [
        "it",
        "t"
      ],
      [
        "di",
        "d</w>"
      ],
      [
        "b",
        "a"
      ],
      [
        "g",
        "a"
      ],
      [
        "m",
        "el"
      ],
      [
        "te",
        "mp"
      ],
      [
        "d",
        "as</w>"
      ],
      [
        "b",
        "r"
      ],
      [
        "ou",
        "tr"
      ],
      [
        "go",
        "od</w>"
      ],
      [
        "dis",
        "se</w>"
      ],
      [
        "W",
        "h"
      ],
      [
        "b",
        "y</w>"
      ],
      [
        "re",
        "al"
      ],
      [
        "ag",
        "ora</w>"
      ],
      [
        "pr",
        "es"
      ],
      [
        "de",
        "ix"
      ],
      [
        "tu",
        "do</w>"
      ],
      [
        "er",
        "a</w>"
      ],
      [
        "w",
        "ere</w>"
      ],
      [
        "j",
        "a</w>"
      ],
      [
        "he",
        "y</w>"
      ],
      [
        "g",
        "h</w>"
      ],
      [
        "u",
        "se</w>"
      ],
      [
        "as",
        "t</w>"
      ],
      [
        "t",
        "ed</w>"
      ],
      [
        "mor",
        "e</w>"
      ],
      [
        "B",
        "em</w>"
      ],
      [
        "E",
        "n"
      ],
      [
        "ar",
        "ia</w>"
      ],
      [
        "t",
        "t"
      ],
      [
        "ti",
        "on</w>"
      ],
      [
        "s",
        "ó</w>"
      ],
      [
        "t",
        "an"
      ],
      [
        "t",
        "ell</w>"
      ],
      [
        "co",
        "l"
      ],
      [
        "go",
        "ing</w>"
      ],
      [
        "qu",
        "ando</w>"
      ],
      [
        "ha",
        "p"
      ],
      [
        "g",
        "s</w>"
      ],
      [
        "f",
        "il"
      ],
      [
        "g",
        "ra"
      ],
      [
        "s",
        "in"
      ],
      [
        "w",
        "ould</w>"
      ],
      [
        "a",
        "y</w>"
      ],
      [
        "wh",
        "en</w>"
      ],
      [
        "di",
        "zer</w>"
      ],
      [
        "m",
        "im</w>"
      ],
      [
        "b",
        "u"
      ],
      [
        "b",
        "ri"
      ],
      [
        "p",
        "e</w>"
      ],
      [
        "p",
        "es"
      ],
      [
        "b",
        "al"
      ],
      [
        "di",
        "dn</w>"
      ],
      [
        "cou",
        "ld</w>"
      ],
      [
        "w",
        "ho</w>"
      ],
      [
        "est",
        "ava</w>"
      ],
      [
        "g",
        "on"
      ],
      [
        "s",
        "on</w>"
      ],
      [
        "so",
        "bre</w>"
      ],
      [
        "s",
        "el"
      ],
      [
        "t",
        "os</w>"
      ],
      [
        "am",
        "b"
      ],
      [
        "N",
        "o</w>"
      ],
      [
        "c",
        "re"
      ],
      [
        "f",
        "ri"
      ],
      [
        "est",
        "ou</w>"
      ],
      [
        "ne",
        "ver</w>"
      ],
      [
        "f",
        "er"
      ],
      [
        "i",
        "o</w>"
      ],
      [
        "es",
        "t</w>"
      ],
      [
        "est",
        "e</w>"
      ],
      [
        "un",
        "ca</w>"
      ],
      [
        "ir",
        "a</w>"
      ],
      [
        "sa",
        "y</w>"
      ],
      [
        "ou",
        "nd</w>"
      ],
      [
        "ten",
        "ho</w>"
      ],
      [
        "pre",
        "cis"
      ],
      [
        "cois",
        "a</w>"
      ],
      [
        "l",
        "á</w>"
      ],
      [
        "T",
        "hey</w>"
      ],
      [
        "l",
        "es</w>"
      ],
      [
        "le",
        "t</w>"
      ],
      [
        "l",
        "he</w>"
      ],
      [
        "es",
        "s"
      ],
      [
        "so",
        "me</w>"
      ],
      [
        "t",
        "ter</w>"
      ],
      [
        "di",
        "a</w>"
      ],
      [
        "y",
        "e"
      ],
      [
        "I",
        "f</w>"
      ],
      [
        "ac",
        "e</w>"
      ],
      [
        "c",
        "an"
      ],
      [
        "b",
        "i"
      ],
      [
        "in",
        "da</w>"
      ],
      [
        "qu",
        "e"
      ],
      [
        "v",
        "amos</w>"
      ],
      [
        "i",
        "go</w>"
      ],
      [
        "a",
        "v"
      ],
      [
        "to",
        "o</w>"
      ],
      [
        "a",
        "h</w>"
      ],
      [
        "P",
        "or</w>"
      ],
      [
        "ç",
        "o</w>"
      ],
      [
        "t",
        "ur"
      ],
      [
        "T",
        "his</w>"
      ],
      [
        "a",
        "f"
      ],
      [
        "h",
        "or"
      ],
      [
        "gon",
        "na</w>"
      ],
      [
        "na",
        "da</w>"
      ],
      [
        "c",
        "ul"
      ],
      [
        "c",
        "k</w>"
      ],
      [
        "l",
        "ar"
      ],
      [
        "c",
        "ia</w>"
      ],
      [
        "sa",
        "be</w>"
      ],
      [
        "y",
        "ing</w>"
      ],
      [
        "w",
        "here</w>"
      ],
      [
        "e",
        "mos</w>"
      ],
      [
        "temp",
        "o</w>"
      ],
      [
        "er",
        "s</w>"
      ],
      [
        "h",
        "á</w>"
      ],
      [
        "itt",
        "le</w>"
      ],
      [
        "i",
        "m"
      ],
      [
        "s",
        "r</w>"
      ],
      [
        "k",
        "e"
      ],
      [
        "in",
        "e</w>"
      ],
      [
        "m",
        "r</w>"
      ],
      [
        "bo",
        "dy</w>"
      ],
      [
        "o",
        "ther</w>"
      ],
      [
        "a",
        "p"
      ],
      [
        "D",
        "e"
      ],
      [
        "c",
        "al"
      ],
      [
        "k",
        "ed</w>"
      ],
      [
        "ou",
        "ght</w>"
      ],
      [
        "t",
        "or</w>"
      ],
      [
        "E",
        "s"
      ],
      [
        "l",
        "ittle</w>"
      ],
      [
        "m",
        "ã"
      ],
      [
        "quer",
        "o</w>"
      ],
      [
        "p",
        "u"
      ],
      [
        "ma",
        "ke</w>"
      ],
      [
        "ou",
        "r"
      ],
      [
        "po",
        "s"
      ],
      [
        "is",
        "t"
      ],
      [
        "no",
        "ite</w>"
      ],
      [
        "T",
        "h"
      ],
      [
        "ca",
        "sa</w>"
      ],
      [
        "it",
        "a</w>"
      ],
      [
        "S",
        "he</w>"
      ],
      [
        "d",
        "in"
      ],
      [
        "ou",
        "gh</w>"
      ],
      [
        "g",
        "re"
      ],
      [
        "c",
        "ri"
      ],
      [
        "e",
        "p</w>"
      ],
      [
        "el",
        "o</w>"
      ],
      [
        "d",
        "an"
      ],
      [
        "se",
        "d</w>"
      ],
      [
        "par",
        "e"
      ],
      [
        "i",
        "mp"
      ],
      [
        "j",
        "á</w>"
      ],
      [
        "some",
        "thing</w>"
      ],
      [
        "n",
        "ic"
      ],
      [
        "n",
        "ós</w>"
      ],
      [
        "sa",
        "b"
      ],
      [
        "b",
        "ar"
      ],
      [
        "on",
        "ly</w>"
      ],
      [
        "i",
        "d"
      ],
      [
        "t",
        "w"
      ],
      [
        "an",
        "y</w>"
      ],
      [
        "ca",
        "use</w>"
      ],
      [
        "s",
        "ou</w>"
      ],
      [
        "est",
        "ão</w>"
      ],
      [
        "a",
        "in</w>"
      ],
      [
        "v",
        "en"
      ],
      [
        "h",
        "el"
      ],
      [
        "in",
        "do</w>"
      ],
      [
        "mel",
        "hor</w>"
      ],
      [
        "pa",
        "i</w>"
      ],
      [
        "ve",
        "l</w>"
      ],
      [
        "w",
        "ell</w>"
      ],
      [
        "on",
        "de</w>"
      ],
      [
        "m",
        "il"
      ],
      [
        "ri",
        "o</w>"
      ],
      [
        "ho",
        "m"
      ],
      [
        "h",
        "u"
      ],
      [
        "s",
        "or"
      ],
      [
        "0",
        "0</w>"
      ],
      [
        "do",
        "wn</w>"
      ],
      [
        "P",
        "o"
      ],
      [
        "j",
        "e"
      ],
      [
        "n",
        "unca</w>"
      ],
      [
        "en",
        "d</w>"
      ],
      [
        "amb",
        "ém</w>"
      ],
      [
        "ch",
        "an"
      ],
      [
        "En",
        "tão</w>"
      ],
      [
        "w",
        "i"
      ],
      [
        "sa",
        "id</w>"
      ],
      [
        "es",
        "sa</w>"
      ],
      [
        "pes",
        "so"
      ],
      [
        "wh",
        "y</w>"
      ],
      [
        "es",
        "per"
      ],
      [
        "pro",
        "b"
      ],
      [
        "gi",
        "ve</w>"
      ],
      [
        "p",
        "ou"
      ],
      [
        "at",
        "é</w>"
      ],
      [
        "E",
        "la</w>"
      ],
      [
        "mes",
        "mo</w>"
      ],
      [
        "t",
        "or"
      ],
      [
        "t",
        "ri"
      ],
      [
        "vi",
        "da</w>"
      ],
      [
        "min",
        "u"
      ],
      [
        "o",
        "ver</w>"
      ],
      [
        "lo",
        "ok</w>"
      ],
      [
        "oc",
        "ês</w>"
      ],
      [
        "fa",
        "v"
      ],
      [
        "b",
        "le</w>"
      ],
      [
        "v",
        "o"
      ],
      [
        "t",
        "ar"
      ],
      [
        "ver",
        "y"
      ],
      [
        "est",
        "i"
      ],
      [
        "po",
        "sso</w>"
      ],
      [
        "mp",
        "re</w>"
      ],
      [
        "c",
        "er</w>"
      ],
      [
        "ri",
        "a</w>"
      ],
      [
        "l",
        "ed</w>"
      ],
      [
        "hom",
        "em</w>"
      ],
      [
        "es",
        "e</w>"
      ],
      [
        "m",
        "ust</w>"
      ],
      [
        "of",
        "f</w>"
      ],
      [
        ".",
        "\".</w>"
      ],
      [
        "S",
        "o</w>"
      ],
      [
        "sh",
        "ould</w>"
      ],
      [
        "qu",
        "em</w>"
      ],
      [
        "ne",
        "w</w>"
      ],
      [
        "N",
        "ow</w>"
      ],
      [
        "an",
        "to</w>"
      ],
      [
        "a",
        "da</w>"
      ],
      [
        "tra",
        "bal"
      ],
      [
        "s",
        "pe"
      ],
      [
        "b",
        "er"
      ],
      [
        "T",
        "here</w>"
      ],
      [
        "S",
        "im</w>"
      ],
      [
        "ass",
        "im</w>"
      ],
      [
        "m",
        "ente</w>"
      ],
      [
        "ca",
        "p"
      ],
      [
        "a",
        "u"
      ],
      [
        "t",
        "y</w>"
      ],
      [
        "con",
        "tr"
      ],
      [
        "s",
        "im</w>"
      ],
      [
        "t",
        "ambém</w>"
      ],
      [
        "h",
        "ar"
      ],
      [
        "op",
        "le</w>"
      ],
      [
        "an",
        "te</w>"
      ],
      [
        "in",
        "ha</w>"
      ],
      [
        "go",
        "st"
      ],
      [
        "c",
        "ar</w>"
      ],
      [
        "m",
        "er"
      ],
      [
        "l",
        "ing</w>"
      ],
      [
        "al",
        "go</w>"
      ],
      [
        "gu",
        "ém</w>"
      ],
      [
        "pr",
        "a</w>"
      ],
      [
        "g",
        "ran"
      ],
      [
        "fic",
        "ar</w>"
      ],
      [
        "o",
        "m</w>"
      ],
      [
        "i",
        "g"
      ],
      [
        "w",
        "o"
      ],
      [
        "ne",
        "ed</w>"
      ],
      [
        "v",
        "is"
      ],
      [
        "õ",
        "es</w>"
      ],
      [
        "to",
        "dos</w>"
      ],
      [
        "sel",
        "f</w>"
      ],
      [
        "e",
        "ve</w>"
      ],
      [
        "an",
        "tes</w>"
      ],
      [
        "mu",
        "ch</w>"
      ],
      [
        "f",
        "ir"
      ],
      [
        "v",
        "ing</w>"
      ],
      [
        "e",
        "ver</w>"
      ],
      [
        "lo",
        "ve</w>"
      ],
      [
        "th",
        "en</w>"
      ],
      [
        "el",
        "e"
      ],
      [
        "con",
        "he"
      ],
      [
        "an",
        "os</w>"
      ],
      [
        "g",
        "en"
      ],
      [
        "con",
        "te"
      ],
      [
        "bo",
        "m</w>"
      ],
      [
        "imp",
        "or"
      ],
      [
        "v",
        "el"
      ],
      [
        "in",
        "to</w>"
      ],
      [
        "fa",
        "z"
      ],
      [
        "th",
        "e"
      ],
      [
        "real",
        "ly</w>"
      ],
      [
        "f",
        "am"
      ],
      [
        "th",
        "an</w>"
      ],
      [
        "tw",
        "o</w>"
      ],
      [
        "t",
        "as</w>"
      ],
      [
        "ni",
        "ght</w>"
      ],
      [
        "a",
        "ju"
      ],
      [
        "pe",
        "ople</w>"
      ],
      [
        "p",
        "la"
      ],
      [
        "mu",
        "l"
      ],
      [
        "a",
        "inda</w>"
      ],
      [
        "g",
        "er</w>"
      ],
      [
        "A",
        "ch"
      ],
      [
        "for",
        "e</w>"
      ],
      [
        "p",
        "o</w>"
      ],
      [
        "s",
        "al"
      ],
      [
        "lo",
        "o"
      ],
      [
        "st",
        "u"
      ],
      [
        "po",
        "der"
      ],
      [
        "fal",
        "ar</w>"
      ],
      [
        "c",
        "t</w>"
      ],
      [
        "p",
        "as"
      ],
      [
        "h",
        "an"
      ],
      [
        "s",
        "ho"
      ],
      [
        "se",
        "mpre</w>"
      ],
      [
        "Wh",
        "y</w>"
      ],
      [
        "M",
        "a"
      ],
      [
        "on",
        "s</w>"
      ],
      [
        "m",
        "un"
      ],
      [
        "mb",
        "er</w>"
      ],
      [
        "ou",
        "s</w>"
      ],
      [
        "sen",
        "hor</w>"
      ],
      [
        "ar",
        "s</w>"
      ],
      [
        "co",
        "me"
      ],
      [
        "in",
        "d</w>"
      ],
      [
        "wa",
        "ys</w>"
      ],
      [
        "g",
        "an"
      ],
      [
        "he",
        "iro</w>"
      ],
      [
        "con",
        "t"
      ],
      [
        "fav",
        "or</w>"
      ],
      [
        "H",
        "ow</w>"
      ],
      [
        "f",
        "r"
      ],
      [
        "h",
        "ou"
      ],
      [
        "v",
        "es</w>"
      ],
      [
        "mã",
        "e</w>"
      ],
      [
        "n",
        "ing</w>"
      ],
      [
        "A",
        "g"
      ],
      [
        "V",
        "amos</w>"
      ],
      [
        "d",
        "en"
      ],
      [
        "a",
        "conte"
      ],
      [
        "no",
        "s"
      ],
      [
        "b",
        "an"
      ],
      [
        "h",
        "os</w>"
      ],
      [
        "A",
        "l"
      ],
      [
        "ach",
        "o</w>"
      ],
      [
        "y",
        "be</w>"
      ],
      [
        "v",
        "al"
      ],
      [
        "be",
        "tter</w>"
      ],
      [
        "z",
        "a</w>"
      ],
      [
        "e",
        "very"
      ],
      [
        "li",
        "fe</w>"
      ],
      [
        "ou",
        "n"
      ],
      [
        "pou",
        "co</w>"
      ],
      [
        "st",
        "ill</w>"
      ],
      [
        "Co",
        "mo</w>"
      ],
      [
        "d",
        "re"
      ],
      [
        "i",
        "do</w>"
      ],
      [
        "d",
        "ing</w>"
      ],
      [
        "o",
        "t</w>"
      ],
      [
        "be",
        "fore</w>"
      ],
      [
        "w",
        "on</w>"
      ],
      [
        "b",
        "re"
      ],
      [
        "su",
        "re</w>"
      ],
      [
        "Ag",
        "ora</w>"
      ],
      [
        "st",
        "ar"
      ],
      [
        "po",
        "is</w>"
      ],
      [
        "re",
        "e</w>"
      ],
      [
        "se",
        "us</w>"
      ],
      [
        "cois",
        "as</w>"
      ],
      [
        "P",
        "ar"
      ],
      [
        "ev",
        "en</w>"
      ],
      [
        "h",
        "i"
      ],
      [
        "b",
        "ro"
      ],
      [
        "de",
        "ve</w>"
      ],
      [
        "ca",
        "b"
      ],
      [
        "lea",
        "se</w>"
      ],
      [
        "g",
        "ir"
      ],
      [
        "o",
        "ld</w>"
      ],
      [
        "s",
        "p"
      ],
      [
        "r",
        "á"
      ],
      [
        "f",
        "t</w>"
      ],
      [
        "me",
        "n</w>"
      ],
      [
        "D",
        "on</w>"
      ],
      [
        "v",
        "ocês</w>"
      ],
      [
        "d",
        "ele</w>"
      ],
      [
        "lu",
        "gar</w>"
      ],
      [
        "is",
        "h</w>"
      ],
      [
        "gu",
        "n"
      ],
      [
        "ent",
        "ão</w>"
      ],
      [
        "l",
        "on"
      ],
      [
        "ag",
        "ain</w>"
      ],
      [
        "O",
        "n"
      ],
      [
        "pen",
        "as</w>"
      ],
      [
        "t",
        "ing</w>"
      ],
      [
        "le",
        "v"
      ],
      [
        "i",
        "ght</w>"
      ],
      [
        "h",
        "ora</w>"
      ],
      [
        "in",
        "a</w>"
      ],
      [
        "I",
        "sso</w>"
      ],
      [
        "fir",
        "st</w>"
      ],
      [
        "M",
        "y</w>"
      ],
      [
        "p",
        "on"
      ],
      [
        "tal",
        "k</w>"
      ],
      [
        "z",
        "es</w>"
      ],
      [
        "est",
        "ar</w>"
      ],
      [
        "c",
        "k"
      ],
      [
        "in",
        "guém</w>"
      ],
      [
        "n",
        "y</w>"
      ],
      [
        "o",
        "se</w>"
      ],
      [
        "pl",
        "an"
      ],
      [
        "me",
        "an</w>"
      ],
      [
        "v",
        "en</w>"
      ],
      [
        "is",
        "to</w>"
      ],
      [
        "th",
        "ought</w>"
      ],
      [
        "c",
        "r"
      ],
      [
        "gu",
        "e</w>"
      ],
      [
        "l",
        "s</w>"
      ],
      [
        "to",
        "ld</w>"
      ],
      [
        "al",
        "ways</w>"
      ],
      [
        "s",
        "em</w>"
      ],
      [
        "U",
        "m</w>"
      ],
      [
        "car",
        "a</w>"
      ],
      [
        "qu",
        "anto</w>"
      ],
      [
        "s",
        "ar</w>"
      ],
      [
        "st",
        "o"
      ],
      [
        "men",
        "t</w>"
      ],
      [
        "h",
        "ã</w>"
      ],
      [
        "c",
        "eu</w>"
      ],
      [
        "h",
        "er"
      ],
      [
        "w",
        "r"
      ],
      [
        "l",
        "ast</w>"
      ],
      [
        "r",
        "ar</w>"
      ],
      [
        "w",
        "s</w>"
      ],
      [
        "en",
        "to</w>"
      ],
      [
        "prob",
        "le"
      ],
      [
        "any",
        "thing</w>"
      ],
      [
        "ou",
        "l"
      ],
      [
        "g",
        "ado</w>"
      ],
      [
        "fu",
        "l</w>"
      ],
      [
        "cer",
        "to</w>"
      ],
      [
        "e",
        "mb"
      ],
      [
        "a",
        "way</w>"
      ],
      [
        "i",
        "da</w>"
      ],
      [
        "gar",
        "o"
      ],
      [
        "ê",
        "n"
      ],
      [
        "E",
        "les</w>"
      ],
      [
        "fin",
        "d</w>"
      ],
      [
        "por",
        "que</w>"
      ],
      [
        "hel",
        "p</w>"
      ],
      [
        "l",
        "ong</w>"
      ],
      [
        "ar",
        "á</w>"
      ],
      [
        "L",
        "o"
      ],
      [
        "algu",
        "ém</w>"
      ],
      [
        "y",
        "es</w>"
      ],
      [
        "wor",
        "k</w>"
      ],
      [
        "m",
        "es</w>"
      ],
      [
        "oc",
        "u"
      ],
      [
        "tin",
        "ha</w>"
      ],
      [
        "D",
        "o</w>"
      ],
      [
        "te",
        "mos</w>"
      ],
      [
        "th",
        "ese</w>"
      ],
      [
        "c",
        "all</w>"
      ],
      [
        "do",
        "is</w>"
      ],
      [
        "pl",
        "ace</w>"
      ],
      [
        "s",
        "to</w>"
      ],
      [
        "it",
        "y</w>"
      ],
      [
        "j",
        "e</w>"
      ],
      [
        "di",
        "re"
      ],
      [
        "b",
        "ra"
      ],
      [
        "ro",
        "w</w>"
      ],
      [
        "T",
        "o"
      ],
      [
        "ic",
        "k</w>"
      ],
      [
        "t",
        "on"
      ],
      [
        "pri",
        "me"
      ],
      [
        "Qu",
        "er"
      ],
      [
        "re",
        "d</w>"
      ],
      [
        "t",
        "ent"
      ],
      [
        "ho",
        "me</w>"
      ],
      [
        "thin",
        "gs</w>"
      ],
      [
        "h",
        "ar</w>"
      ],
      [
        "v",
        "ed</w>"
      ],
      [
        "m",
        "ar</w>"
      ],
      [
        "m",
        "s</w>"
      ],
      [
        "an",
        "t</w>"
      ],
      [
        "ver",
        "dade</w>"
      ],
      [
        "ic",
        "e</w>"
      ],
      [
        "d",
        "r"
      ],
      [
        "h",
        "on"
      ],
      [
        "Est",
        "ou</w>"
      ],
      [
        "ch",
        "ar"
      ],
      [
        "ch",
        "o"
      ],
      [
        "Est",
        "á</w>"
      ],
      [
        "na",
        "me</w>"
      ],
      [
        "v",
        "i</w>"
      ],
      [
        "tr",
        "u"
      ],
      [
        "din",
        "heiro</w>"
      ],
      [
        "oul",
        "dn</w>"
      ],
      [
        "d",
        "or"
      ],
      [
        "Qu",
        "e</w>"
      ],
      [
        "it",
        "i"
      ],
      [
        "si",
        "r</w>"
      ],
      [
        "re",
        "ad"
      ],
      [
        "p",
        "a</w>"
      ],
      [
        "S",
        "o"
      ],
      [
        "fa",
        "ther</w>"
      ],
      [
        "b",
        "l"
      ],
      [
        "V",
        "ou</w>"
      ],
      [
        "am",
        "ente</w>"
      ],
      [
        "s",
        "an"
      ],
      [
        "w",
        "at"
      ],
      [
        "to",
        "do</w>"
      ],
      [
        "k",
        "ay</w>"
      ],
      [
        "com",
        "p"
      ],
      [
        "p",
        "ut</w>"
      ],
      [
        "p",
        "al"
      ],
      [
        "com",
        "igo</w>"
      ],
      [
        "di",
        "f"
      ],
      [
        "f",
        "ran"
      ],
      [
        "t",
        "re"
      ],
      [
        "su",
        "r"
      ],
      [
        "ma",
        "g"
      ],
      [
        "Y",
        "e"
      ],
      [
        "c",
        "l"
      ],
      [
        "r",
        "ou"
      ],
      [
        "v",
        "em</w>"
      ],
      [
        "th",
        "ose</w>"
      ],
      [
        "no",
        "thing</w>"
      ],
      [
        "c",
        "ur"
      ],
      [
        "Ach",
        "o</w>"
      ],
      [
        "de",
        "mos</w>"
      ],
      [
        "p",
        "elo</w>"
      ],
      [
        "T",
        "al"
      ],
      [
        "t",
        "on</w>"
      ],
      [
        "mon",
        "ey</w>"
      ],
      [
        "Ye",
        "ah</w>"
      ],
      [
        "b",
        "us"
      ],
      [
        "o",
        "l</w>"
      ],
      [
        "a",
        "penas</w>"
      ],
      [
        "fri",
        "end</w>"
      ],
      [
        "c",
        "ra"
      ],
      [
        "tr",
        "y</w>"
      ],
      [
        "m",
        "al"
      ],
      [
        "f",
        "un"
      ],
      [
        "S",
        "e"
      ],
      [
        "ye",
        "ars</w>"
      ],
      [
        "d",
        "ar"
      ],
      [
        "j",
        "o</w>"
      ],
      [
        "qu",
        "i</w>"
      ],
      [
        "no",
        "me</w>"
      ],
      [
        "l",
        "or"
      ],
      [
        "lea",
        "ve</w>"
      ],
      [
        "for",
        "a</w>"
      ],
      [
        "no",
        "vo</w>"
      ],
      [
        "af",
        "ter</w>"
      ],
      [
        "a",
        "ção</w>"
      ],
      [
        "do",
        "ing</w>"
      ],
      [
        "in",
        "ho</w>"
      ],
      [
        "w",
        "al"
      ],
      [
        "ma",
        "t"
      ],
      [
        "mun",
        "do</w>"
      ],
      [
        "m",
        "ão</w>"
      ],
      [
        "pesso",
        "as</w>"
      ],
      [
        "p",
        "h"
      ],
      [
        "A",
        "ll</w>"
      ],
      [
        "o",
        "h</w>"
      ],
      [
        "hap",
        "pen"
      ],
      [
        "fe",
        "z</w>"
      ],
      [
        "b",
        "eli"
      ],
      [
        "B",
        "e"
      ],
      [
        "be",
        "cause</w>"
      ],
      [
        "ag",
        "e</w>"
      ],
      [
        "S",
        "u"
      ],
      [
        "ar",
        "ound</w>"
      ],
      [
        "es",
        "n</w>"
      ],
      [
        "d",
        "isso</w>"
      ],
      [
        "p",
        "p"
      ],
      [
        "Tal",
        "vez</w>"
      ],
      [
        "en",
        "contr"
      ],
      [
        "T",
        "en"
      ],
      [
        "hap",
        "p"
      ],
      [
        "Qu",
        "ando</w>"
      ],
      [
        "i",
        "e</w>"
      ],
      [
        "outr",
        "o</w>"
      ],
      [
        "o",
        "b"
      ],
      [
        "i",
        "de"
      ],
      [
        "gran",
        "de</w>"
      ],
      [
        "con",
        "segu"
      ],
      [
        "p",
        "lease</w>"
      ],
      [
        "de",
        "u</w>"
      ],
      [
        "ti",
        "r</w>"
      ],
      [
        "r",
        "is"
      ],
      [
        "k",
        "es</w>"
      ],
      [
        "ke",
        "ep</w>"
      ],
      [
        "ach",
        "a</w>"
      ],
      [
        "j",
        "un"
      ],
      [
        "poder",
        "ia</w>"
      ],
      [
        "de",
        "us</w>"
      ],
      [
        "hou",
        "se</w>"
      ],
      [
        "si",
        "de</w>"
      ],
      [
        "a",
        "te</w>"
      ],
      [
        "A",
        "s</w>"
      ],
      [
        "í",
        "vel</w>"
      ],
      [
        "de",
        "d</w>"
      ],
      [
        "in",
        "ter"
      ],
      [
        "k",
        "il"
      ],
      [
        "me",
        "mber</w>"
      ],
      [
        "tt",
        "ing</w>"
      ],
      [
        "fa",
        "z</w>"
      ],
      [
        "L",
        "et</w>"
      ],
      [
        "d",
        "or</w>"
      ],
      [
        "Y",
        "es</w>"
      ],
      [
        "H",
        "ey</w>"
      ],
      [
        "algu",
        "ma</w>"
      ],
      [
        "w",
        "as"
      ],
      [
        "pare",
        "ce</w>"
      ],
      [
        "st",
        "e"
      ],
      [
        "n",
        "er</w>"
      ],
      [
        "ç",
        "as</w>"
      ],
      [
        "p",
        "ass"
      ],
      [
        "a",
        "k</w>"
      ],
      [
        "S",
        "a"
      ],
      [
        "in",
        "g"
      ],
      [
        "read",
        "y</w>"
      ],
      [
        "i",
        "z"
      ],
      [
        "ro",
        "om</w>"
      ],
      [
        "st",
        "and</w>"
      ],
      [
        "am",
        "ento</w>"
      ],
      [
        "men",
        "to</w>"
      ],
      [
        "n",
        "em</w>"
      ],
      [
        "quer",
        "ia</w>"
      ],
      [
        "do",
        "esn</w>"
      ],
      [
        "de",
        "pois</w>"
      ],
      [
        "c",
        "lar"
      ],
      [
        "ca",
        "me</w>"
      ],
      [
        "S",
        "ó</w>"
      ],
      [
        "le",
        "mb"
      ],
      [
        "sab",
        "er</w>"
      ],
      [
        "the",
        "ir</w>"
      ],
      [
        "p",
        "ra"
      ],
      [
        "ma",
        "l</w>"
      ],
      [
        "ho",
        "je</w>"
      ],
      [
        "mul",
        "her</w>"
      ],
      [
        "vi",
        "r</w>"
      ],
      [
        "si",
        "g"
      ],
      [
        "ac",
        "h</w>"
      ],
      [
        "li",
        "e</w>"
      ],
      [
        "co",
        "s</w>"
      ],
      [
        "n",
        "s</w>"
      ],
      [
        "y",
        "our"
      ],
      [
        "n",
        "inguém</w>"
      ],
      [
        "pr",
        "ó"
      ],
      [
        "re",
        "i</w>"
      ],
      [
        ":",
        ".</w>"
      ],
      [
        "wan",
        "ted</w>"
      ],
      [
        "c",
        "en"
      ],
      [
        "c",
        "lo"
      ],
      [
        "d",
        "oc"
      ],
      [
        "ma",
        "de</w>"
      ],
      [
        "is",
        "e</w>"
      ],
      [
        "ac",
        "re"
      ],
      [
        "lo",
        "w</w>"
      ],
      [
        "l",
        "an"
      ],
      [
        "i",
        "l</w>"
      ],
      [
        "b",
        "at"
      ],
      [
        "le",
        "ft</w>"
      ],
      [
        "se",
        "ja</w>"
      ],
      [
        "ti",
        "ve</w>"
      ],
      [
        "su",
        "as</w>"
      ],
      [
        "w",
        "er</w>"
      ],
      [
        "is",
        "n</w>"
      ],
      [
        "ic",
        "a</w>"
      ],
      [
        "Wh",
        "en</w>"
      ],
      [
        "i",
        "ve</w>"
      ],
      [
        "an",
        "o</w>"
      ],
      [
        "f",
        "f</w>"
      ],
      [
        "ar",
        "ei</w>"
      ],
      [
        "per",
        "gun"
      ],
      [
        "Y",
        "our</w>"
      ],
      [
        "ar",
        "am</w>"
      ],
      [
        "n",
        "or"
      ],
      [
        "mo",
        "ther</w>"
      ],
      [
        "O",
        "s</w>"
      ],
      [
        "trabal",
        "ho</w>"
      ],
      [
        "co",
        "ur"
      ],
      [
        "n",
        "ed</w>"
      ],
      [
        "l",
        "er</w>"
      ],
      [
        "am",
        "igo</w>"
      ],
      [
        "lo",
        "t</w>"
      ],
      [
        "fe",
        "el</w>"
      ],
      [
        "co",
        "un"
      ],
      [
        "est",
        "amos</w>"
      ],
      [
        "po",
        "l"
      ],
      [
        "al",
        "ly</w>"
      ],
      [
        "d",
        "est"
      ],
      [
        "ta",
        "in</w>"
      ],
      [
        "ca",
        "s"
      ],
      [
        "ta",
        "l</w>"
      ],
      [
        "outr",
        "a</w>"
      ],
      [
        "gu",
        "y</w>"
      ],
      [
        "bi",
        "g</w>"
      ],
      [
        "P",
        "or"
      ],
      [
        "gir",
        "l</w>"
      ],
      [
        "v",
        "ia</w>"
      ],
      [
        "ch",
        "il"
      ],
      [
        "beli",
        "eve</w>"
      ],
      [
        "it",
        "ar</w>"
      ],
      [
        "de",
        "ver"
      ],
      [
        "g",
        "ou</w>"
      ],
      [
        "bo",
        "a</w>"
      ],
      [
        "í",
        "ci"
      ],
      [
        "g",
        "r"
      ],
      [
        "en",
        "h"
      ],
      [
        "Th",
        "en</w>"
      ],
      [
        "d",
        "em</w>"
      ],
      [
        "an",
        "other</w>"
      ],
      [
        "e",
        "ce</w>"
      ],
      [
        "b",
        "or"
      ],
      [
        "g",
        "er"
      ],
      [
        "g",
        "um</w>"
      ],
      [
        "c",
        "le"
      ],
      [
        "we",
        "e"
      ],
      [
        "r",
        "el"
      ],
      [
        "un",
        "der"
      ],
      [
        "ti",
        "l</w>"
      ],
      [
        "s",
        "on"
      ],
      [
        "j",
        "an"
      ],
      [
        "d",
        "ur"
      ],
      [
        "ent",
        "en"
      ],
      [
        "b",
        "on"
      ],
      [
        "ên",
        "cia</w>"
      ],
      [
        "he",
        "ad</w>"
      ],
      [
        "il",
        "e</w>"
      ],
      [
        "N",
        "ós</w>"
      ],
      [
        "D",
        "i"
      ],
      [
        "s",
        "how</w>"
      ],
      [
        "faz",
        "endo</w>"
      ],
      [
        "come",
        "ç"
      ],
      [
        "tr",
        "ou"
      ],
      [
        "gre",
        "at</w>"
      ],
      [
        "so",
        "l"
      ],
      [
        "st",
        "ay</w>"
      ],
      [
        "k",
        "ind</w>"
      ],
      [
        "d",
        "ela</w>"
      ],
      [
        "impor",
        "tan"
      ],
      [
        "G",
        "o"
      ],
      [
        "qu",
        "is"
      ],
      [
        "am",
        "an"
      ],
      [
        "in",
        "s</w>"
      ],
      [
        "Lo",
        "ok</w>"
      ],
      [
        "Ten",
        "ho</w>"
      ],
      [
        "á",
        "rio</w>"
      ],
      [
        "oc",
        "k</w>"
      ],
      [
        "bo",
        "y</w>"
      ],
      [
        "p",
        "s</w>"
      ],
      [
        "J",
        "ust</w>"
      ],
      [
        "di",
        "e</w>"
      ],
      [
        "ser",
        "á</w>"
      ],
      [
        "n",
        "e</w>"
      ],
      [
        "pe",
        "di"
      ],
      [
        "tr",
        "o</w>"
      ],
      [
        "d",
        "r</w>"
      ],
      [
        "l",
        "ou"
      ],
      [
        "st",
        "a"
      ],
      [
        "mi",
        "ght</w>"
      ],
      [
        "b",
        "ur"
      ],
      [
        "k",
        "ill</w>"
      ],
      [
        "qu",
        "i"
      ],
      [
        "w",
        "ar"
      ],
      [
        "p",
        "ela</w>"
      ],
      [
        "do",
        "es</w>"
      ],
      [
        "qu",
        "ar"
      ],
      [
        "he",
        "ar</w>"
      ],
      [
        "d",
        "es</w>"
      ],
      [
        "i",
        "u</w>"
      ],
      [
        "sor",
        "ry</w>"
      ],
      [
        "r",
        "ough</w>"
      ],
      [
        "u",
        "h</w>"
      ],
      [
        "b",
        "ab"
      ],
      [
        "f",
        "eli"
      ],
      [
        "s",
        "s</w>"
      ],
      [
        "n",
        "u"
      ],
      [
        "le",
        "y</w>"
      ],
      [
        "k",
        "no"
      ],
      [
        "pr",
        "oc"
      ],
      [
        "R",
        "e"
      ],
      [
        "sa",
        "ir</w>"
      ],
      [
        "da",
        "do</w>"
      ],
      [
        "x",
        "i"
      ],
      [
        "jo",
        "h"
      ],
      [
        "a",
        "cab"
      ],
      [
        "ci",
        "al</w>"
      ],
      [
        "min",
        "d</w>"
      ],
      [
        "men",
        "os</w>"
      ],
      [
        "an",
        "s"
      ],
      [
        "precis",
        "a</w>"
      ],
      [
        "s",
        "se</w>"
      ],
      [
        "fil",
        "ho</w>"
      ],
      [
        "el",
        "as</w>"
      ],
      [
        "un",
        "i"
      ],
      [
        "w",
        "ho"
      ],
      [
        "ma",
        "y</w>"
      ],
      [
        "M",
        "eu</w>"
      ],
      [
        "it",
        "u"
      ],
      [
        "l",
        "ti"
      ],
      [
        "me",
        "us</w>"
      ],
      [
        "mo",
        "st</w>"
      ],
      [
        "chan",
        "ce</w>"
      ],
      [
        "no",
        "sso</w>"
      ],
      [
        "F",
        "o"
      ],
      [
        "w",
        "ouldn</w>"
      ],
      [
        "li",
        "a</w>"
      ],
      [
        "wor",
        "ld</w>"
      ],
      [
        "re",
        "member</w>"
      ],
      [
        "fic",
        "a</w>"
      ],
      [
        "li",
        "v"
      ],
      [
        "o",
        "wn</w>"
      ],
      [
        "vol",
        "tar</w>"
      ],
      [
        "vi",
        "u</w>"
      ],
      [
        "N",
        "o"
      ],
      [
        "v",
        "ão</w>"
      ],
      [
        "ca",
        "be"
      ],
      [
        "en",
        "tr"
      ],
      [
        "t",
        "el"
      ],
      [
        "en",
        "ce</w>"
      ],
      [
        "sh",
        "i"
      ],
      [
        "in",
        "o</w>"
      ],
      [
        "ra",
        "do</w>"
      ],
      [
        "wo",
        "man</w>"
      ],
      [
        "al",
        "gum</w>"
      ],
      [
        "an",
        "k</w>"
      ],
      [
        "di",
        "o</w>"
      ],
      [
        "sa",
        "me</w>"
      ],
      [
        "qu",
        "al"
      ],
      [
        "ú",
        "lti"
      ],
      [
        "Por",
        "que</w>"
      ],
      [
        "il",
        "y</w>"
      ],
      [
        "to",
        "da</w>"
      ],
      [
        "Ma",
        "ybe</w>"
      ],
      [
        "Co",
        "me</w>"
      ],
      [
        "l",
        "at"
      ],
      [
        "w",
        "il"
      ],
      [
        "mis",
        "s</w>"
      ],
      [
        "s",
        "is"
      ],
      [
        "as",
        "k</w>"
      ],
      [
        "m",
        "y"
      ],
      [
        "sa",
        "do</w>"
      ],
      [
        "el",
        "se</w>"
      ],
      [
        "c",
        "are</w>"
      ],
      [
        "vol",
        "ta</w>"
      ],
      [
        "I",
        "n</w>"
      ],
      [
        "tin",
        "u"
      ],
      [
        "s",
        "os</w>"
      ],
      [
        ".",
        ".</w>"
      ],
      [
        "C",
        "on"
      ],
      [
        "sa",
        "w</w>"
      ],
      [
        "p",
        "at"
      ],
      [
        "ve",
        "zes</w>"
      ],
      [
        "es",
        "que"
      ],
      [
        "s",
        "es</w>"
      ],
      [
        "re",
        "al</w>"
      ],
      [
        "com",
        "ing</w>"
      ],
      [
        "te",
        "za</w>"
      ],
      [
        "wi",
        "th"
      ],
      [
        "it",
        "os</w>"
      ],
      [
        "r",
        "s</w>"
      ],
      [
        "st",
        "a</w>"
      ],
      [
        "tal",
        "vez</w>"
      ],
      [
        "t",
        "ta</w>"
      ],
      [
        "happen",
        "ed</w>"
      ],
      [
        "an",
        "s</w>"
      ],
      [
        "b",
        "ad</w>"
      ],
      [
        "th",
        "rough</w>"
      ],
      [
        "d",
        "one</w>"
      ],
      [
        "be",
        "ing</w>"
      ],
      [
        "qu",
        "en"
      ],
      [
        "n",
        "enh"
      ],
      [
        "th",
        "ree</w>"
      ],
      [
        "s",
        "k"
      ],
      [
        "P",
        "re"
      ],
      [
        "aqu",
        "ele</w>"
      ],
      [
        "sto",
        "p</w>"
      ],
      [
        "d",
        "i</w>"
      ],
      [
        "e",
        "ar"
      ],
      [
        "di",
        "z</w>"
      ],
      [
        "ti",
        "mes</w>"
      ],
      [
        "ç",
        "ões</w>"
      ],
      [
        "ten",
        "ha</w>"
      ],
      [
        "s",
        "ou"
      ],
      [
        "a",
        "ti"
      ],
      [
        "pre",
        "ocu"
      ],
      [
        "a",
        "is</w>"
      ],
      [
        "T",
        "em</w>"
      ],
      [
        "es",
        "p"
      ],
      [
        "ti",
        "po</w>"
      ],
      [
        "in",
        "k</w>"
      ],
      [
        "every",
        "thing</w>"
      ],
      [
        "e",
        "mp"
      ],
      [
        "su",
        "p"
      ],
      [
        "er",
        "i"
      ],
      [
        "proble",
        "ma</w>"
      ],
      [
        "po",
        "li"
      ],
      [
        "precis",
        "o</w>"
      ],
      [
        "go",
        "d</w>"
      ],
      [
        "c",
        "in"
      ],
      [
        "ri",
        "ed</w>"
      ],
      [
        "f",
        "ac"
      ],
      [
        "A",
        "n"
      ],
      [
        "ex",
        "p"
      ],
      [
        "tt",
        "y</w>"
      ],
      [
        "v",
        "ê</w>"
      ],
      [
        "d",
        "ou"
      ],
      [
        "di",
        "z"
      ],
      [
        "a",
        "i</w>"
      ],
      [
        "Quer",
        "o</w>"
      ],
      [
        "l",
        "os</w>"
      ],
      [
        "po",
        "demos</w>"
      ],
      [
        "d",
        "á</w>"
      ],
      [
        "p",
        "t</w>"
      ],
      [
        "ar",
        "t</w>"
      ],
      [
        "e",
        "u"
      ],
      [
        "re",
        "ce"
      ],
      [
        "nic",
        "e</w>"
      ],
      [
        "nos",
        "sa</w>"
      ],
      [
        "st",
        "er</w>"
      ],
      [
        "ent",
        "es</w>"
      ],
      [
        "en",
        "ough</w>"
      ],
      [
        "cri",
        "an"
      ],
      [
        "U",
        "ma</w>"
      ],
      [
        "1",
        "0</w>"
      ],
      [
        "in",
        "c"
      ],
      [
        "e",
        "very</w>"
      ],
      [
        "d",
        "ro"
      ],
      [
        "I",
        "s</w>"
      ],
      [
        "Fo",
        "i</w>"
      ],
      [
        "ab",
        "le</w>"
      ],
      [
        "ist",
        "en</w>"
      ],
      [
        "bri",
        "gado</w>"
      ],
      [
        "u",
        "do</w>"
      ],
      [
        "am",
        "or</w>"
      ],
      [
        "ge",
        "tting</w>"
      ],
      [
        "dever",
        "ia</w>"
      ],
      [
        "li",
        "ve</w>"
      ],
      [
        "A",
        "h</w>"
      ],
      [
        "O",
        "u"
      ],
      [
        "or",
        "y</w>"
      ],
      [
        "c",
        "y</w>"
      ],
      [
        "car",
        "ro</w>"
      ],
      [
        "to",
        "day</w>"
      ],
      [
        "da",
        "ys</w>"
      ],
      [
        "some",
        "one</w>"
      ],
      [
        "0",
        "00</w>"
      ],
      [
        "ent",
        "s</w>"
      ],
      [
        "b",
        "el"
      ],
      [
        "it",
        "s</w>"
      ],
      [
        "was",
        "n</w>"
      ],
      [
        "a",
        "í</w>"
      ],
      [
        "st",
        "r"
      ],
      [
        "s",
        "as</w>"
      ],
      [
        "ta",
        "do</w>"
      ],
      [
        "p",
        "ic"
      ],
      [
        "fe",
        "ito</w>"
      ],
      [
        "s",
        "le"
      ],
      [
        "tr",
        "ês</w>"
      ],
      [
        "a",
        "se</w>"
      ],
      [
        "ne",
        "g"
      ],
      [
        "di",
        "as</w>"
      ],
      [
        "h",
        "ist"
      ],
      [
        "ha",
        "m</w>"
      ],
      [
        "ad",
        "os</w>"
      ],
      [
        "mor",
        "row</w>"
      ],
      [
        "fic",
        "i"
      ],
      [
        "f",
        "re"
      ],
      [
        "fri",
        "en"
      ],
      [
        "t",
        "ou</w>"
      ],
      [
        "m",
        "é"
      ],
      [
        "w",
        "ent</w>"
      ],
      [
        "wan",
        "na</w>"
      ],
      [
        "pa",
        "z</w>"
      ],
      [
        "deix",
        "ar</w>"
      ],
      [
        "pe",
        "quen"
      ],
      [
        "man",
        "y</w>"
      ],
      [
        "hor",
        "as</w>"
      ],
      [
        "ma",
        "ybe</w>"
      ],
      [
        "man",
        "hã</w>"
      ],
      [
        "cer",
        "teza</w>"
      ],
      [
        "real",
        "mente</w>"
      ],
      [
        "ó",
        "ria</w>"
      ],
      [
        "b",
        "est</w>"
      ],
      [
        "wr",
        "ong</w>"
      ],
      [
        "de",
        "ad</w>"
      ],
      [
        "f",
        "ound</w>"
      ],
      [
        "ca",
        "min"
      ],
      [
        "Sa",
        "be</w>"
      ],
      [
        "si",
        "on</w>"
      ],
      [
        "g",
        "g"
      ],
      [
        "wi",
        "fe</w>"
      ],
      [
        "ci",
        "dade</w>"
      ],
      [
        "d",
        "on"
      ],
      [
        "d",
        "ri"
      ],
      [
        "co",
        "ra"
      ],
      [
        "ú",
        "nic"
      ],
      [
        "qual",
        "quer</w>"
      ],
      [
        "in",
        "ess</w>"
      ],
      [
        "feli",
        "z</w>"
      ],
      [
        "in",
        "t</w>"
      ],
      [
        "j",
        "a"
      ],
      [
        "he",
        "ard</w>"
      ],
      [
        "D",
        "id</w>"
      ],
      [
        "l",
        "and</w>"
      ],
      [
        "tan",
        "to</w>"
      ],
      [
        "con",
        "tinu"
      ],
      [
        "o",
        "kay</w>"
      ],
      [
        "Est",
        "e</w>"
      ],
      [
        "mor",
        "r"
      ],
      [
        "l",
        "is"
      ],
      [
        "er",
        "al</w>"
      ],
      [
        "P",
        "e"
      ],
      [
        "á",
        "vel</w>"
      ],
      [
        "aconte",
        "ceu</w>"
      ],
      [
        "ton",
        "ight</w>"
      ],
      [
        "ca",
        "da</w>"
      ],
      [
        "k",
        "en</w>"
      ],
      [
        "la",
        "do</w>"
      ],
      [
        "acre",
        "d"
      ],
      [
        "di",
        "to</w>"
      ],
      [
        "as",
        "su"
      ],
      [
        "D",
        "es"
      ],
      [
        "í",
        "amos</w>"
      ],
      [
        "v",
        "esse</w>"
      ],
      [
        "T",
        "udo</w>"
      ],
      [
        "men",
        "s</w>"
      ],
      [
        "am",
        "ig"
      ],
      [
        "n",
        "as</w>"
      ],
      [
        "ad",
        "or</w>"
      ],
      [
        "sab",
        "ia</w>"
      ],
      [
        "prime",
        "iro</w>"
      ],
      [
        "e",
        "ja</w>"
      ],
      [
        "t",
        "ele"
      ],
      [
        "wa",
        "it</w>"
      ],
      [
        "ar",
        "y</w>"
      ],
      [
        "tur",
        "n</w>"
      ],
      [
        "f",
        "ar"
      ],
      [
        "s",
        "ha"
      ],
      [
        "rá",
        "s</w>"
      ],
      [
        "it",
        "ing</w>"
      ],
      [
        "h",
        "ur"
      ],
      [
        "H",
        "á</w>"
      ],
      [
        "di",
        "ga</w>"
      ],
      [
        "i",
        "dade</w>"
      ],
      [
        "at",
        "rás</w>"
      ],
      [
        "par",
        "te</w>"
      ],
      [
        "se",
        "en</w>"
      ],
      [
        "ra",
        "m</w>"
      ],
      [
        "pr",
        "en"
      ],
      [
        "loo",
        "king</w>"
      ],
      [
        "k",
        "i"
      ],
      [
        "col",
        "oc"
      ],
      [
        "ha",
        "ven</w>"
      ],
      [
        "se",
        "man"
      ],
      [
        "s",
        "ing</w>"
      ],
      [
        "h",
        "al"
      ],
      [
        "d",
        "ou</w>"
      ],
      [
        "fo",
        "sse</w>"
      ],
      [
        "se",
        "e"
      ],
      [
        "under",
        "stand</w>"
      ],
      [
        "s",
        "ra</w>"
      ],
      [
        "x",
        "t</w>"
      ],
      [
        "Par",
        "a</w>"
      ],
      [
        "at",
        "h</w>"
      ],
      [
        "f",
        "ol"
      ],
      [
        "tr",
        "ying</w>"
      ],
      [
        "ge",
        "ther</w>"
      ],
      [
        "k",
        "er</w>"
      ],
      [
        "kil",
        "led</w>"
      ],
      [
        "cour",
        "se</w>"
      ],
      [
        "al",
        "one</w>"
      ],
      [
        "be",
        "b"
      ],
      [
        "er",
        "am</w>"
      ],
      [
        "ye",
        "ah</w>"
      ],
      [
        "gu",
        "ys</w>"
      ],
      [
        "ê",
        "m</w>"
      ],
      [
        "d",
        "ra"
      ],
      [
        "c",
        "el"
      ],
      [
        "to",
        "gether</w>"
      ],
      [
        "J",
        "á</w>"
      ],
      [
        "with",
        "out</w>"
      ],
      [
        "i",
        "c</w>"
      ],
      [
        "gu",
        "ar"
      ],
      [
        "de",
        "ci"
      ],
      [
        "wan",
        "ts</w>"
      ],
      [
        "it",
        "ão</w>"
      ],
      [
        "w",
        "ing</w>"
      ],
      [
        "ne",
        "xt</w>"
      ],
      [
        "M",
        "e</w>"
      ],
      [
        "ve",
        "mos</w>"
      ],
      [
        "f",
        "ess"
      ],
      [
        "ch",
        "u"
      ],
      [
        "-",
        ".</w>"
      ],
      [
        "proc",
        "ur"
      ],
      [
        "a",
        "go</w>"
      ],
      [
        "f",
        "el"
      ],
      [
        "tu",
        "re</w>"
      ],
      [
        "at",
        "u"
      ],
      [
        "A",
        "re</w>"
      ],
      [
        "ho",
        "mens</w>"
      ],
      [
        "on",
        "el</w>"
      ],
      [
        "aqu",
        "ela</w>"
      ],
      [
        "ic",
        "h</w>"
      ],
      [
        "mor",
        "ning</w>"
      ],
      [
        "So",
        "me"
      ],
      [
        "gu",
        "ess</w>"
      ],
      [
        "E",
        "i</w>"
      ],
      [
        "v",
        "os</w>"
      ],
      [
        "so",
        "z"
      ],
      [
        "tar",
        "de</w>"
      ],
      [
        "da",
        "qui</w>"
      ],
      [
        "M",
        "r</w>"
      ],
      [
        "m",
        "it"
      ],
      [
        "u",
        "sed</w>"
      ],
      [
        "N",
        "ot</w>"
      ],
      [
        "ch",
        "i"
      ],
      [
        "k",
        "new</w>"
      ],
      [
        "to",
        "morrow</w>"
      ],
      [
        "your",
        "self</w>"
      ],
      [
        "doc",
        "tor</w>"
      ],
      [
        "Qu",
        "em</w>"
      ],
      [
        "aman",
        "hã</w>"
      ],
      [
        "Po",
        "de</w>"
      ],
      [
        "ci",
        "o</w>"
      ],
      [
        "en",
        "g"
      ],
      [
        "s",
        "ar"
      ],
      [
        "n",
        "am"
      ],
      [
        "m",
        "rs</w>"
      ],
      [
        "my",
        "self</w>"
      ],
      [
        "c",
        "li"
      ],
      [
        "bab",
        "y</w>"
      ],
      [
        "i",
        "or</w>"
      ],
      [
        "ag",
        "em</w>"
      ],
      [
        "f",
        "l"
      ],
      [
        "pe",
        "gar</w>"
      ],
      [
        "fam",
        "í"
      ],
      [
        "g",
        "em</w>"
      ],
      [
        "hu",
        "h</w>"
      ],
      [
        "tal",
        "king</w>"
      ],
      [
        "gost",
        "aria</w>"
      ],
      [
        "to",
        "ok</w>"
      ],
      [
        "cont",
        "ro"
      ],
      [
        "i",
        "am</w>"
      ],
      [
        "u",
        "gh"
      ],
      [
        "co",
        "ul"
      ],
      [
        "in",
        "gs</w>"
      ],
      [
        "f",
        "ace</w>"
      ],
      [
        "happ",
        "y</w>"
      ],
      [
        "cu",
        "i"
      ],
      [
        "cabe",
        "ça</w>"
      ],
      [
        "go",
        "tta</w>"
      ],
      [
        "te",
        "i</w>"
      ],
      [
        "Be",
        "cause</w>"
      ],
      [
        "ho",
        "pe</w>"
      ],
      [
        "wh",
        "ile</w>"
      ],
      [
        "C",
        "an</w>"
      ],
      [
        "fam",
        "ily</w>"
      ],
      [
        "a",
        "tion</w>"
      ],
      [
        "pla",
        "y</w>"
      ],
      [
        "i",
        "mag"
      ],
      [
        "v",
        "ir"
      ],
      [
        "ca",
        "so</w>"
      ],
      [
        "it",
        "al</w>"
      ],
      [
        "us",
        "a</w>"
      ],
      [
        "jo",
        "b</w>"
      ],
      [
        "e",
        "d"
      ],
      [
        "i",
        "on</w>"
      ],
      [
        "fe",
        "w</w>"
      ],
      [
        "pr",
        "is"
      ],
      [
        "ac",
        "k"
      ],
      [
        "who",
        "le</w>"
      ],
      [
        "frien",
        "ds</w>"
      ],
      [
        "coul",
        "dn</w>"
      ],
      [
        "ter",
        "min"
      ],
      [
        "o",
        "so</w>"
      ],
      [
        "b",
        "and</w>"
      ],
      [
        "amig",
        "os</w>"
      ],
      [
        "h",
        "un"
      ],
      [
        "du",
        "as</w>"
      ],
      [
        "ic",
        "o</w>"
      ],
      [
        "sa",
        "ys</w>"
      ],
      [
        "à",
        "s</w>"
      ],
      [
        "g",
        "ente</w>"
      ],
      [
        "cal",
        "led</w>"
      ],
      [
        "e",
        "m"
      ],
      [
        "su",
        "b"
      ],
      [
        "it",
        "as</w>"
      ],
      [
        "y",
        "e</w>"
      ],
      [
        "an",
        "g"
      ],
      [
        "y",
        "oun"
      ],
      [
        "ca",
        "l</w>"
      ],
      [
        "pi",
        "do</w>"
      ],
      [
        "bro",
        "ther</w>"
      ],
      [
        "clar",
        "o</w>"
      ],
      [
        "qu",
        "al</w>"
      ],
      [
        "re",
        "s</w>"
      ],
      [
        "i",
        "di"
      ],
      [
        "la",
        "te</w>"
      ],
      [
        "f",
        "ra"
      ],
      [
        "me",
        "do</w>"
      ],
      [
        "l",
        "oc"
      ],
      [
        "2",
        "0</w>"
      ],
      [
        "t",
        "t</w>"
      ],
      [
        "v",
        "á</w>"
      ],
      [
        "of",
        "fic"
      ],
      [
        "con",
        "si"
      ],
      [
        "fal",
        "ando</w>"
      ],
      [
        "bus",
        "iness</w>"
      ],
      [
        "ser",
        "ia</w>"
      ],
      [
        "pro",
        "te"
      ],
      [
        "go",
        "sto</w>"
      ],
      [
        "z",
        "e</w>"
      ],
      [
        "ix",
        "o</w>"
      ],
      [
        "deix",
        "e</w>"
      ],
      [
        "aju",
        "dar</w>"
      ],
      [
        "garo",
        "ta</w>"
      ],
      [
        "famí",
        "lia</w>"
      ],
      [
        "p",
        "er</w>"
      ],
      [
        "quer",
        "ida</w>"
      ],
      [
        "P",
        "er"
      ],
      [
        "su",
        "ch</w>"
      ],
      [
        "W",
        "here</w>"
      ],
      [
        "t",
        "ro"
      ],
      [
        "as",
        "s</w>"
      ],
      [
        "algu",
        "ns</w>"
      ],
      [
        "í",
        "cia</w>"
      ],
      [
        "quar",
        "to</w>"
      ],
      [
        "mo",
        "mento</w>"
      ],
      [
        "W",
        "ho</w>"
      ],
      [
        "S",
        "eu</w>"
      ],
      [
        "br",
        "ing</w>"
      ],
      [
        "v",
        "il"
      ],
      [
        "star",
        "t</w>"
      ],
      [
        "s",
        "m"
      ],
      [
        "pre",
        "tty</w>"
      ],
      [
        "at",
        "ra"
      ],
      [
        "ca",
        "val"
      ],
      [
        "ma",
        "j"
      ],
      [
        "al",
        "e"
      ],
      [
        "our",
        "s</w>"
      ],
      [
        "d",
        "am"
      ],
      [
        "E",
        "x"
      ],
      [
        "b",
        "lo"
      ],
      [
        "outr",
        "os</w>"
      ],
      [
        "y",
        "et</w>"
      ],
      [
        "oc",
        "a</w>"
      ],
      [
        "emb",
        "ora</w>"
      ],
      [
        "ca",
        "se</w>"
      ],
      [
        "h",
        "us"
      ],
      [
        "ra",
        "id</w>"
      ],
      [
        "qu",
        "esti"
      ],
      [
        "ir",
        "mão</w>"
      ],
      [
        "Co",
        "m</w>"
      ],
      [
        "p",
        "le</w>"
      ],
      [
        "p",
        "ul"
      ],
      [
        "Est",
        "a</w>"
      ],
      [
        "d",
        "eles</w>"
      ],
      [
        "fr",
        "ente</w>"
      ],
      [
        "L",
        "i"
      ],
      [
        "ca",
        "do</w>"
      ],
      [
        "to",
        "wn</w>"
      ],
      [
        "ent",
        "re</w>"
      ],
      [
        "ess",
        "es</w>"
      ],
      [
        "par",
        "ar</w>"
      ],
      [
        "l",
        "ess</w>"
      ],
      [
        "a",
        "ve</w>"
      ],
      [
        "l",
        "as</w>"
      ],
      [
        "lev",
        "ar</w>"
      ],
      [
        "l",
        "in"
      ],
      [
        "T",
        "emos</w>"
      ],
      [
        "m",
        "á"
      ],
      [
        "Par",
        "ece</w>"
      ],
      [
        "je",
        "ito</w>"
      ],
      [
        "gu",
        "a</w>"
      ],
      [
        "s",
        "cho"
      ],
      [
        "N",
        "unca</w>"
      ],
      [
        "te",
        "l</w>"
      ],
      [
        "m",
        "er</w>"
      ],
      [
        "sup",
        "po"
      ],
      [
        "d",
        "ê</w>"
      ],
      [
        "s",
        "y"
      ],
      [
        "pos",
        "s"
      ],
      [
        "res",
        "t</w>"
      ],
      [
        "w",
        "in"
      ],
      [
        "b",
        "it</w>"
      ],
      [
        "in",
        "v"
      ],
      [
        "c",
        "ro"
      ],
      [
        "se",
        "t</w>"
      ],
      [
        "ra",
        "da</w>"
      ],
      [
        "af",
        "raid</w>"
      ],
      [
        "is",
        "h"
      ],
      [
        "minu",
        "tos</w>"
      ],
      [
        "on",
        "ce</w>"
      ],
      [
        "or",
        "e</w>"
      ],
      [
        "fess",
        "or</w>"
      ],
      [
        "is",
        "ta</w>"
      ],
      [
        "quis",
        "er</w>"
      ],
      [
        "qu",
        "ê</w>"
      ],
      [
        "ma",
        "tar</w>"
      ],
      [
        "de",
        "n</w>"
      ],
      [
        "minu",
        "tes</w>"
      ],
      [
        "par",
        "t</w>"
      ],
      [
        "ter",
        "ia</w>"
      ],
      [
        "un",
        "til</w>"
      ],
      [
        "t",
        "ly</w>"
      ],
      [
        "Pre",
        "cis"
      ],
      [
        "an",
        "i"
      ],
      [
        "r",
        "os</w>"
      ],
      [
        "v",
        "ar</w>"
      ],
      [
        "ci",
        "on"
      ],
      [
        "be",
        "au"
      ],
      [
        "che",
        "gar</w>"
      ],
      [
        "b",
        "ed</w>"
      ],
      [
        "vel",
        "ho</w>"
      ],
      [
        "pen",
        "sar</w>"
      ],
      [
        "so",
        "on</w>"
      ],
      [
        "po",
        "sa</w>"
      ],
      [
        "Qu",
        "er</w>"
      ],
      [
        "gu",
        "er"
      ],
      [
        "te",
        "ve</w>"
      ],
      [
        "se",
        "cre"
      ],
      [
        "cha",
        "ma"
      ],
      [
        "t",
        "êm</w>"
      ],
      [
        "ent",
        "ar</w>"
      ],
      [
        "ti",
        "do</w>"
      ],
      [
        "al",
        "ready</w>"
      ],
      [
        "â",
        "n"
      ],
      [
        "M",
        "u"
      ],
      [
        "ess",
        "as</w>"
      ],
      [
        "pen",
        "s"
      ],
      [
        "h",
        "ard</w>"
      ],
      [
        "segu",
        "n"
      ],
      [
        "l",
        "ha</w>"
      ],
      [
        "h",
        "and</w>"
      ],
      [
        "ye",
        "ar</w>"
      ],
      [
        "se",
        "con"
      ],
      [
        "pr",
        "on"
      ],
      [
        "f",
        "an"
      ],
      [
        "ide",
        "a</w>"
      ],
      [
        "g",
        "one</w>"
      ],
      [
        "as",
        "on</w>"
      ],
      [
        "prime",
        "ira</w>"
      ],
      [
        "b",
        "il"
      ],
      [
        "por",
        "ta</w>"
      ],
      [
        "ga",
        "ve</w>"
      ],
      [
        "í",
        "n"
      ],
      [
        "On",
        "e</w>"
      ],
      [
        "le",
        "g"
      ],
      [
        "E",
        "m</w>"
      ],
      [
        "c",
        "lu"
      ],
      [
        "mar",
        "ido</w>"
      ],
      [
        "ba",
        "st"
      ],
      [
        "cap",
        "itão</w>"
      ],
      [
        "hus",
        "band</w>"
      ],
      [
        "s",
        "il"
      ],
      [
        "g",
        "an</w>"
      ],
      [
        "des",
        "se</w>"
      ],
      [
        "fa",
        "ça</w>"
      ],
      [
        "youn",
        "g</w>"
      ],
      [
        "v",
        "indo</w>"
      ],
      [
        "ó",
        "rio</w>"
      ],
      [
        "De",
        "ix"
      ],
      [
        "pró",
        "xi"
      ],
      [
        "joh",
        "n</w>"
      ],
      [
        "a",
        "cor"
      ],
      [
        "ac",
        "i"
      ],
      [
        "scho",
        "ol</w>"
      ],
      [
        "sa",
        "m</w>"
      ],
      [
        "c",
        "tion</w>"
      ],
      [
        "mã",
        "os</w>"
      ],
      [
        "to",
        "das</w>"
      ],
      [
        "pal",
        "av"
      ],
      [
        "ru",
        "n</w>"
      ],
      [
        "J",
        "o"
      ],
      [
        "P",
        "en"
      ],
      [
        "d",
        "ge</w>"
      ],
      [
        "per",
        "to</w>"
      ],
      [
        "pesso",
        "a</w>"
      ],
      [
        "F",
        "or</w>"
      ],
      [
        "es",
        "posa</w>"
      ],
      [
        "me",
        "et</w>"
      ],
      [
        "nenh",
        "um</w>"
      ],
      [
        "por",
        "t</w>"
      ],
      [
        "con",
        "tra"
      ],
      [
        "di",
        "fer"
      ],
      [
        "wor",
        "d</w>"
      ],
      [
        "f",
        "f"
      ],
      [
        "do",
        "or</w>"
      ],
      [
        "ho",
        "sp"
      ],
      [
        "ra",
        "z"
      ],
      [
        "v",
        "ic"
      ],
      [
        "or",
        "es</w>"
      ],
      [
        "v",
        "in"
      ],
      [
        "den",
        "tro</w>"
      ],
      [
        "da",
        "d</w>"
      ],
      [
        "encontr",
        "ar</w>"
      ],
      [
        "contr",
        "a</w>"
      ],
      [
        "sin",
        "to</w>"
      ],
      [
        "e",
        "as"
      ],
      [
        "ur",
        "a</w>"
      ],
      [
        "N",
        "a</w>"
      ],
      [
        "c",
        "le</w>"
      ],
      [
        "tent",
        "ando</w>"
      ],
      [
        "any",
        "one</w>"
      ],
      [
        "e",
        "ira</w>"
      ],
      [
        "Es",
        "se</w>"
      ],
      [
        "kno",
        "ws</w>"
      ],
      [
        "dif",
        "íci"
      ],
      [
        "cul",
        "pe</w>"
      ],
      [
        "n",
        "er"
      ],
      [
        "cap",
        "tain</w>"
      ],
      [
        "A",
        "qui</w>"
      ],
      [
        "des",
        "co"
      ],
      [
        "S",
        "ou</w>"
      ],
      [
        "D",
        "e</w>"
      ],
      [
        "th",
        "ers</w>"
      ],
      [
        "á",
        "s</w>"
      ],
      [
        "si",
        "do</w>"
      ],
      [
        "camin",
        "ho</w>"
      ],
      [
        "ho",
        "l"
      ],
      [
        "ex",
        "is"
      ],
      [
        "On",
        "de</w>"
      ],
      [
        "ma",
        "tter</w>"
      ],
      [
        "as",
        "se</w>"
      ],
      [
        "fin",
        "e</w>"
      ],
      [
        "r",
        "as</w>"
      ],
      [
        "est",
        "ran"
      ],
      [
        "es",
        "col"
      ],
      [
        "p",
        "ing</w>"
      ],
      [
        "lo",
        "st</w>"
      ],
      [
        "w",
        "ish</w>"
      ],
      [
        "c",
        "ru"
      ],
      [
        "at",
        "ed</w>"
      ],
      [
        "ter",
        "s</w>"
      ],
      [
        "la",
        "dy</w>"
      ],
      [
        "w",
        "on"
      ],
      [
        "pa",
        "y</w>"
      ],
      [
        "dif",
        "fer"
      ],
      [
        "fin",
        "al</w>"
      ],
      [
        "trou",
        "ble</w>"
      ],
      [
        "w",
        "ard</w>"
      ],
      [
        "si",
        "mp"
      ],
      [
        "mo",
        "ve</w>"
      ],
      [
        "jun",
        "tos</w>"
      ],
      [
        "chan",
        "ge</w>"
      ],
      [
        "pró",
        "pri"
      ],
      [
        "d",
        "res"
      ],
      [
        "li",
        "ght</w>"
      ],
      [
        "c",
        "i</w>"
      ],
      [
        "U",
        "h</w>"
[...]
