{
  "version": "1.0",
  "truncation": null,
  "padding": null,
  "added_tokens": [
    {
      "id": 0,
      "content": "<PAD>",
      "single_word": false,
      "lstrip": false,
      "rstrip": false,
      "normalized": false,
      "special": true
    },
    {
      "id": 1,
      "content": "<UNK>",
      "single_word": false,
      "lstrip": false,
      "rstrip": false,
      "normalized": false,
      "special": true
    },
    {
      "id": 2,
      "content": "<CLS>",
      "single_word": false,
      "lstrip": false,
      "rstrip": false,
      "normalized": false,
      "special": true
    },
    {
      "id": 3,
      "content": "<SEP>",
      "single_word": false,
      "lstrip": false,
      "rstrip": false,
      "normalized": false,
      "special": true
    },
    {
      "id": 4,
      "content": "<MASK>",
      "single_word": false,
      "lstrip": false,
      "rstrip": false,
      "normalized": false,
      "special": true
    },
    {
      "id": 5,
      "content": "<BOS>",
      "single_word": false,
      "lstrip": false,
      "rstrip": false,
      "normalized": false,
      "special": true
    },
    {
      "id": 6,
      "content": "<EOS>",
      "single_word": false,
      "lstrip": false,
      "rstrip": false,
      "normalized": false,
      "special": true
    }
  ],
  "normalizer": null,
  "pre_tokenizer": {
    "type": "Whitespace"
  },
  "post_processor": {
    "type": "TemplateProcessing",
    "single": [
      {
        "SpecialToken": {
          "id": "<BOS>",
          "type_id": 0
        }
      },
      {
        "Sequence": {
          "id": "A",
          "type_id": 0
        }
      },
      {
        "SpecialToken": {
          "id": "<EOS>",
          "type_id": 0
        }
      }
    ],
    "pair": [
      {
        "SpecialToken": {
          "id": "<BOS>",
          "type_id": 0
        }
      },
      {
        "Sequence": {
          "id": "A",
          "type_id": 0
        }
      },
      {
        "SpecialToken": {
          "id": "<SEP>",
          "type_id": 0
        }
      },
      {
        "Sequence": {
          "id": "B",
          "type_id": 1
        }
      },
      {
        "SpecialToken": {
          "id": "<EOS>",
          "type_id": 1
        }
      }
    ],
    "special_tokens": {
      "<BOS>": {
        "id": "<BOS>",
        "ids": [
          5
        ],
        "tokens": [
          "<BOS>"
        ]
      },
      "<EOS>": {
        "id": "<EOS>",
        "ids": [
          6
        ],
        "tokens": [
          "<EOS>"
        ]
      },
      "<SEP>": {
        "id": "<SEP>",
        "ids": [
          3
        ],
        "tokens": [
          "<SEP>"
        ]
      }
    }
  },
  "decoder": {
    "type": "WordPiece",
    "prefix": "##",
    "cleanup": true
  },
  "model": {
    "type": "BPE",
    "dropout": null,
    "unk_token": "<UNK>",
    "continuing_subword_prefix": null,
    "end_of_word_suffix": null,
    "fuse_unk": false,
    "byte_fallback": false,
    "ignore_merges": false,
    "vocab": {
      "<PAD>": 0,
      "<UNK>": 1,
      "<CLS>": 2,
      "<SEP>": 3,
      "<MASK>": 4,
      "<BOS>": 5,
      "<EOS>": 6,
      "!": 7,
      "\"": 8,
      "#": 9,
      "$": 10,
      "%": 11,
      "'": 12,
      "(": 13,
      ")": 14,
      "*": 15,
      "+": 16,
      ",": 17,
      "-": 18,
      ".": 19,
      "/": 20,
      "0": 21,
      "1": 22,
      "2": 23,
      "3": 24,
      "4": 25,
      "5": 26,
      "6": 27,
      "7": 28,
      "8": 29,
      "9": 30,
      ":": 31,
      ";": 32,
      "=": 33,
      "?": 34,
      "@": 35,
      "A": 36,
      "B": 37,
      "C": 38,
      "D": 39,
      "E": 40,
      "F": 41,
      "G": 42,
      "H": 43,
      "I": 44,
      "J": 45,
      "K": 46,
      "L": 47,
      "M": 48,
      "N": 49,
      "O": 50,
      "P": 51,
      "Q": 52,
      "R": 53,
      "S": 54,
      "T": 55,
      "U": 56,
      "V": 57,
      "W": 58,
      "X": 59,
      "Y": 60,
      "Z": 61,
      "[": 62,
      "\\": 63,
      "]": 64,
      "^": 65,
      "_": 66,
      "`": 67,
      "a": 68,
      "b": 69,
      "c": 70,
      "d": 71,
      "e": 72,
      "f": 73,
      "g": 74,
      "h": 75,
      "i": 76,
      "j": 77,
      "k": 78,
      "l": 79,
      "m": 80,
      "n": 81,
      "o": 82,
      "p": 83,
      "q": 84,
      "r": 85,
      "s": 86,
      "t": 87,
      "u": 88,
      "v": 89,
      "w": 90,
      "x": 91,
      "y": 92,
      "z": 93,
      "{": 94,
      "|": 95,
      "}": 96,
      "~": 97,
      "": 98,
      "": 99,
      "": 100,
      "": 101,
      "": 102,
      "": 103,
      "": 104,
      "": 105,
      "": 106,
      "": 107,
      "": 108,
      "": 109,
      "": 110,
      "": 111,
      "": 112,
      "": 113,
      "": 114,
      "": 115,
      "¡": 116,
      "¢": 117,
      "£": 118,
      "¤": 119,
      "¥": 120,
      "¦": 121,
      "§": 122,
      "¨": 123,
      "©": 124,
      "ª": 125,
      "¬": 126,
      "­": 127,
      "®": 128,
      "¯": 129,
      "°": 130,
      "±": 131,
      "²": 132,
      "³": 133,
      "´": 134,
      "µ": 135,
      "¶": 136,
      "·": 137,
      "¹": 138,
      "º": 139,
      "¼": 140,
      "½": 141,
      "¾": 142,
      "¿": 143,
      "À": 144,
      "Á": 145,
      "Â": 146,
      "Ã": 147,
      "È": 148,
      "É": 149,
      "Ê": 150,
      "Í": 151,
      "Ï": 152,
      "Ñ": 153,
      "Ò": 154,
      "Ó": 155,
      "Ô": 156,
      "Ö": 157,
      "×": 158,
      "Ú": 159,
      "Ý": 160,
      "ß": 161,
      "à": 162,
      "á": 163,
      "â": 164,
      "ã": 165,
      "ä": 166,
      "å": 167,
      "æ": 168,
      "ç": 169,
      "è": 170,
      "é": 171,
      "ê": 172,
      "ë": 173,
      "ì": 174,
      "í": 175,
      "î": 176,
      "ï": 177,
      "ð": 178,
      "ñ": 179,
      "ò": 180,
      "ó": 181,
      "ô": 182,
      "õ": 183,
      "ö": 184,
      "÷": 185,
      "ø": 186,
      "ù": 187,
      "ú": 188,
      "û": 189,
      "ü": 190,
      "ý": 191,
      "þ": 192,
      "ÿ": 193,
      "ă": 194,
      "ć": 195,
      "č": 196,
      "ď": 197,
      "Đ": 198,
      "đ": 199,
      "ě": 200,
      "ī": 201,
      "İ": 202,
      "ı": 203,
      "ł": 204,
      "ń": 205,
      "ő": 206,
      "œ": 207,
      "ş": 208,
      "š": 209,
      "ť": 210,
      "ũ": 211,
      "ź": 212,
      "ž": 213,
      "ơ": 214,
      "ư": 215,
      "ǻ": 216,
      "˜": 217,
      "̥": 218,
      "̶": 219,
      "΄": 220,
      "Ώ": 221,
      "Α": 222,
      "Η": 223,
      "Ν": 224,
      "Τ": 225,
      "Υ": 226,
      "ή": 227,
      "β": 228,
      "ε": 229,
      "η": 230,
      "κ": 231,
      "μ": 232,
      "ν": 233,
      "ο": 234,
      "π": 235,
      "ρ": 236,
      "τ": 237,
      "υ": 238,
      "А": 239,
      "В": 240,
      "О": 241,
      "Т": 242,
      "а": 243,
      "в": 244,
      "е": 245,
      "з": 246,
      "и": 247,
      "й": 248,
      "м": 249,
      "н": 250,
      "о": 251,
      "п": 252,
      "р": 253,
      "с": 254,
      "т": 255,
      "у": 256,
      "х": 257,
      "є": 258,
      "ل": 259,
      "م": 260,
      "و": 261,
      "ى": 262,
      "ڑ": 263,
      "ạ": 264,
      "ả": 265,
      "ấ": 266,
      "ầ": 267,
      "ậ": 268,
      "ắ": 269,
      "ặ": 270,
      "ẽ": 271,
      "ế": 272,
      "ề": 273,
      "ể": 274,
      "ễ": 275,
      "ệ": 276,
      "ỉ": 277,
      "ị": 278,
      "ọ": 279,
      "ỏ": 280,
      "ố": 281,
      "ồ": 282,
      "ổ": 283,
      "ộ": 284,
      "ớ": 285,
      "ờ": 286,
      "ở": 287,
      "ỡ": 288,
      "ợ": 289,
      "ủ": 290,
      "ứ": 291,
      "ữ": 292,
      "ự": 293,
      "​": 294,
      "‎": 295,
      "‐": 296,
      "‒": 297,
      "–": 298,
      "—": 299,
      "―": 300,
      "‚": 301,
      "•": 302,
      "‫": 303,
      "‬": 304,
      "‭": 305,
      "‰": 306,
      "€": 307,
      "™": 308,
      "─": 309,
      "★": 310,
      "☆": 311,
      "♪": 312,
      "♫": 313,
      "嫕": 314,
      "炄": 315,
      "ﬁ": 316,
      "ﬂ": 317,
      "﻿": 318,
      "￡": 319,
      "�": 320,
      "th": 321,
      "er": 322,
      "an": 323,
      "in": 324,
      "es": 325,
      "ar": 326,
      "en": 327,
      "ou": 328,
      "as": 329,
      "or": 330,
      "to": 331,
      "de": 332,
      "on": 333,
      "qu": 334,
      "..": 335,
      "os": 336,
      "is": 337,
      "the": 338,
      "al": 339,
      "at": 340,
      "do": 341,
      "re": 342,
      "se": 343,
      "que": 344,
      "om": 345,
      "te": 346,
      "le": 347,
      "am": 348,
      "ing": 349,
      "and": 350,
      "um": 351,
      "ão": 352,
      "...": 353,
      "it": 354,
      "da": 355,
      "you": 356,
      "ve": 357,
      "of": 358,
      "ic": 359,
      "me": 360,
      "be": 361,
      "tr": 362,
      "he": 363,
      "com": 364,
      "no": 365,
      "ir": 366,
      "ha": 367,
      "ac": 368,
      "em": 369,
      "par": 370,
      "pr": 371,
      "est": 372,
      "il": 373,
      "ia": 374,
      "im": 375,
      "ent": 376,
      "so": 377,
      "el": 378,
      "us": 379,
      "oc": 380,
      "ho": 381,
      "ver": 382,
      "ed": 383,
      "for": 384,
      "that": 385,
      "un": 386,
      "ig": 387,
      "con": 388,
      "ma": 389,
      "po": 390,
      "ta": 391,
      "di": 392,
      "ter": 393,
      "para": 394,
      "sa": 395,
      "ur": 396,
      "ol": 397,
      "ut": 398,
      "li": 399,
      "por": 400,
      "wh": 401,
      "não": 402,
      "ca": 403,
      "su": 404,
      "ch": 405,
      "go": 406,
      "ere": 407,
      "uma": 408,
      "ocê": 409,
      "ad": 410,
      "pe": 411,
      "lo": 412,
      "ando": 413,
      "ra": 414,
      "ri": 415,
      "st": 416,
      "ce": 417,
      "na": 418,
      "per": 419,
      "você": 420,
      "all": 421,
      "ti": 422,
      "ke": 423,
      "ab": 424,
      "we": 425,
      "ul": 426,
      "vi": 427,
      "ld": 428,
      "ge": 429,
      "eu": 430,
      "ith": 431,
      "va": 432,
      "ci": 433,
      "ne": 434,
      "ente": 435,
      "co": 436,
      "out": 437,
      "was": 438,
      "with": 439,
      "ro": 440,
      "des": 441,
      "ant": 442,
      "der": 443,
      "la": 444,
      "fe": 445,
      "mas": 446,
      "gu": 447,
      "one": 448,
      "ion": 449,
      "ht": 450,
      "ag": 451,
      "ex": 452,
      "fr": 453,
      "ly": 454,
      "ome": 455,
      "now": 456,
      "my": 457,
      "dos": 458,
      "ould": 459,
      "your": 460,
      "fa": 461,
      "ess": 462,
      "this": 463,
      "have": 464,
      "but": 465,
      "pa": 466,
      "if": 467,
      "tem": 468,
      "pro": 469,
      "ser": 470,
      "ill": 471,
      "ele": 472,
      "man": 473,
      "ção": 474,
      "car": 475,
      "mo": 476,
      "pre": 477,
      "id": 478,
      "his": 479,
      "ight": 480,
      "her": 481,
      "ther": 482,
      "bo": 483,
      "min": 484,
      "can": 485,
      "pos": 486,
      "pen": 487,
      "ll": 488,
      "our": 489,
      "ass": 490,
      "pl": 491,
      "are": 492,
      "como": 493,
      "nd": 494,
      "mor": 495,
      "esta": 496,
      "ust": 497,
      "thing": 498,
      "ito": 499,
      "know": 500,
      "nos": 501,
      "br": 502,
      "dis": 503,
      "mu": 504,
      "up": 505,
      "some": 506,
      "gr": 507,
      "ay": 508,
      "mos": 509,
      "mais": 510,
      "use": 511,
      "not": 512,
      "amos": 513,
      "they": 514,
      "ado": 515,
      "ven": 516,
      "cor": 517,
      "zer": 518,
      "cer": 519,
      "si": 520,
      "dade": 521,
      "ela": 522,
      "cas": 523,
      "sua": 524,
      "mar": 525,
      "tra": 526,
      "gar": 527,
      "quer": 528,
      "seu": 529,
      "fic": 530,
      "ten": 531,
      "fo": 532,
      "ber": 533,
      "wor": 534,
      "ple": 535,
      "from": 536,
      "hor": 537,
      "get": 538,
      "who": 539,
      "lu": 540,
      "ate": 541,
      "ted": 542,
      "king": 543,
      "ento": 544,
      "res": 545,
      "very": 546,
      "like": 547,
      "ça": 548,
      "oug": 549,
      "bre": 550,
      "just": 551,
      "está": 552,
      "ack": 553,
      "qui": 554,
      "das": 555,
      "has": 556,
      "vo": 557,
      "way": 558,
      "wn": 559,
      "when": 560,
      "jo": 561,
      "there": 562,
      "ica": 563,
      "by": 564,
      "sh": 565,
      "will": 566,
      "tu": 567,
      "quando": 568,
      "tar": 569,
      "what": 570,
      "pes": 571,
      "col": 572,
      "tor": 573,
      "about": 574,
      "would": 575,
      "iz": 576,
      "cause": 577,
      "ind": 578,
      "vel": 579,
      "cr": 580,
      "him": 581,
      "had": 582,
      "ém": 583,
      "she": 584,
      "here": 585,
      "The": 586,
      "ix": 587,
      "don": 588,
      "ok": 589,
      "ell": 590,
      "che": 591,
      "come": 592,
      "har": 593,
      "any": 594,
      "end": 595,
      "isso": 596,
      "tro": 597,
      "ation": 598,
      "ao": 599,
      "esse": 600,
      "ora": 601,
      "ear": 602,
      "et": 603,
      "tal": 604,
      "tin": 605,
      "day": 606,
      "pode": 607,
      "vez": 608,
      "fer": 609,
      "cia": 610,
      "io": 611,
      "tos": 612,
      "ally": 613,
      "ble": 614,
      "ast": 615,
      "mes": 616,
      "ist": 617,
      "ões": 618,
      "ame": 619,
      "od": 620,
      "iro": 621,
      "ante": 622,
      "how": 623,
      "cl": 624,
      "ound": 625,
      "were": 626,
      "time": 627,
      "ace": 628,
      "foi": 629,
      "sem": 630,
      "ink": 631,
      "son": 632,
      "muito": 633,
      "ós": 634,
      "ira": 635,
      "cre": 636,
      "pres": 637,
      "mente": 638,
      "vol": 639,
      "endo": 640,
      "ain": 641,
      "And": 642,
      "ap": 643,
      "ive": 644,
      "era": 645,
      "ong": 646,
      "porque": 647,
      "dar": 648,
      "00": 649,
      "cois": 650,
      "into": 651,
      "je": 652,
      "tim": 653,
      "could": 654,
      "them": 655,
      "because": 656,
      "sobre": 657,
      "pesso": 658,
      "alg": 659,
      "ts": 660,
      "meu": 661,
      "men": 662,
      "been": 663,
      "du": 664,
      "af": 665,
      "minha": 666,
      "ough": 667,
      "ity": 668,
      "hos": 669,
      "ite": 670,
      "ans": 671,
      "other": 672,
      "anto": 673,
      "their": 674,
      "pel": 675,
      "You": 676,
      "tur": 677,
      "aqui": 678,
      "anos": 679,
      "ous": 680,
      "bl": 681,
      "every": 682,
      "ine": 683,
      "ich": 684,
      "eles": 685,
      "ja": 686,
      "red": 687,
      "got": 688,
      "think": 689,
      "fazer": 690,
      "fil": 691,
      "then": 692,
      "sel": 693,
      "Eu": 694,
      "mon": 695,
      "este": 696,
      "ople": 697,
      "part": 698,
      "ose": 699,
      "ting": 700,
      "Se": 701,
      "estava": 702,
      "see": 703,
      "hom": 704,
      "dia": 705,
      "people": 706,
      "back": 707,
      "str": 708,
      "tão": 709,
      "dr": 710,
      "fal": 711,
      "want": 712,
      "vis": 713,
      "amente": 714,
      "fi": 715,
      "did": 716,
      "rio": 717,
      "say": 718,
      "led": 719,
      "cis": 720,
      "ên": 721,
      "pri": 722,
      "mil": 723,
      "ico": 724,
      "ens": 725,
      "até": 726,
      "les": 727,
      "dy": 728,
      "então": 729,
      "ação": 730,
      "ard": 731,
      "lit": 732,
      "tle": 733,
      "ice": 734,
      "são": 735,
      "real": 736,
      "vida": 737,
      "ment": 738,
      "mat": 739,
      "ped": 740,
      "new": 741,
      "cam": 742,
      "year": 743,
      "ga": 744,
      "contr": 745,
      "port": 746,
      "ach": 747,
      "more": 748,
      "vai": 749,
      "poder": 750,
      "ers": 751,
      "over": 752,
      "cri": 753,
      "ido": 754,
      "oun": 755,
      "\".": 756,
      "pois": 757,
      "antes": 758,
      "cu": 759,
      "idade": 760,
      "bar": 761,
      "wo": 762,
      "ning": 763,
      "ins": 764,
      "ving": 765,
      "todos": 766,
      "den": 767,
      "ck": 768,
      "ju": 769,
      "pu": 770,
      "gre": 771,
      "tell": 772,
      "seus": 773,
      "bem": 774,
      "só": 775,
      "ang": 776,
      "ct": 777,
      "pare": 778,
      "where": 779,
      "ves": 780,
      "which": 781,
      "mun": 782,
      "ick": 783,
      "ance": 784,
      "than": 785,
      "tion": 786,
      "ada": 787,
      "ados": 788,
      "right": 789,
      "only": 790,
      "Qu": 791,
      "ese": 792,
      "fin": 793,
      "segu": 794,
      "fore": 795,
      "igo": 796,
      "ded": 797,
      "going": 798,
      "No": 799,
      "inter": 800,
      "ton": 801,
      "nós": 802,
      "tudo": 803,
      "fir": 804,
      "indo": 805,
      "ba": 806,
      "bu": 807,
      "sent": 808,
      "pra": 809,
      "try": 810,
      "qual": 811,
      "sei": 812,
      "ie": 813,
      "mis": 814,
      "ço": 815,
      "gon": 816,
      "hap": 817,
      "make": 818,
      "mel": 819,
      "low": 820,
      "dizer": 821,
      "take": 822,
      "ep": 823,
      "hum": 824,
      "faz": 825,
      "ign": 826,
      "gra": 827,
      "amento": 828,
      "tent": 829,
      "pas": 830,
      "ug": 831,
      "life": 832,
      "val": 833,
      "pessoas": 834,
      "fam": 835,
      "down": 836,
      "deix": 837,
      "may": 838,
      "plan": 839,
      "sen": 840,
      "ina": 841,
      "ty": 842,
      "ip": 843,
      "cal": 844,
      "mer": 845,
      "bro": 846,
      "ita": 847,
      "ções": 848,
      "Mas": 849,
      "little": 850,
      "But": 851,
      "cul": 852,
      "ies": 853,
      "há": 854,
      "abal": 855,
      "estar": 856,
      "It": 857,
      "gun": 858,
      "even": 859,
      "tempo": 860,
      "pol": 861,
      "tre": 862,
      "sou": 863,
      "agora": 864,
      "trabal": 865,
      "via": 866,
      "ior": 867,
      "off": 868,
      "cur": 869,
      "Wh": 870,
      "art": 871,
      "let": 872,
      "ase": 873,
      "ida": 874,
      "amb": 875,
      "casa": 876,
      "act": 877,
      "onde": 878,
      "If": 879,
      "ys": 880,
      "self": 881,
      "ure": 882,
      "ria": 883,
      "mesmo": 884,
      "gonna": 885,
      "ência": 886,
      "sim": 887,
      "essa": 888,
      "quanto": 889,
      "precis": 890,
      "ob": 891,
      "aque": 892,
      "Não": 893,
      "ought": 894,
      "ry": 895,
      "coisa": 896,
      "lie": 897,
      "disse": 898,
      "cho": 899,
      "ph": 900,
      "ano": 901,
      "tas": 902,
      "body": 903,
      "var": 904,
      "mã": 905,
      "ile": 906,
      "after": 907,
      "hou": 908,
      "ial": 909,
      "mal": 910,
      "sabe": 911,
      "pon": 912,
      "years": 913,
      "pelo": 914,
      "ful": 915,
      "two": 916,
      "ger": 917,
      "pass": 918,
      "vou": 919,
      "mul": 920,
      "before": 921,
      "Você": 922,
      "work": 923,
      "these": 924,
      "gen": 925,
      "Well": 926,
      "something": 927,
      "ater": 928,
      "bet": 929,
      "ide": 930,
      "sal": 931,
      "world": 932,
      "sta": 933,
      "We": 934,
      "depois": 935,
      "estão": 936,
      "sp": 937,
      "aram": 938,
      "fri": 939,
      "uni": 940,
      "first": 941,
      "long": 942,
      "ree": 943,
      "ish": 944,
      "homem": 945,
      "mundo": 946,
      "noite": 947,
      "look": 948,
      "vir": 949,
      "find": 950,
      "ved": 951,
      "gan": 952,
      "algo": 953,
      "pens": 954,
      "again": 955,
      "emos": 956,
      "mom": 957,
      "night": 958,
      "good": 959,
      "din": 960,
      "under": 961,
      "dire": 962,
      "los": 963,
      "gos": 964,
      "melhor": 965,
      "nas": 966,
      "lá": 967,
      "dor": 968,
      "diz": 969,
      "tru": 970,
      "suas": 971,
      "sol": 972,
      "put": 973,
      "tinha": 974,
      "av": 975,
      "hel": 976,
      "En": 977,
      "itar": 978,
      "its": 979,
      "ás": 980,
      "ança": 981,
      "esper": 982,
      "thr": 983,
      "entre": 984,
      "well": 985,
      "guém": 986,
      "ador": 987,
      "sto": 988,
      "prime": 989,
      "cos": 990,
      "sur": 991,
      "mim": 992,
      "never": 993,
      "ande": 994,
      "ated": 995,
      "fun": 996,
      "bra": 997,
      "onte": 998,
      "estou": 999,
      "pela": 1000,
      "ence": 1001,
      "pró": 1002,
      "old": 1003,
      "ficar": 1004,
      "ru": 1005,
      "entes": 1006,
      "pla": 1007,
      "most": 1008,
      "coun": 1009,
      "alguém": 1010,
      "really": 1011,
      "nor": 1012,
      "cap": 1013,
      "mem": 1014,
      "ding": 1015,
      "unca": 1016,
      "pal": 1017,
      "lig": 1018,
      "todo": 1019,
      "za": 1020,
      "coisas": 1021,
      "ks": 1022,
      "friend": 1023,
      "able": 1024,
      "algum": 1025,
      "ever": 1026,
      "gi": 1027,
      "cham": 1028,
      "should": 1029,
      "ds": 1030,
      "those": 1031,
      "dur": 1032,
      "ças": 1033,
      "ais": 1034,
      "cial": 1035,
      "inha": 1036,
      "through": 1037,
      "conhe": 1038,
      "nada": 1039,
      "land": 1040,
      "já": 1041,
      "said": 1042,
      "He": 1043,
      "vocês": 1044,
      "lhe": 1045,
      "need": 1046,
      "pou": 1047,
      "ros": 1048,
      "deve": 1049,
      "far": 1050,
      "encontr": 1051,
      "iu": 1052,
      "nunca": 1053,
      "dio": 1054,
      "lugar": 1055,
      "ste": 1056,
      "tenho": 1057,
      "row": 1058,
      "iam": 1059,
      "Th": 1060,
      "ces": 1061,
      "mulher": 1062,
      "assim": 1063,
      "dif": 1064,
      "sin": 1065,
      "grande": 1066,
      "So": 1067,
      "star": 1068,
      "ainda": 1069,
      "uns": 1070,
      "being": 1071,
      "ban": 1072,
      "much": 1073,
      "gue": 1074,
      "didn": 1075,
      "fl": 1076,
      "turn": 1077,
      "spe": 1078,
      "itu": 1079,
      "pai": 1080,
      "wa": 1081,
      "ire": 1082,
      "around": 1083,
      "proc": 1084,
      "forma": 1085,
      "side": 1086,
      "tri": 1087,
      "last": 1088,
      "cent": 1089,
      "ris": 1090,
      "mr": 1091,
      "cle": 1092,
      "proble": 1093,
      "ps": 1094,
      "tain": 1095,
      "ível": 1096,
      "penas": 1097,
      "wan": 1098,
      "bom": 1099,
      "own": 1100,
      "lar": 1101,
      "consegu": 1102,
      "fel": 1103,
      "tes": 1104,
      "verdade": 1105,
      "aconte": 1106,
      "ês": 1107,
      "things": 1108,
      "give": 1109,
      "sempre": 1110,
      "ambém": 1111,
      "vamos": 1112,
      "wer": 1113,
      "war": 1114,
      "sor": 1115,
      "stand": 1116,
      "made": 1117,
      "bus": 1118,
      "heiro": 1119,
      "sub": 1120,
      "num": 1121,
      "qualquer": 1122,
      "outr": 1123,
      "show": 1124,
      "quem": 1125,
      "feel": 1126,
      "pul": 1127,
      "wom": 1128,
      "dele": 1129,
      "char": 1130,
      "mit": 1131,
      "med": 1132,
      "ner": 1133,
      "ak": 1134,
      "gir": 1135,
      "jun": 1136,
      "ents": 1137,
      "In": 1138,
      "imento": 1139,
      "til": 1140,
      "ima": 1141,
      "does": 1142,
      "entr": 1143,
      "import": 1144,
      "loc": 1145,
      "inho": 1146,
      "adas": 1147,
      "love": 1148,
      "ical": 1149,
      "As": 1150,
      "hand": 1151,
      "might": 1152,
      "fu": 1153,
      "atr": 1154,
      "Quando": 1155,
      "apenas": 1156,
      "ário": 1157,
      "--": 1158,
      "ked": 1159,
      "vesse": 1160,
      "vor": 1161,
      "também": 1162,
      "ân": 1163,
      "acho": 1164,
      "bur": 1165,
      "sr": 1166,
      "ati": 1167,
      "ama": 1168,
      "thought": 1169,
      "lef": 1170,
      "form": 1171,
      "place": 1172,
      "aju": 1173,
      "igh": 1174,
      "great": 1175,
      "nosso": 1176,
      "pan": 1177,
      "sho": 1178,
      "outro": 1179,
      "vil": 1180,
      "read": 1181,
      "vos": 1182,
      "vam": 1183,
      "ún": 1184,
      "won": 1185,
      "belie": 1186,
      "ily": 1187,
      "ino": 1188,
      "dois": 1189,
      "ways": 1190,
      "still": 1191,
      "contra": 1192,
      "Bem": 1193,
      "amer": 1194,
      "home": 1195,
      "pt": 1196,
      "contin": 1197,
      "person": 1198,
      "ise": 1199,
      "house": 1200,
      ".\".": 1201,
      "mean": 1202,
      "girl": 1203,
      "bi": 1204,
      "Ele": 1205,
      "leg": 1206,
      "tive": 1207,
      "came": 1208,
      "ction": 1209,
      "head": 1210,
      "toda": 1211,
      "poderia": 1212,
      "trans": 1213,
      "quero": 1214,
      "ath": 1215,
      "less": 1216,
      "big": 1217,
      "imag": 1218,
      "sure": 1219,
      "bat": 1220,
      "san": 1221,
      "cada": 1222,
      "De": 1223,
      "Now": 1224,
      "bor": 1225,
      "sign": 1226,
      "Por": 1227,
      "las": 1228,
      "quis": 1229,
      "senhor": 1230,
      "Então": 1231,
      "too": 1232,
      "és": 1233,
      "stu": 1234,
      "oney": 1235,
      "why": 1236,
      "call": 1237,
      "away": 1238,
      "deci": 1239,
      "au": 1240,
      "começ": 1241,
      "wal": 1242,
      "nat": 1243,
      "talvez": 1244,
      "lon": 1245,
      "ham": 1246,
      "uro": 1247,
      "hon": 1248,
      "inc": 1249,
      "keep": 1250,
      "mand": 1251,
      "told": 1252,
      "ating": 1253,
      "noss": 1254,
      "press": 1255,
      "arr": 1256,
      "rece": 1257,
      "ís": 1258,
      "lea": 1259,
      "int": 1260,
      "ital": 1261,
      "asse": 1262,
      "úl": 1263,
      "nossa": 1264,
      "inv": 1265,
      "ceu": 1266,
      "ura": 1267,
      "found": 1268,
      "escol": 1269,
      "vers": 1270,
      "coloc": 1271,
      "kind": 1272,
      "When": 1273,
      "estr": 1274,
      "bab": 1275,
      "tir": 1276,
      "gover": 1277,
      "igos": 1278,
      "continu": 1279,
      "fora": 1280,
      "ória": 1281,
      "member": 1282,
      "prof": 1283,
      "pouco": 1284,
      "chil": 1285,
      "kes": 1286,
      "help": 1287,
      "últim": 1288,
      "garo": 1289,
      "ista": 1290,
      "cara": 1291,
      "Com": 1292,
      "erra": 1293,
      "rou": 1294,
      "saber": 1295,
      "dinheiro": 1296,
      "ition": 1297,
      "lem": 1298,
      "ável": 1299,
      "cio": 1300,
      "must": 1301,
      "esti": 1302,
      "op": 1303,
      "father": 1304,
      "quen": 1305,
      "todas": 1306,
      "ender": 1307,
      "desco": 1308,
      "uh": 1309,
      "cour": 1310,
      "room": 1311,
      "hã": 1312,
      "fos": 1313,
      "miss": 1314,
      "passa": 1315,
      "same": 1316,
      "bil": 1317,
      "ual": 1318,
      "someone": 1319,
      "bal": 1320,
      "vem": 1321,
      "while": 1322,
      "ana": 1323,
      "always": 1324,
      "cess": 1325,
      "dir": 1326,
      "gem": 1327,
      "iga": 1328,
      "19": 1329,
      "clar": 1330,
      "ons": 1331,
      "ios": 1332,
      "wee": 1333,
      "happen": 1334,
      "mãe": 1335,
      "lot": 1336,
      "cut": 1337,
      "cabe": 1338,
      "terr": 1339,
      "trabalho": 1340,
      "anything": 1341,
      "temos": 1342,
      "reg": 1343,
      "nem": 1344,
      "eng": 1345,
      "maior": 1346,
      "kill": 1347,
      "lia": 1348,
      "money": 1349,
      "went": 1350,
      "espe": 1351,
      "ff": 1352,
      "times": 1353,
      "inte": 1354,
      "aria": 1355,
      "used": 1356,
      "seja": 1357,
      "xt": 1358,
      "fac": 1359,
      "play": 1360,
      "Est": 1361,
      "enquanto": 1362,
      "wr": 1363,
      "ava": 1364,
      "stor": 1365,
      "iros": 1366,
      "poss": 1367,
      "posso": 1368,
      "outra": 1369,
      "wanted": 1370,
      "many": 1371,
      "prote": 1372,
      "ny": 1373,
      "deus": 1374,
      "pris": 1375,
      "parte": 1376,
      "comple": 1377,
      "menos": 1378,
      "cil": 1379,
      "icos": 1380,
      "esp": 1381,
      "000": 1382,
      "fez": 1383,
      "offic": 1384,
      "sup": 1385,
      "another": 1386,
      "pequen": 1387,
      "ah": 1388,
      "ange": 1389,
      "feito": 1390,
      "ey": 1391,
      "tan": 1392,
      "porta": 1393,
      "bas": 1394,
      "vezes": 1395,
      "sex": 1396,
      "kid": 1397,
      "tom": 1398,
      "ken": 1399,
      "ias": 1400,
      "three": 1401,
      "hist": 1402,
      "aut": 1403,
      "meus": 1404,
      "cha": 1405,
      "ced": 1406,
      "ness": 1407,
      "nam": 1408,
      "tou": 1409,
      "ição": 1410,
      "def": 1411,
      "novo": 1412,
      "bol": 1413,
      "until": 1414,
      "final": 1415,
      "left": 1416,
      "ident": 1417,
      "hoje": 1418,
      "foram": 1419,
      "cou": 1420,
      "stru": 1421,
      "terra": 1422,
      "seria": 1423,
      "eral": 1424,
      "americ": 1425,
      "wi": 1426,
      "dem": 1427,
      "dela": 1428,
      "cidade": 1429,
      "hard": 1430,
      "rel": 1431,
      "iste": 1432,
      "paz": 1433,
      "chance": 1434,
      "vic": 1435,
      "guy": 1436,
      "next": 1437,
      "cy": 1438,
      "lim": 1439,
      "hed": 1440,
      "alguma": 1441,
      "volta": 1442,
      "gas": 1443,
      "tipo": 1444,
      "êm": 1445,
      "10": 1446,
      "lado": 1447,
      "band": 1448,
      "without": 1449,
      "everything": 1450,
      "isto": 1451,
      "cen": 1452,
      "prom": 1453,
      "cus": 1454,
      "falar": 1455,
      "cra": 1456,
      "neg": 1457,
      "ores": 1458,
      "set": 1459,
      "ters": 1460,
      "dever": 1461,
      "ín": 1462,
      "woman": 1463,
      "maybe": 1464,
      "vas": 1465,
      "atch": 1466,
      "deu": 1467,
      "super": 1468,
      "seman": 1469,
      "seg": 1470,
      "They": 1471,
      "ward": 1472,
      "ship": 1473,
      "mur": 1474,
      "será": 1475,
      "famí": 1476,
      "alguns": 1477,
      "momento": 1478,
      "believe": 1479,
      "bri": 1480,
      "god": 1481,
      "mother": 1482,
      "ary": 1483,
      "hour": 1484,
      "lin": 1485,
      "mé": 1486,
      "lor": 1487,
      "exper": 1488,
      "bit": 1489,
      "dro": 1490,
      "ock": 1491,
      "better": 1492,
      "aos": 1493,
      "acab": 1494,
      "run": 1495,
      "fran": 1496,
      "trying": 1497,
      "liv": 1498,
      "dias": 1499,
      "present": 1500,
      "caus": 1501,
      "sus": 1502,
      "ér": 1503,
      "realmente": 1504,
      "uém": 1505,
      "abe": 1506,
      "termin": 1507,
      "queria": 1508,
      "som": 1509,
      "expl": 1510,
      "enough": 1511,
      "hal": 1512,
      "mão": 1513,
      "since": 1514,
      "family": 1515,
      "rom": 1516,
      "possi": 1517,
      "sab": 1518,
      "nothing": 1519,
      "outros": 1520,
      "scho": 1521,
      "Ag": 1522,
      "cin": 1523,
      "secre": 1524,
      "íamos": 1525,
      "ári": 1526,
      "ious": 1527,
      "face": 1528,
      "gether": 1529,
      "ates": 1530,
      "This": 1531,
      "dan": 1532,
      "às": 1533,
      "blo": 1534,
      "care": 1535,
      "gg": 1536,
      "together": 1537,
      "few": 1538,
      "atra": 1539,
      "quar": 1540,
      "eram": 1541,
      "homens": 1542,
      "ween": 1543,
      "pessoa": 1544,
      "oper": 1545,
      "acred": 1546,
      "light": 1547,
      "test": 1548,
      "nen": 1549,
      "death": 1550,
      "cons": 1551,
      "days": 1552,
      "pergun": 1553,
      "against": 1554,
      "conf": 1555,
      "high": 1556,
      "jor": 1557,
      "sider": 1558,
      "torn": 1559,
      "fosse": 1560,
      "Agora": 1561,
      "jam": 1562,
      "polí": 1563,
      "ms": 1564,
      "doesn": 1565,
      "pag": 1566,
      "ely": 1567,
      "ling": 1568,
      "itas": 1569,
      "ason": 1570,
      "power": 1571,
      "morte": 1572,
      "whole": 1573,
      "sk": 1574,
      "20": 1575,
      "school": 1576,
      "To": 1577,
      "voltar": 1578,
      "youn": 1579,
      "assass": 1580,
      "ninguém": 1581,
      "also": 1582,
      "Em": 1583,
      "nome": 1584,
      "ago": 1585,
      "três": 1586,
      "gia": 1587,
      "bon": 1588,
      "doing": 1589,
      "cido": 1590,
      "dou": 1591,
      "fol": 1592,
      "parece": 1593,
      "plane": 1594,
      "ata": 1595,
      "família": 1596,
      "vão": 1597,
      "best": 1598,
      "atrás": 1599,
      "produ": 1600,
      "ei": 1601,
      "emp": 1602,
      "estamos": 1603,
      "encontrar": 1604,
      "iente": 1605,
      "imos": 1606,
      "ctor": 1607,
      "ings": 1608,
      "nova": 1609,
      "human": 1610,
      "filho": 1611,
      "cond": 1612,
      "certo": 1613,
      "ned": 1614,
      "took": 1615,
      "quest": 1616,
      "ot": 1617,
      "caso": 1618,
      "gal": 1619,
      "ions": 1620,
      "Os": 1621,
      "van": 1622,
      "ific": 1623,
      "sm": 1624,
      "sido": 1625,
      "gua": 1626,
      "acha": 1627,
      "buil": 1628,
      "teria": 1629,
      "primeiro": 1630,
      "pic": 1631,
      "between": 1632,
      "minu": 1633,
      "each": 1634,
      "There": 1635,
      "duas": 1636,
      "deixar": 1637,
      "conta": 1638,
      "ali": 1639,
      "law": 1640,
      "ping": 1641,
      "case": 1642,
      "consider": 1643,
      "gy": 1644,
      "ras": 1645,
      "ôn": 1646,
      "próx": 1647,
      "oking": 1648,
      "lan": 1649,
      "ready": 1650,
      "anim": 1651,
      "sing": 1652,
      "order": 1653,
      "dra": 1654,
      "dri": 1655,
      "grand": 1656,
      "ley": 1657,
      "pi": 1658,
      "stop": 1659,
      "called": 1660,
      "arei": 1661,
      "ev": 1662,
      "hear": 1663,
      "hun": 1664,
      "podem": 1665,
      "difer": 1666,
      "ular": 1667,
      "remember": 1668,
      "ator": 1669,
      "today": 1670,
      "tanto": 1671,
      "hn": 1672,
      "respe": 1673,
      "tivesse": 1674,
      "carro": 1675,
      "cover": 1676,
      "ório": 1677,
      "isten": 1678,
      "once": 1679,
      "young": 1680,
      "primeira": 1681,
      "wife": 1682,
      "história": 1683,
      "ef": 1684,
      "live": 1685,
      "própr": 1686,
      "ler": 1687,
      "esses": 1688,
      "month": 1689,
      "ugh": 1690,
      "getting": 1691,
      "desse": 1692,
      "progr": 1693,
      "murder": 1694,
      "fut": 1695,
      "differ": 1696,
      "hora": 1697,
      "talk": 1698,
      "acor": 1699,
      "trou": 1700,
      "mag": 1701,
      "ben": 1702,
      "vin": 1703,
      "sair": 1704,
      "mane": 1705,
      "favor": 1706,
      "baix": 1707,
      "That": 1708,
      "ale": 1709,
      "havia": 1710,
      "rer": 1711,
      "py": 1712,
      "realiz": 1713,
      "sed": 1714,
      "name": 1715,
      "fazendo": 1716,
      "cru": 1717,
      "imin": 1718,
      "chegar": 1719,
      "meio": 1720,
      "knew": 1721,
      "else": 1722,
      "saw": 1723,
      "publ": 1724,
      "horas": 1725,
      "country": 1726,
      "stre": 1727,
      "bed": 1728,
      "control": 1729,
      "boy": 1730,
      "tenha": 1731,
      "cted": 1732,
      "anças": 1733,
      "fron": 1734,
      "mind": 1735,
      "pac": 1736,
      "aman": 1737,
      "prin": 1738,
      "looking": 1739,
      "city": 1740,
      "istas": 1741,
      "nossos": 1742,
      "icas": 1743,
      "tado": 1744,
      "earth": 1745,
      "lad": 1746,
      "rest": 1747,
      "algumas": 1748,
      "coming": 1749,
      "att": 1750,
      "ture": 1751,
      "desde": 1752,
      "age": 1753,
      "wait": 1754,
      "levar": 1755,
      "air": 1756,
      "numa": 1757,
      "wouldn": 1758,
      "cient": 1759,
      "frente": 1760,
      "liber": 1761,
      "Um": 1762,
      "dead": 1763,
      "compr": 1764,
      "having": 1765,
      "water": 1766,
      "oca": 1767,
      "tel": 1768,
      "iness": 1769,
      "durante": 1770,
      "cli": 1771,
      "lou": 1772,
      "job": 1773,
      "town": 1774,
      "país": 1775,
      "guerra": 1776,
      "dam": 1777,
      "ara": 1778,
      "sul": 1779,
      "cion": 1780,
      "understand": 1781,
      "manhã": 1782,
      "tamente": 1783,
      "hold": 1784,
      "veis": 1785,
      "aquele": 1786,
      "inking": 1787,
      "pensar": 1788,
      "bad": 1789,
      "passar": 1790,
      "kil": 1791,
      "50": 1792,
      "Es": 1793,
      "bun": 1794,
      "hes": 1795,
      "open": 1796,
      "deles": 1797,
      "cé": 1798,
      "such": 1799,
      "mir": 1800,
      "clu": 1801,
      "sé": 1802,
      "meet": 1803,
      "cabeça": 1804,
      "wil": 1805,
      "ze": 1806,
      "dentro": 1807,
      "sit": 1808,
      "podemos": 1809,
      "Al": 1810,
      "ket": 1811,
      "têm": 1812,
      "die": 1813,
      "Lo": 1814,
      "apare": 1815,
      "done": 1816,
      "friends": 1817,
      "corpo": 1818,
      "destru": 1819,
      "morning": 1820,
      "tentando": 1821,
      "30": 1822,
      "segun": 1823,
      "elas": 1824,
      "hosp": 1825,
      "fig": 1826,
      "evi": 1827,
      "fact": 1828,
      "hando": 1829,
      "única": 1830,
      "lev": 1831,
      "clear": 1832,
      "Be": 1833,
      "though": 1834,
      "point": 1835,
      "taria": 1836,
      "dá": 1837,
      "ian": 1838,
      "perce": 1839,
      "lion": 1840,
      "bring": 1841,
      "amor": 1842,
      "imo": 1843,
      "john": 1844,
      "stay": 1845,
      "week": 1846,
      "cont": 1847,
      "ask": 1848,
      "dre": 1849,
      "dad": 1850,
      "tually": 1851,
      "seem": 1852,
      "tica": 1853,
      "heart": 1854,
      "sac": 1855,
      "feliz": 1856,
      "respon": 1857,
      "free": 1858,
      "agem": 1859,
      "ples": 1860,
      "ult": 1861,
      "comigo": 1862,
      "univer": 1863,
      "segur": 1864,
      "idente": 1865,
      "disso": 1866,
      "local": 1867,
      "leave": 1868,
      "arma": 1869,
      "ations": 1870,
      "má": 1871,
      "teza": 1872,
      "cem": 1873,
      "mus": 1874,
      "gin": 1875,
      "fort": 1876,
      "equi": 1877,
      "myself": 1878,
      "sun": 1879,
      "Oh": 1880,
      "amigos": 1881,
      "ocu": 1882,
      "ços": 1883,
      "ví": 1884,
      "rus": 1885,
      "lead": 1886,
      "ilo": 1887,
      "She": 1888,
      "ença": 1889,
      "viol": 1890,
      "half": 1891,
      "pay": 1892,
      "comes": 1893,
      "ór": 1894,
      "prova": 1895,
      "descobr": 1896,
      "blood": 1897,
      "Como": 1898,
      "eah": 1899,
      "als": 1900,
      "dest": 1901,
      "move": 1902,
      "inst": 1903,
      "espos": 1904,
      "sha": 1905,
      "Quer": 1906,
      "procur": 1907,
      "compan": 1908,
      "public": 1909,
      "reason": 1910,
      "iria": 1911,
      "dren": 1912,
      "hospital": 1913,
      "pegar": 1914,
      "vie": 1915,
      "nu": 1916,
      "later": 1917,
      "teve": 1918,
      "raz": 1919,
      "ifica": 1920,
      "pend": 1921,
      "boa": 1922,
      "ener": 1923,
      "rá": 1924,
      "dizendo": 1925,
      "certeza": 1926,
      "sat": 1927,
      "gou": 1928,
      "dito": 1929,
      "viver": 1930,
      "My": 1931,
      "guar": 1932,
      "del": 1933,
      "hões": 1934,
      "ações": 1935,
      "ram": 1936,
      "amigo": 1937,
      "matter": 1938,
      "appe": 1939,
      "black": 1940,
      "mic": 1941,
      "four": 1942,
      "comp": 1943,
      "estavam": 1944,
      "happened": 1945,
      "govern": 1946,
      "both": 1947,
      "ional": 1948,
      "rela": 1949,
      "dies": 1950,
      "essas": 1951,
      "couldn": 1952,
      "mãos": 1953,
      "Sabe": 1954,
      "crianças": 1955,
      "gent": 1956,
      "oso": 1957,
      "ried": 1958,
      "ajudar": 1959,
      "children": 1960,
      "front": 1961,
      "água": 1962,
      "brother": 1963,
      "fim": 1964,
      "hus": 1965,
      "situ": 1966,
      "Ela": 1967,
      "start": 1968,
      "fight": 1969,
      "fiz": 1970,
      "hours": 1971,
      "mesma": 1972,
      "On": 1973,
      "semana": 1974,
      "constru": 1975,
      "win": 1976,
      "esque": 1977,
      "What": 1978,
      "hit": 1979,
      "For": 1980,
      "killed": 1981,
      "Look": 1982,
      "vido": 1983,
      "bora": 1984,
      "possível": 1985,
      "estu": 1986,
      "sil": 1987,
      "hi": 1988,
      "itor": 1989,
      "difí": 1990,
      "line": 1991,
      "ários": 1992,
      "police": 1993,
      "ará": 1994,
      "sof": 1995,
      "recor": 1996,
      "wit": 1997,
      "certain": 1998,
      "cias": 1999,
      "\",": 2000,
      "watch": 2001,
      "book": 2002,
      "cel": 2003,
      "important": 2004,
      "precisa": 2005,
      "cir": 2006,
      "ni": 2007,
      "sendo": 2008,
      "bos": 2009,
      "fato": 2010,
      "especial": 2011,
      "necess": 2012,
      "course": 2013,
      "wasn": 2014,
      "experi": 2015,
      "different": 2016,
      "vê": 2017,
      "vés": 2018,
      "cum": 2019,
      "neste": 2020,
      "making": 2021,
      "seen": 2022,
      "esposa": 2023,
      "actually": 2024,
      "cla": 2025,
      "dom": 2026,
      "says": 2027,
      "cie": 2028,
      "ars": 2029,
      "perto": 2030,
      ":.": 2031,
      "guys": 2032,
      "apart": 2033,
      "conseguir": 2034,
      "saying": 2035,
      "wonder": 2036,
      "deveria": 2037,
      "business": 2038,
      "door": 2039,
      "partic": 2040,
      "number": 2041,
      "ses": 2042,
      "possa": 2043,
      "thinking": 2044,
      "inar": 2045,
      "crime": 2046,
      "bir": 2047,
      "perfe": 2048,
      "antar": 2049,
      "ones": 2050,
      "Na": 2051,
      "entrar": 2052,
      "importante": 2053,
      "parar": 2054,
      "fall": 2055,
      "ren": 2056,
      "ran": 2057,
      "means": 2058,
      "çar": 2059,
      "ball": 2060,
      "yourself": 2061,
      "fiel": 2062,
      "outras": 2063,
      "aquela": 2064,
      "base": 2065,
      "lear": 2066,
      "ker": 2067,
      "pais": 2068,
      "deal": 2069,
      "iras": 2070,
      "husband": 2071,
      "gado": 2072,
      "sabia": 2073,
      "tory": 2074,
      "fur": 2075,
      "possible": 2076,
      "polícia": 2077,
      "All": 2078,
      "hind": 2079,
      "ús": 2080,
      "abr": 2081,
      "exce": 2082,
      "coração": 2083,
      "main": 2084,
      "street": 2085,
      "jan": 2086,
      "probab": 2087,
      "atro": 2088,
      "beaut": 2089,
      "beb": 2090,
      "planet": 2091,
      "aten": 2092,
      "quase": 2093,
      "inform": 2094,
      "naque": 2095,
      "pur": 2096,
      "started": 2097,
      "antas": 2098,
      "caminho": 2099,
      "fre": 2100,
      "sar": 2101,
      "irá": 2102,
      "mostr": 2103,
      "estado": 2104,
      "iar": 2105,
      "estran": 2106,
      "yor": 2107,
      "profess": 2108,
      "tura": 2109,
      "Uma": 2110,
      "ref": 2111,
      "meses": 2112,
      "contro": 2113,
      "Eles": 2114,
      "wood": 2115,
      "cat": 2116,
      "gave": 2117,
      "dge": 2118,
      "icial": 2119,
      "Sim": 2120,
      "tico": 2121,
      "child": 2122,
      "usar": 2123,
      "pensa": 2124,
      "mid": 2125,
      "gru": 2126,
      "crit": 2127,
      "state": 2128,
      "bran": 2129,
      "entar": 2130,
      "olhos": 2131,
      "small": 2132,
      "jeito": 2133,
      "ney": 2134,
      "soon": 2135,
      "problema": 2136,
      "fica": 2137,
      "hope": 2138,
      "tiver": 2139,
      "change": 2140,
      "months": 2141,
      "rei": 2142,
      "ister": 2143,
      "moment": 2144,
      "15": 2145,
      "dent": 2146,
      "dese": 2147,
      "corre": 2148,
      "working": 2149,
      "suspe": 2150,
      "escre": 2151,
      "empre": 2152,
      "força": 2153,
      "sufic": 2154,
      "ists": 2155,
      "escola": 2156,
      "marido": 2157,
      "heard": 2158,
      "inf": 2159,
      "viu": 2160,
      "probably": 2161,
      "estiver": 2162,
      "bul": 2163,
      "decis": 2164,
      "obje": 2165,
      "ância": 2166,
      "preciso": 2167,
      "esca": 2168,
      "aí": 2169,
      "york": 2170,
      "idea": 2171,
      "top": 2172,
      "descobrir": 2173,
      "sle": 2174,
      "dado": 2175,
      "atever": 2176,
      "palav": 2177,
      "unidade": 2178,
      "ughter": 2179,
      "pain": 2180,
      "story": 2181,
      "apr": 2182,
      "ges": 2183,
      "velmente": 2184,
      "general": 2185,
      "tido": 2186,
      "nú": 2187,
      "known": 2188,
      "five": 2189,
      "along": 2190,
      "himself": 2191,
      "causa": 2192,
      "difícil": 2193,
      "jus": 2194,
      "fire": 2195,
      "nossas": 2196,
      "garota": 2197,
      "ash": 2198,
      "ester": 2199,
      "eas": 2200,
      "pie": 2201,
      "sy": 2202,
      "nenhum": 2203,
      "bel": 2204,
      "minhas": 2205,
      "itos": 2206,
      "inclu": 2207,
      "envol": 2208,
      "exp": 2209,
      "selves": 2210,
      "sob": 2211,
      "become": 2212,
      "caval": 2213,
      "whe": 2214,
      "send": 2215,
      "return": 2216,
      "estes": 2217,
      "jul": 2218,
      "baixo": 2219,
      "gets": 2220,
      "ither": 2221,
      "plac": 2222,
      "luz": 2223,
      "anyone": 2224,
      "gente": 2225,
      "len": 2226,
      "anger": 2227,
      "wear": 2228,
      "women": 2229,
      "living": 2230,
      "ants": 2231,
      "full": 2232,
      "gostaria": 2233,
      "juntos": 2234,
      "ster": 2235,
      "tty": 2236,
      "tarde": 2237,
      "behind": 2238,
      "pelos": 2239,
      "militar": 2240,
      "At": 2241,
      "elo": 2242,
      "everyone": 2243,
      "méd": 2244,
      "kids": 2245,
      "Ho": 2246,
      "talking": 2247,
      "maneira": 2248,
      "pped": 2249,
      "pick": 2250,
      "lives": 2251,
      "serv": 2252,
      "somebody": 2253,
      "mulheres": 2254,
      "filha": 2255,
      "significa": 2256,
      "vendo": 2257,
      "corr": 2258,
      "posed": 2259,
      "quei": 2260,
      "ike": 2261,
      "icar": 2262,
      "normal": 2263,
      "sangue": 2264,
      "mach": 2265,
      "12": 2266,
      "wrong": 2267,
      "dream": 2268,
      "tirar": 2269,
      "oce": 2270,
      "rep": 2271,
      "ilha": 2272,
      "quiser": 2273,
      "taking": 2274,
      "ined": 2275,
      "follow": 2276,
      "eyes": 2277,
      "informa": 2278,
      "ystem": 2279,
      "asked": 2280,
      "cendo": 2281,
      "already": 2282,
      "última": 2283,
      "deser": 2284,
      "utes": 2285,
      "white": 2286,
      "comb": 2287,
      "conven": 2288,
      "sum": 2289,
      "quarto": 2290,
      "prove": 2291,
      "office": 2292,
      "brar": 2293,
      "past": 2294,
      "taken": 2295,
      "capaz": 2296,
      "wants": 2297,
      "começar": 2298,
      "enter": 2299,
      "hu": 2300,
      "ground": 2301,
      "Porque": 2302,
      "claro": 2303,
      "rad": 2304,
      "desta": 2305,
      "second": 2306,
      "culo": 2307,
      "tentar": 2308,
      "truth": 2309,
      "system": 2310,
      "após": 2311,
      "ross": 2312,
      "fé": 2313,
      "suficiente": 2314,
      "ying": 2315,
      "organ": 2316,
      "proje": 2317,
      "dence": 2318,
      "happy": 2319,
      "idos": 2320,
      "pensei": 2321,
      "jar": 2322,
      "wed": 2323,
      "whatever": 2324,
      "lost": 2325,
      "pé": 2326,
      "tei": 2327,
      "aco": 2328,
      "muitos": 2329,
      "acordo": 2330,
      "allow": 2331,
      "fui": 2332,
      "yet": 2333,
      "dist": 2334,
      "aconteceu": 2335,
      "colocar": 2336,
      "ann": 2337,
      "Para": 2338,
      "ural": 2339,
      "secret": 2340,
      "met": 2341,
      "preocu": 2342,
      "Po": 2343,
      "jur": 2344,
      "sos": 2345,
      "cado": 2346,
      "break": 2347,
      "nal": 2348,
      "shall": 2349,
      "cios": 2350,
      "jovem": 2351,
      "inside": 2352,
      "team": 2353,
      "achar": 2354,
      "dido": 2355,
      "tomar": 2356,
      "pat": 2357,
      "tonight": 2358,
      "hands": 2359,
      "tros": 2360,
      "pedir": 2361,
      "siste": 2362,
      "esso": 2363,
      "couple": 2364,
      "company": 2365,
      "embora": 2366,
      "dete": 2367,
      "hol": 2368,
      "18": 2369,
      "deste": 2370,
      "exact": 2371,
      "jack": 2372,
      "attack": 2373,
      "Ok": 2374,
      "ade": 2375,
      "importa": 2376,
      ",...": 2377,
      "daque": 2378,
      "euro": 2379,
      "fed": 2380,
      "indi": 2381,
      "dig": 2382,
      "problemas": 2383,
      "dando": 2384,
      "pun": 2385,
      "six": 2386,
      "rac": 2387,
      "stuff": 2388,
      "ício": 2389,
      "arch": 2390,
      "iss": 2391,
      "Nós": 2392,
      "total": 2393,
      "simples": 2394,
      "Because": 2395,
      "além": 2396,
      "iti": 2397,
      "class": 2398,
      "único": 2399,
      "han": 2400,
      "vidas": 2401,
      "matar": 2402,
      "númer": 2403,
      "ics": 2404,
      "apo": 2405,
      "orig": 2406,
      "razão": 2407,
      "pir": 2408,
      "medi": 2409,
      "espa": 2410,
      "daughter": 2411,
      "bot": 2412,
      "makes": 2413,
      "Esta": 2414,
      "medo": 2415,
      "ue": 2416,
      "brig": 2417,
      "paper": 2418,
      "word": 2419,
      "given": 2420,
      "ched": 2421,
      "entire": 2422,
      "government": 2423,
      "thy": 2424,
      "colle": 2425,
      "hei": 2426,
      "negó": 2427,
      "isn": 2428,
      "filhos": 2429,
      "writ": 2430,
      "estre": 2431,
      "hotel": 2432,
      "legal": 2433,
      "morrow": 2434,
      "podia": 2435,
      "rob": 2436,
      "baby": 2437,
      "irmão": 2438,
      "listen": 2439,
      "governo": 2440,
      "contar": 2441,
      "sai": 2442,
      "million": 2443,
      "Is": 2444,
      "vent": 2445,
      "inten": 2446,
      "destro": 2447,
      "ities": 2448,
      "doctor": 2449,
      "soz": 2450,
      "died": 2451,
      "100": 2452,
      "povo": 2453,
      "cima": 2454,
      "iful": 2455,
      "ws": 2456,
      "passado": 2457,
      "near": 2458,
      "reu": 2459,
      "pessoal": 2460,
      "phone": 2461,
      "gol": 2462,
      "mús": 2463,
      "minutos": 2464,
      "ques": 2465,
      "tomorrow": 2466,
      "atamente": 2467,
      "manter": 2468,
      "Estou": 2469,
      "trabalhar": 2470,
      "rar": 2471,
      "trat": 2472,
      "fing": 2473,
      "hing": 2474,
      "úbl": 2475,
      "cost": 2476,
      "sell": 2477,
      "muitas": 2478,
      "casamento": 2479,
      "sam": 2480,
      "estas": 2481,
      "Yeah": 2482,
      "spo": 2483,
      "minutes": 2484,
      "american": 2485,
      "nesta": 2486,
      "wish": 2487,
      "ore": 2488,
      "inste": 2489,
      "idades": 2490,
      "pretty": 2491,
      "fair": 2492,
      "pido": 2493,
      "crimin": 2494,
      "milhões": 2495,
      "expe": 2496,
      "cts": 2497,
      "logo": 2498,
      "abor": 2499,
      "rol": 2500,
      "gener": 2501,
      "velho": 2502,
      "lut": 2503,
      "sas": 2504,
      "acus": 2505,
      "através": 2506,
      "brit": 2507,
      "ied": 2508,
      "pensando": 2509,
      "mac": 2510,
      "alone": 2511,
      "amanhã": 2512,
      "ka": 2513,
      "ponto": 2514,
      "tivo": 2515,
      "least": 2516,
      "dle": 2517,
      "ficou": 2518,
      "presa": 2519,
      "escon": 2520,
      "gul": 2521,
      "sir": 2522,
      "dez": 2523,
      "pose": 2524,
      "culpa": 2525,
      "shot": 2526,
      "Ou": 2527,
      "flo": 2528,
      "popul": 2529,
      "resto": 2530,
      "true": 2531,
      "during": 2532,
      "beautiful": 2533,
      "action": 2534,
      "field": 2535,
      "arm": 2536,
      "segurança": 2537,
      "pus": 2538,
      "fá": 2539,
      "presidente": 2540,
      "cking": 2541,
      "telling": 2542,
      "gone": 2543,
      "shor": 2544,
      "spir": 2545,
      "net": 2546,
      "tade": 2547,
      "nation": 2548,
      "Mr": 2549,
      "vamente": 2550,
      "special": 2551,
      "nature": 2552,
      "court": 2553,
      "table": 2554,
      "goes": 2555,
      "close": 2556,
      "tried": 2557,
      "knows": 2558,
      "space": 2559,
      "ished": 2560,
      "stra": 2561,
      "wing": 2562,
      "ouvir": 2563,
      "clos": 2564,
      "appear": 2565,
      "iais": 2566,
      "acontecer": 2567,
      "idio": 2568,
      "exam": 2569,
      "imentos": 2570,
      "sleep": 2571,
      "ors": 2572,
      "mission": 2573,
      "pin": 2574,
      "walk": 2575,
      "zy": 2576,
      "gl": 2577,
      "oh": 2578,
      "fizer": 2579,
      "hur": 2580,
      "ende": 2581,
      "invest": 2582,
      "morrer": 2583,
      "ench": 2584,
      "falando": 2585,
      "gor": 2586,
      "Then": 2587,
      "dados": 2588,
      "avi": 2589,
      "anti": 2590,
      "cres": 2591,
      "próprio": 2592,
      "Há": 2593,
      "nesse": 2594,
      "pequeno": 2595,
      "temun": 2596,
      "key": 2597,
      "roc": 2598,
      "brought": 2599,
      "cade": 2600,
      "compu": 2601,
      "across": 2602,
      "ousand": 2603,
      "party": 2604,
      "ony": 2605,
      "force": 2606,
      "remo": 2607,
      "jap": 2608,
      "acre": 2609,
      "quatro": 2610,
      "filme": 2611,
      "sistema": 2612,
      "ctive": 2613,
      "ona": 2614,
      "quad": 2615,
      "estivesse": 2616,
      "check": 2617,
      "rock": 2618,
      "óri": 2619,
      "strong": 2620,
      "éia": 2621,
      "huma": 2622,
      "thor": 2623,
      "olhar": 2624,
      "resol": 2625,
      "testemun": 2626,
      "vest": 2627,
      "rea": 2628,
      "cida": 2629,
      "começou": 2630,
      "Do": 2631,
      "building": 2632,
      "comer": 2633,
      "food": 2634,
      "aqueles": 2635,
      "chur": 2636,
      "complete": 2637,
      "Só": 2638,
      "sala": 2639,
      "question": 2640,
      "ini": 2641,
      "exist": 2642,
      "wall": 2643,
      "posto": 2644,
      "adores": 2645,
      "evidence": 2646,
      "sentir": 2647,
      "Tal": 2648,
      "ford": 2649,
      "thousand": 2650,
      "bast": 2651,
      "moun": 2652,
      "flor": 2653,
      "Some": 2654,
      "news": 2655,
      "alem": 2656,
      "osa": 2657,
      "vive": 2658,
      "honor": 2659,
      "nice": 2660,
      "grou": 2661,
      "offer": 2662,
      "cros": 2663,
      "missão": 2664,
      "dó": 2665,
      "permit": 2666,
      "ize": 2667,
      "veio": 2668,
      "road": 2669,
      "ric": 2670,
      "ised": 2671,
      "ências": 2672,
      "inal": 2673,
      "olo": 2674,
      "sinto": 2675,
      "própria": 2676,
      "history": 2677,
      "terá": 2678,
      "posição": 2679,
      "tador": 2680,
      "jogo": 2681,
      "haver": 2682,
      "tendo": 2683,
      "game": 2684,
      "idas": 2685,
      "longe": 2686,
      "confi": 2687,
      "safe": 2688,
      "president": 2689,
      "dark": 2690,
      "emplo": 2691,
      "upon": 2692,
      "planeta": 2693,
      "instead": 2694,
      "iva": 2695,
      "interest": 2696,
      "wanna": 2697,
      "resul": 2698,
      "iment": 2699,
      "thre": 2700,
      "entos": 2701,
      "grandes": 2702,
      "Acho": 2703,
      "cell": 2704,
      "tele": 2705,
      "mudar": 2706,
      "prison": 2707,
      "perder": 2708,
      "ária": 2709,
      "escrit": 2710,
      "telef": 2711,
      "criança": 2712,
      "dic": 2713,
      "públ": 2714,
      "rem": 2715,
      "lady": 2716,
      "terror": 2717,
      "pequena": 2718,
      "Me": 2719,
      "nenhuma": 2720,
      "seems": 2721,
      "married": 2722,
      "40": 2723,
      "visão": 2724,
      "apresent": 2725,
      "envi": 2726,
      "decided": 2727,
      "tornar": 2728,
      "waiting": 2729,
      "exactly": 2730,
      "ures": 2731,
      "ged": 2732,
      "almost": 2733,
      "cimento": 2734,
      "outside": 2735,
      "pad": 2736,
      "gs": 2737,
      "depart": 2738,
      "haps": 2739,
      "inhos": 2740,
      "ats": 2741,
      "dessa": 2742,
      "assist": 2743,
      "Talvez": 2744,
      "parents": 2745,
      "trada": 2746,
      "cinco": 2747,
      "sound": 2748,
      "quite": 2749,
      "semanas": 2750,
      "tern": 2751,
      "natural": 2752,
      "weeks": 2753,
      "problem": 2754,
      "preci": 2755,
      "suc": 2756,
      "gando": 2757,
      "servi": 2758,
      "assum": 2759,
      "trem": 2760,
      "centr": 2761,
      "devo": 2762,
      "civil": 2763,
      "plic": 2764,
      "ught": 2765,
      "wel": 2766,
      "deixou": 2767,
      "south": 2768,
      "count": 2769,
      "girls": 2770,
      "covered": 2771,
      "grupo": 2772,
      "có": 2773,
      "scre": 2774,
      "ár": 2775,
      "spend": 2776,
      "admit": 2777,
      "ajuda": 2778,
      "fly": 2779,
      "pron": 2780,
      "tando": 2781,
      "guess": 2782,
      "200": 2783,
      "gam": 2784,
      "chang": 2785,
      "information": 2786,
      "Depois": 2787,
      "An": 2788,
      "haven": 2789,
      "direito": 2790,
      "ft": 2791,
      "morto": 2792,
      "sorry": 2793,
      "princi": 2794,
      "determin": 2795,
      "lei": 2796,
      "gn": 2797,
      "future": 2798,
      "clo": 2799,
      "plain": 2800,
      "hão": 2801,
      "seis": 2802,
      "ches": 2803,
      "bril": 2804,
      "felt": 2805,
      "lord": 2806,
      "west": 2807,
      "ído": 2808,
      "cito": 2809,
      "provavelmente": 2810,
      "ites": 2811,
      "either": 2812,
      "fug": 2813,
      "sra": 2814,
      "daqui": 2815,
      "exe": 2816,
      "sea": 2817,
      "fle": 2818,
      "pós": 2819,
      "destroy": 2820,
      "posta": 2821,
      "entender": 2822,
      "novamente": 2823,
      "tima": 2824,
      "takes": 2825,
      "dólar": 2826,
      "jer": 2827,
      "vens": 2828,
      "Con": 2829,
      "Des": 2830,
      "sort": 2831,
      "esperando": 2832,
      "pelas": 2833,
      "Your": 2834,
      "chu": 2835,
      "número": 2836,
      "chamado": 2837,
      "compe": 2838,
      "convers": 2839,
      "One": 2840,
      "funcion": 2841,
      "program": 2842,
      "bs": 2843,
      "dden": 2844,
      "pressão": 2845,
      "bastante": 2846,
      "cit": 2847,
      "iado": 2848,
      "leva": 2849,
      "fas": 2850,
      "With": 2851,
      "quil": 2852,
      "using": 2853,
      "visit": 2854,
      "mater": 2855,
      "ines": 2856,
      "memor": 2857,
      "major": 2858,
      "gentle": 2859,
      "11": 2860,
      "position": 2861,
      "enho": 2862,
      "vid": 2863,
      "exér": 2864,
      "miles": 2865,
      "pudesse": 2866,
      "solu": 2867,
      "caix": 2868,
      "buy": 2869,
      "bag": 2870,
      "izar": 2871,
      "assassina": 2872,
      "continuar": 2873,
      "modo": 2874,
      "everybody": 2875,
      "hell": 2876,
      "begin": 2877,
      "rap": 2878,
      "cele": 2879,
      "turned": 2880,
      "Af": 2881,
      "command": 2882,
      "inas": 2883,
      "sever": 2884,
      "semos": 2885,
      "ustr": 2886,
      "vista": 2887,
      "lat": 2888,
      "ring": 2889,
      "tam": 2890,
      "enda": 2891,
      "ismo": 2892,
      "jos": 2893,
      "mc": 2894,
      "acreditar": 2895,
      "ird": 2896,
      "exatamente": 2897,
      "trip": 2898,
      "segundo": 2899,
      "andon": 2900,
      "atac": 2901,
      "presente": 2902,
      "professor": 2903,
      "ane": 2904,
      "irmã": 2905,
      "carre": 2906,
      "mant": 2907,
      "aw": 2908,
      "suf": 2909,
      "ply": 2910,
      "relig": 2911,
      "After": 2912,
      "diga": 2913,
      "inim": 2914,
      "commit": 2915,
      "prepar": 2916,
      "explos": 2917,
      "Re": 2918,
      "trás": 2919,
      "mostrar": 2920,
      "mou": 2921,
      "amar": 2922,
      "cot": 2923,
      "campo": 2924,
      "perfect": 2925,
      "dut": 2926,
      "capit": 2927,
      "soci": 2928,
      "inos": 2929,
      "enem": 2930,
      "ativa": 2931,
      "church": 2932,
      "fra": 2933,
      "zo": 2934,
      "oi": 2935,
      "within": 2936,
      "ofere": 2937,
      "sometimes": 2938,
      "imagin": 2939,
      "resta": 2940,
      "temp": 2941,
      "errado": 2942,
      "bes": 2943,
      "chefe": 2944,
      "whether": 2945,
      "swe": 2946,
      "dirig": 2947,
      "victim": 2948,
      "lhes": 2949,
      "ontem": 2950,
      "gio": 2951,
      "chr": 2952,
      "grow": 2953,
      "diver": 2954,
      "digo": 2955,
      "frank": 2956,
      "Quero": 2957,
      "gri": 2958,
      "tic": 2959,
      "ena": 2960,
      "ouro": 2961,
      "prisão": 2962,
      "mrs": 2963,
      "trouble": 2964,
      "íveis": 2965,
      "arri": 2966,
      "train": 2967,
      "running": 2968,
      "ani": 2969,
      "mine": 2970,
      "supposed": 2971,
      "bert": 2972,
      "essed": 2973,
      "finally": 2974,
      "famil": 2975,
      "igre": 2976,
      "vio": 2977,
      "iram": 2978,
      "chris": 2979,
      "tinham": 2980,
      "rather": 2981,
      "figure": 2982,
      "forte": 2983,
      "xo": 2984,
      "looked": 2985,
      "prim": 2986,
      "paix": 2987,
      "joy": 2988,
      "hy": 2989,
      "island": 2990,
      "Sei": 2991,
      "wards": 2992,
      "cand": 2993,
      "tric": 2994,
      "board": 2995,
      "nave": 2996,
      "cente": 2997,
      "dred": 2998,
      "clus": 2999,
      "último": 3000,
      "pagar": 3001,
      "army": 3002,
      "onel": 3003,
      "others": 3004,
      "futuro": 3005,
      "avam": 3006,
      "vá": 3007,
      "commun": 3008,
      "conver": 3009,
      "chan": 3010,
      "hamos": 3011,
      "box": 3012,
      "ost": 3013,
      "esteja": 3014,
      "peace": 3015,
      "idéia": 3016,
      "dólares": 3017,
      "pesar": 3018,
      "arran": 3019,
      "vide": 3020,
      "tá": 3021,
      "exército": 3022,
      "pho": 3023,
      "throw": 3024,
      "equipe": 3025,
      "hot": 3026,
      "çado": 3027,
      "espaço": 3028,
      "particular": 3029,
      "lies": 3030,
      "tw": 3031,
      "umas": 3032,
      "acce": 3033,
      "ula": 3034,
      "árias": 3035,
      "cá": 3036,
      "dão": 3037,
      "raid": 3038,
      "hair": 3039,
      "emer": 3040,
      "rápido": 3041,
      "concer": 3042,
      "energia": 3043,
      "sense": 3044,
      "hea": 3045,
      "jes": 3046,
      "save": 3047,
      "bank": 3048,
      "personal": 3049,
      "consel": 3050,
      "bob": 3051,
      "hang": 3052,
      "fat": 3053,
      "az": 3054,
      "ky": 3055,
      "hael": 3056,
      "please": 3057,
      "ically": 3058,
      "hid": 3059,
      "middle": 3060,
      "enor": 3061,
      "round": 3062,
      "vision": 3063,
      "social": 3064,
      "respeito": 3065,
      "fortun": 3066,
      "ming": 3067,
      "words": 3068,
      "Nos": 3069,
      "querem": 3070,
      "vindo": 3071,
      "16": 3072,
      "pá": 3073,
      "conce": 3074,
      "Su": 3075,
      "lun": 3076,
      "sand": 3077,
      "alto": 3078,
      "aber": 3079,
      "ense": 3080,
      "born": 3081,
      "blu": 3082,
      "próxima": 3083,
      "ments": 3084,
      "okay": 3085,
      "fast": 3086,
      "cuid": 3087,
      "tv": 3088,
      "disser": 3089,
      "nar": 3090,
      "sudden": 3091,
      "loved": 3092,
      "rich": 3093,
      "diferente": 3094,
      "sitting": 3095,
      "câ": 3096,
      "pô": 3097,
      "ually": 3098,
      "próximo": 3099,
      "ko": 3100,
      "edu": 3101,
      "polit": 3102,
      "vious": 3103,
      "sw": 3104,
      "fico": 3105,
      "Isso": 3106,
      "Meu": 3107,
      "ution": 3108,
      "escritório": 3109,
      "explo": 3110,
      "lha": 3111,
      "ganhar": 3112,
      "comprar": 3113,
      "paris": 3114,
      "ased": 3115,
      "tex": 3116,
      "música": 3117,
      "ls": 3118,
      "late": 3119,
      "abandon": 3120,
      "gosta": 3121,
      "regis": 3122,
      "heal": 3123,
      "geor": 3124,
      "controle": 3125,
      "fear": 3126,
      "worth": 3127,
      "atic": 3128,
      "uras": 3129,
      "nee": 3130,
      "estranho": 3131,
      "music": 3132,
      "deep": 3133,
      "sugg": 3134,
      "bru": 3135,
      "comida": 3136,
      "polic": 3137,
      "spent": 3138,
      "subst": 3139,
      "cro": 3140,
      "hundred": 3141,
      "peda": 3142,
      "giving": 3143,
      "prome": 3144,
      "ump": 3145,
      "sabemos": 3146,
      "duz": 3147,
      "anda": 3148,
      "Okay": 3149,
      "inci": 3150,
      "rite": 3151,
      "guard": 3152,
      "advo": 3153,
      "weap": 3154,
      "últimos": 3155,
      "cole": 3156,
      "america": 3157,
      "culos": 3158,
      "justi": 3159,
      "von": 3160,
      "vul": 3161,
      "esa": 3162,
      "amentos": 3163,
      "terri": 3164,
      "mark": 3165,
      "amea": 3166,
      "looks": 3167,
      "ond": 3168,
      "park": 3169,
      "mad": 3170,
      "priv": 3171,
      "group": 3172,
      "unless": 3173,
      "armas": 3174,
      "realize": 3175,
      "descobri": 3176,
      "danger": 3177,
      "speak": 3178,
      "poor": 3179,
      "gosto": 3180,
      "states": 3181,
      "cording": 3182,
      "conhecer": 3183,
      "ii": 3184,
      "doll": 3185,
      "shit": 3186,
      "jantar": 3187,
      "declar": 3188,
      "ép": 3189,
      "reuni": 3190,
      "dress": 3191,
      "drink": 3192,
      "gada": 3193,
      "autor": 3194,
      "Foi": 3195,
      "alive": 3196,
      "situação": 3197,
      "hado": 3198,
      "formar": 3199,
      "clean": 3200,
      "eye": 3201,
      "drug": 3202,
      "invol": 3203,
      "tail": 3204,
      "brain": 3205,
      "ato": 3206,
      "esperar": 3207,
      "Tenho": 3208,
      "somos": 3209,
      "confir": 3210,
      "vit": 3211,
      "Tu": 3212,
      "lí": 3213,
      "scen": 3214,
      "inde": 3215,
      "motor": 3216,
      "finalmente": 3217,
      "bis": 3218,
      "horr": 3219,
      "estaria": 3220,
      "longer": 3221,
      "feeling": 3222,
      "visto": 3223,
      "pis": 3224,
      "cama": 3225,
      "roub": 3226,
      "pior": 3227,
      "pping": 3228,
      "dei": 3229,
      "Que": 3230,
      "saí": 3231,
      "redor": 3232,
      "tran": 3233,
      "preocupa": 3234,
      "demais": 3235,
      "boys": 3236,
      "devem": 3237,
      "aged": 3238,
      "caras": 3239,
      "festa": 3240,
      "trad": 3241,
      "imagine": 3242,
      "drive": 3243,
      "metros": 3244,
      "kept": 3245,
      "north": 3246,
      "tech": 3247,
      "secur": 3248,
      "indic": 3249,
      "extra": 3250,
      "preten": 3251,
      "answer": 3252,
      "abo": 3253,
      "christ": 3254,
      "alha": 3255,
      "atura": 3256,
      "atório": 3257,
      "ized": 3258,
      "apro": 3259,
      "acabar": 3260,
      "foot": 3261,
      "ai": 3262,
      "bly": 3263,
      "repor": 3264,
      "foto": 3265,
      "gold": 3266,
      "linha": 3267,
      "yes": 3268,
      "fine": 3269,
      "flow": 3270,
      "parecer": 3271,
      "view": 3272,
      "dres": 3273,
      "single": 3274,
      "mex": 3275,
      "spr": 3276,
      "film": 3277,
      "ns": 3278,
      "nia": 3279,
      "till": 3280,
      "monte": 3281,
      "mi": 3282,
      "vanta": 3283,
      "ative": 3284,
      "viet": 3285,
      "tribun": 3286,
      "themselves": 3287,
      "hill": 3288,
      "rua": 3289,
      "bill": 3290,
      "sister": 3291,
      "reach": 3292,
      "tron": 3293,
      "diam": 3294,
      "stat": 3295,
      "restaur": 3296,
      "teu": 3297,
      "proper": 3298,
      "agre": 3299,
      "area": 3300,
      "puder": 3301,
      "sacri": 3302,
      "aking": 3303,
      "isse": 3304,
      "jogar": 3305,
      "médico": 3306,
      "ataque": 3307,
      "washing": 3308,
      "feet": 3309,
      "sive": 3310,
      "Yes": 3311,
      "igreja": 3312,
      "Olha": 3313,
      "áveis": 3314,
      "norte": 3315,
      "companh": 3316,
      "bras": 3317,
      "piece": 3318,
      "patr": 3319,
      "diante": 3320,
      "morreu": 3321,
      "villa": 3322,
      "trac": 3323,
      "conne": 3324,
      "united": 3325,
      "fit": 3326,
      "Just": 3327,
      "Sen": 3328,
      "ory": 3329,
      "ism": 3330,
      "tados": 3331,
      "erei": 3332,
      "fogo": 3333,
      "eat": 3334,
      "design": 3335,
      "seguir": 3336,
      "Sr": 3337,
      "pati": 3338,
      "montan": 3339,
      "asure": 3340,
      "junto": 3341,
      "livro": 3342,
      "querer": 3343,
      "traz": 3344,
      "cannot": 3345,
      "ited": 3346,
      "jesus": 3347,
      "Every": 3348,
      "enta": 3349,
      "marav": 3350,
      "guei": 3351,
      "card": 3352,
      "ideia": 3353,
      "needs": 3354,
      "Tudo": 3355,
      ",\"": 3356,
      "fem": 3357,
      "lam": 3358,
      "diferentes": 3359,
      "fantas": 3360,
      "área": 3361,
      "represent": 3362,
      "existe": 3363,
      "muita": 3364,
      "procurando": 3365,
      "nessa": 3366,
      "captain": 3367,
      "trust": 3368,
      "dinner": 3369,
      "security": 3370,
      "prov": 3371,
      "hen": 3372,
      "perhaps": 3373,
      "afraid": 3374,
      "programa": 3375,
      "carry": 3376,
      "fazem": 3377,
      "passou": 3378,
      "certa": 3379,
      "hares": 3380,
      "receber": 3381,
      "25": 3382,
      "sens": 3383,
      "hero": 3384,
      "material": 3385,
      "60": 3386,
      "scar": 3387,
      "nobody": 3388,
      "learn": 3389,
      "palavras": 3390,
      "mam": 3391,
      "dizem": 3392,
      "matou": 3393,
      "ement": 3394,
      "assassinato": 3395,
      "ery": 3396,
      "quilo": 3397,
      "forget": 3398,
      "crazy": 3399,
      "emo": 3400,
      "iel": 3401,
      "criar": 3402,
      "olha": 3403,
      "europe": 3404,
      "oficial": 3405,
      "vivo": 3406,
      "cing": 3407,
      "agra": 3408,
      "Enquanto": 3409,
      "14": 3410,
      "atir": 3411,
      "salvar": 3412,
      "lic": 3413,
      "pression": 3414,
      "viagem": 3415,
      "fix": 3416,
      "bele": 3417,
      "concor": 3418,
      "playing": 3419,
      "sexual": 3420,
      "apar": 3421,
      "longo": 3422,
      "gens": 3423,
      "preso": 3424,
      "partir": 3425,
      "garoto": 3426,
      "maioria": 3427,
      "bebê": 3428,
      "Este": 3429,
      "obrig": 3430,
      "'.": 3431,
      "ature": 3432,
      "dios": 3433,
      "faça": 3434,
      "riage": 3435,
      "acredita": 3436,
      "econ": 3437,
      "rum": 3438,
      "omos": 3439,
      "andar": 3440,
      "vig": 3441,
      "diffic": 3442,
      "birth": 3443,
      "camin": 3444,
      "17": 3445,
      "sente": 3446,
      "centur": 3447,
      "capitão": 3448,
      "pit": 3449,
      "ouvi": 3450,
      "shar": 3451,
      "fully": 3452,
      "sla": 3453,
      "usando": 3454,
      "rid": 3455,
      "discus": 3456,
      "estará": 3457,
      "24": 3458,
      "May": 3459,
      "cerca": 3460,
      "whose": 3461,
      "cies": 3462,
      "bros": 3463,
      "michael": 3464,
      "wind": 3465,
      "liam": 3466,
      "centro": 3467,
      "docum": 3468,
      "recu": 3469,
      "levou": 3470,
      "parti": 3471,
      "estú": 3472,
      "moder": 3473,
      "seeing": 3474,
      "success": 3475,
      "suffer": 3476,
      "gest": 3477,
      "lose": 3478,
      "melhores": 3479,
      "Assim": 3480,
      "animal": 3481,
      "dú": 3482,
      "incre": 3483,
      "banco": 3484,
      "defend": 3485,
      "aparecer": 3486,
      "const": 3487,
      "guil": 3488,
      "anybody": 3489,
      "expect": 3490,
      "blow": 3491,
      "veja": 3492,
      "chegou": 3493,
      "ety": 3494,
      "Ex": 3495,
      "escur": 3496,
      "upid": 3497,
      "tiv": 3498,
      "cria": 3499,
      "fucking": 3500,
      "cting": 3501,
      "quê": 3502,
      "sue": 3503,
      "propri": 3504,
      "standing": 3505,
      "ticos": 3506,
      "troux": 3507,
      "naquela": 3508,
      "casar": 3509,
      "ief": 3510,
      "espero": 3511,
      "deli": 3512,
      "abil": 3513,
      "fácil": 3514,
      "promo": 3515,
      "Per": 3516,
      "irs": 3517,
      "short": 3518,
      "tention": 3519,
      "íri": 3520,
      "serious": 3521,
      "phil": 3522,
      "repente": 3523,
      "ging": 3524,
      "ordem": 3525,
      "search": 3526,
      "event": 3527,
      "medic": 3528,
      "assassino": 3529,
      "luck": 3530,
      "happens": 3531,
      "tribunal": 3532,
      "terior": 3533,
      "scient": 3534,
      "mesa": 3535,
      "cére": 3536,
      "cool": 3537,
      "milhares": 3538,
      "honest": 3539,
      "Pode": 3540,
      "sabem": 3541,
      "influ": 3542,
      "washington": 3543,
      "process": 3544,
      "seven": 3545,
      "travel": 3546,
      "treat": 3547,
      "profun": 3548,
      "ud": 3549,
      "fish": 3550,
      "ress": 3551,
      "officer": 3552,
      "livre": 3553,
      "central": 3554,
      "domin": 3555,
      "fundo": 3556,
      "receive": 3557,
      "suggest": 3558,
      "demon": 3559,
      "maj": 3560,
      "dear": 3561,
      "timo": 3562,
      "obser": 3563,
      "dit": 3564,
      "ption": 3565,
      "ãos": 3566,
      "moon": 3567,
      "estávamos": 3568,
      "ume": 3569,
      "cks": 3570,
      "windo": 3571,
      "german": 3572,
      "picture": 3573,
      "among": 3574,
      "energy": 3575,
      "pré": 3576,
      "tada": 3577,
      "dição": 3578,
      "sorte": 3579,
      "natal": 3580,
      "sick": 3581,
      "stupid": 3582,
      "write": 3583,
      "worked": 3584,
      "military": 3585,
      "espé": 3586,
      "naquele": 3587,
      "ron": 3588,
      "jud": 3589,
      "bilidade": 3590,
      "consci": 3591,
      "cruz": 3592,
      "época": 3593,
      "ured": 3594,
      "alcan": 3595,
      "station": 3596,
      "meeting": 3597,
      "questão": 3598,
      "aca": 3599,
      "mary": 3600,
      "tures": 3601,
      "george": 3602,
      "mol": 3603,
      "ested": 3604,
      "negócio": 3605,
      "maravil": 3606,
      "reve": 3607,
      "universo": 3608,
      "needed": 3609,
      "imes": 3610,
      "witness": 3611,
      "serão": 3612,
      "early": 3613,
      "Está": 3614,
      "except": 3615,
      "jim": 3616,
      "diu": 3617,
      "Pe": 3618,
      "universe": 3619,
      "dog": 3620,
      "érica": 3621,
      "satis": 3622,
      "author": 3623,
      "minute": 3624,
      "descri": 3625,
      "itude": 3626,
      "lembrar": 3627,
      "público": 3628,
      "soldi": 3629,
      "oport": 3630,
      "infer": 3631,
      "cold": 3632,
      "plano": 3633,
      "céu": 3634,
      "ier": 3635,
      "step": 3636,
      "ray": 3637,
      "marriage": 3638,
      "thinks": 3639,
      "phys": 3640,
      "evid": 3641,
      "blue": 3642,
      "straight": 3643,
      "cof": 3644,
      "espíri": 3645,
      "ander": 3646,
      "temper": 3647,
      "humano": 3648,
      "green": 3649,
      "segre": 3650,
      "ax": 3651,
      "ím": 3652,
      "quais": 3653,
      "coz": 3654,
      "palavra": 3655,
      "acredito": 3656,
      "became": 3657,
      "lived": 3658,
      "cup": 3659,
      "gig": 3660,
      "hole": 3661,
      "exis": 3662,
      "Cer": 3663,
      "remain": 3664,
      "estados": 3665,
      "rie": 3666,
      "acabou": 3667,
      "ioso": 3668,
      "club": 3669,
      "mist": 3670,
      "wers": 3671,
      "ensa": 3672,
      "bey": 3673,
      "bt": 3674,
      "sky": 3675,
      "quick": 3676,
      "ema": 3677,
      "assun": 3678,
      "continue": 3679,
      "13": 3680,
      "avis": 3681,
      "teor": 3682,
      "prefer": 3683,
      "provar": 3684,
      "record": 3685,
      "aum": 3686,
      "asking": 3687,
      "árvor": 3688,
      "evil": 3689,
      "yours": 3690,
      "cesso": 3691,
      "fla": 3692,
      "guer": 3693,
      "rosto": 3694,
      "serviço": 3695,
      "\"...": 3696,
      "reser": 3697,
      "report": 3698,
      "ocor": 3699,
      "pract": 3700,
      "rent": 3701,
      "extre": 3702,
      "carta": 3703,
      "curso": 3704,
      "bing": 3705,
      "situation": 3706,
      "respect": 3707,
      "nac": 3708,
      "thes": 3709,
      "aren": 3710,
      "alma": 3711,
      "trazer": 3712,
      "papel": 3713,
      "resist": 3714,
      "conselho": 3715,
      "chão": 3716,
      "cially": 3717,
      "simplesmente": 3718,
      "leo": 3719,
      "grad": 3720,
      "vice": 3721,
      "gotta": 3722,
      "soul": 3723,
      "companhia": 3724,
      "race": 3725,
      "orar": 3726,
      "unt": 3727,
      "conv": 3728,
      "river": 3729,
      "absolu": 3730,
      "porto": 3731,
      "Vou": 3732,
      "corri": 3733,
      "isa": 3734,
      "cérebro": 3735,
      "tação": 3736,
      "promise": 3737,
      "geral": 3738,
      "lembr": 3739,
      "atenção": 3740,
      "yer": 3741,
      "honra": 3742,
      "ero": 3743,
      "vejo": 3744,
      "tornou": 3745,
      "hurt": 3746,
      "tian": 3747,
      "difficult": 3748,
      "trabalhando": 3749,
      "mensa": 3750,
      "beat": 3751,
      "fres": 3752,
      "principal": 3753,
      "veu": 3754,
      "evol": 3755,
      "iled": 3756,
      "aba": 3757,
      "começa": 3758,
      "precisamos": 3759,
      "intelig": 3760,
      "fizeram": 3761,
      "lista": 3762,
      "américa": 3763,
      "unidos": 3764,
      "separ": 3765,
      "nolo": 3766,
      "elec": 3767,
      "original": 3768,
      "oportunidade": 3769,
      "master": 3770,
      "dormir": 3771,
      "icamente": 3772,
      "stick": 3773,
      "catch": 3774,
      "gay": 3775,
      "gum": 3776,
      "pés": 3777,
      "voz": 3778,
      "ligar": 3779,
      "Listen": 3780,
      "list": 3781,
      "conhecido": 3782,
      "animais": 3783,
      "contre": 3784,
      "yal": 3785,
      "enas": 3786,
      "effe": 3787,
      "watching": 3788,
      "recom": 3789,
      "vermel": 3790,
      "explain": 3791,
      "luta": 3792,
      "gentlemen": 3793,
      "glo": 3794,
      "bei": 3795,
      "charge": 3796,
      "hall": 3797,
      "inado": 3798,
      "david": 3799,
      "mov": 3800,
      "somewhere": 3801,
      "protect": 3802,
      "amp": 3803,
      "leaving": 3804,
      "telefone": 3805,
      "óg": 3806,
      "jovens": 3807,
      "rele": 3808,
      "track": 3809,
      "achei": 3810,
      "lions": 3811,
      "faith": 3812,
      "ilar": 3813,
      "rote": 3814,
      "mouth": 3815,
      "named": 3816,
      "imper": 3817,
      "lish": 3818,
      "endi": 3819,
      "stone": 3820,
      "gate": 3821,
      "hat": 3822,
      "jour": 3823,
      "embar": 3824,
      "ient": 3825,
      "service": 3826,
      "Maybe": 3827,
      "rapaz": 3828,
      "claim": 3829,
      "itself": 3830,
      "cuida": 3831,
      "ctions": 3832,
      "órias": 3833,
      "zz": 3834,
      "anal": 3835,
      "orgul": 3836,
      "irão": 3837,
      "brin": 3838,
      "thank": 3839,
      "acredit": 3840,
      "recuper": 3841,
      "meia": 3842,
      "olhando": 3843,
      "knowing": 3844,
      "strange": 3845,
      "perguntar": 3846,
      "enemy": 3847,
      "How": 3848,
      "julg": 3849,
      "ivo": 3850,
      "moral": 3851,
      "própri": 3852,
      "consegue": 3853,
      "log": 3854,
      "mortos": 3855,
      "escrever": 3856,
      "completely": 3857,
      "maravilhos": 3858,
      "comand": 3859,
      "perigos": 3860,
      "psy": 3861,
      "nuclear": 3862,
      "wat": 3863,
      "minis": 3864,
      "national": 3865,
      "flu": 3866,
      "noon": 3867,
      "itive": 3868,
      "comun": 3869,
      "forças": 3870,
      "nele": 3871,
      "killing": 3872,
      "By": 3873,
      "guarda": 3874,
      "torna": 3875,
      "inic": 3876,
      "icí": 3877,
      "ização": 3878,
      "sinal": 3879,
      "Ve": 3880,
      "rit": 3881,
      "Even": 3882,
      "fell": 3883,
      "nel": 3884,
      "xim": 3885,
      "assa": 3886,
      "cedo": 3887,
      "pena": 3888,
      "bud": 3889,
      "sentido": 3890,
      "cute": 3891,
      "battle": 3892,
      "consigo": 3893,
      "encontro": 3894,
      "descul": 3895,
      "frica": 3896,
      "signific": 3897,
      "mês": 3898,
      "questions": 3899,
      "avião": 3900,
      "inno": 3901,
      "wever": 3902,
      "problems": 3903,
      "transfer": 3904,
      "liberdade": 3905,
      "Any": 3906,
      "east": 3907,
      "join": 3908,
      "poin": 3909,
      "touch": 3910,
      "sozinho": 3911,
      "thousands": 3912,
      "hip": 3913,
      "yeah": 3914,
      "sexo": 3915,
      "experiência": 3916,
      "oud": 3917,
      "ciais": 3918,
      "gro": 3919,
      "mere": 3920,
      "arem": 3921,
      "ager": 3922,
      "lembra": 3923,
      "condition": 3924,
      "store": 3925,
      "cher": 3926,
      "pediu": 3927,
      "ounded": 3928,
      "Já": 3929,
      "motivo": 3930,
      "date": 3931,
      "conden": 3932,
      "willing": 3933,
      "dores": 3934,
      "500": 3935,
      "ength": 3936,
      "produz": 3937,
      "máqu": 3938,
      "experience": 3939,
      "km": 3940,
      "café": 3941,
      "sucesso": 3942,
      "easy": 3943,
      "reas": 3944,
      "caught": 3945,
      "econom": 3946,
      "devia": 3947,
      "Not": 3948,
      "somente": 3949,
      "vítima": 3950,
      "apaix": 3951,
      "beu": 3952,
      "evening": 3953,
      "labor": 3954,
      "desper": 3955,
      "metade": 3956,
      "acci": 3957,
      "garotas": 3958,
      "realized": 3959,
      "líder": 3960,
      "sli": 3961,
      "pobre": 3962,
      "tis": 3963,
      "refer": 3964,
      "messa": 3965,
      "third": 3966,
      "arte": 3967,
      "houve": 3968,
      "fí": 3969,
      "inoc": 3970,
      "level": 3971,
      "dades": 3972,
      "corpor": 3973,
      "prazer": 3974,
      "solar": 3975,
      "revol": 3976,
      "lua": 3977,
      "respons": 3978,
      "desses": 3979,
      "Vamos": 3980,
      "idiota": 3981,
      "advogado": 3982,
      "kin": 3983,
      "celebr": 3984,
      "comum": 3985,
      "notí": 3986,
      "lugares": 3987,
      "informações": 3988,
      "çam": 3989,
      "chin": 3990,
      "bla": 3991,
      "hate": 3992,
      "toma": 3993,
      "suit": 3994,
      "marry": 3995,
      "large": 3996,
      "acontece": 3997,
      "build": 3998,
      "exemplo": 3999,
      "vale": 4000,
      "informação": 4001,
      "jas": 4002,
      "ério": 4003,
      "ift": 4004,
      "socie": 4005,
      "proteger": 4006,
      "unity": 4007,
      "deixe": 4008,
      "relação": 4009,
      "apartamento": 4010,
      "learned": 4011,
      "cuidar": 4012,
      "pia": 4013,
      "tax": 4014,
      "adora": 4015,
      "velha": 4016,
      "superior": 4017,
      "smo": 4018,
      "?\".": 4019,
      "bater": 4020,
      "heiros": 4021,
      "colo": 4022,
      "faria": 4023,
      "namor": 4024,
      "esterday": 4025,
      "Uh": 4026,
      "tente": 4027,
      "ately": 4028,
      "damn": 4029,
      "pósito": 4030,
      "aceitar": 4031,
      "Ac": 4032,
      "discovered": 4033,
      "hadn": 4034,
      "thro": 4035,
      "radio": 4036,
      "vaz": 4037,
      "dê": 4038,
      "teach": 4039,
      "bear": 4040,
      "direção": 4041,
      "built": 4042,
      "elimin": 4043,
      "usa": 4044,
      "movie": 4045,
      "assem": 4046,
      "foc": 4047,
      "encontre": 4048,
      "camp": 4049,
      "senhores": 4050,
      "ached": 4051,
      "uten": 4052,
      "support": 4053,
      "investig": 4054,
      "sher": 4055,
      "dial": 4056,
      "boca": 4057,
      "sche": 4058,
      "vac": 4059,
      "defin": 4060,
      "rain": 4061,
      "letter": 4062,
      "abrir": 4063,
      "trial": 4064,
      "cab": 4065,
      "natureza": 4066,
      "quin": 4067,
      "empresa": 4068,
      "princ": 4069,
      "completamente": 4070,
      "suddenly": 4071,
      "Our": 4072,
      "afe": 4073,
      "dessas": 4074,
      "ledge": 4075,
      "senhora": 4076,
      "cabelo": 4077,
      "especially": 4078,
      "involved": 4079,
      "china": 4080,
      "guns": 4081,
      "crimes": 4082,
      "segunda": 4083,
      "scene": 4084,
      "agrade": 4085,
      "Mes": 4086,
      "nie": 4087,
      "saiu": 4088,
      "scot": 4089,
      "verão": 4090,
      "chief": 4091,
      "desaf": 4092,
      "totalmente": 4093,
      "conseguiu": 4094,
      "devemos": 4095,
      "fro": 4096,
      "atmos": 4097,
      "path": 4098,
      "penso": 4099,
      "lembro": 4100,
      "apareceu": 4101,
      "saiba": 4102,
      "apesar": 4103,
      "dance": 4104,
      "defesa": 4105,
      "aprender": 4106,
      ".\"": 4107,
      "enfr": 4108,
      "loja": 4109,
      "Why": 4110,
      "seguro": 4111,
      "francis": 4112,
      "cross": 4113,
      "bado": 4114,
      "várias": 4115,
      "ank": 4116,
      "estade": 4117,
      "shut": 4118,
      "These": 4119,
      "Minha": 4120,
      "viz": 4121,
      "soldados": 4122,
      "decide": 4123,
      "queim": 4124,
      "nisso": 4125,
      "mud": 4126,
      "precisar": 4127,
      "plant": 4128,
      "fique": 4129,
      "parecia": 4130,
      "batalha": 4131,
      "floor": 4132,
      "formed": 4133,
      "pull": 4134,
      "rão": 4135,
      "squ": 4136,
      "regr": 4137,
      "compre": 4138,
      "james": 4139,
      "kit": 4140,
      "vários": 4141,
      "repe": 4142,
      "pesquis": 4143,
      "ixo": 4144,
      "summer": 4145,
      "rever": 4146,
      "gotten": 4147,
      "costas": 4148,
      "drop": 4149,
      "terminar": 4150,
      "jornal": 4151,
      "zing": 4152,
      "uldade": 4153,
      "conheci": 4154,
      "acontecendo": 4155,
      "roupas": 4156,
      "queen": 4157,
      "boas": 4158,
      "chamar": 4159,
      "cliente": 4160,
      "apartment": 4161,
      "justiça": 4162,
      "held": 4163,
      "graph": 4164,
      "deixa": 4165,
      "diretor": 4166,
      "killer": 4167,
      "fia": 4168,
      "amo": 4169,
      "bow": 4170,
      "mention": 4171,
      "caixa": 4172,
      "express": 4173,
      "Mesmo": 4174,
      "ox": 4175,
      "acher": 4176,
      "seguinte": 4177,
      "coura": 4178,
      "ides": 4179,
      "çando": 4180,
      "instru": 4181,
      "unk": 4182,
      "create": 4183,
      "several": 4184,
      "Of": 4185,
      "osos": 4186,
      "joe": 4187,
      "sym": 4188,
      "wedding": 4189,
      "accept": 4190,
      "Pare": 4191,
      "eight": 4192,
      "sess": 4193,
      "igu": 4194,
      "vender": 4195,
      "obvious": 4196,
      "alien": 4197,
      "negócios": 4198,
      "Let": 4199,
      "ães": 4200,
      "incr": 4201,
      "arms": 4202,
      "Estamos": 4203,
      ".,": 4204,
      "eno": 4205,
      "parado": 4206,
      "magn": 4207,
      "americanos": 4208,
      "french": 4209,
      "sible": 4210,
      "chamada": 4211,
      "80": 4212,
      "boat": 4213,
      "gros": 4214,
      "stars": 4215,
      "emprego": 4216,
      "spirit": 4217,
      "began": 4218,
      "chall": 4219,
      "tee": 4220,
      "acidente": 4221,
      "humanos": 4222,
      "Todos": 4223,
      "vontade": 4224,
      "jen": 4225,
      "els": 4226,
      "auto": 4227,
      "cí": 4228,
      "slow": 4229,
      "esfor": 4230,
      "troc": 4231,
      "fiquei": 4232,
      "post": 4233,
      "execut": 4234,
      "espírito": 4235,
      "estrada": 4236,
      "myster": 4237,
      "destino": 4238,
      "gle": 4239,
      "itual": 4240,
      "esquecer": 4241,
      "further": 4242,
      "disseram": 4243,
      "hood": 4244,
      "unci": 4245,
      "permane": 4246,
      "tio": 4247,
      "cast": 4248,
      "inspe": 4249,
      "forever": 4250,
      "trabalha": 4251,
      "opport": 4252,
      "estive": 4253,
      "interessa": 4254,
      "powerful": 4255,
      "huge": 4256,
      "cando": 4257,
      "famos": 4258,
      "leve": 4259,
      "igual": 4260,
      "esperança": 4261,
      "color": 4262,
      "ruim": 4263,
      "nacional": 4264,
      "fan": 4265,
      "alter": 4266,
      "bath": 4267,
      "espera": 4268,
      "federal": 4269,
      "oil": 4270,
      "dying": 4271,
      "especialmente": 4272,
      "college": 4273,
      "private": 4274,
      "above": 4275,
      "ki": 4276,
      "ál": 4277,
      "recent": 4278,
      "amiga": 4279,
      "paid": 4280,
      "falta": 4281,
      "passed": 4282,
      "glor": 4283,
      "anymore": 4284,
      "direct": 4285,
      "fighting": 4286,
      "nic": 4287,
      "contato": 4288,
      "fuck": 4289,
      "common": 4290,
      "corte": 4291,
      "afternoon": 4292,
      "ord": 4293,
      "tual": 4294,
      "medical": 4295,
      "computador": 4296,
      "cac": 4297,
      "ians": 4298,
      "portar": 4299,
      "survi": 4300,
      "walking": 4301,
      "apaixon": 4302,
      "opportunity": 4303,
      "Seu": 4304,
      "bac": 4305,
      "parent": 4306,
      "Tem": 4307,
      "zen": 4308,
      "paul": 4309,
      "created": 4310,
      "shoo": 4311,
      "Dur": 4312,
      "aquilo": 4313,
      "none": 4314,
      "icle": 4315,
      "center": 4316,
      "cant": 4317,
      "dna": 4318,
      "kno": 4319,
      "ote": 4320,
      "equip": 4321,
      "tour": 4322,
      "amoun": 4323,
      "pray": 4324,
      "esteve": 4325,
      "dollars": 4326,
      "pack": 4327,
      "tun": 4328,
      "espan": 4329,
      "forces": 4330,
      "papai": 4331,
      "Hey": 4332,
      "department": 4333,
      "forced": 4334,
      "aus": 4335,
      "ified": 4336,
      "tempor": 4337,
      "entrou": 4338,
      "grave": 4339,
      "capital": 4340,
      "greatest": 4341,
      "sociedade": 4342,
      "neigh": 4343,
      "opini": 4344,
      "figured": 4345,
      "inimigo": 4346,
      "ils": 4347,
      "knowledge": 4348,
      "cali": 4349,
      "decisão": 4350,
      "wearing": 4351,
      "Sua": 4352,
      "window": 4353,
      "belong": 4354,
      "fazê": 4355,
      "places": 4356,
      "popular": 4357,
      "pil": 4358,
      "tree": 4359,
      "accident": 4360,
      "tocar": 4361,
      "garant": 4362,
      "photo": 4363,
      "wise": 4364,
      "encontra": 4365,
      "cooper": 4366,
      "audi": 4367,
      "julgamento": 4368,
      "gel": 4369,
      "rul": 4370,
      "delas": 4371,
      "vidade": 4372,
      "agente": 4373,
      "poderiam": 4374,
      "destruir": 4375,
      "cemos": 4376,
      "yesterday": 4377,
      "perten": 4378,
      "ulas": 4379,
      "moving": 4380,
      "enorme": 4381,
      "Temos": 4382,
      "japan": 4383,
      "besse": 4384,
      "gados": 4385,
      "acer": 4386,
      "skin": 4387,
      "kick": 4388,
      "desejo": 4389,
      "Ha": 4390,
      "Pre": 4391,
      "ince": 4392,
      "acy": 4393,
      "worry": 4394,
      "evitar": 4395,
      "wild": 4396,
      "beginning": 4397,
      "attention": 4398,
      "justice": 4399,
      "decidir": 4400,
      "contact": 4401,
      "laterra": 4402,
      "alta": 4403,
      "sete": 4404,
      "tró": 4405,
      "interess": 4406,
      "ativo": 4407,
      "cig": 4408,
      "beach": 4409,
      "div": 4410,
      "procurar": 4411,
      "jury": 4412,
      "estrelas": 4413,
      "lay": 4414,
      "william": 4415,
      "glass": 4416,
      "Aqui": 4417,
      "rome": 4418,
      "té": 4419,
      "ancient": 4420,
      "onto": 4421,
      "drogas": 4422,
      "mountain": 4423,
      "quente": 4424,
      "chi": 4425,
      "weren": 4426,
      "machine": 4427,
      "society": 4428,
      "moved": 4429,
      "selva": 4430,
      "série": 4431,
      "criminal": 4432,
      "isol": 4433,
      "inglaterra": 4434,
      "peg": 4435,
      "merda": 4436,
      "works": 4437,
      "century": 4438,
      "Mu": 4439,
      "dum": 4440,
      "sci": 4441,
      "cris": 4442,
      "steal": 4443,
      "richard": 4444,
      "avo": 4445,
      "fbi": 4446,
      "jú": 4447,
      "appro": 4448,
      "busca": 4449,
      "escolher": 4450,
      "perceber": 4451,
      "jando": 4452,
      "voice": 4453,
      "due": 4454,
      "simple": 4455,
      "lock": 4456,
      "sad": 4457,
      "barco": 4458,
      "clothes": 4459,
      "havi": 4460,
      "peter": 4461,
      "ceiro": 4462,
      "roubar": 4463,
      "announ": 4464,
      "ávamos": 4465,
      "horse": 4466,
      "policial": 4467,
      "putting": 4468,
      "facil": 4469,
      "bunch": 4470,
      "including": 4471,
      "inhas": 4472,
      "choc": 4473,
      "speed": 4474,
      "negro": 4475,
      "exceto": 4476,
      "lutar": 4477,
      "antic": 4478,
      "His": 4479,
      "ientes": 4480,
      "mess": 4481,
      "share": 4482,
      "encontrou": 4483,
      "inteiro": 4484,
      "appreci": 4485,
      "london": 4486,
      "passada": 4487,
      "wonderful": 4488,
      "ode": 4489,
      "gives": 4490,
      "holly": 4491,
      "terrible": 4492,
      "ione": 4493,
      "izado": 4494,
      "serem": 4495,
      "discut": 4496,
      "70": 4497,
      "rup": 4498,
      "teremos": 4499,
      "ties": 4500,
      "non": 4501,
      "ride": 4502,
      "processo": 4503,
      "animals": 4504,
      "ições": 4505,
      "mut": 4506,
      "mill": 4507,
      "reco": 4508,
      "itado": 4509,
      "confer": 4510,
      "poderá": 4511,
      "ather": 4512,
      "ticas": 4513,
      "linda": 4514,
      "rick": 4515,
      "eua": 4516,
      "fotos": 4517,
      "timas": 4518,
      "judge": 4519,
      "valor": 4520,
      "divi": 4521,
      "abri": 4522,
      "develo": 4523,
      "prise": 4524,
      "icação": 4525,
      "subje": 4526,
      "christmas": 4527,
      "absolute": 4528,
      "asso": 4529,
      "lier": 4530,
      "add": 4531,
      "morr": 4532,
      "tua": 4533,
      "descober": 4534,
      "Ao": 4535,
      "nes": 4536,
      "espal": 4537,
      "trag": 4538,
      "lying": 4539,
      "familiar": 4540,
      "atas": 4541,
      "dangerous": 4542,
      "exer": 4543,
      "fool": 4544,
      "broke": 4545,
      "believed": 4546,
      "invent": 4547,
      "invés": 4548,
      "doubt": 4549,
      "spot": 4550,
      "changed": 4551,
      "cn": 4552,
      "explicar": 4553,
      "reunião": 4554,
      "Lem": 4555,
      "depen": 4556,
      "atu": 4557,
      "acima": 4558,
      "sidade": 4559,
      "interested": 4560,
      "broken": 4561,
      "santa": 4562,
      "feitos": 4563,
      "Once": 4564,
      "brilh": 4565,
      "início": 4566,
      "gree": 4567,
      "fís": 4568,
      "meant": 4569,
      "torno": 4570,
      "gather": 4571,
      "terrível": 4572,
      "jac": 4573,
      "adul": 4574,
      "rapid": 4575,
      "beyond": 4576,
      "tiro": 4577,
      "ást": 4578,
      "comando": 4579,
      "lidar": 4580,
      "branco": 4581,
      "comandante": 4582,
      "Olhe": 4583,
      "zes": 4584,
      "ãe": 4585,
      "engan": 4586,
      "carne": 4587,
      "fala": 4588,
      "çou": 4589,
      "infe": 4590,
      "alex": 4591,
      "holy": 4592,
      "clim": 4593,
      "....": 4594,
      "according": 4595,
      "dific": 4596,
      "chen": 4597,
      "chick": 4598,
      "pers": 4599,
      "pread": 4600,
      "bles": 4601,
      "humana": 4602,
      "convinc": 4603,
      "ática": 4604,
      "porte": 4605,
      "kets": 4606,
      "ladies": 4607,
      "carreg": 4608,
      "versário": 4609,
      "Clar": 4610,
      "ução": 4611,
      "pot": 4612,
      "tells": 4613,
      "angeles": 4614,
      "charlie": 4615,
      "pergunta": 4616,
      "Certo": 4617,
      "olho": 4618,
      "cena": 4619,
      "século": 4620,
      "espécie": 4621,
      "yard": 4622,
      "quão": 4623,
      "morta": 4624,
      "conhece": 4625,
      "americano": 4626,
      "Since": 4627,
      "nom": 4628,
      "ourselves": 4629,
      "mesmos": 4630,
      "interior": 4631,
      "passe": 4632,
      "shows": 4633,
      "trouxe": 4634,
      "nick": 4635,
      "ól": 4636,
      "igas": 4637,
      "aquelas": 4638,
      "democ": 4639,
      "innocent": 4640,
      "Bom": 4641,
      "Ser": 4642,
      "cân": 4643,
      "agree": 4644,
      "fru": 4645,
      "martin": 4646,
      "chega": 4647,
      "missing": 4648,
      "client": 4649,
      "village": 4650,
      "bio": 4651,
      "condu": 4652,
      "serve": 4653,
      "stage": 4654,
      "maiores": 4655,
      "chap": 4656,
      "sonho": 4657,
      "england": 4658,
      "pele": 4659,
      "tie": 4660,
      "confess": 4661,
      "fill": 4662,
      "perí": 4663,
      "tivemos": 4664,
      "escape": 4665,
      "computer": 4666,
      "dida": 4667,
      "cair": 4668,
      "feed": 4669,
      "resear": 4670,
      "verdadeiro": 4671,
      "imaginar": 4672,
      "mandar": 4673,
      "duty": 4674,
      "sweet": 4675,
      "utenant": 4676,
      "wrote": 4677,
      "orden": 4678,
      "eração": 4679,
      "proprie": 4680,
      "Jo": 4681,
      "taman": 4682,
      "andy": 4683,
      "pros": 4684,
      "ends": 4685,
      "gostar": 4686,
      "custo": 4687,
      "dama": 4688,
      "íp": 4689,
      "menina": 4690,
      "famous": 4691,
      "entendo": 4692,
      "resposta": 4693,
      "bomb": 4694,
      "uso": 4695,
      "itando": 4696,
      "herself": 4697,
      "lembre": 4698,
      "notic": 4699,
      "bridge": 4700,
      "responsible": 4701,
      "costuma": 4702,
      "lab": 4703,
      "odo": 4704,
      "gry": 4705,
      "calls": 4706,
      "icídio": 4707,
      "queremos": 4708,
      "cheio": 4709,
      "Parece": 4710,
      "forward": 4711,
      "vado": 4712,
      "capac": 4713,
      "Era": 4714,
      "sey": 4715,
      "metal": 4716,
      "icago": 4717,
      "written": 4718,
      "tempos": 4719,
      "imagem": 4720,
      "londres": 4721,
      "kel": 4722,
      "forme": 4723,
      "fee": 4724,
      "correr": 4725,
      "ruas": 4726,
      "charles": 4727,
      "members": 4728,
      "jane": 4729,
      "ners": 4730,
      "filmes": 4731,
      "trein": 4732,
      "naz": 4733,
      "membros": 4734,
      "leader": 4735,
      "europa": 4736,
      "detal": 4737,
      "ests": 4738,
      "estação": 4739,
      "brown": 4740,
      "janela": 4741,
      "decision": 4742,
      "allowed": 4743,
      "cuse": 4744,
      "irst": 4745,
      "stal": 4746,
      "neck": 4747,
      "jail": 4748,
      "humil": 4749,
      "Estava": 4750,
      "british": 4751,
      "resolver": 4752,
      "sch": 4753,
      "intro": 4754,
      "soubesse": 4755,
      "tribu": 4756,
      "community": 4757,
      "sacrific": 4758,
      "Here": 4759,
      "crow": 4760,
      "spen": 4761,
      "bell": 4762,
      "tains": 4763,
      "mortal": 4764,
      "bone": 4765,
      "osco": 4766,
      "impr": 4767,
      "chicago": 4768,
      "mode": 4769,
      "bodies": 4770,
      "perguntas": 4771,
      "diferença": 4772,
      "wondering": 4773,
      "revel": 4774,
      "avan": 4775,
      "hoping": 4776,
      "mons": 4777,
      "account": 4778,
      "affe": 4779,
      "falou": 4780,
      "tentou": 4781,
      "buraco": 4782,
      "Veja": 4783,
      "enjoy": 4784,
      "seemed": 4785,
      "realidade": 4786,
      "coc": 4787,
      "activ": 4788,
      "fale": 4789,
      "calling": 4790,
      "bought": 4791,
      "towards": 4792,
      "cure": 4793,
      "construir": 4794,
      "sequ": 4795,
      "colocou": 4796,
      "responsável": 4797,
      "endeu": 4798,
      "crew": 4799,
      "benef": 4800,
      "teen": 4801,
      "acion": 4802,
      "iados": 4803,
      "nação": 4804,
      "consul": 4805,
      "perigo": 4806,
      "orada": 4807,
      "fazia": 4808,
      "irei": 4809,
      "vince": 4810,
      "cruel": 4811,
      "bum": 4812,
      "Un": 4813,
      "fomos": 4814,
      "heav": 4815,
      "cry": 4816,
      "ignor": 4817,
      "english": 4818,
      "vy": 4819,
      "engra": 4820,
      "tape": 4821,
      "vidu": 4822,
      "faço": 4823,
      "strength": 4824,
      "ênio": 4825,
      "wake": 4826,
      "ificar": 4827,
      "apos": 4828,
      "eter": 4829,
      "hide": 4830,
      "recus": 4831,
      "simply": 4832,
      "choice": 4833,
      "regular": 4834,
      "Antes": 4835,
      "smar": 4836,
      "exten": 4837,
      "individu": 4838,
      "ances": 4839,
      "acos": 4840,
      "stood": 4841,
      "showed": 4842,
      "spread": 4843,
      "charac": 4844,
      "esconder": 4845,
      "gur": 4846,
      "oeste": 4847,
      "convi": 4848,
      "type": 4849,
      "ville": 4850,
      "abaixo": 4851,
      "poc": 4852,
      "devido": 4853,
      "tempt": 4854,
      "talked": 4855,
      "precisam": 4856,
      "iosa": 4857,
      "soldiers": 4858,
      "assunto": 4859,
      "mike": 4860,
      "pilo": 4861,
      "match": 4862,
      "passo": 4863,
      "ended": 4864,
      "ify": 4865,
      "ficaria": 4866,
      "centenas": 4867,
      "opinião": 4868,
      "ião": 4869,
      "envia": 4870,
      "adam": 4871,
      "turning": 4872,
      "finish": 4873,
      "chair": 4874,
      "stopped": 4875,
      "song": 4876,
      "fellow": 4877,
      "--.": 4878,
      "departamento": 4879,
      "guilty": 4880,
      "data": 4881,
      "sion": 4882,
      "ye": 4883,
      "shouldn": 4884,
      "lands": 4885,
      "risk": 4886,
      "diria": 4887,
      "sabendo": 4888,
      "research": 4889,
      "Don": 4890,
      "gelo": 4891,
      "ib": 4892,
      "ya": 4893,
      "lik": 4894,
      "cop": 4895,
      "sentado": 4896,
      "deliver": 4897,
      "esquer": 4898,
      "stairs": 4899,
      "based": 4900,
      "refle": 4901,
      "driving": 4902,
      "carreira": 4903,
      "equ": 4904,
      "ences": 4905,
      "carros": 4906,
      "ocean": 4907,
      "science": 4908,
      "bons": 4909,
      "issão": 4910,
      "reun": 4911,
      "seat": 4912,
      "veloc": 4913,
      "costa": 4914,
      "regi": 4915,
      "triste": 4916,
      "querida": 4917,
      "novos": 4918,
      "peix": 4919,
      "operation": 4920,
      "srta": 4921,
      "tions": 4922,
      "conhecimento": 4923,
      "dents": 4924,
      "ops": 4925,
      "sá": 4926,
      "ude": 4927,
      "wis": 4928,
      "wol": 4929,
      "pegou": 4930,
      "ids": 4931,
      "tindo": 4932,
      "received": 4933,
      "inda": 4934,
      "usually": 4935,
      "jog": 4936,
      "miser": 4937,
      "poucos": 4938,
      "90": 4939,
      "bê": 4940,
      "osso": 4941,
      "laugh": 4942,
      "bene": 4943,
      "patient": 4944,
      "anha": 4945,
      "devol": 4946,
      "tries": 4947,
      "convida": 4948,
      "rub": 4949,
      "memory": 4950,
      "fis": 4951,
      "ounds": 4952,
      "Vocês": 4953,
      "flight": 4954,
      "quanti": 4955,
      "tras": 4956,
      "direto": 4957,
      "ônia": 4958,
      "holding": 4959,
      "necessário": 4960,
      "projeto": 4961,
      "invi": 4962,
      "pole": 4963,
      "brea": 4964,
      "mental": 4965,
      "contrat": 4966,
      "career": 4967,
      "tit": 4968,
      "thur": 4969,
      "entende": 4970,
      "solo": 4971,
      "whom": 4972,
      "cober": 4973,
      "dedic": 4974,
      "surface": 4975,
      "francisco": 4976,
      "tamanho": 4977,
      "spl": 4978,
      "arre": 4979,
      "arro": 4980,
      "quir": 4981,
      "teacher": 4982,
      "dições": 4983,
      "rias": 4984,
      "vada": 4985,
      "política": 4986,
      "Desde": 4987,
      "conversa": 4988,
      "amount": 4989,
      "ocup": 4990,
      "comece": 4991,
      "citiz": 4992,
      "nível": 4993,
      "éu": 4994,
      "sejam": 4995,
      "vação": 4996,
      "Le": 4997,
      "ented": 4998,
      "grace": 4999
    },
    "merges": [
      [
        "t",
        "h"
      ],
      [
        "e",
        "r"
      ],
      [
        "a",
        "n"
      ],
      [
        "i",
        "n"
      ],
      [
        "e",
        "s"
      ],
      [
        "a",
        "r"
      ],
      [
        "e",
        "n"
      ],
      [
        "o",
        "u"
      ],
      [
        "a",
        "s"
      ],
      [
        "o",
        "r"
      ],
      [
        "t",
        "o"
      ],
      [
        "d",
        "e"
      ],
      [
        "o",
        "n"
      ],
      [
        "q",
        "u"
      ],
      [
        ".",
        "."
      ],
      [
        "o",
        "s"
      ],
      [
        "i",
        "s"
      ],
      [
        "th",
        "e"
      ],
      [
        "a",
        "l"
      ],
      [
        "a",
        "t"
      ],
      [
        "d",
        "o"
      ],
      [
        "r",
        "e"
      ],
      [
        "s",
        "e"
      ],
      [
        "qu",
        "e"
      ],
      [
        "o",
        "m"
      ],
      [
        "t",
        "e"
      ],
      [
        "l",
        "e"
      ],
      [
        "a",
        "m"
      ],
      [
        "in",
        "g"
      ],
      [
        "an",
        "d"
      ],
      [
        "u",
        "m"
      ],
      [
        "ã",
        "o"
      ],
      [
        "..",
        "."
      ],
      [
        "i",
        "t"
      ],
      [
        "d",
        "a"
      ],
      [
        "y",
        "ou"
      ],
      [
        "v",
        "e"
      ],
      [
        "o",
        "f"
      ],
      [
        "i",
        "c"
      ],
      [
        "m",
        "e"
      ],
      [
        "b",
        "e"
      ],
      [
        "t",
        "r"
      ],
      [
        "h",
        "e"
      ],
      [
        "c",
        "om"
      ],
      [
        "n",
        "o"
      ],
      [
        "i",
        "r"
      ],
      [
        "h",
        "a"
      ],
      [
        "a",
        "c"
      ],
      [
        "e",
        "m"
      ],
      [
        "p",
        "ar"
      ],
      [
        "p",
        "r"
      ],
      [
        "es",
        "t"
      ],
      [
        "i",
        "l"
      ],
      [
        "i",
        "a"
      ],
      [
        "i",
        "m"
      ],
      [
        "en",
        "t"
      ],
      [
        "s",
        "o"
      ],
      [
        "e",
        "l"
      ],
      [
        "u",
        "s"
      ],
      [
        "o",
        "c"
      ],
      [
        "h",
        "o"
      ],
      [
        "v",
        "er"
      ],
      [
        "e",
        "d"
      ],
      [
        "f",
        "or"
      ],
      [
        "th",
        "at"
      ],
      [
        "u",
        "n"
      ],
      [
        "i",
        "g"
      ],
      [
        "c",
        "on"
      ],
      [
        "m",
        "a"
      ],
      [
        "p",
        "o"
      ],
      [
        "t",
        "a"
      ],
      [
        "d",
        "i"
      ],
      [
        "t",
        "er"
      ],
      [
        "par",
        "a"
      ],
      [
        "s",
        "a"
      ],
      [
        "u",
        "r"
      ],
      [
        "o",
        "l"
      ],
      [
        "u",
        "t"
      ],
      [
        "l",
        "i"
      ],
      [
        "p",
        "or"
      ],
      [
        "w",
        "h"
      ],
      [
        "n",
        "ão"
      ],
      [
        "c",
        "a"
      ],
      [
        "s",
        "u"
      ],
      [
        "c",
        "h"
      ],
      [
        "g",
        "o"
      ],
      [
        "er",
        "e"
      ],
      [
        "um",
        "a"
      ],
      [
        "oc",
        "ê"
      ],
      [
        "a",
        "d"
      ],
      [
        "p",
        "e"
      ],
      [
        "l",
        "o"
      ],
      [
        "an",
        "do"
      ],
      [
        "r",
        "a"
      ],
      [
        "r",
        "i"
      ],
      [
        "s",
        "t"
      ],
      [
        "c",
        "e"
      ],
      [
        "n",
        "a"
      ],
      [
        "p",
        "er"
      ],
      [
        "v",
        "ocê"
      ],
      [
        "al",
        "l"
      ],
      [
        "t",
        "i"
      ],
      [
        "k",
        "e"
      ],
      [
        "a",
        "b"
      ],
      [
        "w",
        "e"
      ],
      [
        "u",
        "l"
      ],
      [
        "v",
        "i"
      ],
      [
        "l",
        "d"
      ],
      [
        "g",
        "e"
      ],
      [
        "e",
        "u"
      ],
      [
        "i",
        "th"
      ],
      [
        "v",
        "a"
      ],
      [
        "c",
        "i"
      ],
      [
        "n",
        "e"
      ],
      [
        "en",
        "te"
      ],
      [
        "c",
        "o"
      ],
      [
        "ou",
        "t"
      ],
      [
        "w",
        "as"
      ],
      [
        "w",
        "ith"
      ],
      [
        "r",
        "o"
      ],
      [
        "d",
        "es"
      ],
      [
        "an",
        "t"
      ],
      [
        "d",
        "er"
      ],
      [
        "l",
        "a"
      ],
      [
        "f",
        "e"
      ],
      [
        "m",
        "as"
      ],
      [
        "g",
        "u"
      ],
      [
        "on",
        "e"
      ],
      [
        "i",
        "on"
      ],
      [
        "h",
        "t"
      ],
      [
        "a",
        "g"
      ],
      [
        "e",
        "x"
      ],
      [
        "f",
        "r"
      ],
      [
        "l",
        "y"
      ],
      [
        "om",
        "e"
      ],
      [
        "no",
        "w"
      ],
      [
        "m",
        "y"
      ],
      [
        "d",
        "os"
      ],
      [
        "ou",
        "ld"
      ],
      [
        "you",
        "r"
      ],
      [
        "f",
        "a"
      ],
      [
        "es",
        "s"
      ],
      [
        "th",
        "is"
      ],
      [
        "ha",
        "ve"
      ],
      [
        "b",
        "ut"
      ],
      [
        "p",
        "a"
      ],
      [
        "i",
        "f"
      ],
      [
        "te",
        "m"
      ],
      [
        "pr",
        "o"
      ],
      [
        "s",
        "er"
      ],
      [
        "il",
        "l"
      ],
      [
        "e",
        "le"
      ],
      [
        "m",
        "an"
      ],
      [
        "ç",
        "ão"
      ],
      [
        "c",
        "ar"
      ],
      [
        "m",
        "o"
      ],
      [
        "p",
        "re"
      ],
      [
        "i",
        "d"
      ],
      [
        "h",
        "is"
      ],
      [
        "ig",
        "ht"
      ],
      [
        "h",
        "er"
      ],
      [
        "th",
        "er"
      ],
      [
        "b",
        "o"
      ],
      [
        "m",
        "in"
      ],
      [
        "c",
        "an"
      ],
      [
        "p",
        "os"
      ],
      [
        "p",
        "en"
      ],
      [
        "l",
        "l"
      ],
      [
        "ou",
        "r"
      ],
      [
        "as",
        "s"
      ],
      [
        "p",
        "l"
      ],
      [
        "ar",
        "e"
      ],
      [
        "com",
        "o"
      ],
      [
        "n",
        "d"
      ],
      [
        "m",
        "or"
      ],
      [
        "est",
        "a"
      ],
      [
        "us",
        "t"
      ],
      [
        "th",
        "ing"
      ],
      [
        "i",
        "to"
      ],
      [
        "k",
        "now"
      ],
      [
        "n",
        "os"
      ],
      [
        "b",
        "r"
      ],
      [
        "d",
        "is"
      ],
      [
        "m",
        "u"
      ],
      [
        "u",
        "p"
      ],
      [
        "s",
        "ome"
      ],
      [
        "g",
        "r"
      ],
      [
        "a",
        "y"
      ],
      [
        "m",
        "os"
      ],
      [
        "ma",
        "is"
      ],
      [
        "u",
        "se"
      ],
      [
        "no",
        "t"
      ],
      [
        "am",
        "os"
      ],
      [
        "the",
        "y"
      ],
      [
        "a",
        "do"
      ],
      [
        "v",
        "en"
      ],
      [
        "c",
        "or"
      ],
      [
        "z",
        "er"
      ],
      [
        "c",
        "er"
      ],
      [
        "s",
        "i"
      ],
      [
        "da",
        "de"
      ],
      [
        "el",
        "a"
      ],
      [
        "c",
        "as"
      ],
      [
        "su",
        "a"
      ],
      [
        "m",
        "ar"
      ],
      [
        "tr",
        "a"
      ],
      [
        "g",
        "ar"
      ],
      [
        "qu",
        "er"
      ],
      [
        "se",
        "u"
      ],
      [
        "f",
        "ic"
      ],
      [
        "t",
        "en"
      ],
      [
        "f",
        "o"
      ],
      [
        "b",
        "er"
      ],
      [
        "w",
        "or"
      ],
      [
        "p",
        "le"
      ],
      [
        "fr",
        "om"
      ],
      [
        "h",
        "or"
      ],
      [
        "ge",
        "t"
      ],
      [
        "w",
        "ho"
      ],
      [
        "l",
        "u"
      ],
      [
        "at",
        "e"
      ],
      [
        "te",
        "d"
      ],
      [
        "k",
        "ing"
      ],
      [
        "en",
        "to"
      ],
      [
        "r",
        "es"
      ],
      [
        "ver",
        "y"
      ],
      [
        "li",
        "ke"
      ],
      [
        "ç",
        "a"
      ],
      [
        "ou",
        "g"
      ],
      [
        "b",
        "re"
      ],
      [
        "j",
        "ust"
      ],
      [
        "est",
        "á"
      ],
      [
        "ac",
        "k"
      ],
      [
        "qu",
        "i"
      ],
      [
        "d",
        "as"
      ],
      [
        "h",
        "as"
      ],
      [
        "v",
        "o"
      ],
      [
        "w",
        "ay"
      ],
      [
        "w",
        "n"
      ],
      [
        "wh",
        "en"
      ],
      [
        "j",
        "o"
      ],
      [
        "th",
        "ere"
      ],
      [
        "ic",
        "a"
      ],
      [
        "b",
        "y"
      ],
      [
        "s",
        "h"
      ],
      [
        "w",
        "ill"
      ],
      [
        "t",
        "u"
      ],
      [
        "qu",
        "ando"
      ],
      [
        "t",
        "ar"
      ],
      [
        "wh",
        "at"
      ],
      [
        "p",
        "es"
      ],
      [
        "c",
        "ol"
      ],
      [
        "t",
        "or"
      ],
      [
        "ab",
        "out"
      ],
      [
        "w",
        "ould"
      ],
      [
        "i",
        "z"
      ],
      [
        "ca",
        "use"
      ],
      [
        "in",
        "d"
      ],
      [
        "ve",
        "l"
      ],
      [
        "c",
        "r"
      ],
      [
        "h",
        "im"
      ],
      [
        "ha",
        "d"
      ],
      [
        "é",
        "m"
      ],
      [
        "s",
        "he"
      ],
      [
        "h",
        "ere"
      ],
      [
        "T",
        "he"
      ],
      [
        "i",
        "x"
      ],
      [
        "d",
        "on"
      ],
      [
        "o",
        "k"
      ],
      [
        "el",
        "l"
      ],
      [
        "c",
        "he"
      ],
      [
        "com",
        "e"
      ],
      [
        "h",
        "ar"
      ],
      [
        "an",
        "y"
      ],
      [
        "en",
        "d"
      ],
      [
        "is",
        "so"
      ],
      [
        "tr",
        "o"
      ],
      [
        "at",
        "ion"
      ],
      [
        "a",
        "o"
      ],
      [
        "es",
        "se"
      ],
      [
        "or",
        "a"
      ],
      [
        "e",
        "ar"
      ],
      [
        "e",
        "t"
      ],
      [
        "t",
        "al"
      ],
      [
        "t",
        "in"
      ],
      [
        "da",
        "y"
      ],
      [
        "po",
        "de"
      ],
      [
        "ve",
        "z"
      ],
      [
        "f",
        "er"
      ],
      [
        "c",
        "ia"
      ],
      [
        "i",
        "o"
      ],
      [
        "to",
        "s"
      ],
      [
        "all",
        "y"
      ],
      [
        "b",
        "le"
      ],
      [
        "as",
        "t"
      ],
      [
        "m",
        "es"
      ],
      [
        "is",
        "t"
      ],
      [
        "õ",
        "es"
      ],
      [
        "am",
        "e"
      ],
      [
        "o",
        "d"
      ],
      [
        "ir",
        "o"
      ],
      [
        "an",
        "te"
      ],
      [
        "ho",
        "w"
      ],
      [
        "c",
        "l"
      ],
      [
        "ou",
        "nd"
      ],
      [
        "w",
        "ere"
      ],
      [
        "ti",
        "me"
      ],
      [
        "ac",
        "e"
      ],
      [
        "fo",
        "i"
      ],
      [
        "se",
        "m"
      ],
      [
        "in",
        "k"
      ],
      [
        "s",
        "on"
      ],
      [
        "mu",
        "ito"
      ],
      [
        "ó",
        "s"
      ],
      [
        "ir",
        "a"
      ],
      [
        "c",
        "re"
      ],
      [
        "pr",
        "es"
      ],
      [
        "m",
        "ente"
      ],
      [
        "v",
        "ol"
      ],
      [
        "en",
        "do"
      ],
      [
        "a",
        "in"
      ],
      [
        "A",
        "nd"
      ],
      [
        "a",
        "p"
      ],
      [
        "i",
        "ve"
      ],
      [
        "er",
        "a"
      ],
      [
        "on",
        "g"
      ],
      [
        "por",
        "que"
      ],
      [
        "d",
        "ar"
      ],
      [
        "0",
        "0"
      ],
      [
        "co",
        "is"
      ],
      [
        "in",
        "to"
      ],
      [
        "j",
        "e"
      ],
      [
        "t",
        "im"
      ],
      [
        "c",
        "ould"
      ],
      [
        "the",
        "m"
      ],
      [
        "be",
        "cause"
      ],
      [
        "so",
        "bre"
      ],
      [
        "pes",
        "so"
      ],
      [
        "al",
        "g"
      ],
      [
        "t",
        "s"
      ],
      [
        "me",
        "u"
      ],
      [
        "m",
        "en"
      ],
      [
        "be",
        "en"
      ],
      [
        "d",
        "u"
      ],
      [
        "a",
        "f"
      ],
      [
        "min",
        "ha"
      ],
      [
        "oug",
        "h"
      ],
      [
        "it",
        "y"
      ],
      [
        "h",
        "os"
      ],
      [
        "i",
        "te"
      ],
      [
        "an",
        "s"
      ],
      [
        "o",
        "ther"
      ],
      [
        "an",
        "to"
      ],
      [
        "the",
        "ir"
      ],
      [
        "p",
        "el"
      ],
      [
        "Y",
        "ou"
      ],
      [
        "t",
        "ur"
      ],
      [
        "a",
        "qui"
      ],
      [
        "an",
        "os"
      ],
      [
        "ou",
        "s"
      ],
      [
        "b",
        "l"
      ],
      [
        "e",
        "very"
      ],
      [
        "in",
        "e"
      ],
      [
        "ic",
        "h"
      ],
      [
        "el",
        "es"
      ],
      [
        "j",
        "a"
      ],
      [
        "re",
        "d"
      ],
      [
        "go",
        "t"
      ],
      [
        "th",
        "ink"
      ],
      [
        "fa",
        "zer"
      ],
      [
        "f",
        "il"
      ],
      [
        "th",
        "en"
      ],
      [
        "se",
        "l"
      ],
      [
        "E",
        "u"
      ],
      [
        "m",
        "on"
      ],
      [
        "es",
        "te"
      ],
      [
        "o",
        "ple"
      ],
      [
        "par",
        "t"
      ],
      [
        "os",
        "e"
      ],
      [
        "t",
        "ing"
      ],
      [
        "S",
        "e"
      ],
      [
        "esta",
        "va"
      ],
      [
        "se",
        "e"
      ],
      [
        "h",
        "om"
      ],
      [
        "d",
        "ia"
      ],
      [
        "pe",
        "ople"
      ],
      [
        "b",
        "ack"
      ],
      [
        "s",
        "tr"
      ],
      [
        "t",
        "ão"
      ],
      [
        "d",
        "r"
      ],
      [
        "f",
        "al"
      ],
      [
        "w",
        "ant"
      ],
      [
        "v",
        "is"
      ],
      [
        "am",
        "ente"
      ],
      [
        "f",
        "i"
      ],
      [
        "di",
        "d"
      ],
      [
        "ri",
        "o"
      ],
      [
        "sa",
        "y"
      ],
      [
        "le",
        "d"
      ],
      [
        "c",
        "is"
      ],
      [
        "ê",
        "n"
      ],
      [
        "pr",
        "i"
      ],
      [
        "m",
        "il"
      ],
      [
        "ic",
        "o"
      ],
      [
        "en",
        "s"
      ],
      [
        "at",
        "é"
      ],
      [
        "l",
        "es"
      ],
      [
        "d",
        "y"
      ],
      [
        "ent",
        "ão"
      ],
      [
        "a",
        "ção"
      ],
      [
        "ar",
        "d"
      ],
      [
        "l",
        "it"
      ],
      [
        "t",
        "le"
      ],
      [
        "ic",
        "e"
      ],
      [
        "s",
        "ão"
      ],
      [
        "re",
        "al"
      ],
      [
        "vi",
        "da"
      ],
      [
        "m",
        "ent"
      ],
      [
        "m",
        "at"
      ],
      [
        "p",
        "ed"
      ],
      [
        "ne",
        "w"
      ],
      [
        "c",
        "am"
      ],
      [
        "y",
        "ear"
      ],
      [
        "g",
        "a"
      ],
      [
        "con",
        "tr"
      ],
      [
        "por",
        "t"
      ],
      [
        "ac",
        "h"
      ],
      [
        "mor",
        "e"
      ],
      [
        "va",
        "i"
      ],
      [
        "po",
        "der"
      ],
      [
        "er",
        "s"
      ],
      [
        "o",
        "ver"
      ],
      [
        "c",
        "ri"
      ],
      [
        "i",
        "do"
      ],
      [
        "ou",
        "n"
      ],
      [
        "\"",
        "."
      ],
      [
        "po",
        "is"
      ],
      [
        "ant",
        "es"
      ],
      [
        "c",
        "u"
      ],
      [
        "i",
        "dade"
      ],
      [
        "b",
        "ar"
      ],
      [
        "w",
        "o"
      ],
      [
        "n",
        "ing"
      ],
      [
        "in",
        "s"
      ],
      [
        "v",
        "ing"
      ],
      [
        "to",
        "dos"
      ],
      [
        "d",
        "en"
      ],
      [
        "c",
        "k"
      ],
      [
        "j",
        "u"
      ],
      [
        "p",
        "u"
      ],
      [
        "g",
        "re"
      ],
      [
        "te",
        "ll"
      ],
      [
        "se",
        "us"
      ],
      [
        "be",
        "m"
      ],
      [
        "s",
        "ó"
      ],
      [
        "an",
        "g"
      ],
      [
        "c",
        "t"
      ],
      [
        "par",
        "e"
      ],
      [
        "wh",
        "ere"
      ],
      [
        "v",
        "es"
      ],
      [
        "wh",
        "ich"
      ],
      [
        "m",
        "un"
      ],
      [
        "ic",
        "k"
      ],
      [
        "an",
        "ce"
      ],
      [
        "th",
        "an"
      ],
      [
        "ti",
        "on"
      ],
      [
        "a",
        "da"
      ],
      [
        "ad",
        "os"
      ],
      [
        "r",
        "ight"
      ],
      [
        "on",
        "ly"
      ],
      [
        "Q",
        "u"
      ],
      [
        "es",
        "e"
      ],
      [
        "f",
        "in"
      ],
      [
        "se",
        "gu"
      ],
      [
        "for",
        "e"
      ],
      [
        "ig",
        "o"
      ],
      [
        "de",
        "d"
      ],
      [
        "go",
        "ing"
      ],
      [
        "N",
        "o"
      ],
      [
        "in",
        "ter"
      ],
      [
        "to",
        "n"
      ],
      [
        "n",
        "ós"
      ],
      [
        "tu",
        "do"
      ],
      [
        "f",
        "ir"
      ],
      [
        "in",
        "do"
      ],
      [
        "b",
        "a"
      ],
      [
        "b",
        "u"
      ],
      [
        "s",
        "ent"
      ],
      [
        "pr",
        "a"
      ],
      [
        "tr",
        "y"
      ],
      [
        "qu",
        "al"
      ],
      [
        "se",
        "i"
      ],
      [
        "i",
        "e"
      ],
      [
        "m",
        "is"
      ],
      [
        "ç",
        "o"
      ],
      [
        "g",
        "on"
      ],
      [
        "ha",
        "p"
      ],
      [
        "ma",
        "ke"
      ],
      [
        "me",
        "l"
      ],
      [
        "lo",
        "w"
      ],
      [
        "di",
        "zer"
      ],
      [
        "ta",
        "ke"
      ],
      [
        "e",
        "p"
      ],
      [
        "h",
        "um"
      ],
      [
        "fa",
        "z"
      ],
      [
        "ig",
        "n"
      ],
      [
        "g",
        "ra"
      ],
      [
        "am",
        "ento"
      ],
      [
        "t",
        "ent"
      ],
      [
        "p",
        "as"
      ],
      [
        "u",
        "g"
      ],
      [
        "li",
        "fe"
      ],
      [
        "v",
        "al"
      ],
      [
        "pesso",
        "as"
      ],
      [
        "f",
        "am"
      ],
      [
        "do",
        "wn"
      ],
      [
        "de",
        "ix"
      ],
      [
        "ma",
        "y"
      ],
      [
        "pl",
        "an"
      ],
      [
        "s",
        "en"
      ],
      [
        "in",
        "a"
      ],
      [
        "t",
        "y"
      ],
      [
        "i",
        "p"
      ],
      [
        "c",
        "al"
      ],
      [
        "m",
        "er"
      ],
      [
        "b",
        "ro"
      ],
      [
        "it",
        "a"
      ],
      [
        "ç",
        "ões"
      ],
      [
        "M",
        "as"
      ],
      [
        "lit",
        "tle"
      ],
      [
        "B",
        "ut"
      ],
      [
        "c",
        "ul"
      ],
      [
        "i",
        "es"
      ],
      [
        "h",
        "á"
      ],
      [
        "ab",
        "al"
      ],
      [
        "est",
        "ar"
      ],
      [
        "I",
        "t"
      ],
      [
        "g",
        "un"
      ],
      [
        "e",
        "ven"
      ],
      [
        "tem",
        "po"
      ],
      [
        "po",
        "l"
      ],
      [
        "t",
        "re"
      ],
      [
        "s",
        "ou"
      ],
      [
        "ag",
        "ora"
      ],
      [
        "tr",
        "abal"
      ],
      [
        "v",
        "ia"
      ],
      [
        "i",
        "or"
      ],
      [
        "of",
        "f"
      ],
      [
        "c",
        "ur"
      ],
      [
        "W",
        "h"
      ],
      [
        "ar",
        "t"
      ],
      [
        "le",
        "t"
      ],
      [
        "as",
        "e"
      ],
      [
        "i",
        "da"
      ],
      [
        "am",
        "b"
      ],
      [
        "cas",
        "a"
      ],
      [
        "ac",
        "t"
      ],
      [
        "on",
        "de"
      ],
      [
        "I",
        "f"
      ],
      [
        "y",
        "s"
      ],
      [
        "sel",
        "f"
      ],
      [
        "u",
        "re"
      ],
      [
        "r",
        "ia"
      ],
      [
        "mes",
        "mo"
      ],
      [
        "gon",
        "na"
      ],
      [
        "ên",
        "cia"
      ],
      [
        "s",
        "im"
      ],
      [
        "es",
        "sa"
      ],
      [
        "qu",
        "anto"
      ],
      [
        "pre",
        "cis"
      ],
      [
        "o",
        "b"
      ],
      [
        "a",
        "que"
      ],
      [
        "N",
        "ão"
      ],
      [
        "oug",
        "ht"
      ],
      [
        "r",
        "y"
      ],
      [
        "cois",
        "a"
      ],
      [
        "li",
        "e"
      ],
      [
        "dis",
        "se"
      ],
      [
        "c",
        "ho"
      ],
      [
        "p",
        "h"
      ],
      [
        "an",
        "o"
      ],
      [
        "t",
        "as"
      ],
      [
        "bo",
        "dy"
      ],
      [
        "v",
        "ar"
      ],
      [
        "m",
        "ã"
      ],
      [
        "i",
        "le"
      ],
      [
        "af",
        "ter"
      ],
      [
        "h",
        "ou"
      ],
      [
        "i",
        "al"
      ],
      [
        "m",
        "al"
      ],
      [
        "sa",
        "be"
      ],
      [
        "p",
        "on"
      ],
      [
        "year",
        "s"
      ],
      [
        "pel",
        "o"
      ],
      [
        "f",
        "ul"
      ],
      [
        "t",
        "wo"
      ],
      [
        "g",
        "er"
      ],
      [
        "p",
        "ass"
      ],
      [
        "v",
        "ou"
      ],
      [
        "m",
        "ul"
      ],
      [
        "be",
        "fore"
      ],
      [
        "V",
        "ocê"
      ],
      [
        "wor",
        "k"
      ],
      [
        "th",
        "ese"
      ],
      [
        "g",
        "en"
      ],
      [
        "W",
        "ell"
      ],
      [
        "some",
        "thing"
      ],
      [
        "at",
        "er"
      ],
      [
        "be",
        "t"
      ],
      [
        "i",
        "de"
      ],
      [
        "s",
        "al"
      ],
      [
        "wor",
        "ld"
      ],
      [
        "s",
        "ta"
      ],
      [
        "W",
        "e"
      ],
      [
        "de",
        "pois"
      ],
      [
        "est",
        "ão"
      ],
      [
        "s",
        "p"
      ],
      [
        "ar",
        "am"
      ],
      [
        "f",
        "ri"
      ],
      [
        "un",
        "i"
      ],
      [
        "fir",
        "st"
      ],
      [
        "l",
        "ong"
      ],
      [
        "re",
        "e"
      ],
      [
        "is",
        "h"
      ],
      [
        "hom",
        "em"
      ],
      [
        "mun",
        "do"
      ],
      [
        "no",
        "ite"
      ],
      [
        "lo",
        "ok"
      ],
      [
        "v",
        "ir"
      ],
      [
        "f",
        "ind"
      ],
      [
        "ve",
        "d"
      ],
      [
        "g",
        "an"
      ],
      [
        "al",
        "go"
      ],
      [
        "pen",
        "s"
      ],
      [
        "ag",
        "ain"
      ],
      [
        "em",
        "os"
      ],
      [
        "m",
        "om"
      ],
      [
        "n",
        "ight"
      ],
      [
        "go",
        "od"
      ],
      [
        "d",
        "in"
      ],
      [
        "un",
        "der"
      ],
      [
        "di",
        "re"
      ],
      [
        "l",
        "os"
      ],
      [
        "g",
        "os"
      ],
      [
        "mel",
        "hor"
      ],
      [
        "n",
        "as"
      ],
      [
        "l",
        "á"
      ],
      [
        "d",
        "or"
      ],
      [
        "di",
        "z"
      ],
      [
        "tr",
        "u"
      ],
      [
        "su",
        "as"
      ],
      [
        "so",
        "l"
      ],
      [
        "p",
        "ut"
      ],
      [
        "tin",
        "ha"
      ],
      [
        "a",
        "v"
      ],
      [
        "he",
        "l"
      ],
      [
        "E",
        "n"
      ],
      [
        "it",
        "ar"
      ],
      [
        "it",
        "s"
      ],
      [
        "á",
        "s"
      ],
      [
        "an",
        "ça"
      ],
      [
        "es",
        "per"
      ],
      [
        "th",
        "r"
      ],
      [
        "ent",
        "re"
      ],
      [
        "w",
        "ell"
      ],
      [
        "gu",
        "ém"
      ],
      [
        "ad",
        "or"
      ],
      [
        "s",
        "to"
      ],
      [
        "pri",
        "me"
      ],
      [
        "c",
        "os"
      ],
      [
        "s",
        "ur"
      ],
      [
        "m",
        "im"
      ],
      [
        "ne",
        "ver"
      ],
      [
        "an",
        "de"
      ],
      [
        "at",
        "ed"
      ],
      [
        "f",
        "un"
      ],
      [
        "b",
        "ra"
      ],
      [
        "on",
        "te"
      ],
      [
        "est",
        "ou"
      ],
      [
        "p",
        "ela"
      ],
      [
        "en",
        "ce"
      ],
      [
        "pr",
        "ó"
      ],
      [
        "ol",
        "d"
      ],
      [
        "fic",
        "ar"
      ],
      [
        "r",
        "u"
      ],
      [
        "ent",
        "es"
      ],
      [
        "p",
        "la"
      ],
      [
        "mos",
        "t"
      ],
      [
        "c",
        "oun"
      ],
      [
        "al",
        "guém"
      ],
      [
        "re",
        "ally"
      ],
      [
        "n",
        "or"
      ],
      [
        "ca",
        "p"
      ],
      [
        "me",
        "m"
      ],
      [
        "d",
        "ing"
      ],
      [
        "un",
        "ca"
      ],
      [
        "p",
        "al"
      ],
      [
        "l",
        "ig"
      ],
      [
        "to",
        "do"
      ],
      [
        "z",
        "a"
      ],
      [
        "cois",
        "as"
      ],
      [
        "k",
        "s"
      ],
      [
        "fri",
        "end"
      ],
      [
        "ab",
        "le"
      ],
      [
        "alg",
        "um"
      ],
      [
        "e",
        "ver"
      ],
      [
        "g",
        "i"
      ],
      [
        "ch",
        "am"
      ],
      [
        "sh",
        "ould"
      ],
      [
        "d",
        "s"
      ],
      [
        "th",
        "ose"
      ],
      [
        "d",
        "ur"
      ],
      [
        "ç",
        "as"
      ],
      [
        "a",
        "is"
      ],
      [
        "ci",
        "al"
      ],
      [
        "in",
        "ha"
      ],
      [
        "thr",
        "ough"
      ],
      [
        "con",
        "he"
      ],
      [
        "na",
        "da"
      ],
      [
        "l",
        "and"
      ],
      [
        "j",
        "á"
      ],
      [
        "sa",
        "id"
      ],
      [
        "H",
        "e"
      ],
      [
        "você",
        "s"
      ],
      [
        "l",
        "he"
      ],
      [
        "ne",
        "ed"
      ],
      [
        "p",
        "ou"
      ],
      [
        "r",
        "os"
      ],
      [
        "de",
        "ve"
      ],
      [
        "f",
        "ar"
      ],
      [
        "en",
        "contr"
      ],
      [
        "i",
        "u"
      ],
      [
        "n",
        "unca"
      ],
      [
        "di",
        "o"
      ],
      [
        "lu",
        "gar"
      ],
      [
        "s",
        "te"
      ],
      [
        "ten",
        "ho"
      ],
      [
        "ro",
        "w"
      ],
      [
        "i",
        "am"
      ],
      [
        "T",
        "h"
      ],
      [
        "c",
        "es"
      ],
      [
        "mul",
        "her"
      ],
      [
        "ass",
        "im"
      ],
      [
        "di",
        "f"
      ],
      [
        "s",
        "in"
      ],
      [
        "gr",
        "ande"
      ],
      [
        "S",
        "o"
      ],
      [
        "st",
        "ar"
      ],
      [
        "ain",
        "da"
      ],
      [
        "un",
        "s"
      ],
      [
        "be",
        "ing"
      ],
      [
        "b",
        "an"
      ],
      [
        "mu",
        "ch"
      ],
      [
        "gu",
        "e"
      ],
      [
        "did",
        "n"
      ],
      [
        "f",
        "l"
      ],
      [
        "tur",
        "n"
      ],
      [
        "s",
        "pe"
      ],
      [
        "it",
        "u"
      ],
      [
        "pa",
        "i"
      ],
      [
        "w",
        "a"
      ],
      [
        "i",
        "re"
      ],
      [
        "ar",
        "ound"
      ],
      [
        "pr",
        "oc"
      ],
      [
        "for",
        "ma"
      ],
      [
        "si",
        "de"
      ],
      [
        "tr",
        "i"
      ],
      [
        "l",
        "ast"
      ],
      [
        "c",
        "ent"
      ],
      [
        "r",
        "is"
      ],
      [
        "m",
        "r"
      ],
      [
        "c",
        "le"
      ],
      [
        "pro",
        "ble"
      ],
      [
        "p",
        "s"
      ],
      [
        "ta",
        "in"
      ],
      [
        "í",
        "vel"
      ],
      [
        "pen",
        "as"
      ],
      [
        "w",
        "an"
      ],
      [
        "b",
        "om"
      ],
      [
        "o",
        "wn"
      ],
      [
        "l",
        "ar"
      ],
      [
        "con",
        "segu"
      ],
      [
        "f",
        "el"
      ],
      [
        "t",
        "es"
      ],
      [
        "ver",
        "dade"
      ],
      [
        "ac",
        "onte"
      ],
      [
        "ê",
        "s"
      ],
      [
        "thing",
        "s"
      ],
      [
        "g",
        "ive"
      ],
      [
        "sem",
        "pre"
      ],
      [
        "amb",
        "ém"
      ],
      [
        "v",
        "amos"
      ],
      [
        "w",
        "er"
      ],
      [
        "w",
        "ar"
      ],
      [
        "s",
        "or"
      ],
      [
        "st",
        "and"
      ],
      [
        "ma",
        "de"
      ],
      [
        "b",
        "us"
      ],
      [
        "he",
        "iro"
      ],
      [
        "su",
        "b"
      ],
      [
        "n",
        "um"
      ],
      [
        "qual",
        "quer"
      ],
      [
        "ou",
        "tr"
      ],
      [
        "s",
        "how"
      ],
      [
        "que",
        "m"
      ],
      [
        "fe",
        "el"
      ],
      [
        "p",
        "ul"
      ],
      [
        "w",
        "om"
      ],
      [
        "de",
        "le"
      ],
      [
        "ch",
        "ar"
      ],
      [
        "m",
        "it"
      ],
      [
        "me",
        "d"
      ],
      [
        "n",
        "er"
      ],
      [
        "a",
        "k"
      ],
      [
        "g",
        "ir"
      ],
      [
        "j",
        "un"
      ],
      [
        "ent",
        "s"
      ],
      [
        "I",
        "n"
      ],
      [
        "im",
        "ento"
      ],
      [
        "t",
        "il"
      ],
      [
        "im",
        "a"
      ],
      [
        "do",
        "es"
      ],
      [
        "en",
        "tr"
      ],
      [
        "im",
        "port"
      ],
      [
        "l",
        "oc"
      ],
      [
        "in",
        "ho"
      ],
      [
        "ad",
        "as"
      ],
      [
        "lo",
        "ve"
      ],
      [
        "ic",
        "al"
      ],
      [
        "A",
        "s"
      ],
      [
        "h",
        "and"
      ],
      [
        "m",
        "ight"
      ],
      [
        "f",
        "u"
      ],
      [
        "at",
        "r"
      ],
      [
        "Qu",
        "ando"
      ],
      [
        "a",
        "penas"
      ],
      [
        "á",
        "rio"
      ],
      [
        "-",
        "-"
      ],
      [
        "k",
        "ed"
      ],
      [
        "v",
        "esse"
      ],
      [
        "v",
        "or"
      ],
      [
        "t",
        "ambém"
      ],
      [
        "â",
        "n"
      ],
      [
        "ac",
        "ho"
      ],
      [
        "b",
        "ur"
      ],
      [
        "s",
        "r"
      ],
      [
        "at",
        "i"
      ],
      [
        "am",
        "a"
      ],
      [
        "th",
        "ought"
      ],
      [
        "le",
        "f"
      ],
      [
        "for",
        "m"
      ],
      [
        "pl",
        "ace"
      ],
      [
        "a",
        "ju"
      ],
      [
        "ig",
        "h"
      ],
      [
        "gre",
        "at"
      ],
      [
        "nos",
        "so"
      ],
      [
        "p",
        "an"
      ],
      [
        "s",
        "ho"
      ],
      [
        "ou",
        "tro"
      ],
      [
        "v",
        "il"
      ],
      [
        "re",
        "ad"
      ],
      [
        "v",
        "os"
      ],
      [
        "v",
        "am"
      ],
      [
        "ú",
        "n"
      ],
      [
        "w",
        "on"
      ],
      [
        "be",
        "lie"
      ],
      [
        "il",
        "y"
      ],
      [
        "in",
        "o"
      ],
      [
        "do",
        "is"
      ],
      [
        "way",
        "s"
      ],
      [
        "st",
        "ill"
      ],
      [
        "con",
        "tra"
      ],
      [
        "B",
        "em"
      ],
      [
        "am",
        "er"
      ],
      [
        "h",
        "ome"
      ],
      [
        "p",
        "t"
      ],
      [
        "con",
        "tin"
      ],
      [
        "per",
        "son"
      ],
      [
        "is",
        "e"
      ],
      [
        "hou",
        "se"
      ],
      [
        ".",
        "\"."
      ],
      [
        "me",
        "an"
      ],
      [
        "gir",
        "l"
      ],
      [
        "b",
        "i"
      ],
      [
        "E",
        "le"
      ],
      [
        "le",
        "g"
      ],
      [
        "ti",
        "ve"
      ],
      [
        "c",
        "ame"
      ],
      [
        "c",
        "tion"
      ],
      [
        "he",
        "ad"
      ],
      [
        "to",
        "da"
      ],
      [
        "poder",
        "ia"
      ],
      [
        "tr",
        "ans"
      ],
      [
        "quer",
        "o"
      ],
      [
        "a",
        "th"
      ],
      [
        "l",
        "ess"
      ],
      [
        "b",
        "ig"
      ],
      [
        "im",
        "ag"
      ],
      [
        "su",
        "re"
      ],
      [
        "b",
        "at"
      ],
      [
        "s",
        "an"
      ],
      [
        "ca",
        "da"
      ],
      [
        "D",
        "e"
      ],
      [
        "No",
        "w"
      ],
      [
        "b",
        "or"
      ],
      [
        "s",
        "ign"
      ],
      [
        "P",
        "or"
      ],
      [
        "l",
        "as"
      ],
      [
        "qu",
        "is"
      ],
      [
        "sen",
        "hor"
      ],
      [
        "En",
        "tão"
      ],
      [
        "to",
        "o"
      ],
      [
        "é",
        "s"
      ],
      [
        "st",
        "u"
      ],
      [
        "one",
        "y"
      ],
      [
        "wh",
        "y"
      ],
      [
        "c",
        "all"
      ],
      [
        "a",
        "way"
      ],
      [
        "de",
        "ci"
      ],
      [
        "a",
        "u"
      ],
      [
        "come",
        "ç"
      ],
      [
        "w",
        "al"
      ],
      [
        "n",
        "at"
      ],
      [
        "tal",
        "vez"
      ],
      [
        "l",
        "on"
      ],
      [
        "h",
        "am"
      ],
      [
        "ur",
        "o"
      ],
      [
        "h",
        "on"
      ],
      [
        "in",
        "c"
      ],
      [
        "ke",
        "ep"
      ],
      [
        "m",
        "and"
      ],
      [
        "to",
        "ld"
      ],
      [
        "at",
        "ing"
      ],
      [
        "nos",
        "s"
      ],
      [
        "pr",
        "ess"
      ],
      [
        "ar",
        "r"
      ],
      [
        "re",
        "ce"
      ],
      [
        "í",
        "s"
      ],
      [
        "le",
        "a"
      ],
      [
        "in",
        "t"
      ],
      [
        "it",
        "al"
      ],
      [
        "as",
        "se"
      ],
      [
        "ú",
        "l"
      ],
      [
        "nos",
        "sa"
      ],
      [
        "in",
        "v"
      ],
      [
        "ce",
        "u"
      ],
      [
        "ur",
        "a"
      ],
      [
        "f",
        "ound"
      ],
      [
        "es",
        "col"
      ],
      [
        "ver",
        "s"
      ],
      [
        "col",
        "oc"
      ],
      [
        "k",
        "ind"
      ],
      [
        "Wh",
        "en"
      ],
      [
        "es",
        "tr"
      ],
      [
        "b",
        "ab"
      ],
      [
        "t",
        "ir"
      ],
      [
        "go",
        "ver"
      ],
      [
        "ig",
        "os"
      ],
      [
        "contin",
        "u"
      ],
      [
        "for",
        "a"
      ],
      [
        "ó",
        "ria"
      ],
      [
        "mem",
        "ber"
      ],
      [
        "pr",
        "of"
      ],
      [
        "pou",
        "co"
      ],
      [
        "ch",
        "il"
      ],
      [
        "k",
        "es"
      ],
      [
        "hel",
        "p"
      ],
      [
        "úl",
        "tim"
      ],
      [
        "gar",
        "o"
      ],
      [
        "is",
        "ta"
      ],
      [
        "car",
        "a"
      ],
      [
        "C",
        "om"
      ],
      [
        "er",
        "ra"
      ],
      [
        "r",
        "ou"
      ],
      [
        "sa",
        "ber"
      ],
      [
        "din",
        "heiro"
      ],
      [
        "it",
        "ion"
      ],
      [
        "le",
        "m"
      ],
      [
        "á",
        "vel"
      ],
      [
        "ci",
        "o"
      ],
      [
        "m",
        "ust"
      ],
      [
        "est",
        "i"
      ],
      [
        "o",
        "p"
      ],
      [
        "fa",
        "ther"
      ],
      [
        "qu",
        "en"
      ],
      [
        "to",
        "das"
      ],
      [
        "en",
        "der"
      ],
      [
        "des",
        "co"
      ],
      [
        "u",
        "h"
      ],
      [
        "c",
        "our"
      ],
      [
        "ro",
        "om"
      ],
      [
        "h",
        "ã"
      ],
      [
        "f",
        "os"
      ],
      [
        "mis",
        "s"
      ],
      [
        "pas",
        "sa"
      ],
      [
        "s",
        "ame"
      ],
      [
        "b",
        "il"
      ],
      [
        "u",
        "al"
      ],
      [
        "some",
        "one"
      ],
      [
        "b",
        "al"
      ],
      [
        "ve",
        "m"
      ],
      [
        "wh",
        "ile"
      ],
      [
        "an",
        "a"
      ],
      [
        "al",
        "ways"
      ],
      [
        "c",
        "ess"
      ],
      [
        "d",
        "ir"
      ],
      [
        "g",
        "em"
      ],
      [
        "ig",
        "a"
      ],
      [
        "1",
        "9"
      ],
      [
        "cl",
        "ar"
      ],
      [
        "on",
        "s"
      ],
      [
        "i",
        "os"
      ],
      [
        "we",
        "e"
      ],
      [
        "hap",
        "pen"
      ],
      [
        "mã",
        "e"
      ],
      [
        "lo",
        "t"
      ],
      [
        "c",
        "ut"
      ],
      [
        "ca",
        "be"
      ],
      [
        "ter",
        "r"
      ],
      [
        "trabal",
        "ho"
      ],
      [
        "any",
        "thing"
      ],
      [
        "tem",
        "os"
      ],
      [
        "re",
        "g"
      ],
      [
        "n",
        "em"
      ],
      [
        "en",
        "g"
      ],
      [
        "ma",
        "ior"
      ],
      [
        "k",
        "ill"
      ],
      [
        "l",
        "ia"
      ],
      [
        "m",
        "oney"
      ],
      [
        "w",
        "ent"
      ],
      [
        "es",
        "pe"
      ],
      [
        "f",
        "f"
      ],
      [
        "tim",
        "es"
      ],
      [
        "in",
        "te"
      ],
      [
        "ar",
        "ia"
      ],
      [
        "use",
        "d"
      ],
      [
        "se",
        "ja"
      ],
      [
        "x",
        "t"
      ],
      [
        "f",
        "ac"
      ],
      [
        "pla",
        "y"
      ],
      [
        "E",
        "st"
      ],
      [
        "en",
        "quanto"
      ],
      [
        "w",
        "r"
      ],
      [
        "a",
        "va"
      ],
      [
        "st",
        "or"
      ],
      [
        "ir",
        "os"
      ],
      [
        "pos",
        "s"
      ],
      [
        "pos",
        "so"
      ],
      [
        "ou",
        "tra"
      ],
      [
        "wan",
        "ted"
      ],
      [
        "man",
        "y"
      ],
      [
        "pro",
        "te"
      ],
      [
        "n",
        "y"
      ],
      [
        "de",
        "us"
      ],
      [
        "pr",
        "is"
      ],
      [
        "par",
        "te"
      ],
      [
        "com",
        "ple"
      ],
      [
        "men",
        "os"
      ],
      [
        "c",
        "il"
      ],
      [
        "ic",
        "os"
      ],
      [
        "es",
        "p"
      ],
      [
        "00",
        "0"
      ],
      [
        "fe",
        "z"
      ],
      [
        "of",
        "fic"
      ],
      [
        "su",
        "p"
      ],
      [
        "an",
        "other"
      ],
      [
        "pe",
        "quen"
      ],
      [
        "a",
        "h"
      ],
      [
        "an",
        "ge"
      ],
      [
        "fe",
        "ito"
      ],
      [
        "e",
        "y"
      ],
      [
        "t",
        "an"
      ],
      [
        "por",
        "ta"
      ],
      [
        "b",
        "as"
      ],
      [
        "vez",
        "es"
      ],
      [
        "se",
        "x"
      ],
      [
        "k",
        "id"
      ],
      [
        "to",
        "m"
      ],
      [
        "k",
        "en"
      ],
      [
        "i",
        "as"
      ],
      [
        "th",
        "ree"
      ],
      [
        "his",
        "t"
      ],
      [
        "a",
        "ut"
      ],
      [
        "me",
        "us"
      ],
      [
        "c",
        "ha"
      ],
      [
        "c",
        "ed"
      ],
      [
        "n",
        "ess"
      ],
      [
        "n",
        "am"
      ],
      [
        "t",
        "ou"
      ],
      [
        "i",
        "ção"
      ],
      [
        "de",
        "f"
      ],
      [
        "no",
        "vo"
      ],
      [
        "b",
        "ol"
      ],
      [
        "un",
        "til"
      ],
      [
        "fin",
        "al"
      ],
      [
        "lef",
        "t"
      ],
      [
        "id",
        "ent"
      ],
      [
        "ho",
        "je"
      ],
      [
        "for",
        "am"
      ],
      [
        "c",
        "ou"
      ],
      [
        "str",
        "u"
      ],
      [
        "ter",
        "ra"
      ],
      [
        "ser",
        "ia"
      ],
      [
        "er",
        "al"
      ],
      [
        "amer",
        "ic"
      ],
      [
        "w",
        "i"
      ],
      [
        "de",
        "m"
      ],
      [
        "de",
        "la"
      ],
      [
        "ci",
        "dade"
      ],
      [
        "har",
        "d"
      ],
      [
        "re",
        "l"
      ],
      [
        "is",
        "te"
      ],
      [
        "pa",
        "z"
      ],
      [
        "ch",
        "ance"
      ],
      [
        "v",
        "ic"
      ],
      [
        "gu",
        "y"
      ],
      [
        "ne",
        "xt"
      ],
      [
        "c",
        "y"
      ],
      [
        "l",
        "im"
      ],
      [
        "he",
        "d"
      ],
      [
        "alg",
        "uma"
      ],
      [
        "vol",
        "ta"
      ],
      [
        "g",
        "as"
      ],
      [
        "ti",
        "po"
      ],
      [
        "ê",
        "m"
      ],
      [
        "1",
        "0"
      ],
      [
        "la",
        "do"
      ],
      [
        "b",
        "and"
      ],
      [
        "with",
        "out"
      ],
      [
        "every",
        "thing"
      ],
      [
        "is",
        "to"
      ],
      [
        "c",
        "en"
      ],
      [
        "pr",
        "om"
      ],
      [
        "c",
        "us"
      ],
      [
        "fal",
        "ar"
      ],
      [
        "c",
        "ra"
      ],
      [
        "ne",
        "g"
      ],
      [
        "or",
        "es"
      ],
      [
        "se",
        "t"
      ],
      [
        "ter",
        "s"
      ],
      [
        "de",
        "ver"
      ],
      [
        "í",
        "n"
      ],
      [
        "wom",
        "an"
      ],
      [
        "may",
        "be"
      ],
      [
        "v",
        "as"
      ],
      [
        "at",
        "ch"
      ],
      [
        "de",
        "u"
      ],
      [
        "su",
        "per"
      ],
      [
        "se",
        "man"
      ],
      [
        "se",
        "g"
      ],
      [
        "The",
        "y"
      ],
      [
        "w",
        "ard"
      ],
      [
        "sh",
        "ip"
      ],
      [
        "m",
        "ur"
      ],
      [
        "ser",
        "á"
      ],
      [
        "fam",
        "í"
      ],
      [
        "alg",
        "uns"
      ],
      [
        "mom",
        "ento"
      ],
      [
        "belie",
        "ve"
      ],
      [
        "b",
        "ri"
      ],
      [
        "go",
        "d"
      ],
      [
        "mo",
        "ther"
      ],
      [
        "ar",
        "y"
      ],
      [
        "h",
        "our"
      ],
      [
        "l",
        "in"
      ],
      [
        "m",
        "é"
      ],
      [
        "l",
        "or"
      ],
      [
        "ex",
        "per"
      ],
      [
        "b",
        "it"
      ],
      [
        "d",
        "ro"
      ],
      [
        "oc",
        "k"
      ],
      [
        "bet",
        "ter"
      ],
      [
        "a",
        "os"
      ],
      [
        "ac",
        "ab"
      ],
      [
        "r",
        "un"
      ],
      [
        "fr",
        "an"
      ],
      [
        "try",
        "ing"
      ],
      [
        "li",
        "v"
      ],
      [
        "di",
        "as"
      ],
      [
        "pres",
        "ent"
      ],
      [
        "ca",
        "us"
      ],
      [
        "s",
        "us"
      ],
      [
        "é",
        "r"
      ],
      [
        "real",
        "mente"
      ],
      [
        "u",
        "ém"
      ],
      [
        "a",
        "be"
      ],
      [
        "ter",
        "min"
      ],
      [
        "quer",
        "ia"
      ],
      [
        "s",
        "om"
      ],
      [
        "ex",
        "pl"
      ],
      [
        "en",
        "ough"
      ],
      [
        "h",
        "al"
      ],
      [
        "m",
        "ão"
      ],
      [
        "sin",
        "ce"
      ],
      [
        "fam",
        "ily"
      ],
      [
        "r",
        "om"
      ],
      [
        "pos",
        "si"
      ],
      [
        "sa",
        "b"
      ],
      [
        "no",
        "thing"
      ],
      [
        "outr",
        "os"
      ],
      [
        "s",
        "cho"
      ],
      [
        "A",
        "g"
      ],
      [
        "c",
        "in"
      ],
      [
        "se",
        "cre"
      ],
      [
        "í",
        "amos"
      ],
      [
        "á",
        "ri"
      ],
      [
        "i",
        "ous"
      ],
      [
        "f",
        "ace"
      ],
      [
        "ge",
        "ther"
      ],
      [
        "at",
        "es"
      ],
      [
        "T",
        "his"
      ],
      [
        "d",
        "an"
      ],
      [
        "à",
        "s"
      ],
      [
        "b",
        "lo"
      ],
      [
        "car",
        "e"
      ],
      [
        "g",
        "g"
      ],
      [
        "to",
        "gether"
      ],
      [
        "fe",
        "w"
      ],
      [
        "at",
        "ra"
      ],
      [
        "qu",
        "ar"
      ],
      [
        "er",
        "am"
      ],
      [
        "hom",
        "ens"
      ],
      [
        "we",
        "en"
      ],
      [
        "pesso",
        "a"
      ],
      [
        "o",
        "per"
      ],
      [
        "ac",
        "red"
      ],
      [
        "l",
        "ight"
      ],
      [
        "t",
        "est"
      ],
      [
        "n",
        "en"
      ],
      [
        "de",
        "ath"
      ],
      [
        "con",
        "s"
      ],
      [
        "day",
        "s"
      ],
      [
        "per",
        "gun"
      ],
      [
        "again",
        "st"
      ],
      [
        "con",
        "f"
      ],
      [
        "h",
        "igh"
      ],
      [
        "j",
        "or"
      ],
      [
        "si",
        "der"
      ],
      [
        "tor",
        "n"
      ],
      [
        "fos",
        "se"
      ],
      [
        "Ag",
        "ora"
      ],
      [
        "j",
        "am"
      ],
      [
        "pol",
        "í"
      ],
      [
        "m",
        "s"
      ],
      [
        "does",
        "n"
      ],
      [
        "p",
        "ag"
      ],
      [
        "el",
        "y"
      ],
      [
        "l",
        "ing"
      ],
      [
        "it",
        "as"
      ],
      [
        "as",
        "on"
      ],
      [
        "po",
        "wer"
      ],
      [
        "mor",
        "te"
      ],
      [
        "who",
        "le"
      ],
      [
        "s",
        "k"
      ],
      [
        "2",
        "0"
      ],
      [
        "scho",
        "ol"
      ],
      [
        "T",
        "o"
      ],
      [
        "vol",
        "tar"
      ],
      [
        "you",
        "n"
      ],
      [
        "ass",
        "ass"
      ],
      [
        "ning",
        "uém"
      ],
      [
        "al",
        "so"
      ],
      [
        "E",
        "m"
      ],
      [
        "n",
        "ome"
      ],
      [
        "a",
        "go"
      ],
      [
        "tr",
        "ês"
      ],
      [
        "g",
        "ia"
      ],
      [
        "b",
        "on"
      ],
      [
        "do",
        "ing"
      ],
      [
        "ci",
        "do"
      ],
      [
        "d",
        "ou"
      ],
      [
        "f",
        "ol"
      ],
      [
        "pare",
        "ce"
      ],
      [
        "plan",
        "e"
      ],
      [
        "at",
        "a"
      ],
      [
        "famí",
        "lia"
      ],
      [
        "v",
        "ão"
      ],
      [
        "b",
        "est"
      ],
      [
        "atr",
        "ás"
      ],
      [
        "pro",
        "du"
      ],
      [
        "e",
        "i"
      ],
      [
        "em",
        "p"
      ],
      [
        "est",
        "amos"
      ],
      [
        "encontr",
        "ar"
      ],
      [
        "i",
        "ente"
      ],
      [
        "im",
        "os"
      ],
      [
        "c",
        "tor"
      ],
      [
        "ing",
        "s"
      ],
      [
        "no",
        "va"
      ],
      [
        "hum",
        "an"
      ],
      [
        "fil",
        "ho"
      ],
      [
        "con",
        "d"
      ],
      [
        "cer",
        "to"
      ],
      [
        "n",
        "ed"
      ],
      [
        "to",
        "ok"
      ],
      [
        "qu",
        "est"
      ],
      [
        "o",
        "t"
      ],
      [
        "cas",
        "o"
      ],
      [
        "g",
        "al"
      ],
      [
        "ion",
        "s"
      ],
      [
        "O",
        "s"
      ],
      [
        "v",
        "an"
      ],
      [
        "if",
        "ic"
      ],
      [
        "s",
        "m"
      ],
      [
        "si",
        "do"
      ],
      [
        "gu",
        "a"
      ],
      [
        "ac",
        "ha"
      ],
      [
        "bu",
        "il"
      ],
      [
        "ter",
        "ia"
      ],
      [
        "prime",
        "iro"
      ],
      [
        "p",
        "ic"
      ],
      [
        "bet",
        "ween"
      ],
      [
        "min",
        "u"
      ],
      [
        "e",
        "ach"
      ],
      [
        "T",
        "here"
      ],
      [
        "du",
        "as"
      ],
      [
        "deix",
        "ar"
      ],
      [
        "con",
        "ta"
      ],
      [
        "al",
        "i"
      ],
      [
        "la",
        "w"
      ],
      [
        "p",
        "ing"
      ],
      [
        "cas",
        "e"
      ],
      [
        "con",
        "sider"
      ],
      [
        "g",
        "y"
      ],
      [
        "r",
        "as"
      ],
      [
        "ô",
        "n"
      ],
      [
        "pró",
        "x"
      ],
      [
        "o",
        "king"
      ],
      [
        "l",
        "an"
      ],
      [
        "read",
        "y"
      ],
      [
        "an",
        "im"
      ],
      [
        "s",
        "ing"
      ],
      [
        "or",
        "der"
      ],
      [
        "d",
        "ra"
      ],
      [
        "d",
        "ri"
      ],
      [
        "gr",
        "and"
      ],
      [
        "le",
        "y"
      ],
      [
        "p",
        "i"
      ],
      [
        "sto",
        "p"
      ],
      [
        "cal",
        "led"
      ],
      [
        "are",
        "i"
      ],
      [
        "e",
        "v"
      ],
      [
        "he",
        "ar"
      ],
      [
        "h",
        "un"
      ],
      [
        "pode",
        "m"
      ],
      [
        "di",
        "fer"
      ],
      [
        "ul",
        "ar"
      ],
      [
        "re",
        "member"
      ],
      [
        "at",
        "or"
      ],
      [
        "to",
        "day"
      ],
      [
        "t",
        "anto"
      ],
      [
        "h",
        "n"
      ],
      [
        "res",
        "pe"
      ],
      [
        "ti",
        "vesse"
      ],
      [
        "car",
        "ro"
      ],
      [
        "co",
        "ver"
      ],
      [
        "ó",
        "rio"
      ],
      [
        "is",
        "ten"
      ],
      [
        "on",
        "ce"
      ],
      [
        "youn",
        "g"
      ],
      [
        "prime",
        "ira"
      ],
      [
        "wi",
        "fe"
      ],
      [
        "hist",
        "ória"
      ],
      [
        "e",
        "f"
      ],
      [
        "li",
        "ve"
      ],
      [
        "pró",
        "pr"
      ],
      [
        "l",
        "er"
      ],
      [
        "ess",
        "es"
      ],
      [
        "mon",
        "th"
      ],
      [
        "ug",
        "h"
      ],
      [
        "get",
        "ting"
      ],
      [
        "des",
        "se"
      ],
      [
        "pro",
        "gr"
      ],
      [
        "mur",
        "der"
      ],
      [
        "f",
        "ut"
      ],
      [
        "dif",
        "fer"
      ],
      [
        "hor",
        "a"
      ],
      [
        "tal",
        "k"
      ],
      [
        "ac",
        "or"
      ],
      [
        "tr",
        "ou"
      ],
      [
        "ma",
        "g"
      ],
      [
        "b",
        "en"
      ],
      [
        "v",
        "in"
      ],
      [
        "sa",
        "ir"
      ],
      [
        "man",
        "e"
      ],
      [
        "fa",
        "vor"
      ],
      [
        "ba",
        "ix"
      ],
      [
        "Th",
        "at"
      ],
      [
        "al",
        "e"
      ],
      [
        "ha",
        "via"
      ],
      [
        "r",
        "er"
      ],
      [
        "p",
        "y"
      ],
      [
        "real",
        "iz"
      ],
      [
        "se",
        "d"
      ],
      [
        "n",
        "ame"
      ],
      [
        "faz",
        "endo"
      ],
      [
        "cr",
        "u"
      ],
      [
        "im",
        "in"
      ],
      [
        "che",
        "gar"
      ],
      [
        "me",
        "io"
      ],
      [
        "k",
        "new"
      ],
      [
        "el",
        "se"
      ],
      [
        "sa",
        "w"
      ],
      [
        "pu",
        "bl"
      ],
      [
        "hor",
        "as"
      ],
      [
        "coun",
        "try"
      ],
      [
        "st",
        "re"
      ],
      [
        "be",
        "d"
      ],
      [
        "contr",
        "ol"
      ],
      [
        "bo",
        "y"
      ],
      [
        "ten",
        "ha"
      ],
      [
        "c",
        "ted"
      ],
      [
        "an",
        "ças"
      ],
      [
        "fr",
        "on"
      ],
      [
        "min",
        "d"
      ],
      [
        "p",
        "ac"
      ],
      [
        "am",
        "an"
      ],
      [
        "pr",
        "in"
      ],
      [
        "lo",
        "oking"
      ],
      [
        "c",
        "ity"
      ],
      [
        "ist",
        "as"
      ],
      [
        "noss",
        "os"
      ],
      [
        "ic",
        "as"
      ],
      [
        "ta",
        "do"
      ],
      [
        "ear",
        "th"
      ],
      [
        "l",
        "ad"
      ],
      [
        "r",
        "est"
      ],
      [
        "algum",
        "as"
      ],
      [
        "com",
        "ing"
      ],
      [
        "at",
        "t"
      ],
      [
        "tu",
        "re"
      ],
      [
        "des",
        "de"
      ],
      [
        "a",
        "ge"
      ],
      [
        "wa",
        "it"
      ],
      [
        "le",
        "var"
      ],
      [
        "a",
        "ir"
      ],
      [
        "n",
        "uma"
      ],
      [
        "would",
        "n"
      ],
      [
        "ci",
        "ent"
      ],
      [
        "fr",
        "ente"
      ],
      [
        "li",
        "ber"
      ],
      [
        "U",
        "m"
      ],
      [
        "de",
        "ad"
      ],
      [
        "com",
        "pr"
      ],
      [
        "ha",
        "ving"
      ],
      [
        "w",
        "ater"
      ],
      [
        "oc",
        "a"
      ],
      [
        "te",
        "l"
      ],
      [
        "in",
        "ess"
      ],
      [
        "dur",
        "ante"
      ],
      [
        "c",
        "li"
      ],
      [
        "l",
        "ou"
      ],
      [
        "jo",
        "b"
      ],
      [
        "to",
        "wn"
      ],
      [
        "pa",
        "ís"
      ],
      [
        "gu",
        "erra"
      ],
      [
        "d",
        "am"
      ],
      [
        "ar",
        "a"
      ],
      [
        "su",
        "l"
      ],
      [
        "ci",
        "on"
      ],
      [
        "under",
        "stand"
      ],
      [
        "man",
        "hã"
      ],
      [
        "t",
        "amente"
      ],
      [
        "ho",
        "ld"
      ],
      [
        "ve",
        "is"
      ],
      [
        "aque",
        "le"
      ],
      [
        "in",
        "king"
      ],
      [
        "pens",
        "ar"
      ],
      [
        "b",
        "ad"
      ],
      [
        "pass",
        "ar"
      ],
      [
        "k",
        "il"
      ],
      [
        "5",
        "0"
      ],
      [
        "E",
        "s"
      ],
      [
        "b",
        "un"
      ],
      [
        "h",
        "es"
      ],
      [
        "o",
        "pen"
      ],
      [
        "de",
        "les"
      ],
      [
        "c",
        "é"
      ],
      [
        "su",
        "ch"
      ],
      [
        "m",
        "ir"
      ],
      [
        "c",
        "lu"
      ],
      [
        "s",
        "é"
      ],
      [
        "me",
        "et"
      ],
      [
        "cabe",
        "ça"
      ],
      [
        "w",
        "il"
      ],
      [
        "z",
        "e"
      ],
      [
        "den",
        "tro"
      ],
      [
        "s",
        "it"
      ],
      [
        "pode",
        "mos"
      ],
      [
        "A",
        "l"
      ],
      [
        "ke",
        "t"
      ],
      [
        "t",
        "êm"
      ],
      [
        "di",
        "e"
      ],
      [
        "L",
        "o"
      ],
      [
        "a",
        "pare"
      ],
      [
        "d",
        "one"
      ],
      [
        "friend",
        "s"
      ],
      [
        "cor",
        "po"
      ],
      [
        "des",
        "tru"
      ],
      [
        "mor",
        "ning"
      ],
      [
        "tent",
        "ando"
      ],
      [
        "3",
        "0"
      ],
      [
        "se",
        "gun"
      ],
      [
        "el",
        "as"
      ],
      [
        "hos",
        "p"
      ],
      [
        "f",
        "ig"
      ],
      [
        "e",
        "vi"
      ],
      [
        "f",
        "act"
      ],
      [
        "h",
        "ando"
      ],
      [
        "ún",
        "ica"
      ],
      [
        "le",
        "v"
      ],
      [
        "cle",
        "ar"
      ],
      [
        "B",
        "e"
      ],
      [
        "th",
        "ough"
      ],
      [
        "po",
        "int"
      ],
      [
        "tar",
        "ia"
      ],
      [
        "d",
        "á"
      ],
      [
        "i",
        "an"
      ],
      [
        "per",
        "ce"
      ],
      [
        "li",
        "on"
      ],
      [
        "br",
        "ing"
      ],
      [
        "am",
        "or"
      ],
      [
        "im",
        "o"
      ],
      [
        "jo",
        "hn"
      ],
      [
        "sta",
        "y"
      ],
      [
        "wee",
        "k"
      ],
      [
        "con",
        "t"
      ],
      [
        "as",
        "k"
      ],
      [
        "d",
        "re"
      ],
      [
        "da",
        "d"
      ],
      [
        "tu",
        "ally"
      ],
      [
        "se",
        "em"
      ],
      [
        "t",
        "ica"
      ],
      [
        "he",
        "art"
      ],
      [
        "s",
        "ac"
      ],
      [
        "fel",
        "iz"
      ],
      [
        "res",
        "pon"
      ],
      [
        "f",
        "ree"
      ],
      [
        "ag",
        "em"
      ],
      [
        "pl",
        "es"
      ],
      [
        "ul",
        "t"
      ],
      [
        "com",
        "igo"
      ],
      [
        "uni",
        "ver"
      ],
      [
        "seg",
        "ur"
      ],
      [
        "id",
        "ente"
      ],
      [
        "dis",
        "so"
      ],
      [
        "loc",
        "al"
      ],
      [
        "lea",
        "ve"
      ],
      [
        "ar",
        "ma"
      ],
      [
        "ation",
        "s"
      ],
      [
        "m",
        "á"
      ],
      [
        "te",
        "za"
      ],
      [
        "c",
        "em"
      ],
      [
        "m",
        "us"
      ],
      [
        "g",
        "in"
      ],
      [
        "for",
        "t"
      ],
      [
        "e",
        "qui"
      ],
      [
        "my",
        "self"
      ],
      [
        "s",
        "un"
      ],
      [
        "O",
        "h"
      ],
      [
        "am",
        "igos"
      ],
      [
        "oc",
        "u"
      ],
      [
        "ç",
        "os"
      ],
      [
        "v",
        "í"
      ],
      [
        "r",
        "us"
      ],
      [
        "le",
        "ad"
      ],
      [
        "il",
        "o"
      ],
      [
        "S",
        "he"
      ],
      [
        "en",
        "ça"
      ],
      [
        "vi",
        "ol"
      ],
      [
        "hal",
        "f"
      ],
      [
        "pa",
        "y"
      ],
      [
        "com",
        "es"
      ],
      [
        "ó",
        "r"
      ],
      [
        "pro",
        "va"
      ],
      [
        "desco",
        "br"
      ],
      [
        "blo",
        "od"
      ],
      [
        "Com",
        "o"
      ],
      [
        "e",
        "ah"
      ],
      [
        "al",
        "s"
      ],
      [
        "d",
        "est"
      ],
      [
        "mo",
        "ve"
      ],
      [
        "in",
        "st"
      ],
      [
        "es",
        "pos"
      ],
      [
        "s",
        "ha"
      ],
      [
        "Qu",
        "er"
      ],
      [
        "proc",
        "ur"
      ],
      [
        "com",
        "pan"
      ],
      [
        "publ",
        "ic"
      ],
      [
        "re",
        "ason"
      ],
      [
        "ir",
        "ia"
      ],
      [
        "dr",
        "en"
      ],
      [
        "hosp",
        "ital"
      ],
      [
        "pe",
        "gar"
      ],
      [
        "vi",
        "e"
      ],
      [
        "n",
        "u"
      ],
      [
        "l",
        "ater"
      ],
      [
        "te",
        "ve"
      ],
      [
        "ra",
        "z"
      ],
      [
        "if",
        "ica"
      ],
      [
        "pen",
        "d"
      ],
      [
        "bo",
        "a"
      ],
      [
        "en",
        "er"
      ],
      [
        "r",
        "á"
      ],
      [
        "diz",
        "endo"
      ],
      [
        "cer",
        "teza"
      ],
      [
        "s",
        "at"
      ],
      [
        "g",
        "ou"
      ],
      [
        "di",
        "to"
      ],
      [
        "vi",
        "ver"
      ],
      [
        "M",
        "y"
      ],
      [
        "gu",
        "ar"
      ],
      [
        "de",
        "l"
      ],
      [
        "h",
        "ões"
      ],
      [
        "a",
        "ções"
      ],
      [
        "r",
        "am"
      ],
      [
        "am",
        "igo"
      ],
      [
        "mat",
        "ter"
      ],
      [
        "ap",
        "pe"
      ],
      [
        "bl",
        "ack"
      ],
      [
        "m",
        "ic"
      ],
      [
        "f",
        "our"
      ],
      [
        "com",
        "p"
      ],
      [
        "esta",
        "vam"
      ],
      [
        "happen",
        "ed"
      ],
      [
        "gover",
        "n"
      ],
      [
        "bo",
        "th"
      ],
      [
        "ion",
        "al"
      ],
      [
        "re",
        "la"
      ],
      [
        "di",
        "es"
      ],
      [
        "ess",
        "as"
      ],
      [
        "could",
        "n"
      ],
      [
        "mã",
        "os"
      ],
      [
        "S",
        "abe"
      ],
      [
        "cri",
        "anças"
      ],
      [
        "g",
        "ent"
      ],
      [
        "os",
        "o"
      ],
      [
        "ri",
        "ed"
      ],
      [
        "aju",
        "dar"
      ],
      [
        "chil",
        "dren"
      ],
      [
        "fron",
        "t"
      ],
      [
        "á",
        "gua"
      ],
      [
        "bro",
        "ther"
      ],
      [
        "f",
        "im"
      ],
      [
        "h",
        "us"
      ],
      [
        "s",
        "itu"
      ],
      [
        "E",
        "la"
      ],
      [
        "st",
        "art"
      ],
      [
        "f",
        "ight"
      ],
      [
        "f",
        "iz"
      ],
      [
        "hour",
        "s"
      ],
      [
        "mes",
        "ma"
      ],
      [
        "O",
        "n"
      ],
      [
        "seman",
        "a"
      ],
      [
        "con",
        "stru"
      ],
      [
        "w",
        "in"
      ],
      [
        "es",
        "que"
      ],
      [
        "Wh",
        "at"
      ],
      [
        "h",
        "it"
      ],
      [
        "F",
        "or"
      ],
      [
        "kil",
        "led"
      ],
      [
        "Lo",
        "ok"
      ],
      [
        "vi",
        "do"
      ],
      [
        "b",
        "ora"
      ],
      [
        "poss",
        "ível"
      ],
      [
        "est",
        "u"
      ],
      [
        "s",
        "il"
      ],
      [
        "h",
        "i"
      ],
      [
        "it",
        "or"
      ],
      [
        "dif",
        "í"
      ],
      [
        "l",
        "ine"
      ],
      [
        "ári",
        "os"
      ],
      [
        "pol",
        "ice"
      ],
      [
        "ar",
        "á"
      ],
      [
        "s",
        "of"
      ],
      [
        "re",
        "cor"
      ],
      [
        "w",
        "it"
      ],
      [
        "cer",
        "tain"
      ],
      [
        "ci",
        "as"
      ],
      [
        "\"",
        ","
      ],
      [
        "w",
        "atch"
      ],
      [
        "bo",
        "ok"
      ],
      [
        "c",
        "el"
      ],
      [
        "import",
        "ant"
      ],
      [
        "precis",
        "a"
      ],
      [
        "c",
        "ir"
      ],
      [
        "n",
        "i"
      ],
      [
        "s",
        "endo"
      ],
      [
        "b",
        "os"
      ],
      [
        "fa",
        "to"
      ],
      [
        "espe",
        "cial"
      ],
      [
        "ne",
        "cess"
      ],
      [
        "cour",
        "se"
      ],
      [
        "was",
        "n"
      ],
      [
        "exper",
        "i"
      ],
      [
        "differ",
        "ent"
      ],
      [
        "v",
        "ê"
      ],
      [
        "v",
        "és"
      ],
      [
        "c",
        "um"
      ],
      [
        "n",
        "este"
      ],
      [
        "ma",
        "king"
      ],
      [
        "se",
        "en"
      ],
      [
        "espos",
        "a"
      ],
      [
        "ac",
        "tually"
      ],
      [
        "c",
        "la"
      ],
      [
        "do",
        "m"
      ],
      [
        "say",
        "s"
      ],
      [
        "ci",
        "e"
      ],
      [
        "ar",
        "s"
      ],
      [
        "per",
        "to"
      ],
      [
        ":",
        "."
      ],
      [
        "gu",
        "ys"
      ],
      [
        "a",
        "part"
      ],
      [
        "consegu",
        "ir"
      ],
      [
        "say",
        "ing"
      ],
      [
        "won",
        "der"
      ],
      [
        "dever",
        "ia"
      ],
      [
        "bus",
        "iness"
      ],
      [
        "do",
        "or"
      ],
      [
        "part",
        "ic"
      ],
      [
        "num",
        "ber"
      ],
      [
        "s",
        "es"
      ],
      [
        "pos",
        "sa"
      ],
      [
        "th",
        "inking"
      ],
      [
        "in",
        "ar"
      ],
      [
        "cri",
        "me"
      ],
      [
        "b",
        "ir"
      ],
      [
        "per",
        "fe"
      ],
      [
        "ant",
        "ar"
      ],
      [
        "on",
        "es"
      ],
      [
        "N",
        "a"
      ],
      [
        "entr",
        "ar"
      ],
      [
        "import",
        "ante"
      ],
      [
        "par",
        "ar"
      ],
      [
        "f",
        "all"
      ],
      [
        "r",
        "en"
      ],
      [
        "r",
        "an"
      ],
      [
        "me",
        "ans"
      ],
      [
        "ç",
        "ar"
      ],
      [
        "b",
        "all"
      ],
      [
        "your",
        "self"
      ],
      [
        "fi",
        "el"
      ],
      [
        "outr",
        "as"
      ],
      [
        "aque",
        "la"
      ],
      [
        "b",
        "ase"
      ],
      [
        "le",
        "ar"
      ],
      [
        "k",
        "er"
      ],
      [
        "pa",
        "is"
      ],
      [
        "de",
        "al"
      ],
      [
        "ir",
        "as"
      ],
      [
        "hus",
        "band"
      ],
      [
        "g",
        "ado"
      ],
      [
        "sab",
        "ia"
      ],
      [
        "tor",
        "y"
      ],
      [
        "f",
        "ur"
      ],
      [
        "possi",
        "ble"
      ],
      [
        "polí",
        "cia"
      ],
      [
        "A",
        "ll"
      ],
      [
        "h",
        "ind"
      ],
      [
        "ú",
        "s"
      ],
      [
        "ab",
        "r"
      ],
      [
        "ex",
        "ce"
      ],
      [
        "cor",
        "ação"
      ],
      [
        "ma",
        "in"
      ],
      [
        "stre",
        "et"
      ],
      [
        "j",
        "an"
      ],
      [
        "pro",
        "bab"
      ],
      [
        "at",
        "ro"
      ],
      [
        "be",
        "aut"
      ],
      [
        "be",
        "b"
      ],
      [
        "plan",
        "et"
      ],
      [
        "at",
        "en"
      ],
      [
        "qu",
        "ase"
      ],
      [
        "in",
        "form"
      ],
      [
        "na",
        "que"
      ],
      [
        "p",
        "ur"
      ],
      [
        "star",
        "ted"
      ],
      [
        "ant",
        "as"
      ],
      [
        "cam",
        "inho"
      ],
      [
        "f",
        "re"
      ],
      [
        "s",
        "ar"
      ],
      [
        "ir",
        "á"
      ],
      [
        "mos",
        "tr"
      ],
      [
        "esta",
        "do"
      ],
      [
        "i",
        "ar"
      ],
      [
        "estr",
        "an"
      ],
      [
        "y",
        "or"
      ],
      [
        "prof",
        "ess"
      ],
      [
        "tur",
        "a"
      ],
      [
        "U",
        "ma"
      ],
      [
        "re",
        "f"
      ],
      [
        "mes",
        "es"
      ],
      [
        "con",
        "tro"
      ],
      [
        "E",
        "les"
      ],
      [
        "wo",
        "od"
      ],
      [
        "c",
        "at"
      ],
      [
        "ga",
        "ve"
      ],
      [
        "d",
        "ge"
      ],
      [
        "ic",
        "ial"
      ],
      [
        "S",
        "im"
      ],
      [
        "t",
        "ico"
      ],
      [
        "chil",
        "d"
      ],
      [
        "us",
        "ar"
      ],
      [
        "pen",
        "sa"
      ],
      [
        "m",
        "id"
      ],
      [
        "gr",
        "u"
      ],
      [
        "cr",
        "it"
      ],
      [
        "st",
        "ate"
      ],
      [
        "br",
        "an"
      ],
      [
        "ent",
        "ar"
      ],
      [
        "ol",
        "hos"
      ],
      [
        "sm",
        "all"
      ],
      [
        "je",
        "ito"
      ],
      [
        "ne",
        "y"
      ],
      [
        "so",
        "on"
      ],
      [
        "proble",
        "ma"
      ],
      [
        "fic",
        "a"
      ],
      [
        "ho",
        "pe"
      ],
      [
        "ti",
        "ver"
      ],
      [
        "ch",
        "ange"
      ],
      [
        "month",
        "s"
      ],
      [
        "re",
        "i"
      ],
      [
        "is",
        "ter"
      ],
      [
        "mom",
        "ent"
      ],
      [
        "1",
        "5"
      ],
      [
        "d",
        "ent"
      ],
      [
        "des",
        "e"
      ],
      [
        "cor",
        "re"
      ],
      [
        "wor",
        "king"
      ],
      [
        "sus",
        "pe"
      ],
      [
        "es",
        "cre"
      ],
      [
        "em",
        "pre"
      ],
      [
        "for",
        "ça"
      ],
      [
        "su",
        "fic"
      ],
      [
        "ist",
        "s"
      ],
      [
        "escol",
        "a"
      ],
      [
        "mar",
        "ido"
      ],
      [
        "he",
        "ard"
      ],
      [
        "in",
        "f"
      ],
      [
        "vi",
        "u"
      ],
      [
        "probab",
        "ly"
      ],
      [
        "esti",
        "ver"
      ],
      [
        "b",
        "ul"
      ],
      [
        "de",
        "cis"
      ],
      [
        "ob",
        "je"
      ],
      [
        "ân",
        "cia"
      ],
      [
        "precis",
        "o"
      ],
      [
        "es",
        "ca"
      ],
      [
        "a",
        "í"
      ],
      [
        "yor",
        "k"
      ],
      [
        "ide",
        "a"
      ],
      [
        "to",
        "p"
      ],
      [
        "descobr",
        "ir"
      ],
      [
        "s",
        "le"
      ],
      [
        "da",
        "do"
      ],
      [
        "ate",
        "ver"
      ],
      [
        "pal",
        "av"
      ],
      [
        "un",
        "idade"
      ],
      [
        "ugh",
        "ter"
      ],
      [
        "pa",
        "in"
      ],
      [
        "stor",
        "y"
      ],
      [
        "a",
        "pr"
      ],
      [
        "g",
        "es"
      ],
      [
        "vel",
        "mente"
      ],
      [
        "gen",
        "eral"
      ],
      [
        "ti",
        "do"
      ],
      [
        "n",
        "ú"
      ],
      [
        "know",
        "n"
      ],
      [
        "f",
        "ive"
      ],
      [
        "al",
        "ong"
      ],
      [
        "him",
        "self"
      ],
      [
        "caus",
        "a"
      ],
      [
        "difí",
        "cil"
      ],
      [
        "j",
        "us"
      ],
      [
        "fi",
        "re"
      ],
      [
        "noss",
        "as"
      ],
      [
        "garo",
        "ta"
      ],
      [
        "as",
        "h"
      ],
      [
        "est",
        "er"
      ],
      [
        "e",
        "as"
      ],
      [
        "p",
        "ie"
      ],
      [
        "s",
        "y"
      ],
      [
        "nen",
        "hum"
      ],
      [
        "be",
        "l"
      ],
      [
        "min",
        "has"
      ],
      [
        "ito",
        "s"
      ],
      [
        "inc",
        "lu"
      ],
      [
        "en",
        "vol"
      ],
      [
        "ex",
        "p"
      ],
      [
        "sel",
        "ves"
      ],
      [
        "so",
        "b"
      ],
      [
        "be",
        "come"
      ],
      [
        "ca",
        "val"
      ],
      [
        "w",
        "he"
      ],
      [
        "s",
        "end"
      ],
      [
        "re",
        "turn"
      ],
      [
        "est",
        "es"
      ],
      [
        "j",
        "ul"
      ],
      [
        "baix",
        "o"
      ],
      [
        "get",
        "s"
      ],
      [
        "ith",
        "er"
      ],
      [
        "pl",
        "ac"
      ],
      [
        "lu",
        "z"
      ],
      [
        "any",
        "one"
      ],
      [
        "g",
        "ente"
      ],
      [
        "l",
        "en"
      ],
      [
        "ang",
        "er"
      ],
      [
        "we",
        "ar"
      ],
      [
        "wom",
        "en"
      ],
      [
        "li",
        "ving"
      ],
      [
        "ant",
        "s"
      ],
      [
        "ful",
        "l"
      ],
      [
        "gos",
        "taria"
      ],
      [
        "jun",
        "tos"
      ],
      [
        "s",
        "ter"
      ],
      [
        "t",
        "ty"
      ],
      [
        "tar",
        "de"
      ],
      [
        "be",
        "hind"
      ],
      [
        "pel",
        "os"
      ],
      [
        "mil",
        "itar"
      ],
      [
        "A",
        "t"
      ],
      [
        "el",
        "o"
      ],
      [
        "every",
        "one"
      ],
      [
        "mé",
        "d"
      ],
      [
        "kid",
        "s"
      ],
      [
        "H",
        "o"
      ],
      [
        "tal",
        "king"
      ],
      [
        "mane",
        "ira"
      ],
      [
        "p",
        "ped"
      ],
      [
        "p",
        "ick"
      ],
      [
        "li",
        "ves"
      ],
      [
        "ser",
        "v"
      ],
      [
        "some",
        "body"
      ],
      [
        "mulher",
        "es"
      ],
      [
        "fil",
        "ha"
      ],
      [
        "sign",
        "ifica"
      ],
      [
        "ven",
        "do"
      ],
      [
        "cor",
        "r"
      ],
      [
        "pos",
        "ed"
      ],
      [
        "que",
        "i"
      ],
      [
        "i",
        "ke"
      ],
      [
        "ic",
        "ar"
      ],
      [
        "nor",
        "mal"
      ],
      [
        "san",
        "gue"
      ],
      [
        "m",
        "ach"
      ],
      [
        "1",
        "2"
      ],
      [
        "wr",
        "ong"
      ],
      [
        "dre",
        "am"
      ],
      [
        "tir",
        "ar"
      ],
      [
        "oc",
        "e"
      ],
      [
        "re",
        "p"
      ],
      [
        "il",
        "ha"
      ],
      [
        "quis",
        "er"
      ],
      [
        "ta",
        "king"
      ],
      [
        "in",
        "ed"
      ],
      [
        "fol",
        "low"
      ],
      [
        "ey",
        "es"
      ],
      [
        "in",
        "forma"
      ],
      [
        "ys",
        "tem"
      ],
      [
        "as",
        "ked"
      ],
      [
        "c",
        "endo"
      ],
      [
        "al",
        "ready"
      ],
      [
        "últim",
        "a"
      ],
      [
        "des",
        "er"
      ],
      [
        "ut",
        "es"
      ],
      [
        "wh",
        "ite"
      ],
      [
        "com",
        "b"
      ],
      [
        "con",
        "ven"
      ],
      [
        "s",
        "um"
      ],
      [
        "quar",
        "to"
      ],
      [
        "pro",
        "ve"
      ],
      [
        "offic",
        "e"
      ],
      [
        "br",
        "ar"
      ],
      [
        "p",
        "ast"
      ],
      [
        "ta",
        "ken"
      ],
      [
        "ca",
        "paz"
      ],
      [
        "want",
        "s"
      ],
      [
        "começ",
        "ar"
      ],
      [
        "ent",
        "er"
      ],
      [
        "h",
        "u"
      ],
      [
        "gr",
        "ound"
      ],
      [
        "Por",
        "que"
      ],
      [
        "clar",
        "o"
      ],
      [
        "r",
        "ad"
      ],
      [
        "d",
        "esta"
      ],
      [
        "se",
        "cond"
      ],
      [
        "cu",
        "lo"
      ],
      [
        "tent",
        "ar"
      ],
      [
        "tru",
        "th"
      ],
      [
        "s",
        "ystem"
      ],
      [
        "ap",
        "ós"
      ],
      [
        "ros",
        "s"
      ],
      [
        "f",
        "é"
      ],
      [
        "sufic",
        "iente"
      ],
      [
        "y",
        "ing"
      ],
      [
        "or",
        "gan"
      ],
      [
        "pro",
        "je"
      ],
      [
        "den",
        "ce"
      ],
      [
        "hap",
        "py"
      ],
      [
        "i",
        "dos"
      ],
      [
        "pen",
        "sei"
      ],
      [
        "j",
        "ar"
      ],
      [
        "w",
        "ed"
      ],
      [
        "wh",
        "atever"
      ],
      [
        "los",
        "t"
      ],
      [
        "p",
        "é"
      ],
      [
        "te",
        "i"
      ],
      [
        "ac",
        "o"
      ],
      [
        "muito",
        "s"
      ],
      [
        "acor",
        "do"
      ],
      [
        "al",
        "low"
      ],
      [
        "fu",
        "i"
      ],
      [
        "y",
        "et"
      ],
      [
        "dis",
        "t"
      ],
      [
        "aconte",
        "ceu"
      ],
      [
        "coloc",
        "ar"
      ],
      [
        "an",
        "n"
      ],
      [
        "P",
        "ara"
      ],
      [
        "ur",
        "al"
      ],
      [
        "secre",
        "t"
      ],
      [
        "me",
        "t"
      ],
      [
        "pre",
        "ocu"
      ],
      [
        "P",
        "o"
      ],
      [
        "j",
        "ur"
      ],
      [
        "s",
        "os"
      ],
      [
        "ca",
        "do"
      ],
      [
        "bre",
        "ak"
      ],
      [
        "n",
        "al"
      ],
      [
        "sh",
        "all"
      ],
      [
        "ci",
        "os"
      ],
      [
        "jo",
        "vem"
      ],
      [
        "in",
        "side"
      ],
      [
        "te",
        "am"
      ],
      [
        "ac",
        "har"
      ],
      [
        "di",
        "do"
      ],
      [
        "to",
        "mar"
      ],
      [
        "p",
        "at"
      ],
      [
        "ton",
        "ight"
      ],
      [
        "hand",
        "s"
      ],
      [
        "tr",
        "os"
      ],
      [
        "ped",
        "ir"
      ],
      [
        "s",
        "iste"
      ],
      [
        "es",
        "so"
      ],
      [
        "cou",
        "ple"
      ],
      [
        "comp",
        "any"
      ],
      [
        "em",
        "bora"
      ],
      [
        "de",
        "te"
      ],
      [
        "ho",
        "l"
      ],
      [
        "1",
        "8"
      ],
      [
        "des",
        "te"
      ],
      [
        "ex",
        "act"
      ],
      [
        "j",
        "ack"
      ],
      [
        "att",
        "ack"
      ],
      [
        "O",
        "k"
      ],
      [
        "a",
        "de"
      ],
      [
        "im",
        "porta"
      ],
      [
        ",",
        "..."
      ],
      [
        "da",
        "que"
      ],
      [
        "e",
        "uro"
      ],
      [
        "f",
        "ed"
      ],
      [
        "in",
        "di"
      ],
      [
        "d",
        "ig"
      ],
      [
        "proble",
        "mas"
      ],
      [
        "d",
        "ando"
      ],
      [
        "p",
        "un"
      ],
      [
        "si",
        "x"
      ],
      [
        "r",
        "ac"
      ],
      [
        "stu",
        "ff"
      ],
      [
        "í",
        "cio"
      ],
      [
        "ar",
        "ch"
      ],
      [
        "is",
        "s"
      ],
      [
        "N",
        "ós"
      ],
      [
        "to",
        "tal"
      ],
      [
        "sim",
        "ples"
      ],
      [
        "Be",
        "cause"
      ],
      [
        "al",
        "ém"
      ],
      [
        "it",
        "i"
      ],
      [
        "cl",
        "ass"
      ],
      [
        "ún",
        "ico"
      ],
      [
        "h",
        "an"
      ],
      [
        "vi",
        "das"
      ],
      [
        "mat",
        "ar"
      ],
      [
        "nú",
        "mer"
      ],
      [
        "ic",
        "s"
      ],
      [
        "a",
        "po"
      ],
      [
        "or",
        "ig"
      ],
      [
        "raz",
        "ão"
      ],
      [
        "p",
        "ir"
      ],
      [
        "me",
        "di"
      ],
      [
        "es",
        "pa"
      ],
      [
        "da",
        "ughter"
      ],
      [
        "bo",
        "t"
      ],
      [
        "ma",
        "kes"
      ],
      [
        "E",
        "sta"
      ],
      [
        "me",
        "do"
      ],
      [
        "u",
        "e"
      ],
      [
        "br",
        "ig"
      ],
      [
        "pa",
        "per"
      ],
      [
        "wor",
        "d"
      ],
      [
        "gi",
        "ven"
      ],
      [
        "che",
        "d"
      ],
      [
        "ent",
        "ire"
      ],
      [
        "govern",
        "ment"
      ],
      [
        "th",
        "y"
      ],
      [
        "col",
        "le"
      ],
      [
        "he",
        "i"
      ],
      [
        "neg",
        "ó"
      ],
      [
        "is",
        "n"
      ],
      [
        "fil",
        "hos"
      ],
      [
        "wr",
        "it"
      ],
      [
        "est",
        "re"
      ],
      [
        "ho",
        "tel"
      ],
      [
        "leg",
        "al"
      ],
      [
        "mor",
        "row"
      ],
      [
        "po",
        "dia"
      ],
      [
        "ro",
        "b"
      ],
      [
        "bab",
        "y"
      ],
      [
        "ir",
        "mão"
      ],
      [
        "l",
        "isten"
      ],
      [
        "gover",
        "no"
      ],
      [
        "con",
        "tar"
      ],
      [
        "sa",
        "i"
      ],
      [
        "mil",
        "lion"
      ],
      [
        "I",
        "s"
      ],
      [
        "v",
        "ent"
      ],
      [
        "in",
        "ten"
      ],
      [
        "des",
        "tro"
      ],
      [
        "it",
        "ies"
      ],
      [
        "do",
        "ctor"
      ],
      [
        "so",
        "z"
      ],
      [
        "di",
        "ed"
      ],
      [
        "1",
        "00"
      ],
      [
        "po",
        "vo"
      ],
      [
        "c",
        "ima"
      ],
      [
        "if",
        "ul"
      ],
      [
        "w",
        "s"
      ],
      [
        "passa",
        "do"
      ],
      [
        "ne",
        "ar"
      ],
      [
        "re",
        "u"
      ],
      [
        "pesso",
        "al"
      ],
      [
        "ph",
        "one"
      ],
      [
        "g",
        "ol"
      ],
      [
        "m",
        "ús"
      ],
      [
        "minu",
        "tos"
      ],
      [
        "qu",
        "es"
      ],
      [
        "to",
        "morrow"
      ],
      [
        "at",
        "amente"
      ],
      [
        "man",
        "ter"
      ],
      [
        "Est",
        "ou"
      ],
      [
        "trabal",
        "har"
      ],
      [
        "r",
        "ar"
      ],
      [
        "tr",
        "at"
      ],
      [
        "f",
        "ing"
      ],
      [
        "h",
        "ing"
      ],
      [
        "ú",
        "bl"
      ],
      [
        "cos",
        "t"
      ],
      [
        "se",
        "ll"
      ],
      [
        "mu",
        "itas"
      ],
      [
        "cas",
        "amento"
      ],
      [
        "s",
        "am"
      ],
      [
        "est",
        "as"
      ],
      [
        "Y",
        "eah"
      ],
      [
        "s",
        "po"
      ],
      [
        "min",
        "utes"
      ],
      [
        "americ",
        "an"
      ],
      [
        "n",
        "esta"
      ],
      [
        "w",
        "ish"
      ],
      [
        "or",
        "e"
      ],
      [
        "ins",
        "te"
      ],
      [
        "ida",
        "des"
      ],
      [
        "pre",
        "tty"
      ],
      [
        "fa",
        "ir"
      ],
      [
        "p",
        "ido"
      ],
      [
        "cr",
        "imin"
      ],
      [
        "mil",
        "hões"
      ],
      [
        "ex",
        "pe"
      ],
      [
        "c",
        "ts"
      ],
      [
        "lo",
        "go"
      ],
      [
        "ab",
        "or"
      ],
      [
        "r",
        "ol"
      ],
      [
        "gen",
        "er"
      ],
      [
        "vel",
        "ho"
      ],
      [
        "l",
        "ut"
      ],
      [
        "s",
        "as"
      ],
      [
        "ac",
        "us"
      ],
      [
        "atra",
        "vés"
      ],
      [
        "br",
        "it"
      ],
      [
        "i",
        "ed"
      ],
      [
        "pens",
        "ando"
      ],
      [
        "m",
        "ac"
      ],
      [
        "al",
        "one"
      ],
      [
        "aman",
        "hã"
      ],
      [
        "k",
        "a"
      ],
      [
        "pon",
        "to"
      ],
      [
        "ti",
        "vo"
      ],
      [
        "le",
        "ast"
      ],
      [
        "d",
[...]
